<pad>	0
<s>	0
</s>	0
<unk>	0
en	-0
er	-1
ch	-2
▁d	-3
in	-4
ie	-5
▁s	-6
▁,	-7
▁w	-8
un	-9
▁a	-10
▁.	-11
ich	-12
▁e	-13
▁m	-14
st	-15
▁un	-16
as	-17
▁g	-18
▁die	-19
an	-20
ei	-21
▁ein	-22
▁b	-23
▁v	-24
te	-25
▁i	-26
▁h	-27
▁und	-28
▁n	-29
▁k	-30
▁z	-31
▁das	-32
es	-33
on	-34
ir	-35
▁f	-36
le	-37
ar	-38
ten	-39
sch	-40
▁zu	-41
▁in	-42
▁wir	-43
▁sie	-44
gen	-45
el	-46
▁au	-47
hr	-48
▁der	-49
or	-50
▁ich	-51
ti	-52
der	-53
em	-54
▁ist	-55
au	-56
▁es	-57
ein	-58
al	-59
it	-60
▁al	-61
▁p	-62
lich	-63
den	-64
ge	-65
▁er	-66
ach	-67
ben	-68
▁an	-69
▁ha	-70
ber	-71
ter	-72
de	-73
icht	-74
▁ver	-75
ier	-76
ur	-77
▁t	-78
▁dies	-79
▁ge	-80
▁l	-81
ol	-82
▁r	-83
▁j	-84
ung	-85
▁be	-86
▁den	-87
▁sch	-88
um	-89
ür	-90
▁nicht	-91
mm	-92
nen	-93
▁"	-94
ro	-95
▁auf	-96
sen	-97
▁eine	-98
▁von	-99
▁dass	-100
▁als	-101
eit	-102
▁o	-103
is	-104
▁mit	-105
tz	-106
▁wie	-107
ck	-108
ann	-109
eh	-110
len	-111
ra	-112
▁uns	-113
ind	-114
▁so	-115
il	-116
▁war	-117
ig	-118
▁da	-119
ent	-120
▁sich	-121
re	-122
▁wen	-123
▁le	-124
▁st	-125
▁man	-126
über	-127
▁aus	-128
▁was	-129
▁:	-130
at	-131
us	-132
schen	-133
▁sind	-134
▁um	-135
ahr	-136
▁aber	-137
▁für	-138
and	-139
ön	-140
tion	-141
be	-142
▁haben	-143
▁?	-144
▁wenn	-145
ft	-146
iel	-147
▁hat	-148
ag	-149
ehr	-150
▁über	-151
am	-152
▁wer	-153
▁ges	-154
▁ihr	-155
▁kön	-156
▁mein	-157
än	-158
▁diese	-159
ff	-160
▁vor	-161
▁im	-162
se	-163
och	-164
▁wei	-165
eu	-166
▁sp	-167
▁re	-168
ehen	-169
sten	-170
▁dem	-171
om	-172
▁ar	-173
ik	-174
▁je	-175
▁pro	-176
tw	-177
▁des	-178
kt	-179
ern	-180
▁sein	-181
▁also	-182
▁men	-183
▁bei	-184
chen	-185
▁einen	-186
▁-	-187
▁nach	-188
oll	-189
bt	-190
▁ih	-191
mmen	-192
▁unser	-193
rei	-194
▁können	-195
▁hier	-196
▁ent	-197
▁oder	-198
elt	-199
wei	-200
isch	-201
sp	-202
▁werden	-203
▁jahr	-204
ut	-205
ah	-206
ungen	-207
▁geh	-208
men	-209
▁ander	-210
ien	-211
▁gr	-212
ieren	-213
ste	-214
ne	-215
zu	-216
igen	-217
▁mach	-218
▁kann	-219
tig	-220
▁auch	-221
ell	-222
ken	-223
ation	-224
▁einer	-225
rau	-226
▁her	-227
▁1	-228
▁dar	-229
▁einem	-230
iert	-231
scha	-232
▁nur	-233
▁ko	-234
▁dann	-235
anz	-236
gt	-237
▁sehr	-238
▁etw	-239
ück	-240
aus	-241
▁viel	-242
▁wird	-243
li	-244
ort	-245
▁unter	-246
▁all	-247
uch	-248
00	-249
tel	-250
▁c	-251
▁gi	-252
os	-253
▁gen	-254
▁menschen	-255
ess	-256
▁kon	-257
ör	-258
▁mich	-259
▁kein	-260
fen	-261
▁ihnen	-262
▁gibt	-263
ute	-264
urch	-265
äch	-266
▁–	-267
issen	-268
▁wur	-269
äh	-270
▁leben	-271
▁gesch	-272
▁ab	-273
tzt	-274
lau	-275
▁--	-276
▁te	-277
▁noch	-278
hal	-279
▁sehen	-280
▁alle	-281
ab	-282
▁am	-283
▁dieser	-284
▁etwas	-285
ing	-286
og	-287
ischen	-288
und	-289
▁durch	-290
ät	-291
schaft	-292
dern	-293
▁mö	-294
ang	-295
▁gro	-296
▁habe	-297
▁mehr	-298
▁vie	-299
▁mir	-300
bei	-301
▁wissen	-302
▁welt	-303
agen	-304
mal	-305
▁zur	-306
ver	-307
▁wo	-308
ul	-309
mmer	-310
ot	-311
▁sag	-312
ri	-313
▁mus	-314
heit	-315
ke	-316
ün	-317
▁groß	-318
üh	-319
eil	-320
ige	-321
keit	-322
lichen	-323
ko	-324
är	-325
▁wirk	-326
▁einf	-327
▁we	-328
▁zum	-329
ffen	-330
all	-331
▁ganz	-332
we	-333
▁2	-334
▁zwei	-335
▁bes	-336
liche	-337
▁ihre	-338
▁en	-339
sa	-340
tr	-341
▁meine	-342
▁wür	-343
mit	-344
üs	-345
▁weil	-346
▁hin	-347
▁br	-348
ellen	-349
▁wirklich	-350
tiv	-351
▁zeit	-352
▁wurde	-353
tet	-354
tzen	-355
hen	-356
▁dieses	-357
ass	-358
ere	-359
▁machen	-360
ähr	-361
▁inter	-362
▁neu	-363
▁einfach	-364
▁sel	-365
me	-366
assen	-367
▁nun	-368
eln	-369
pp	-370
for	-371
▁immer	-372
her	-373
äl	-374
ische	-375
▁lie	-376
▁gew	-377
ick	-378
▁me	-379
▁verb	-380
cht	-381
ru	-382
▁ch	-383
▁pa	-384
ht	-385
▁unsere	-386
ungs	-387
▁tun	-388
bst	-389
▁fra	-390
▁din	-391
per	-392
acht	-393
end	-394
ühr	-395
▁kle	-396
wer	-397
▁jetzt	-398
he	-399
ob	-400
▁bis	-401
chte	-402
ges	-403
bar	-404
▁se	-405
ad	-406
mmt	-407
▁beg	-408
pf	-409
▁bil	-410
▁ne	-411
nte	-412
▁gem	-413
lie	-414
▁gef	-415
▁vers	-416
▁hatte	-417
▁viele	-418
ze	-419
▁keine	-420
ner	-421
ran	-422
glich	-423
▁müs	-424
rie	-425
▁klein	-426
inden	-427
ktion	-428
▁denn	-429
ehmen	-430
▁eigen	-431
che	-432
▁du	-433
leich	-434
▁selbst	-435
▁leute	-436
eiten	-437
▁tat	-438
schie	-439
tier	-440
▁ber	-441
ster	-442
▁ob	-443
▁soll	-444
▁ger	-445
onen	-446
ichtig	-447
stell	-448
ingen	-449
▁geb	-450
▁diesem	-451
di	-452
▁gel	-453
äu	-454
▁sagen	-455
▁eines	-456
▁waren	-457
▁müssen	-458
omp	-459
dem	-460
▁dinge	-461
▁diesen	-462
la	-463
olog	-464
▁dan	-465
ble	-466
▁wieder	-467
ßen	-468
▁sagte	-469
▁alles	-470
chn	-471
▁mil	-472
▁weiter	-473
▁heu	-474
▁glau	-475
ger	-476
unden	-477
▁jahren	-478
▁andere	-479
▁erf	-480
▁son	-481
gend	-482
▁bin	-483
ma	-484
zen	-485
▁zei	-486
ler	-487
▁nie	-488
kommen	-489
▁art	-490
▁nat	-491
▁kin	-492
▁kl	-493
ollen	-494
▁bl	-495
▁damit	-496
du	-497
▁würde	-498
ser	-499
qu	-500
▁anderen	-501
fl	-502
▁mal	-503
leicht	-504
geb	-505
zi	-506
▁wel	-507
▁ste	-508
▁zusa	-509
▁stel	-510
auf	-511
▁per	-512
▁entw	-513
▁heraus	-514
▁proble	-515
▁vielleicht	-516
det	-517
▁zusammen	-518
▁ex	-519
ichte	-520
angen	-521
nis	-522
▁verst	-523
tisch	-524
▁ja	-525
▁schw	-526
▁gl	-527
ist	-528
änder	-529
▁gut	-530
▁tats	-531
op	-532
inn	-533
▁zw	-534
gef	-535
auen	-536
ität	-537
ekt	-538
▁wahr	-539
▁or	-540
▁fl	-541
▁geht	-542
hn	-543
des	-544
▁best	-545
yst	-546
under	-547
rä	-548
▁jahre	-549
▁dav	-550
tern	-551
▁gleich	-552
▁zurück	-553
ache	-554
▁milli	-555
▁for	-556
iger	-557
lt	-558
▁erz	-559
ystem	-560
beit	-561
spiel	-562
fe	-563
▁teil	-564
▁entwick	-565
▁frau	-566
▁kam	-567
▁muss	-568
▁heute	-569
ug	-570
ale	-571
▁schon	-572
nten	-573
ion	-574
▁arbei	-575
off	-576
ächlich	-577
▁techn	-578
ill	-579
uten	-580
halten	-581
▁warum	-582
▁dr	-583
▁drei	-584
öß	-585
pt	-586
br	-587
▁letz	-588
▁genau	-589
▁reg	-590
▁ide	-591
▁pl	-592
▁gegen	-593
▁möchte	-594
▁kinder	-595
äre	-596
▁mo	-597
▁pass	-598
▁einige	-599
▁ö	-600
▁dort	-601
▁sei	-602
▁ir	-603
▁einz	-604
sam	-605
zent	-606
▁3	-607
▁de	-608
ast	-609
stellen	-610
hl	-611
cken	-612
▁tatsächlich	-613
tes	-614
art	-615
▁macht	-616
ationen	-617
▁brau	-618
▁ben	-619
▁davon	-620
▁oh	-621
age	-622
ok	-623
elle	-624
tigen	-625
▁land	-626
▁verw	-627
tik	-628
▁bede	-629
vor	-630
aten	-631
▁hand	-632
▁möglich	-633
rechen	-634
▁denken	-635
▁tag	-636
▁jem	-637
uchen	-638
halb	-639
▁besch	-640
▁wichtig	-641
▁zie	-642
▁paar	-643
ak	-644
▁fr	-645
▁hei	-646
▁mensch	-647
▁spr	-648
▁hatten	-649
▁weg	-650
tt	-651
000	-652
▁mei	-653
▁geschichte	-654
▁bild	-655
▁natür	-656
▁größ	-657
alen	-658
achte	-659
ahl	-660
form	-661
▁grund	-662
▁könnte	-663
▁arbeit	-664
olle	-665
esen	-666
weise	-667
mlich	-668
ine	-669
iz	-670
ichten	-671
achen	-672
▁ma	-673
aut	-674
▁;	-675
anden	-676
dien	-677
▁ihn	-678
esser	-679
pro	-680
tige	-681
ologie	-682
mer	-683
▁stu	-684
▁gehen	-685
gel	-686
▁fre	-687
▁darüber	-688
ennen	-689
ändern	-690
▁fun	-691
▁wollen	-692
▁verl	-693
aum	-694
▁woll	-695
ade	-696
ant	-697
▁schn	-698
att	-699
▁beispiel	-700
kte	-701
uss	-702
nt	-703
▁'	-704
▁meiner	-705
ap	-706
kl	-707
▁pers	-708
▁weiß	-709
▁lei	-710
▁wurden	-711
▁werde	-712
wo	-713
tlich	-714
▁sicher	-715
gr	-716
oren	-717
gar	-718
▁seine	-719
▁aut	-720
reich	-721
net	-722
äd	-723
▁jeder	-724
iv	-725
ierte	-726
vers	-727
▁ihren	-728
▁vielen	-729
irn	-730
zeu	-731
unde	-732
est	-733
igkeit	-734
für	-735
▁problem	-736
▁funktion	-737
▁lassen	-738
▁sti	-739
ha	-740
▁komp	-741
fr	-742
hin	-743
▁ph	-744
▁währ	-745
▁führ	-746
▁lang	-747
▁tra	-748
teil	-749
schieden	-750
schein	-751
▁sondern	-752
▁gab	-753
amen	-754
utzen	-755
▁dazu	-756
▁irgend	-757
▁natürlich	-758
▁sta	-759
▁erzäh	-760
▁erst	-761
▁interess	-762
▁doch	-763
▁will	-764
▁5	-765
▁während	-766
▁sol	-767
▁neue	-768
▁wor	-769
▁hal	-770
▁unserer	-771
▁wäre	-772
▁kommen	-773
▁wasser	-774
▁mar	-775
▁bewe	-776
ander	-777
▁sogar	-778
▁schl	-779
▁vom	-780
▁ersten	-781
fer	-782
itt	-783
änd	-784
ktiv	-785
▁mon	-786
▁frage	-787
▁versuch	-788
▁hät	-789
▁denke	-790
▁zwischen	-791
▁einmal	-792
tra	-793
▁finden	-794
▁19	-795
▁gemein	-796
achten	-797
▁lebens	-798
▁gerade	-799
▁nichts	-800
zie	-801
ühl	-802
▁näch	-803
▁glaube	-804
▁geben	-805
im	-806
▁gemacht	-807
gie	-808
nehmen	-809
los	-810
▁ohne	-811
▁nor	-812
▁ihrer	-813
▁kur	-814
▁denen	-815
alt	-816
▁dafür	-817
▁anf	-818
▁kommt	-819
▁wissenschaft	-820
gehen	-821
▁20	-822
▁schu	-823
geben	-824
▁pol	-825
▁lö	-826
▁besser	-827
▁letzten	-828
▁würden	-829
▁scha	-830
▁erw	-831
keiten	-832
od	-833
▁frauen	-834
gew	-835
▁ins	-836
ßer	-837
ften	-838
ativ	-839
▁kre	-840
▁qu	-841
ss	-842
▁zeigen	-843
gan	-844
erik	-845
▁4	-846
▁gehirn	-847
öl	-848
dr	-849
ce	-850
▁betr	-851
▁sieht	-852
bl	-853
▁hau	-854
licht	-855
▁verschieden	-856
ören	-857
▁verstehen	-858
▁prozent	-859
▁passiert	-860
hem	-861
uter	-862
schei	-863
▁uni	-864
▁meisten	-865
▁ok	-866
▁fol	-867
cher	-868
▁spiel	-869
ys	-870
▁rei	-871
ierung	-872
▁daten	-873
▁erste	-874
▁produ	-875
chten	-876
▁konnte	-877
▁bi	-878
▁min	-879
▁stellen	-880
▁sa	-881
▁ganze	-882
gung	-883
tschaft	-884
▁etwa	-885
▁daran	-886
▁vier	-887
▁millionen	-888
th	-889
▁sollte	-890
schl	-891
▁bew	-892
ört	-893
▁dank	-894
▁nehmen	-895
▁arbeiten	-896
unkt	-897
ahren	-898
ünf	-899
▁fragen	-900
str	-901
▁ung	-902
▁große	-903
frik	-904
imm	-905
gra	-906
▁dabei	-907
▁ele	-908
bs	-909
▁sollten	-910
▁inform	-911
▁10	-912
rank	-913
örper	-914
zin	-915
enden	-916
▁schnell	-917
lung	-918
▁idee	-919
▁könnten	-920
▁jemand	-921
ckt	-922
▁fall	-923
yp	-924
mus	-925
utz	-926
gesch	-927
mme	-928
▁bef	-929
ange	-930
innen	-931
ult	-932
▁sprechen	-933
▁ziemlich	-934
erst	-935
▁star	-936
▁meinen	-937
▁wollte	-938
▁glück	-939
aufen	-940
▁us	-941
stellt	-942
▁veränder	-943
äng	-944
▁geld	-945
ogen	-946
.000	-947
ker	-948
▁fin	-949
▁system	-950
ergie	-951
▁stra	-952
▁darauf	-953
▁bek	-954
agt	-955
ßt	-956
▁spie	-957
▁univers	-958
▁ti	-959
▁gute	-960
licher	-961
chs	-962
▁plan	-963
ppe	-964
schied	-965
▁raum	-966
▁ged	-967
▁bekommen	-968
▁comp	-969
legen	-970
▁hoch	-971
▁verg	-972
▁meinem	-973
tieren	-974
ign	-975
▁lin	-976
▁beh	-977
ollar	-978
▁di	-979
ül	-980
▁sagt	-981
▁seit	-982
ären	-983
ingt	-984
▁bedeute	-985
▁ende	-986
▁ging	-987
ay	-988
ts	-989
mö	-990
▁welche	-991
▁gest	-992
ide	-993
▁co	-994
▁hel	-995
▁eigentlich	-996
▁dir	-997
▁nah	-998
ernen	-999
▁außer	-1000
ust	-1001
ate	-1002
no	-1003
eht	-1004
▁bereit	-1005
▁hö	-1006
▁bo	-1007
▁verf	-1008
mals	-1009
▁fal	-1010
id	-1011
kun	-1012
▁glauben	-1013
enz	-1014
▁amerik	-1015
jekt	-1016
▁körper	-1017
gte	-1018
spr	-1019
ktur	-1020
▁em	-1021
twort	-1022
utter	-1023
ite	-1024
▁mann	-1025
▁sah	-1026
sehen	-1027
▁verk	-1028
▁sit	-1029
▁kind	-1030
▁buch	-1031
onder	-1032
▁mom	-1033
▁weniger	-1034
▁danke	-1035
▁kleinen	-1036
amil	-1037
stand	-1038
scheinlich	-1039
laub	-1040
▁spe	-1041
fte	-1042
reiben	-1043
itte	-1044
ution	-1045
▁organ	-1046
äter	-1047
▁dollar	-1048
zei	-1049
▁jeden	-1050
▁y	-1051
▁lernen	-1052
sicht	-1053
▁entschei	-1054
▁technologie	-1055
▁ro	-1056
▁computer	-1057
pr	-1058
nah	-1059
▁män	-1060
▁recht	-1061
▁wunder	-1062
▁bedeutet	-1063
▁sache	-1064
asch	-1065
tische	-1066
▁afrik	-1067
▁schön	-1068
▁ho	-1069
kunft	-1070
nung	-1071
ischer	-1072
▁namen	-1073
ater	-1074
▁unseren	-1075
▁ihm	-1076
▁poli	-1077
▁ang	-1078
arbei	-1079
adt	-1080
▁kleine	-1081
▁famil	-1082
annt	-1083
▁eben	-1084
sst	-1085
▁jedes	-1086
▁bringen	-1087
▁dachte	-1088
▁großen	-1089
▁tei	-1090
ffent	-1091
▁sozi	-1092
▁energie	-1093
▁gesehen	-1094
fall	-1095
▁get	-1096
▁..	-1097
▁fil	-1098
▁frei	-1099
▁komple	-1100
▁fünf	-1101
▁ganzen	-1102
▁wahrscheinlich	-1103
usst	-1104
▁ihrem	-1105
▁offen	-1106
▁schle	-1107
are	-1108
▁brauchen	-1109
ga	-1110
▁person	-1111
▁fest	-1112
▁weise	-1113
▁versuchen	-1114
pl	-1115
▁seite	-1116
▁kar	-1117
ruck	-1118
orgen	-1119
▁voll	-1120
▁erken	-1121
raft	-1122
▁versch	-1123
▁hinter	-1124
hema	-1125
▁lehr	-1126
▁unterschied	-1127
▁ur	-1128
ppen	-1129
▁besonder	-1130
▁par	-1131
▁wenig	-1132
ald	-1133
▁...	-1134
▁nein	-1135
▁beim	-1136
ic	-1137
▁anders	-1138
ies	-1139
▁gar	-1140
ffe	-1141
dig	-1142
ph	-1143
achsen	-1144
unter	-1145
▁später	-1146
tischen	-1147
dung	-1148
immt	-1149
▁nutzen	-1150
▁200	-1151
▁gru	-1152
▁su	-1153
ard	-1154
alis	-1155
▁wirtschaft	-1156
ätz	-1157
lig	-1158
ert	-1159
▁moment	-1160
tete	-1161
▁fast	-1162
▁irgendw	-1163
▁hil	-1164
▁tre	-1165
▁menge	-1166
▁keinen	-1167
land	-1168
▁6	-1169
essen	-1170
▁hätte	-1171
▁indem	-1172
▁gesund	-1173
▁unglaub	-1174
bil	-1175
▁hoff	-1176
▁form	-1177
eren	-1178
lick	-1179
▁ange	-1180
▁woch	-1181
▁ern	-1182
vol	-1183
▁zukunft	-1184
▁früh	-1185
▁gern	-1186
schaften	-1187
kten	-1188
▁ort	-1189
ia	-1190
▁gesagt	-1191
wir	-1192
ierten	-1193
mittel	-1194
so	-1195
▁mag	-1196
▁to	-1197
▁tro	-1198
stellung	-1199
ernt	-1200
ultur	-1201
leben	-1202
fft	-1203
▁tau	-1204
▁entde	-1205
▁essen	-1206
▁musik	-1207
wohl	-1208
▁bed	-1209
▁augen	-1210
kon	-1211
▁gesell	-1212
▁pr	-1213
▁oft	-1214
▁jede	-1215
▁ster	-1216
▁schwer	-1217
▁richtig	-1218
▁gra	-1219
▁kurz	-1220
zeit	-1221
ommen	-1222
denken	-1223
je	-1224
▁natur	-1225
▁fot	-1226
▁grün	-1227
▁po	-1228
ließ	-1229
olg	-1230
▁licht	-1231
▁ü	-1232
▁chin	-1233
▁heißt	-1234
▁funktioniert	-1235
▁sy	-1236
▁bet	-1237
▁schaffen	-1238
▁konnten	-1239
▁el	-1240
umen	-1241
▁bere	-1242
▁eigenen	-1243
eist	-1244
sel	-1245
iss	-1246
▁aller	-1247
alität	-1248
▁krie	-1249
ief	-1250
asse	-1251
▁bau	-1252
▁rich	-1253
ord	-1254
gang	-1255
führ	-1256
tiert	-1257
ruktur	-1258
▁plane	-1259
▁stadt	-1260
▁fäh	-1261
ält	-1262
▁mutter	-1263
ogra	-1264
▁8	-1265
▁u	-1266
▁eng	-1267
zeich	-1268
▁milliar	-1269
eich	-1270
▁füh	-1271
gefähr	-1272
reichen	-1273
▁organis	-1274
▁schwier	-1275
▁erkl	-1276
▁vert	-1277
zt	-1278
eine	-1279
▁verm	-1280
reis	-1281
schn	-1282
mp	-1283
▁schauen	-1284
welt	-1285
▁vide	-1286
▁erde	-1287
▁the	-1288
▁wohl	-1289
▁at	-1290
▁lu	-1291
▁allen	-1292
▁bevor	-1293
▁erzählen	-1294
bo	-1295
ße	-1296
▁seiner	-1297
▁komm	-1298
satz	-1299
▁ungefähr	-1300
ial	-1301
▁haus	-1302
▁eur	-1303
▁klar	-1304
▁probleme	-1305
ome	-1306
▁inner	-1307
fel	-1308
▁helfen	-1309
▁spielen	-1310
lichkeit	-1311
ähn	-1312
volution	-1313
▁pla	-1314
▁kor	-1315
stoff	-1316
▁herum	-1317
▁rob	-1318
▁internet	-1319
▁gesundheit	-1320
hau	-1321
▁weit	-1322
▁liebe	-1323
atur	-1324
▁kennen	-1325
ks	-1326
▁exper	-1327
▁lange	-1328
▁nächsten	-1329
▁9	-1330
▁neuen	-1331
ahlen	-1332
▁sü	-1333
▁erh	-1334
▁medi	-1335
▁elekt	-1336
▁7	-1337
▁mater	-1338
isten	-1339
▁genug	-1340
▁zeigt	-1341
▁erfolg	-1342
▁begann	-1343
fäl	-1344
▁manch	-1345
▁unserem	-1346
▁ru	-1347
ünst	-1348
▁verbr	-1349
▁kultur	-1350
alten	-1351
nisse	-1352
▁darum	-1353
▁bem	-1354
cke	-1355
ahrung	-1356
▁50	-1357
ott	-1358
▁30	-1359
unst	-1360
system	-1361
itten	-1362
▁15	-1363
▁str	-1364
liches	-1365
lo	-1366
▁blei	-1367
ta	-1368
ucht	-1369
▁überall	-1370
▁manchmal	-1371
zess	-1372
▁flie	-1373
▁bauen	-1374
▁prä	-1375
▁wus	-1376
▁he	-1377
▁bisschen	-1378
▁kunst	-1379
▁ted	-1380
▁100	-1381
zeug	-1382
heiten	-1383
sy	-1384
▁ideen	-1385
▁euch	-1386
▁krank	-1387
▁pri	-1388
▁usa	-1389
▁okay	-1390
▁tr	-1391
▁bür	-1392
▁feh	-1393
ition	-1394
▁fort	-1395
▁einzel	-1396
▁pu	-1397
▁liegt	-1398
▁new	-1399
▁tran	-1400
▁verhalten	-1401
▁unternehmen	-1402
▁amerikan	-1403
spie	-1404
richt	-1405
hunder	-1406
▁dich	-1407
▁reden	-1408
▁wert	-1409
▁niem	-1410
lte	-1411
▁na	-1412
asst	-1413
enten	-1414
▁statt	-1415
▁großar	-1416
▁design	-1417
gramm	-1418
▁gesam	-1419
▁glob	-1420
▁deshalb	-1421
▁informationen	-1422
finden	-1423
ieht	-1424
▁stand	-1425
sche	-1426
▁nennen	-1427
▁planeten	-1428
▁verändern	-1429
▁arten	-1430
▁seinen	-1431
▁bel	-1432
▁gesellschaft	-1433
our	-1434
raum	-1435
▁gehört	-1436
▁leuten	-1437
▁anst	-1438
▁mod	-1439
möglich	-1440
▁stehen	-1441
▁schule	-1442
▁gener	-1443
io	-1444
ücken	-1445
▁ähn	-1446
▁forsch	-1447
▁normal	-1448
äche	-1449
ädchen	-1450
▁abs	-1451
▁sinn	-1452
▁behand	-1453
▁projekt	-1454
utzt	-1455
▁sagten	-1456
▁bewusst	-1457
ionen	-1458
forder	-1459
hol	-1460
▁hören	-1461
▁afrika	-1462
kel	-1463
▁sechs	-1464
▁kopf	-1465
▁pati	-1466
▁anderes	-1467
▁milliarden	-1468
▁ober	-1469
▁kontr	-1470
▁schein	-1471
▁antwort	-1472
▁oben	-1473
ände	-1474
▁los	-1475
▁gebäu	-1476
▁punkt	-1477
▁besonders	-1478
▁film	-1479
ven	-1480
ütz	-1481
▁schul	-1482
glichen	-1483
▁verein	-1484
▁erinn	-1485
ennt	-1486
▁far	-1487
▁ca	-1488
gem	-1489
▁stud	-1490
▁universum	-1491
▁geschichten	-1492
▁vorher	-1493
▁interessan	-1494
▁mat	-1495
▁aktiv	-1496
▁männer	-1497
▁fa	-1498
▁musste	-1499
▁bereits	-1500
zahl	-1501
dlich	-1502
▁mädchen	-1503
▁netz	-1504
▁jahrhunder	-1505
▁robo	-1506
▁halten	-1507
▁entwickelt	-1508
bringen	-1509
etz	-1510
druck	-1511
setzen	-1512
▁darin	-1513
twor	-1514
▁ausge	-1515
▁erreichen	-1516
tigt	-1517
▁lös	-1518
▁benutzen	-1519
▁verschiedene	-1520
▁auto	-1521
▁hätten	-1522
ührt	-1523
igkeiten	-1524
▁li	-1525
▁is	-1526
tten	-1527
ös	-1528
zieh	-1529
▁schr	-1530
▁steht	-1531
▁öffent	-1532
zus	-1533
allen	-1534
▁niemand	-1535
rom	-1536
einander	-1537
▁namens	-1538
fin	-1539
▁gerne	-1540
ris	-1541
▁kn	-1542
▁machte	-1543
▁seinem	-1544
▁indien	-1545
▁schü	-1546
▁minuten	-1547
▁erkennen	-1548
min	-1549
öhn	-1550
kommt	-1551
▁beob	-1552
grund	-1553
▁flug	-1554
▁teilen	-1555
▁typ	-1556
▁veran	-1557
▁video	-1558
itz	-1559
▁bestimm	-1560
voll	-1561
▁arm	-1562
▁bas	-1563
▁res	-1564
anken	-1565
▁ak	-1566
tter	-1567
isches	-1568
inner	-1569
änger	-1570
▁mu	-1571
▁phys	-1572
gs	-1573
▁anzu	-1574
▁rel	-1575
▁inst	-1576
▁geschä	-1577
▁mittel	-1578
akter	-1579
ip	-1580
lei	-1581
blik	-1582
indung	-1583
zieren	-1584
▁freund	-1585
▁gefühl	-1586
▁folgen	-1587
▁sk	-1588
▁innerhalb	-1589
stra	-1590
▁stück	-1591
ium	-1592
iges	-1593
▁entf	-1594
▁familie	-1595
rat	-1596
▁unters	-1597
▁beein	-1598
▁kosten	-1599
▁irgendwie	-1600
▁komplex	-1601
ow	-1602
anzen	-1603
endet	-1604
▁bilder	-1605
aun	-1606
ume	-1607
▁op	-1608
▁stunden	-1609
son	-1610
auer	-1611
inen	-1612
▁vater	-1613
annte	-1614
▁bemer	-1615
▁beginn	-1616
▁sprache	-1617
ahn	-1618
▁hunder	-1619
gestellt	-1620
▁fir	-1621
zentr	-1622
ock	-1623
▁fu	-1624
▁jun	-1625
bare	-1626
▁einzige	-1627
▁luft	-1628
▁jedem	-1629
▁gruppe	-1630
▁völ	-1631
halt	-1632
omen	-1633
arten	-1634
▁angst	-1635
one	-1636
itiv	-1637
richten	-1638
▁besten	-1639
▁eltern	-1640
vi	-1641
▁no	-1642
▁ergeb	-1643
▁wegen	-1644
▁bereich	-1645
ließlich	-1646
ings	-1647
▁alt	-1648
▁herz	-1649
fra	-1650
▁eins	-1651
▁vorstellen	-1652
▁ries	-1653
▁braucht	-1654
▁jen	-1655
▁anw	-1656
rieben	-1657
▁daher	-1658
▁pf	-1659
ohn	-1660
▁gott	-1661
▁haupt	-1662
punkt	-1663
▁arch	-1664
▁entwickeln	-1665
▁gleiche	-1666
▁städ	-1667
ständ	-1668
▁masch	-1669
▁obwohl	-1670
▁bewegen	-1671
▁beginnen	-1672
▁wort	-1673
affen	-1674
▁bitte	-1675
▁entst	-1676
iere	-1677
▁künst	-1678
▁verschiedenen	-1679
neh	-1680
▁la	-1681
sych	-1682
ehe	-1683
▁gemeinsam	-1684
▁nä	-1685
gten	-1686
werk	-1687
▁kap	-1688
▁welch	-1689
▁kä	-1690
▁medizin	-1691
▁möglichkeit	-1692
▁nation	-1693
haupt	-1694
racht	-1695
▁treffen	-1696
▁fe	-1697
▁erhalten	-1698
▁fäl	-1699
▁umwelt	-1700
tte	-1701
euer	-1702
▁reich	-1703
andel	-1704
genommen	-1705
▁dis	-1706
▁einigen	-1707
▁nämlich	-1708
gal	-1709
▁unterst	-1710
ässt	-1711
esse	-1712
▁rep	-1713
▁fern	-1714
▁näh	-1715
▁schwar	-1716
▁ändern	-1717
▁unglaublich	-1718
ehn	-1719
▁do	-1720
▁wollten	-1721
▁sachen	-1722
sk	-1723
bel	-1724
▁vir	-1725
ismus	-1726
▁drau	-1727
▁damals	-1728
▁ziel	-1729
▁mik	-1730
ider	-1731
▁kli	-1732
▁unbe	-1733
▁tausen	-1734
▁eher	-1735
trie	-1736
häng	-1737
▁rest	-1738
▁patienten	-1739
enzen	-1740
ank	-1741
▁sage	-1742
▁hause	-1743
▁roboter	-1744
▁ansch	-1745
tis	-1746
annen	-1747
▁beiden	-1748
▁verr	-1749
hlen	-1750
▁inv	-1751
▁verwenden	-1752
lin	-1753
▁kü	-1754
äten	-1755
▁krebs	-1756
▁gebäude	-1757
si	-1758
▁pos	-1759
▁dein	-1760
▁bez	-1761
erweise	-1762
▁regierung	-1763
▁werk	-1764
▁weltw	-1765
▁anfang	-1766
aktion	-1767
▁kindern	-1768
▁neur	-1769
ziel	-1770
▁erk	-1771
rak	-1772
▁intel	-1773
zustellen	-1774
▁verändert	-1775
uer	-1776
▁yor	-1777
▁psych	-1778
trag	-1779
▁kommun	-1780
▁persön	-1781
▁material	-1782
▁bezieh	-1783
▁erstaun	-1784
▁überhaupt	-1785
tem	-1786
lek	-1787
▁tut	-1788
▁wil	-1789
▁getan	-1790
reifen	-1791
▁aufga	-1792
lossen	-1793
iken	-1794
▁schau	-1795
▁trotz	-1796
▁menschlichen	-1797
denten	-1798
▁ka	-1799
▁länder	-1800
ligen	-1801
▁schreiben	-1802
▁win	-1803
▁zwar	-1804
▁fand	-1805
▁lehrer	-1806
bes	-1807
▁ju	-1808
▁fahr	-1809
▁verschw	-1810
sta	-1811
▁richt	-1812
ans	-1813
▁18	-1814
tigkeit	-1815
▁publik	-1816
als	-1817
▁är	-1818
schr	-1819
▁bab	-1820
▁erzeu	-1821
▁erinner	-1822
sto	-1823
▁gleichen	-1824
▁versucht	-1825
bte	-1826
▁führen	-1827
ügen	-1828
▁ehr	-1829
onnen	-1830
sei	-1831
▁zun	-1832
▁allem	-1833
▁wochen	-1834
▁programm	-1835
völ	-1836
▁erre	-1837
▁morgen	-1838
▁struktur	-1839
▁tier	-1840
▁jed	-1841
▁sau	-1842
tei	-1843
▁gene	-1844
▁invest	-1845
▁fing	-1846
▁zeich	-1847
▁nächste	-1848
▁technolog	-1849
▁vis	-1850
▁lage	-1851
ranken	-1852
▁neben	-1853
▁solche	-1854
▁sicht	-1855
nov	-1856
ielt	-1857
▁prof	-1858
▁china	-1859
ase	-1860
abor	-1861
▁zahl	-1862
völker	-1863
schnitt	-1864
▁falsch	-1865
▁innov	-1866
▁herausforder	-1867
äus	-1868
ktor	-1869
▁absol	-1870
▁direkt	-1871
pe	-1872
anten	-1873
tzlich	-1874
▁mathema	-1875
▁publikum	-1876
na	-1877
haus	-1878
▁tri	-1879
▁verh	-1880
▁erscha	-1881
▁40	-1882
▁zer	-1883
▁überr	-1884
▁bedeut	-1885
▁jedoch	-1886
eig	-1887
ängt	-1888
▁prozess	-1889
▁erfahrung	-1890
gegen	-1891
▁meer	-1892
▁nachdem	-1893
▁zweiten	-1894
urs	-1895
teten	-1896
▁erle	-1897
▁junge	-1898
▁finanz	-1899
▁schick	-1900
▁mikro	-1901
enne	-1902
orie	-1903
sein	-1904
nahme	-1905
▁verd	-1906
▁demok	-1907
▁mussten	-1908
▁entwicklung	-1909
▁weitere	-1910
▁betrachten	-1911
▁sen	-1912
▁herr	-1913
▁geschäft	-1914
▁trä	-1915
▁europ	-1916
▁fühlen	-1917
eim	-1918
▁kamen	-1919
etzt	-1920
▁genaus	-1921
baren	-1922
▁situ	-1923
orden	-1924
▁tiere	-1925
▁meines	-1926
▁sieben	-1927
▁rad	-1928
▁wes	-1929
▁chem	-1930
▁rück	-1931
▁letzte	-1932
▁vertrau	-1933
▁beste	-1934
▁dingen	-1935
tho	-1936
▁pap	-1937
▁ris	-1938
sm	-1939
fiz	-1940
zept	-1941
▁deu	-1942
dition	-1943
▁unten	-1944
▁aufzu	-1945
▁genauso	-1946
pan	-1947
▁tö	-1948
ziert	-1949
▁bein	-1950
fläche	-1951
▁freunde	-1952
▁schließlich	-1953
▁pfl	-1954
arbeit	-1955
▁anderer	-1956
▁tages	-1957
▁dun	-1958
ore	-1959
▁kom	-1960
▁plö	-1961
sätz	-1962
▁danach	-1963
▁erinnern	-1964
indet	-1965
▁elektr	-1966
▁go	-1967
▁gol	-1968
▁auss	-1969
ager	-1970
▁bringt	-1971
▁lesen	-1972
ive	-1973
▁völlig	-1974
▁wusste	-1975
▁sicherheit	-1976
ud	-1977
▁on	-1978
▁sow	-1979
▁alter	-1980
▁lässt	-1981
▁eigene	-1982
iet	-1983
▁hol	-1984
▁gedanken	-1985
▁12	-1986
ählen	-1987
▁tief	-1988
▁grunde	-1989
▁leiden	-1990
man	-1991
▁fas	-1992
▁samm	-1993
▁kraft	-1994
▁wären	-1995
▁hervor	-1996
han	-1997
▁fer	-1998
▁sek	-1999
ienen	-2000
▁part	-2001
▁boden	-2002
▁exist	-2003
▁worden	-2004
▁erlau	-2005
▁wider	-2006
sichtlich	-2007
inde	-2008
rieb	-2009
▁thema	-2010
▁übr	-2011
▁such	-2012
nahmen	-2013
▁menschliche	-2014
sph	-2015
achst	-2016
eigen	-2017
▁auszu	-2018
zip	-2019
▁entscheiden	-2020
▁interessant	-2021
lungs	-2022
▁hilfe	-2023
▁archite	-2024
▁möglichkeiten	-2025
▁zent	-2026
▁platz	-2027
▁manche	-2028
▁sollen	-2029
▁stellt	-2030
mo	-2031
▁deren	-2032
▁kreativ	-2033
bung	-2034
dete	-2035
elbe	-2036
▁har	-2037
▁verfü	-2038
▁jungen	-2039
▁information	-2040
et	-2041
uren	-2042
▁job	-2043
▁mor	-2044
▁sex	-2045
▁char	-2046
bau	-2047
aren	-2048
stet	-2049
▁ter	-2050
ließen	-2051
▁25	-2052
▁fliegen	-2053
ure	-2054
▁blau	-2055
▁zweite	-2056
▁öl	-2057
▁süd	-2058
▁lern	-2059
▁lösen	-2060
ograf	-2061
annten	-2062
▁suchen	-2063
▁staaten	-2064
▁welches	-2065
▁plötzlich	-2066
jähr	-2067
ücher	-2068
▁zehn	-2069
▁umgeb	-2070
▁gesetz	-2071
▁funktionieren	-2072
setz	-2073
▁mer	-2074
▁york	-2075
dungen	-2076
lef	-2077
aler	-2078
kehr	-2079
▁fragte	-2080
▁sterben	-2081
▁verbunden	-2082
▁eis	-2083
▁kri	-2084
▁empf	-2085
▁modell	-2086
▁zuerst	-2087
▁wich	-2088
aschen	-2089
▁bleiben	-2090
▁sh	-2091
itze	-2092
▁oze	-2093
rieden	-2094
reten	-2095
▁dessen	-2096
ala	-2097
▁langsam	-2098
spro	-2099
ziehen	-2100
achstum	-2101
▁zahlen	-2102
▁defin	-2103
▁guten	-2104
▁beschä	-2105
▁besteht	-2106
▁äl	-2107
▁tage	-2108
▁geist	-2109
▁laufen	-2110
cen	-2111
iff	-2112
achtet	-2113
▁schli	-2114
▁schwierig	-2115
cker	-2116
▁schwe	-2117
▁woche	-2118
durch	-2119
falls	-2120
▁prin	-2121
yn	-2122
▁kolle	-2123
bauen	-2124
▁kranken	-2125
ve	-2126
scht	-2127
▁indi	-2128
wirk	-2129
▁aufge	-2130
roh	-2131
immen	-2132
führen	-2133
▁falls	-2134
▁klima	-2135
itzen	-2136
▁zerst	-2137
zug	-2138
▁zuvor	-2139
▁vergleich	-2140
hören	-2141
▁acht	-2142
▁änder	-2143
▁monate	-2144
▁gemeinschaft	-2145
wär	-2146
elte	-2147
arbeitet	-2148
▁hast	-2149
▁team	-2150
lage	-2151
merk	-2152
chter	-2153
ächst	-2154
▁kaufen	-2155
dik	-2156
fahr	-2157
▁markt	-2158
▁politik	-2159
▁familien	-2160
ile	-2161
▁führt	-2162
▁technik	-2163
spiele	-2164
▁erklär	-2165
to	-2166
riff	-2167
blick	-2168
▁gesicht	-2169
▁bro	-2170
▁aben	-2171
▁nutz	-2172
▁lösung	-2173
▁hör	-2174
▁zug	-2175
kraft	-2176
▁neues	-2177
▁überzeu	-2178
▁aussehen	-2179
ue	-2180
spe	-2181
▁benö	-2182
▁sprach	-2183
▁größte	-2184
▁verantwort	-2185
gefühl	-2186
▁entdeck	-2187
▁ländern	-2188
alter	-2189
igt	-2190
▁beru	-2191
▁extr	-2192
zeigt	-2193
▁gefunden	-2194
▁stär	-2195
▁antwor	-2196
▁daraus	-2197
▁stelle	-2198
▁transp	-2199
gn	-2200
▁ans	-2201
zeuge	-2202
▁ersch	-2203
▁gegenüber	-2204
▁wissenschaftler	-2205
wert	-2206
▁männ	-2207
weisen	-2208
▁hinein	-2209
▁größten	-2210
▁fähigkeit	-2211
ieten	-2212
▁krieg	-2213
▁möchten	-2214
▁indu	-2215
▁mite	-2216
tag	-2217
alien	-2218
▁größer	-2219
▁beschäf	-2220
▁unseres	-2221
ond	-2222
äuf	-2223
auft	-2224
▁fant	-2225
▁rein	-2226
▁mitein	-2227
atten	-2228
jekte	-2229
▁beide	-2230
▁labor	-2231
▁bewegung	-2232
sw	-2233
xt	-2234
▁ner	-2235
reiten	-2236
▁überw	-2237
▁zellen	-2238
▁extrem	-2239
▁draußen	-2240
▁spa	-2241
▁autos	-2242
prochen	-2243
▁gewalt	-2244
co	-2245
spir	-2246
▁super	-2247
▁verwand	-2248
reck	-2249
▁ozean	-2250
▁beeinfl	-2251
▁erschaffen	-2252
▁intelligen	-2253
▁egal	-2254
▁scheint	-2255
ja	-2256
▁muster	-2257
umm	-2258
ücke	-2259
▁blick	-2260
▁ihres	-2261
▁gelernt	-2262
▁lau	-2263
fort	-2264
lassen	-2265
tragen	-2266
pa	-2267
äß	-2268
ance	-2269
▁stimme	-2270
▁bevölker	-2271
▁kontroll	-2272
igten	-2273
gliche	-2274
ho	-2275
hren	-2276
▁öff	-2277
▁wahl	-2278
▁herauszu	-2279
▁glücklich	-2280
▁ä	-2281
jen	-2282
▁anstatt	-2283
äuft	-2284
▁sin	-2285
▁nahm	-2286
samkeit	-2287
▁gewesen	-2288
▁evolution	-2289
▁iden	-2290
▁verle	-2291
▁schritt	-2292
▁wachsen	-2293
▁überleben	-2294
ückt	-2295
ochen	-2296
▁sehe	-2297
gemein	-2298
▁nimmt	-2299
▁erklären	-2300
▁passieren	-2301
▁vergangen	-2302
▁tä	-2303
eister	-2304
öffent	-2305
▁relig	-2306
▁kal	-2307
mar	-2308
▁dig	-2309
▁tradition	-2310
aden	-2311
bten	-2312
wass	-2313
▁mache	-2314
▁medien	-2315
▁60	-2316
▁raus	-2317
▁reihe	-2318
gesetzt	-2319
pfer	-2320
▁bar	-2321
▁anal	-2322
▁stark	-2323
▁kleines	-2324
▁anfangen	-2325
▁studenten	-2326
weg	-2327
ikation	-2328
▁beginnt	-2329
▁wahrheit	-2330
ese	-2331
gessen	-2332
▁digit	-2333
▁bürger	-2334
▁fanden	-2335
▁nachdenken	-2336
▁miteinander	-2337
▁technologien	-2338
▁konzentr	-2339
uelle	-2340
gewöhn	-2341
▁jemals	-2342
ment	-2343
▁erd	-2344
agieren	-2345
▁allein	-2346
▁künstler	-2347
▁richtung	-2348
▁jahrhundert	-2349
▁80	-2350
lauf	-2351
line	-2352
ware	-2353
▁nord	-2354
▁anzahl	-2355
▁geworden	-2356
kre	-2357
▁ad	-2358
▁ding	-2359
▁kont	-2360
zellen	-2361
▁teile	-2362
▁gefähr	-2363
▁inspir	-2364
▁tatsache	-2365
▁großartig	-2366
▁verbindung	-2367
äss	-2368
▁veröffent	-2369
ren	-2370
▁fel	-2371
gende	-2372
icher	-2373
▁links	-2374
▁revolution	-2375
iko	-2376
ont	-2377
elten	-2378
rift	-2379
▁aufre	-2380
▁molek	-2381
▁leicht	-2382
ib	-2383
ity	-2384
weis	-2385
ament	-2386
älfte	-2387
▁stimmt	-2388
mt	-2389
kle	-2390
pfen	-2391
ative	-2392
fahren	-2393
▁erfor	-2394
▁niemals	-2395
▁situation	-2396
fäh	-2397
▁ser	-2398
zogen	-2399
▁bekommt	-2400
uell	-2401
▁bist	-2402
anischen	-2403
▁verloren	-2404
mens	-2405
▁kil	-2406
ützen	-2407
▁nacht	-2408
▁hinaus	-2409
▁kleiner	-2410
▁bildung	-2411
▁schlecht	-2412
▁einfl	-2413
▁staat	-2414
▁physik	-2415
▁met	-2416
lungen	-2417
▁ernst	-2418
dent	-2419
nation	-2420
▁indivi	-2421
▁wör	-2422
▁metho	-2423
▁gebaut	-2424
▁aufmerk	-2425
▁foto	-2426
▁miss	-2427
▁reise	-2428
▁findet	-2429
▁individu	-2430
▁krankheit	-2431
▁medik	-2432
▁schrieb	-2433
iti	-2434
▁gebe	-2435
▁toll	-2436
▁instit	-2437
▁kat	-2438
gangen	-2439
▁lieben	-2440
▁sonnen	-2441
▁maß	-2442
▁verwendet	-2443
▁aufgabe	-2444
▁genannt	-2445
▁umgebung	-2446
änden	-2447
▁regel	-2448
▁benutzt	-2449
▁soziale	-2450
ator	-2451
▁blut	-2452
▁faszin	-2453
▁gezeigt	-2454
▁stellte	-2455
les	-2456
▁gesp	-2457
▁straßen	-2458
▁bedeutung	-2459
▁dor	-2460
▁sonst	-2461
zw	-2462
aner	-2463
▁fuß	-2464
teilt	-2465
▁gere	-2466
zeitig	-2467
▁fahren	-2468
▁formen	-2469
▁prinzip	-2470
rum	-2471
▁sym	-2472
▁engl	-2473
▁alten	-2474
ängen	-2475
▁schrei	-2476
▁richtige	-2477
enn	-2478
roffen	-2479
▁fehler	-2480
sprechen	-2481
▁tür	-2482
▁mögen	-2483
▁rolle	-2484
▁sofort	-2485
▁vorstellung	-2486
ame	-2487
mung	-2488
änge	-2489
▁sor	-2490
unkte	-2491
wegen	-2492
▁älter	-2493
▁entfernt	-2494
▁kan	-2495
▁disk	-2496
▁amerika	-2497
era	-2498
haft	-2499
▁lok	-2500
▁ziehen	-2501
▁versuche	-2502
▁internation	-2503
lten	-2504
▁rau	-2505
▁tie	-2506
▁priv	-2507
▁preis	-2508
▁bakter	-2509
▁erreicht	-2510
▁schlechte	-2511
▁eff	-2512
krie	-2513
▁größe	-2514
▁bekannt	-2515
▁veränderung	-2516
otion	-2517
▁zeige	-2518
▁setzen	-2519
▁gegeben	-2520
▁pflanzen	-2521
▁mathematik	-2522
▁erfolgreich	-2523
ers	-2524
imen	-2525
itäten	-2526
▁anges	-2527
▁fertig	-2528
▁länger	-2529
▁nachzu	-2530
kam	-2531
tzut	-2532
ändig	-2533
▁abge	-2534
▁goog	-2535
▁moral	-2536
▁regen	-2537
asen	-2538
lagen	-2539
tzutage	-2540
▁gingen	-2541
▁hälfte	-2542
▁forschung	-2543
▁heutzutage	-2544
▁199	-2545
ument	-2546
▁mitte	-2547
▁ähnlich	-2548
▁jemanden	-2549
▁herausforderung	-2550
digen	-2551
eiden	-2552
▁hoffe	-2553
▁emotion	-2554
▁übrigen	-2555
ari	-2556
zep	-2557
▁bekam	-2558
geführt	-2559
▁offensichtlich	-2560
▁phil	-2561
▁wesent	-2562
rop	-2563
ror	-2564
▁tot	-2565
▁west	-2566
▁hinzu	-2567
▁regier	-2568
▁meinung	-2569
äume	-2570
▁dna	-2571
▁papier	-2572
▁absolut	-2573
ka	-2574
lang	-2575
immel	-2576
▁jung	-2577
▁wann	-2578
▁weltweit	-2579
zer	-2580
▁dau	-2581
▁strom	-2582
▁interessiert	-2583
▁11	-2584
iesen	-2585
▁wand	-2586
▁straße	-2587
itter	-2588
▁bücher	-2589
▁voraus	-2590
struktur	-2591
▁einfache	-2592
▁app	-2593
▁brachte	-2594
▁wachstum	-2595
fol	-2596
üch	-2597
viel	-2598
daten	-2599
wasser	-2600
arbeiten	-2601
▁einfluss	-2602
▁genommen	-2603
sor	-2604
verb	-2605
▁dra	-2606
sphäre	-2607
▁mitgefühl	-2608
stu	-2609
hnen	-2610
▁zeu	-2611
iment	-2612
▁urspr	-2613
▁entwicklungs	-2614
tau	-2615
▁geboren	-2616
▁komplett	-2617
▁ga	-2618
▁generation	-2619
▁tod	-2620
lefon	-2621
▁prak	-2622
▁realität	-2623
▁trotzdem	-2624
▁fähigkeiten	-2625
▁test	-2626
dessen	-2627
▁rechts	-2628
▁stre	-2629
ierend	-2630
▁liegen	-2631
▁geschieht	-2632
ose	-2633
jenigen	-2634
▁sc	-2635
legt	-2636
wind	-2637
▁moder	-2638
▁nennt	-2639
▁poten	-2640
▁identi	-2641
▁online	-2642
▁schmer	-2643
abhäng	-2644
▁gesamte	-2645
▁schneller	-2646
▁ök	-2647
▁wind	-2648
▁fantast	-2649
▁maschine	-2650
wirtschaft	-2651
▁vergessen	-2652
▁gleichzeitig	-2653
ales	-2654
▁leist	-2655
▁städte	-2656
▁einzelne	-2657
▁erwachsen	-2658
▁geschrieben	-2659
▁normalerweise	-2660
rist	-2661
ktive	-2662
▁europa	-2663
▁experimen	-2664
trä	-2665
▁pe	-2666
ister	-2667
stens	-2668
ftware	-2669
▁machten	-2670
▁ergebnis	-2671
▁fortschr	-2672
▁vereinigten	-2673
▁durchschnitt	-2674
ichtet	-2675
▁erkennt	-2676
sh	-2677
reg	-2678
ratie	-2679
▁tragen	-2680
oten	-2681
▁sob	-2682
ologen	-2683
▁firma	-2684
bildung	-2685
mu	-2686
beh	-2687
gru	-2688
vie	-2689
▁oper	-2690
▁verurs	-2691
▁vertrauen	-2692
▁entscheidungen	-2693
bew	-2694
▁000	-2695
ummer	-2696
▁gutes	-2697
▁erschein	-2698
ätzen	-2699
▁finde	-2700
▁ta	-2701
isse	-2702
▁diag	-2703
▁regeln	-2704
▁studie	-2705
tist	-2706
▁rede	-2707
▁benutz	-2708
▁dachten	-2709
▁wichtige	-2710
▁90	-2711
▁my	-2712
alle	-2713
feld	-2714
▁exp	-2715
techn	-2716
endung	-2717
▁gesprochen	-2718
▁oberfläche	-2719
▁nachrichten	-2720
▁akt	-2721
▁krei	-2722
▁nahe	-2723
uellen	-2724
▁jahrz	-2725
▁sonne	-2726
▁kompli	-2727
▁dadurch	-2728
▁außerdem	-2729
▁wichtiger	-2730
▁aufmerksamkeit	-2731
▁herauszufinden	-2732
▁bot	-2733
▁hig	-2734
üssel	-2735
▁monat	-2736
▁google	-2737
▁auswirk	-2738
▁schulen	-2739
▁beziehung	-2740
chan	-2741
glie	-2742
ösen	-2743
▁bald	-2744
▁gebur	-2745
▁begannen	-2746
▁übrigens	-2747
▁sign	-2748
▁druck	-2749
▁ansehen	-2750
▁bestimmt	-2751
ins	-2752
▁et	-2753
▁hy	-2754
schung	-2755
▁gelegen	-2756
▁zuminde	-2757
▁bemerken	-2758
▁beobachten	-2759
▁interessante	-2760
ieg	-2761
tikel	-2762
▁einst	-2763
indungen	-2764
mpfen	-2765
▁fühl	-2766
▁karte	-2767
▁großer	-2768
▁gruppen	-2769
▁produkt	-2770
▁ra	-2771
ussen	-2772
▁enor	-2773
▁trau	-2774
▁vorbei	-2775
▁speziel	-2776
▁einzelnen	-2777
isst	-2778
essour	-2779
▁prote	-2780
▁sobald	-2781
▁verlassen	-2782
▁ord	-2783
▁nachhal	-2784
▁bewusstsein	-2785
dert	-2786
schu	-2787
schw	-2788
ählt	-2789
▁effe	-2790
▁deine	-2791
▁schla	-2792
▁wussten	-2793
▁lauf	-2794
fik	-2795
lex	-2796
istan	-2797
amerik	-2798
▁einzu	-2799
▁bewegt	-2800
▁seiten	-2801
hnung	-2802
▁stil	-2803
▁früher	-2804
▁keiner	-2805
▁kontrolle	-2806
▁passierte	-2807
▁zumindest	-2808
üss	-2809
▁ziv	-2810
▁dorf	-2811
▁neun	-2812
▁meter	-2813
ragt	-2814
uchs	-2815
▁sim	-2816
▁reaktion	-2817
▁gearbeitet	-2818
ons	-2819
ätze	-2820
▁heim	-2821
▁jahrzeh	-2822
▁bedeuten	-2823
▁ermöglich	-2824
ps	-2825
obil	-2826
wand	-2827
essern	-2828
gendes	-2829
▁sahen	-2830
▁sitzen	-2831
gebracht	-2832
▁grenzen	-2833
bin	-2834
zte	-2835
nete	-2836
▁hoffnung	-2837
▁innovation	-2838
pen	-2839
▁16	-2840
stru	-2841
▁san	-2842
▁arme	-2843
▁begr	-2844
▁sorgen	-2845
▁verständ	-2846
▁versuchte	-2847
▁bevölkerung	-2848
▁hü	-2849
flik	-2850
▁baum	-2851
▁fisch	-2852
▁großes	-2853
▁sozialen	-2854
▁14	-2855
▁see	-2856
▁konzept	-2857
ath	-2858
artet	-2859
▁abzu	-2860
eltsam	-2861
schlag	-2862
▁zufäl	-2863
▁positiv	-2864
▁bestimmten	-2865
fre	-2866
▁ressour	-2867
zies	-2868
▁kons	-2869
▁spre	-2870
▁seltsam	-2871
▁experiment	-2872
▁denkt	-2873
▁kannst	-2874
▁ton	-2875
▁bess	-2876
uchten	-2877
▁himmel	-2878
▁wörter	-2879
▁monaten	-2880
go	-2881
ry	-2882
bild	-2883
▁hiv	-2884
▁redu	-2885
▁spaß	-2886
▁erwäh	-2887
▁anschauen	-2888
▁demokratie	-2889
▁universität	-2890
az	-2891
produ	-2892
tiger	-2893
▁dien	-2894
▁häuf	-2895
▁taten	-2896
▁ständig	-2897
▁vortrag	-2898
▁orte	-2899
▁echte	-2900
ith	-2901
atte	-2902
hand	-2903
▁ant	-2904
seh	-2905
setzt	-2906
▁mitt	-2907
▁rund	-2908
wissen	-2909
▁geschehen	-2910
▁dahin	-2911
▁personen	-2912
▁verlieren	-2913
▁menschheit	-2914
geh	-2915
fern	-2916
▁kür	-2917
▁gala	-2918
▁japan	-2919
▁präsen	-2920
▁studien	-2921
▁gewinnen	-2922
▁richtigen	-2923
ba	-2924
▁ind	-2925
herap	-2926
ielle	-2927
orfen	-2928
quenz	-2929
▁stamm	-2930
▁bilden	-2931
▁verfol	-2932
▁software	-2933
▁tausende	-2934
▁möglichen	-2935
deten	-2936
orien	-2937
sweise	-2938
▁zugang	-2939
▁aufgrund	-2940
windigkeit	-2941
itär	-2942
lern	-2943
▁dro	-2944
blich	-2945
igner	-2946
rauch	-2947
▁webs	-2948
▁einge	-2949
▁feuer	-2950
gi	-2951
mmern	-2952
▁gerät	-2953
▁bleibt	-2954
▁af	-2955
▁and	-2956
▁car	-2957
schir	-2958
▁john	-2959
machen	-2960
▁abend	-2961
▁orten	-2962
▁terror	-2963
▁nachbar	-2964
▁arbeitete	-2965
▁gek	-2966
schul	-2967
▁angef	-2968
▁schei	-2969
▁geheim	-2970
▁bessere	-2971
▁telefon	-2972
rad	-2973
▁freu	-2974
▁kern	-2975
▁sohn	-2976
▁galax	-2977
▁spezies	-2978
▁diejenigen	-2979
lam	-2980
▁hab	-2981
▁lag	-2982
orben	-2983
werfen	-2984
▁produzieren	-2985
male	-2986
▁bat	-2987
▁vol	-2988
▁gebiet	-2989
▁erzählt	-2990
▁schreck	-2991
rab	-2992
öff	-2993
netz	-2994
▁mot	-2995
eitung	-2996
▁leider	-2997
▁schüler	-2998
▁verbessern	-2999
▁armut	-3000
▁chris	-3001
▁spezi	-3002
schluss	-3003
▁irgendwo	-3004
50	-3005
win	-3006
▁fü	-3007
onie	-3008
tiver	-3009
▁höher	-3010
▁näher	-3011
zeichnet	-3012
▁aussieht	-3013
oss	-3014
▁il	-3015
▁train	-3016
▁allgemein	-3017
▁th	-3018
etzen	-3019
nehmer	-3020
▁zivil	-3021
ca	-3022
▁kr	-3023
▁deta	-3024
▁uner	-3025
▁entwe	-3026
▁trans	-3027
▁vergangenheit	-3028
▁ebene	-3029
▁voller	-3030
▁bakterien	-3031
▁beispiele	-3032
ull	-3033
abel	-3034
▁bri	-3035
masch	-3036
▁kaum	-3037
▁landes	-3038
▁arbeitet	-3039
▁sprachen	-3040
▁unmöglich	-3041
öst	-3042
▁sto	-3043
eisen	-3044
räfte	-3045
▁winz	-3046
ferenz	-3047
▁ernähr	-3048
▁firmen	-3049
▁nachricht	-3050
zun	-3051
▁17	-3052
ograph	-3053
▁wieso	-3054
▁konflik	-3055
▁befinden	-3056
▁wirklichkeit	-3057
iter	-3058
ühne	-3059
▁uhr	-3060
recht	-3061
▁behau	-3062
▁nenne	-3063
▁tagen	-3064
▁biolog	-3065
▁unabhäng	-3066
▁verbesser	-3067
▁entscheidung	-3068
▁außen	-3069
▁hände	-3070
▁führte	-3071
ina	-3072
▁70	-3073
rise	-3074
ächen	-3075
▁fein	-3076
▁sowohl	-3077
▁erlaubt	-3078
▁gesamten	-3079
▁sekunden	-3080
▁großartige	-3081
▁grü	-3082
▁erhö	-3083
▁region	-3084
▁erzeugen	-3085
▁nachzudenken	-3086
ct	-3087
ama	-3088
tim	-3089
▁wü	-3090
inge	-3091
▁sod	-3092
▁haut	-3093
ulation	-3094
▁altern	-3095
▁profess	-3096
▁gebracht	-3097
▁entdecken	-3098
▁alte	-3099
▁log	-3100
▁wün	-3101
▁traf	-3102
▁linie	-3103
▁ebenso	-3104
▁kombin	-3105
▁arbeits	-3106
▁theorie	-3107
▁krankheiten	-3108
▁kommunikation	-3109
arf	-3110
ums	-3111
▁äu	-3112
ossen	-3113
▁warten	-3114
▁erfahren	-3115
▁vorstell	-3116
▁antworten	-3117
plan	-3118
rech	-3119
stes	-3120
▁pil	-3121
press	-3122
▁sand	-3123
stehen	-3124
▁chines	-3125
▁objekt	-3126
▁frieden	-3127
▁solchen	-3128
▁bestimmte	-3129
teile	-3130
▁entweder	-3131
kop	-3132
ball	-3133
▁bus	-3134
▁berg	-3135
▁mäch	-3136
▁wechs	-3137
▁sammeln	-3138
▁dasselbe	-3139
▁englisch	-3140
▁verbinden	-3141
▁zusammenh	-3142
▁amerikaner	-3143
ark	-3144
äte	-3145
öpf	-3146
▁201	-3147
raten	-3148
▁präsi	-3149
▁bienen	-3150
▁handeln	-3151
ital	-3152
ühle	-3153
▁ker	-3154
twend	-3155
zimmer	-3156
▁dritte	-3157
▁mittler	-3158
▁amerikanischen	-3159
eits	-3160
iker	-3161
ssen	-3162
▁deut	-3163
▁höch	-3164
▁quad	-3165
peratur	-3166
▁spielt	-3167
licherweise	-3168
▁ressourcen	-3169
ix	-3170
abil	-3171
falt	-3172
werke	-3173
▁runter	-3174
▁verste	-3175
▁gekommen	-3176
▁regierungen	-3177
▁baby	-3178
▁wohn	-3179
ativen	-3180
▁worte	-3181
▁fangen	-3182
▁sodass	-3183
▁riesige	-3184
▁ergebnisse	-3185
▁auswirkungen	-3186
▁kohlen	-3187
größ	-3188
▁flü	-3189
genie	-3190
stern	-3191
tierte	-3192
erstoff	-3193
▁gefäng	-3194
▁hundert	-3195
▁leidenschaft	-3196
mäß	-3197
▁198	-3198
seite	-3199
ütter	-3200
▁anti	-3201
ssystem	-3202
▁bisher	-3203
▁entschieden	-3204
fa	-3205
ützt	-3206
▁zeug	-3207
▁erwei	-3208
▁fotograf	-3209
▁national	-3210
▁charakter	-3211
▁institution	-3212
▁13	-3213
bert	-3214
grün	-3215
lose	-3216
▁hum	-3217
▁laut	-3218
reitet	-3219
▁hilft	-3220
▁innen	-3221
izieren	-3222
▁welcher	-3223
ox	-3224
lan	-3225
wart	-3226
▁för	-3227
altet	-3228
izien	-3229
▁stol	-3230
▁wein	-3231
änomen	-3232
▁ereig	-3233
▁gespr	-3234
tischer	-3235
▁gefragt	-3236
▁verstanden	-3237
▁dür	-3238
▁denk	-3239
▁heil	-3240
▁höhe	-3241
▁einzig	-3242
▁lachen	-3243
▁dritten	-3244
▁leisten	-3245
▁notwend	-3246
▁untersuchen	-3247
get	-3248
ils	-3249
volle	-3250
▁hält	-3251
▁brust	-3252
▁fotos	-3253
isation	-3254
▁strate	-3255
▁arbeite	-3256
▁million	-3257
▁statist	-3258
▁kollegen	-3259
▁außerhalb	-3260
▁medikamen	-3261
eite	-3262
latz	-3263
▁autom	-3264
▁perfe	-3265
ingungen	-3266
▁entdeckt	-3267
▁verstand	-3268
▁ermöglicht	-3269
haf	-3270
stä	-3271
lige	-3272
stag	-3273
eitet	-3274
▁lust	-3275
▁verz	-3276
▁berüh	-3277
ierende	-3278
▁gewöhn	-3279
▁messen	-3280
▁rom	-3281
▁bezug	-3282
▁fluss	-3283
▁läuft	-3284
▁zeigte	-3285
▁ordnung	-3286
▁einander	-3287
▁unterschei	-3288
▁architektur	-3289
oli	-3290
wür	-3291
▁21	-3292
rochen	-3293
▁absch	-3294
▁ehrlich	-3295
oph	-3296
▁ku	-3297
▁las	-3298
üllen	-3299
▁fund	-3300
▁vern	-3301
altung	-3302
ichter	-3303
ometer	-3304
▁retten	-3305
▁methode	-3306
▁gestellt	-3307
▁schützen	-3308
▁organisation	-3309
▁zwe	-3310
▁ausw	-3311
▁frem	-3312
▁beruf	-3313
▁kampf	-3314
▁sinne	-3315
▁jahres	-3316
▁erstens	-3317
▁gründen	-3318
▁handelt	-3319
▁ingenie	-3320
▁systeme	-3321
▁herausfinden	-3322
▁lebt	-3323
▁finger	-3324
▁nieder	-3325
▁ursprün	-3326
▁verdien	-3327
mpf	-3328
aktiv	-3329
▁enth	-3330
assung	-3331
mitteln	-3332
trieben	-3333
▁chance	-3334
▁eigent	-3335
▁letztes	-3336
▁geschaffen	-3337
rig	-3338
samm	-3339
▁kol	-3340
▁trei	-3341
ierter	-3342
▁hörte	-3343
▁könig	-3344
▁unver	-3345
▁wohin	-3346
▁nahrung	-3347
▁schlimm	-3348
▁befindet	-3349
▁globalen	-3350
▁herstellen	-3351
bi	-3352
ek	-3353
abr	-3354
kur	-3355
▁cool	-3356
laufen	-3357
▁geburt	-3358
▁nummer	-3359
▁schmerz	-3360
▁bestehen	-3361
▁erzählte	-3362
▁freiheit	-3363
▁maschinen	-3364
▁betrachtet	-3365
▁krankenhaus	-3366
rate	-3367
▁bean	-3368
▁hirn	-3369
mension	-3370
▁herunter	-3371
▁phänomen	-3372
▁wundersch	-3373
amm	-3374
kar	-3375
mod	-3376
ghan	-3377
▁läch	-3378
▁schm	-3379
nungen	-3380
▁geräu	-3381
▁liebl	-3382
▁motiv	-3383
▁schaut	-3384
▁zunächst	-3385
▁einkommen	-3386
▁verständnis	-3387
iegen	-3388
▁bege	-3389
▁hart	-3390
▁nerv	-3391
▁park	-3392
▁belie	-3393
▁erfahr	-3394
▁meeres	-3395
▁spiele	-3396
arbeiter	-3397
▁flugzeug	-3398
▁unterstützen	-3399
rt	-3400
ürf	-3401
ante	-3402
ynam	-3403
▁ach	-3404
▁blo	-3405
▁mark	-3406
ständig	-3407
zunehmen	-3408
▁partner	-3409
▁einzigen	-3410
▁interesse	-3411
▁hor	-3412
▁wol	-3413
anische	-3414
▁afghan	-3415
▁schwarz	-3416
▁deswegen	-3417
▁irgendein	-3418
▁schlüssel	-3419
▁wiederhol	-3420
seits	-3421
▁büro	-3422
ktoren	-3423
▁mehrere	-3424
buch	-3425
▁kop	-3426
ausen	-3427
▁gele	-3428
▁inse	-3429
schirm	-3430
▁farbe	-3431
▁wesen	-3432
▁artikel	-3433
▁getroffen	-3434
eid	-3435
▁wa	-3436
räsen	-3437
▁ökon	-3438
stoffe	-3439
▁angeb	-3440
▁bühne	-3441
barkeit	-3442
greifen	-3443
ktionen	-3444
▁unterstütz	-3445
▁lo	-3446
äuser	-3447
▁klin	-3448
▁gründe	-3449
leg	-3450
▁ei	-3451
▁umf	-3452
▁ausl	-3453
▁vari	-3454
▁suche	-3455
▁betrie	-3456
▁drogen	-3457
▁selben	-3458
▁verhin	-3459
▁hunderte	-3460
▁ebenfalls	-3461
urg	-3462
stück	-3463
astrop	-3464
iellen	-3465
wandel	-3466
▁kreis	-3467
schiede	-3468
▁verkaufen	-3469
rier	-3470
asche	-3471
rifft	-3472
stände	-3473
▁punkte	-3474
sätzlich	-3475
▁erleben	-3476
▁öffentlichen	-3477
hil	-3478
üll	-3479
▁of	-3480
▁arzt	-3481
▁hall	-3482
▁mars	-3483
▁muse	-3484
▁name	-3485
▁dauer	-3486
▁klasse	-3487
▁gehirns	-3488
▁erwarten	-3489
▁position	-3490
▁behandlung	-3491
ed	-3492
cks	-3493
ulti	-3494
leist	-3495
▁setz	-3496
selben	-3497
▁beweg	-3498
▁geschah	-3499
▁netzwerk	-3500
▁wunderbar	-3501
▁zeitpunkt	-3502
eisch	-3503
▁armen	-3504
▁traum	-3505
▁sozial	-3506
▁erinnere	-3507
bed	-3508
▁1,	-3509
takt	-3510
▁desto	-3511
sichtig	-3512
▁herzen	-3513
▁stunde	-3514
▁militär	-3515
▁lösungen	-3516
▁untersuch	-3517
▁grundlegen	-3518
▁km	-3519
ande	-3520
▁mär	-3521
itann	-3522
riere	-3523
schte	-3524
▁aufw	-3525
▁stei	-3526
passen	-3527
▁guter	-3528
ulieren	-3529
▁rechte	-3530
▁folgendes	-3531
gest	-3532
▁gil	-3533
▁pop	-3534
▁säu	-3535
▁behaup	-3536
▁schönheit	-3537
▁außergewöhn	-3538
▁erstaunlich	-3539
zut	-3540
gibt	-3541
önen	-3542
▁dok	-3543
▁fen	-3544
▁ball	-3545
▁gewe	-3546
▁naja	-3547
▁indust	-3548
gefunden	-3549
▁spricht	-3550
▁stimmen	-3551
▁zweitens	-3552
▁beziehungen	-3553
▁stattdessen	-3554
▁unglaubliche	-3555
pag	-3556
rän	-3557
ffer	-3558
stik	-3559
▁fällt	-3560
▁selten	-3561
▁wenige	-3562
möglichen	-3563
▁erfunden	-3564
▁jahrhunderts	-3565
hy	-3566
maß	-3567
▁ag	-3568
ehme	-3569
geht	-3570
organ	-3571
▁hört	-3572
▁gewal	-3573
▁tisch	-3574
▁verrückt	-3575
▁gefängnis	-3576
▁erfahrungen	-3577
hi	-3578
bli	-3579
hle	-3580
äst	-3581
▁bu	-3582
afft	-3583
▁500	-3584
laden	-3585
▁grad	-3586
▁high	-3587
gebaut	-3588
▁kenne	-3589
▁risiko	-3590
▁öffnen	-3591
▁standard	-3592
sage	-3593
▁jene	-3594
▁instr	-3595
▁mobil	-3596
zusagen	-3597
▁nahmen	-3598
▁heutigen	-3599
▁schicken	-3600
▁wichtigste	-3601
▁veränderungen	-3602
lu	-3603
ton	-3604
gere	-3605
izei	-3606
▁ign	-3607
ittel	-3608
▁hilf	-3609
liegen	-3610
▁optim	-3611
▁ärzte	-3612
▁fallen	-3613
▁fühlte	-3614
▁kontin	-3615
▁behandeln	-3616
öse	-3617
ahlt	-3618
▁bio	-3619
wärts	-3620
▁lond	-3621
▁nahr	-3622
ielten	-3623
▁gehir	-3624
▁abhäng	-3625
▁aussch	-3626
▁kamera	-3627
▁einfachen	-3628
▁klimawandel	-3629
▁x	-3630
orn	-3631
vel	-3632
ifor	-3633
▁gehe	-3634
▁hung	-3635
▁trin	-3636
▁wege	-3637
indust	-3638
schutz	-3639
▁niedr	-3640
▁schutz	-3641
▁wählen	-3642
itannien	-3643
▁gedacht	-3644
ids	-3645
▁ep	-3646
▁bal	-3647
inder	-3648
maßen	-3649
▁ignor	-3650
▁sommer	-3651
▁spitze	-3652
ild	-3653
ober	-3654
▁arg	-3655
▁pau	-3656
▁tru	-3657
ahmen	-3658
artig	-3659
gaben	-3660
▁darf	-3661
▁trag	-3662
▁zeiten	-3663
industrie	-3664
▁ausdruck	-3665
geschichte	-3666
frastruktur	-3667
pfl	-3668
bahn	-3669
▁dopp	-3670
▁echt	-3671
▁seien	-3672
▁äußer	-3673
▁vermut	-3674
▁endlich	-3675
▁globale	-3676
▁schrift	-3677
▁jemandem	-3678
▁angefangen	-3679
▁überraschen	-3680
▁pal	-3681
alist	-3682
dings	-3683
ragen	-3684
▁auge	-3685
▁vorh	-3686
▁ahnung	-3687
alisierung	-3688
▁eigenschaften	-3689
gl	-3690
gien	-3691
üllt	-3692
teilen	-3693
▁liste	-3694
▁gewinn	-3695
▁massen	-3696
▁worten	-3697
▁begeister	-3698
ket	-3699
iforn	-3700
istor	-3701
scher	-3702
raucht	-3703
brechen	-3704
▁bedürf	-3705
▁ganzes	-3706
▁lernte	-3707
▁rechten	-3708
▁designer	-3709
wa	-3710
zü	-3711
▁as	-3712
▁zi	-3713
iete	-3714
bewer	-3715
ießen	-3716
▁nütz	-3717
▁titel	-3718
spielen	-3719
▁gering	-3720
britannien	-3721
wick	-3722
▁kla	-3723
▁tem	-3724
eller	-3725
▁inte	-3726
▁weib	-3727
▁bäume	-3728
▁spekt	-3729
alismus	-3730
▁farben	-3731
▁zustand	-3732
▁biologie	-3733
▁produkte	-3734
▁bemerkens	-3735
▁sauerstoff	-3736
els	-3737
prü	-3738
▁rot	-3739
stadt	-3740
▁komme	-3741
▁zusch	-3742
▁freude	-3743
▁london	-3744
▁tieren	-3745
▁trifft	-3746
▁interessanter	-3747
▁landwirtschaft	-3748
ane	-3749
keln	-3750
tens	-3751
▁mut	-3752
▁wun	-3753
ühren	-3754
▁legen	-3755
▁tolle	-3756
drücken	-3757
▁einsch	-3758
▁frühen	-3759
▁fällen	-3760
▁häufig	-3761
▁waffen	-3762
▁aufgenommen	-3763
▁materialien	-3764
▁konzentrieren	-3765
üst	-3766
anda	-3767
▁197	-3768
▁amp	-3769
▁schwei	-3770
▁verfüg	-3771
▁wandel	-3772
▁fenster	-3773
▁spreche	-3774
▁projekte	-3775
▁verfügung	-3776
ron	-3777
reise	-3778
entlich	-3779
▁erstes	-3780
▁schlag	-3781
▁größere	-3782
▁polizei	-3783
▁nächstes	-3784
gor	-3785
▁24	-3786
▁gu	-3787
▁ke	-3788
othe	-3789
▁del	-3790
▁tal	-3791
auern	-3792
gress	-3793
▁ansatz	-3794
▁bestand	-3795
▁eigenes	-3796
▁entlang	-3797
▁beantwor	-3798
▁freunden	-3799
▁verbringen	-3800
▁kontrollieren	-3801
ourn	-3802
▁300	-3803
afrik	-3804
örung	-3805
▁halb	-3806
▁heran	-3807
▁motor	-3808
▁neuer	-3809
▁werte	-3810
haltung	-3811
▁mechan	-3812
▁seines	-3813
▁vertei	-3814
▁erzeugt	-3815
▁verhält	-3816
▁gegangen	-3817
▁nahrungs	-3818
▁repräsen	-3819
▁entstehen	-3820
▁existiert	-3821
▁sicherlich	-3822
app	-3823
▁beit	-3824
▁bill	-3825
▁gang	-3826
▁merk	-3827
▁nähe	-3828
▁steu	-3829
▁wald	-3830
ochter	-3831
▁jugend	-3832
▁geschle	-3833
▁knochen	-3834
▁begonnen	-3835
▁fortschritt	-3836
▁gesundheits	-3837
bol	-3838
text	-3839
▁jün	-3840
isser	-3841
ühlen	-3842
tigung	-3843
▁zelle	-3844
▁besuch	-3845
▁reicht	-3846
▁schöne	-3847
▁entfern	-3848
▁größeren	-3849
▁allerdings	-3850
▁infrastruktur	-3851
▁verantwortung	-3852
ged	-3853
▁sm	-3854
ende	-3855
ogel	-3856
oper	-3857
stre	-3858
krank	-3859
losen	-3860
▁atmo	-3861
frieden	-3862
▁beteil	-3863
▁westen	-3864
▁dennoch	-3865
▁männern	-3866
▁schluss	-3867
▁erlauben	-3868
▁großbritannien	-3869
üsse	-3870
▁blog	-3871
▁face	-3872
▁habt	-3873
▁wett	-3874
▁islam	-3875
▁stolz	-3876
setzung	-3877
▁kämpfen	-3878
▁herzustellen	-3879
abt	-3880
ährt	-3881
mente	-3882
sagen	-3883
▁osten	-3884
▁geschafft	-3885
▁werkzeuge	-3886
▁auseinander	-3887
▁gelegenheit	-3888
▁kreativität	-3889
tu	-3890
itu	-3891
mon	-3892
ool	-3893
gier	-3894
▁hom	-3895
▁ken	-3896
hause	-3897
hilfe	-3898
wechs	-3899
▁proje	-3900
vention	-3901
▁tochter	-3902
▁brauchte	-3903
▁industrie	-3904
▁wichtigsten	-3905
anke	-3906
ickt	-3907
mmun	-3908
▁hey	-3909
▁fett	-3910
▁gilt	-3911
▁iran	-3912
▁kauf	-3913
▁ließ	-3914
▁tanz	-3915
▁fühlt	-3916
▁somit	-3917
▁riesigen	-3918
▁irgendwann	-3919
▁nö	-3920
künf	-3921
▁196	-3922
ement	-3923
▁fran	-3924
▁dorthin	-3925
▁industr	-3926
▁version	-3927
▁neuronen	-3928
ami	-3929
ana	-3930
ote	-3931
ckte	-3932
▁tim	-3933
▁arab	-3934
▁brot	-3935
▁glas	-3936
orgung	-3937
▁schim	-3938
▁dunkel	-3939
▁haupts	-3940
▁plastik	-3941
▁elektron	-3942
▁weiterhin	-3943
üben	-3944
▁neg	-3945
krieg	-3946
ttern	-3947
▁klingt	-3948
▁privat	-3949
▁depress	-3950
▁genutzt	-3951
▁beeinflusst	-3952
tät	-3953
▁ed	-3954
stab	-3955
▁bud	-3956
▁red	-3957
▁ten	-3958
▁zit	-3959
mögen	-3960
▁prot	-3961
▁rech	-3962
lieben	-3963
untern	-3964
▁klassen	-3965
▁kompliz	-3966
▁it	-3967
book	-3968
geln	-3969
▁mex	-3970
▁wal	-3971
bruch	-3972
frage	-3973
meter	-3974
▁atom	-3975
▁leid	-3976
▁david	-3977
▁nehme	-3978
▁rücken	-3979
minister	-3980
▁dagegen	-3981
▁unsicht	-3982
▁verletz	-3983
▁einfacher	-3984
▁temperatur	-3985
ächt	-3986
▁tum	-3987
ilien	-3988
▁isra	-3989
formen	-3990
▁kennt	-3991
▁sogen	-3992
osystem	-3993
▁konstru	-3994
alisieren	-3995
zubringen	-3996
▁gefangen	-3997
▁karriere	-3998
geschlossen	-3999
▁produziert	-4000
▁geschwindigkeit	-4001
asi	-4002
urm	-4003
▁loch	-4004
▁temp	-4005
proble	-4006
▁langen	-4007
▁ameisen	-4008
▁überras	-4009
▁deutlich	-4010
▁investieren	-4011
▁beeinflussen	-4012
▁unterschiede	-4013
cy	-4014
▁fok	-4015
bieren	-4016
gleich	-4017
entwick	-4018
▁karten	-4019
▁verrück	-4020
▁stellten	-4021
▁fernsehen	-4022
▁komplexität	-4023
▁letztendlich	-4024
▁zusammenhang	-4025
fil	-4026
ttet	-4027
▁them	-4028
ration	-4029
▁opfer	-4030
▁passen	-4031
▁philos	-4032
zeichnen	-4033
▁entsteht	-4034
▁zufällig	-4035
▁entschied	-4036
▁reagieren	-4037
▁ermöglichen	-4038
▁medikamente	-4039
up	-4040
leun	-4041
▁zäh	-4042
erken	-4043
heben	-4044
neten	-4045
zlich	-4046
▁mond	-4047
gorith	-4048
▁typen	-4049
▁kostet	-4050
▁begriff	-4051
▁gewicht	-4052
▁zuhause	-4053
▁vielfalt	-4054
▁werkzeug	-4055
▁wiederum	-4056
▁geschäfts	-4057
par	-4058
woh	-4059
enze	-4060
stau	-4061
▁holz	-4062
▁mass	-4063
▁davor	-4064
▁eröff	-4065
▁hielt	-4066
▁virus	-4067
stellte	-4068
tisches	-4069
spektive	-4070
▁gefühle	-4071
▁zeichen	-4072
▁dieselbe	-4073
▁intervie	-4074
▁erstellen	-4075
▁verbindungen	-4076
▁jo	-4077
arch	-4078
bank	-4079
▁che	-4080
▁end	-4081
▁wär	-4082
▁band	-4083
▁port	-4084
▁russ	-4085
▁spür	-4086
tember	-4087
treten	-4088
▁autor	-4089
▁fühle	-4090
▁klass	-4091
dimension	-4092
▁aufgaben	-4093
▁effizien	-4094
▁botschaft	-4095
▁politische	-4096
gri	-4097
hör	-4098
▁fo	-4099
▁eth	-4100
▁sub	-4101
fisch	-4102
folge	-4103
fälle	-4104
▁gold	-4105
tation	-4106
▁lasst	-4107
▁töten	-4108
spieler	-4109
▁kunden	-4110
▁einsatz	-4111
▁kilometer	-4112
▁ökosystem	-4113
▁produktion	-4114
▁vermutlich	-4115
▁hoffentlich	-4116
▁üb	-4117
▁cam	-4118
▁imp	-4119
▁bras	-4120
▁satz	-4121
▁klang	-4122
▁reisen	-4123
▁verwir	-4124
▁ändert	-4125
▁fernseh	-4126
▁meistens	-4127
▁verkauft	-4128
▁studieren	-4129
loss	-4130
▁fak	-4131
▁not	-4132
istenz	-4133
▁gaben	-4134
▁halte	-4135
▁solch	-4136
▁entspr	-4137
verständ	-4138
▁materie	-4139
▁zentrum	-4140
▁insekten	-4141
▁erforschen	-4142
▁existieren	-4143
pfel	-4144
tiere	-4145
▁2000	-4146
nissen	-4147
▁akzep	-4148
▁todes	-4149
▁großteil	-4150
▁religion	-4151
▁verursacht	-4152
▁afghanistan	-4153
▁lebensmittel	-4154
▁entwicklungsl	-4155
ds	-4156
arm	-4157
gabe	-4158
ufen	-4159
umente	-4160
bereich	-4161
▁israel	-4162
▁ausbildung	-4163
▁politischen	-4164
▁gesellschaften	-4165
mel	-4166
fekt	-4167
kele	-4168
osau	-4169
otyp	-4170
▁erl	-4171
krebs	-4172
▁result	-4173
jährigen	-4174
▁demokra	-4175
▁kontakt	-4176
▁schafft	-4177
▁verkauf	-4178
▁gewonnen	-4179
▁übertragen	-4180
▁wunderschön	-4181
▁unterstützung	-4182
▁yo	-4183
▁asp	-4184
▁dün	-4185
▁kir	-4186
haben	-4187
igung	-4188
▁fach	-4189
digung	-4190
wohner	-4191
▁roten	-4192
▁zentr	-4193
▁kurzem	-4194
▁vorber	-4195
▁werfen	-4196
▁wunsch	-4197
▁tausend	-4198
▁weiteres	-4199
▁beschreiben	-4200
oge	-4201
▁con	-4202
▁ehe	-4203
▁sal	-4204
▁dreh	-4205
▁dynam	-4206
▁minde	-4207
▁stoff	-4208
zwischen	-4209
▁sekunde	-4210
▁steigen	-4211
▁schwarze	-4212
▁behandelt	-4213
▁benötigen	-4214
▁herausgefunden	-4215
▁zusammenarbeit	-4216
ente	-4217
gern	-4218
ling	-4219
vier	-4220
▁bom	-4221
▁mel	-4222
▁saß	-4223
▁web	-4224
▁golf	-4225
▁irak	-4226
▁umzu	-4227
ations	-4228
gramme	-4229
heorie	-4230
vollen	-4231
▁genom	-4232
▁unbed	-4233
▁vogel	-4234
▁weiss	-4235
isieren	-4236
jährige	-4237
▁drehen	-4238
▁städten	-4239
▁facebook	-4240
▁gestalten	-4241
▁universums	-4242
▁hintergrund	-4243
▁kommunizieren	-4244
hei	-4245
üle	-4246
jahr	-4247
mann	-4248
uder	-4249
ildet	-4250
▁müll	-4251
▁begeg	-4252
▁journ	-4253
▁drittel	-4254
▁relativ	-4255
▁betrifft	-4256
▁erinnert	-4257
▁schimpan	-4258
▁soldaten	-4259
ungssystem	-4260
▁vollkommen	-4261
zy	-4262
anne	-4263
▁dom	-4264
▁zut	-4265
liten	-4266
stein	-4267
▁anru	-4268
▁linken	-4269
ifornien	-4270
maschine	-4271
▁alleine	-4272
▁diskuss	-4273
▁neugier	-4274
▁stecken	-4275
▁qualität	-4276
▁atmosphäre	-4277
ens	-4278
sse	-4279
unt	-4280
iden	-4281
iell	-4282
itzt	-4283
lege	-4284
halte	-4285
schlä	-4286
▁bloß	-4287
▁chir	-4288
▁koll	-4289
▁abges	-4290
▁babys	-4291
▁metap	-4292
▁sterne	-4293
▁buchstä	-4294
▁spieler	-4295
▁benötigt	-4296
▁überzeugt	-4297
▁bedingungen	-4298
▁furch	-4299
▁wirst	-4300
fiziert	-4301
zusehen	-4302
änglich	-4303
▁berühm	-4304
▁stress	-4305
▁umgehen	-4306
▁gemeinde	-4307
▁unbedingt	-4308
▁verdienen	-4309
▁tw	-4310
twas	-4311
markt	-4312
reibt	-4313
stimm	-4314
▁jobs	-4315
▁ungl	-4316
gruppe	-4317
▁basis	-4318
▁dreht	-4319
▁niger	-4320
▁sitzt	-4321
▁solar	-4322
▁sowie	-4323
teilung	-4324
tierten	-4325
▁selber	-4326
▁erklärt	-4327
▁bezahlen	-4328
▁schließen	-4329
▁sozusagen	-4330
▁intelligenz	-4331
ames	-4332
▁rat	-4333
▁sil	-4334
frist	-4335
teles	-4336
▁affen	-4337
▁gefäl	-4338
▁handy	-4339
steller	-4340
▁nochmal	-4341
▁objekte	-4342
▁wahrneh	-4343
▁effektiv	-4344
▁entwerfen	-4345
▁verbreitet	-4346
va	-4347
abe	-4348
ong	-4349
ppt	-4350
fter	-4351
platz	-4352
▁feld	-4353
▁hund	-4354
▁lief	-4355
▁szen	-4356
▁schäd	-4357
▁stein	-4358
▁automa	-4359
▁integr	-4360
▁lautet	-4361
▁modernen	-4362
▁fundament	-4363
▁identität	-4364
▁konferenz	-4365
▁natürliche	-4366
▁organisationen	-4367
sb	-4368
ada	-4369
▁gä	-4370
▁ol	-4371
angt	-4372
digt	-4373
fest	-4374
▁text	-4375
▁bewir	-4376
▁sport	-4377
zeichen	-4378
▁berech	-4379
▁bitten	-4380
▁hinweg	-4381
▁konsum	-4382
▁religi	-4383
▁kontext	-4384
▁perfekt	-4385
▁verkehr	-4386
▁augenblick	-4387
▁möglicherweise	-4388
▁veröffentlicht	-4389
uz	-4390
far	-4391
▁ki	-4392
eien	-4393
▁emp	-4394
träge	-4395
▁aids	-4396
▁fabr	-4397
mutter	-4398
▁erzie	-4399
▁gross	-4400
▁masse	-4401
▁starb	-4402
▁mitten	-4403
richtung	-4404
schlagen	-4405
▁falsche	-4406
▁modelle	-4407
▁besitzen	-4408
▁besseren	-4409
▁verfolgen	-4410
▁beschäftigt	-4411
▁interaktion	-4412
▁durchgeführt	-4413
▁entwickelten	-4414
kan	-4415
amin	-4416
▁bank	-4417
▁laufe	-4418
▁radio	-4419
▁diagno	-4420
▁dienst	-4421
▁themen	-4422
▁zukünf	-4423
▁anderem	-4424
▁mitglie	-4425
▁eindruck	-4426
technologie	-4427
▁bildschirm	-4428
▁buchstäblich	-4429
▁amerikanische	-4430
zur	-4431
bewe	-4432
ford	-4433
ille	-4434
inne	-4435
▁null	-4436
▁bewer	-4437
▁multi	-4438
▁weder	-4439
▁geräte	-4440
▁schlau	-4441
▁weiteren	-4442
▁katastrop	-4443
▁unternehmer	-4444
▁vergleichen	-4445
fach	-4446
ttel	-4447
▁fei	-4448
▁tex	-4449
▁dick	-4450
▁austr	-4451
▁hohen	-4452
▁kaffe	-4453
▁woher	-4454
herapie	-4455
schauen	-4456
schrift	-4457
▁lieber	-4458
▁reichen	-4459
chtigkeit	-4460
ungskraft	-4461
▁erwartet	-4462
▁korallen	-4463
▁schlimmer	-4464
ingu	-4465
▁sam	-4466
▁syn	-4467
ätsel	-4468
▁getr	-4469
▁prim	-4470
schule	-4471
▁testen	-4472
▁geführt	-4473
▁gegenteil	-4474
▁milliarde	-4475
▁hauptsächlich	-4476
rah	-4477
ptop	-4478
▁ass	-4479
▁fle	-4480
ichen	-4481
▁astr	-4482
▁bett	-4483
▁ehem	-4484
▁hohe	-4485
▁roman	-4486
▁satel	-4487
geladen	-4488
▁histor	-4489
programm	-4490
▁bildern	-4491
▁fragten	-4492
▁führung	-4493
▁kümmern	-4494
▁galaxien	-4495
▁gegensei	-4496
▁gewissen	-4497
▁leistung	-4498
▁beschleun	-4499
▁problemen	-4500
▁kohlenstoff	-4501
sver	-4502
werte	-4503
▁geor	-4504
▁virt	-4505
reffen	-4506
▁beine	-4507
▁frank	-4508
▁franz	-4509
▁freiw	-4510
gewicht	-4511
▁bauern	-4512
▁meilen	-4513
▁vision	-4514
▁fleisch	-4515
▁forscher	-4516
▁lieblings	-4517
▁interagieren	-4518
dio	-4519
kor	-4520
ole	-4521
▁mc	-4522
▁150	-4523
▁20.	-4524
▁cha	-4525
▁daß	-4526
▁mos	-4527
tiker	-4528
▁klei	-4529
artige	-4530
▁extra	-4531
▁jungs	-4532
▁liter	-4533
ächtnis	-4534
▁erster	-4535
▁europä	-4536
▁mütter	-4537
▁sauber	-4538
▁symbol	-4539
▁worüber	-4540
by	-4541
orgt	-4542
sinn	-4543
▁400	-4544
▁prü	-4545
▁ruh	-4546
▁usw	-4547
zität	-4548
▁ecke	-4549
zeiten	-4550
▁museum	-4551
▁steckt	-4552
▁gestern	-4553
▁täglich	-4554
▁gelangen	-4555
▁bestimmen	-4556
▁präsident	-4557
▁vorhanden	-4558
▁wettbewer	-4559
▁gefährlich	-4560
▁überrascht	-4561
▁überzeugen	-4562
ieß	-4563
▁ac	-4564
omie	-4565
▁getö	-4566
▁angel	-4567
▁fragt	-4568
▁schiff	-4569
▁stabil	-4570
alisiert	-4571
▁teilchen	-4572
▁zurückzu	-4573
▁praktisch	-4574
▁persönlich	-4575
▁wunderbare	-4576
band	-4577
▁halt	-4578
afrika	-4579
▁colle	-4580
▁restau	-4581
▁geschen	-4582
▁kindheit	-4583
▁zunehmen	-4584
kn	-4585
del	-4586
deu	-4587
fun	-4588
rup	-4589
▁hyp	-4590
▁orig	-4591
▁rand	-4592
testen	-4593
▁hängt	-4594
▁könnt	-4595
▁stift	-4596
▁analys	-4597
▁bedroh	-4598
▁nerven	-4599
▁wächst	-4600
▁gesetze	-4601
▁irgende	-4602
▁einsetzen	-4603
hö	-4604
wood	-4605
ößen	-4606
▁tue	-4607
tigte	-4608
▁city	-4609
▁laden	-4610
▁total	-4611
▁haufen	-4612
▁begrenz	-4613
▁welchen	-4614
▁strukturen	-4615
▁verhindern	-4616
▁irgendetwas	-4617
▁institutionen	-4618
▁hu	-4619
▁ox	-4620
▁vö	-4621
ramm	-4622
tert	-4623
▁kno	-4624
▁mem	-4625
▁seh	-4626
▁setzt	-4627
achtung	-4628
▁belohn	-4629
▁dürfen	-4630
▁algorith	-4631
▁gewisser	-4632
▁scheinen	-4633
▁verbracht	-4634
▁erinnerung	-4635
▁mindestens	-4636
lös	-4637
▁1.	-4638
adem	-4639
klus	-4640
lekt	-4641
▁ven	-4642
hafte	-4643
▁drama	-4644
▁gehabt	-4645
▁glaubt	-4646
▁steuern	-4647
▁verzwei	-4648
▁kürzlich	-4649
▁aktivität	-4650
▁interview	-4651
▁kalifornien	-4652
▁wesentlichen	-4653
▁verantwortlich	-4654
pft	-4655
sal	-4656
test	-4657
▁bekä	-4658
▁ment	-4659
▁filme	-4660
quenzen	-4661
▁bruder	-4662
▁norden	-4663
▁rätsel	-4664
▁videos	-4665
▁gewisse	-4666
▁begeistert	-4667
▁verwandeln	-4668
▁vollständig	-4669
eng	-4670
▁35	-4671
▁ban	-4672
terie	-4673
▁eure	-4674
▁wild	-4675
▁zell	-4676
▁holen	-4677
▁kurze	-4678
itionen	-4679
▁gefahr	-4680
▁gewebe	-4681
▁liefer	-4682
▁willen	-4683
osaurier	-4684
▁genauer	-4685
▁unglück	-4686
▁landschaft	-4687
▁verhaltens	-4688
▁interessieren	-4689
▁öffentlichkeit	-4690
lü	-4691
ash	-4692
dit	-4693
let	-4694
met	-4695
mil	-4696
pre	-4697
▁ah	-4698
▁hi	-4699
▁trend	-4700
▁heimat	-4701
▁intens	-4702
▁erzähle	-4703
▁morgens	-4704
▁patient	-4705
blichkeit	-4706
▁philosoph	-4707
▁versuchten	-4708
ara	-4709
lev	-4710
▁ba	-4711
▁col	-4712
▁deb	-4713
macht	-4714
▁post	-4715
atoren	-4716
ändert	-4717
▁angew	-4718
▁sucht	-4719
▁zimmer	-4720
▁elektro	-4721
▁getötet	-4722
richtungen	-4723
▁angesehen	-4724
▁schimpansen	-4725
▁öffentliche	-4726
▁verschwinden	-4727
kr	-4728
ns	-4729
ban	-4730
▁kra	-4731
geber	-4732
reite	-4733
▁maus	-4734
lionen	-4735
▁lernt	-4736
▁ziele	-4737
▁händen	-4738
▁rahmen	-4739
▁schaff	-4740
▁steuer	-4741
▁bemerkt	-4742
▁vorteil	-4743
rag	-4744
▁nan	-4745
▁wow	-4746
▁wäh	-4747
hingt	-4748
nimmt	-4749
▁kamer	-4750
▁schönen	-4751
▁spiegel	-4752
▁experten	-4753
▁unterscheiden	-4754
fir	-4755
▁ev	-4756
▁rä	-4757
dige	-4758
esch	-4759
läss	-4760
wohn	-4761
▁anh	-4762
▁sep	-4763
▁aufs	-4764
isiert	-4765
ktiven	-4766
▁flüss	-4767
▁teuer	-4768
hington	-4769
▁dauert	-4770
▁zucker	-4771
▁einiger	-4772
▁england	-4773
▁seitdem	-4774
▁eingesetzt	-4775
gyp	-4776
idem	-4777
äden	-4778
▁fig	-4779
▁unw	-4780
tiges	-4781
usion	-4782
zelle	-4783
▁mund	-4784
▁volk	-4785
▁bieten	-4786
▁erhält	-4787
▁minute	-4788
stellten	-4789
▁element	-4790
▁gedanke	-4791
▁restauran	-4792
▁arbeiteten	-4793
▁washington	-4794
izi	-4795
pekt	-4796
▁les	-4797
▁impf	-4798
▁sitz	-4799
▁folge	-4800
agement	-4801
▁riesen	-4802
▁weißen	-4803
▁überle	-4804
▁gehirne	-4805
▁richard	-4806
▁schnitt	-4807
▁twitter	-4808
▁aufhören	-4809
▁normalen	-4810
▁entworfen	-4811
mail	-4812
▁lan	-4813
▁tor	-4814
▁umge	-4815
gesell	-4816
▁stimm	-4817
▁unend	-4818
bewesen	-4819
meister	-4820
▁beweis	-4821
▁deinen	-4822
▁hoffen	-4823
▁häuser	-4824
▁nannte	-4825
▁basiert	-4826
▁bekamen	-4827
▁mission	-4828
▁normale	-4829
▁schaute	-4830
▁wenigen	-4831
▁gespräch	-4832
▁september	-4833
▁erkenntnis	-4834
urf	-4835
▁inn	-4836
▁rie	-4837
fahrt	-4838
fügen	-4839
▁fiel	-4840
▁mess	-4841
▁tiefe	-4842
gegeben	-4843
▁grenze	-4844
▁lustig	-4845
fizieren	-4846
▁erfinden	-4847
▁gehalten	-4848
▁mögliche	-4849
▁nationen	-4850
▁geschlecht	-4851
▁beantworten	-4852
lieb	-4853
wegs	-4854
▁klu	-4855
▁ref	-4856
▁dran	-4857
▁intu	-4858
▁kogn	-4859
▁pfer	-4860
zeugen	-4861
▁konse	-4862
▁musli	-4863
▁nutzt	-4864
▁symme	-4865
▁wahre	-4866
▁fische	-4867
▁müsste	-4868
▁quadrat	-4869
▁verbrau	-4870
▁moleküle	-4871
▁ungewöhn	-4872
▁schwester	-4873
▁hergestellt	-4874
▁unterschiedlich	-4875
eff	-4876
hlt	-4877
▁nu	-4878
frau	-4879
üste	-4880
▁gas	-4881
holen	-4882
trieb	-4883
fische	-4884
▁aufst	-4885
▁brenn	-4886
▁demon	-4887
▁schne	-4888
amerika	-4889
▁10.000	-4890
▁meiste	-4891
▁schlagen	-4892
▁schwimmen	-4893
▁verbreiten	-4894
▁experimente	-4895
opp	-4896
▁ap	-4897
tial	-4898
▁dur	-4899
▁tab	-4900
gerät	-4901
kehren	-4902
stelle	-4903
▁toile	-4904
▁ausgeb	-4905
▁fehlen	-4906
▁korrup	-4907
▁kräfte	-4908
▁laptop	-4909
▁ließen	-4910
▁starke	-4911
ologische	-4912
▁zeitalter	-4913
▁dinosaurier	-4914
asa	-4915
dia	-4916
för	-4917
zäh	-4918
auber	-4919
ologe	-4920
▁schlä	-4921
▁trägt	-4922
▁beinah	-4923
▁echten	-4924
▁kooper	-4925
▁schien	-4926
▁schlie	-4927
▁college	-4928
▁stärker	-4929
unternehmen	-4930
▁satelliten	-4931
▁fantastisch	-4932
▁perspektive	-4933
▁0	-4934
spl	-4935
tex	-4936
▁ech	-4937
▁zog	-4938
▁boot	-4939
▁gäbe	-4940
utzung	-4941
▁disku	-4942
flächen	-4943
ordnung	-4944
▁vieler	-4945
▁elektri	-4946
▁verschl	-4947
▁abhängig	-4948
▁ungleich	-4949
▁aufregend	-4950
▁gegensatz	-4951
▁geheimnis	-4952
▁professor	-4953
▁zufrieden	-4954
▁entdeckung	-4955
▁entstanden	-4956
▁forschungs	-4957
ym	-4958
ian	-4959
pagne	-4960
▁cent	-4961
▁ägyp	-4962
fragen	-4963
▁block	-4964
▁domin	-4965
▁voran	-4966
▁entsch	-4967
▁grafik	-4968
▁brauche	-4969
▁gehören	-4970
▁langwei	-4971
▁überprü	-4972
▁entspricht	-4973
von	-4974
▁tu	-4975
inter	-4976
kreis	-4977
▁drin	-4978
▁grös	-4979
▁reag	-4980
▁unge	-4981
uliert	-4982
▁erleb	-4983
▁wisst	-4984
▁wobei	-4985
führung	-4986
▁zählen	-4987
▁inneren	-4988
▁moderne	-4989
▁behalten	-4990
ologischen	-4991
▁brasilien	-4992
▁organismen	-4993
wissenschaft	-4994
▁entwickelte	-4995
da	-4996
dy	-4997
cis	-4998
eut	-4999
use	-5000
▁cy	-5001
iven	-5002
serv	-5003
▁wik	-5004
karte	-5005
▁anim	-5006
▁stat	-5007
gesetz	-5008
▁still	-5009
▁unbek	-5010
istisch	-5011
▁aufgew	-5012
▁doktor	-5013
▁drüben	-5014
▁dutzen	-5015
▁erlebt	-5016
▁beinhal	-5017
▁bezahlt	-5018
▁gelesen	-5019
▁körpers	-5020
▁respekt	-5021
▁erkannte	-5022
▁brauchten	-5023
▁lebewesen	-5024
▁mittleren	-5025
▁politiker	-5026
kä	-5027
dru	-5028
pol	-5029
iten	-5030
▁21.	-5031
▁bie	-5032
ierer	-5033
ängst	-5034
▁dumm	-5035
▁elef	-5036
▁gras	-5037
iertes	-5038
swesen	-5039
▁insel	-5040
▁musst	-5041
▁parad	-5042
▁radik	-5043
artigen	-5044
▁astron	-5045
▁dunkle	-5046
▁planet	-5047
bewegung	-5048
▁interpre	-5049
▁wichtigen	-5050
▁angenommen	-5051
▁schlechten	-5052
2-	-5053
ex	-5054
yse	-5055
üte	-5056
akte	-5057
pern	-5058
▁bon	-5059
fluss	-5060
kosten	-5061
▁hallo	-5062
▁krise	-5063
▁lebte	-5064
▁passt	-5065
▁repar	-5066
▁abstra	-5067
▁kurzen	-5068
▁schock	-5069
▁buchsta	-5070
▁kriegen	-5071
fähigkeit	-5072
▁entschul	-5073
▁hinsicht	-5074
▁konflikt	-5075
▁methoden	-5076
stellungen	-5077
▁schwarzen	-5078
▁zuschauer	-5079
▁erscheinen	-5080
▁entsprechen	-5081
▁generationen	-5082
ac	-5083
amt	-5084
gas	-5085
rid	-5086
flug	-5087
asste	-5088
phone	-5089
▁dach	-5090
▁jähr	-5091
▁roll	-5092
derung	-5093
▁viren	-5094
▁weißt	-5095
▁zweck	-5096
schland	-5097
▁furcht	-5098
▁helden	-5099
▁einheit	-5100
▁aufbauen	-5101
▁brachten	-5102
▁gemeinden	-5103
▁definieren	-5104
▁zugänglich	-5105
oc	-5106
til	-5107
kurr	-5108
ular	-5109
▁len	-5110
ischt	-5111
komme	-5112
▁frie	-5113
modell	-5114
riften	-5115
▁folgt	-5116
▁hotel	-5117
▁verpf	-5118
ständen	-5119
▁fakten	-5120
▁wellen	-5121
▁einstein	-5122
▁elemente	-5123
▁geändert	-5124
▁bewegungen	-5125
▁individuen	-5126
▁verbrachte	-5127
▁wahrnehmung	-5128
▁internationale	-5129
,5	-5130
nü	-5131
po	-5132
lad	-5133
▁45	-5134
▁feu	-5135
▁wom	-5136
dient	-5137
▁lied	-5138
fallen	-5139
▁milch	-5140
▁times	-5141
▁aspekt	-5142
▁auftau	-5143
▁kaffee	-5144
▁linien	-5145
▁stammt	-5146
▁wetter	-5147
▁fördern	-5148
▁kapital	-5149
▁starten	-5150
▁viertel	-5151
▁anwenden	-5152
▁gefahren	-5153
▁prototyp	-5154
▁gestorben	-5155
▁reduzieren	-5156
▁schlechter	-5157
▁erwachsenen	-5158
▁elektrizität	-5159
▁veröffentlich	-5160
▁internationalen	-5161
kopf	-5162
äuse	-5163
▁bra	-5164
▁leg	-5165
besch	-5166
mäßig	-5167
▁ermu	-5168
▁isol	-5169
▁fängt	-5170
▁halbe	-5171
alisten	-5172
projekt	-5173
▁ausmaß	-5174
▁verlie	-5175
▁theater	-5176
▁entgegen	-5177
▁ersetzen	-5178
▁weltraum	-5179
▁abschluss	-5180
▁zerstören	-5181
▁beschlossen	-5182
uhr	-5183
vir	-5184
eben	-5185
hyth	-5186
▁tom	-5187
▁atem	-5188
▁fuhr	-5189
▁stad	-5190
werden	-5191
▁meist	-5192
▁schie	-5193
▁weile	-5194
▁garten	-5195
▁nachts	-5196
▁träume	-5197
▁wolken	-5198
ographie	-5199
zusetzen	-5200
▁beweisen	-5201
▁komplexe	-5202
▁nützlich	-5203
▁schatten	-5204
▁netzwerke	-5205
▁verfügbar	-5206
▁wohlstand	-5207
▁überlegen	-5208
▁erstaunliche	-5209
▁traditionellen	-5210
res	-5211
hung	-5212
rale	-5213
▁ros	-5214
▁stau	-5215
recher	-5216
▁blind	-5217
▁besitz	-5218
▁eindeu	-5219
▁sparen	-5220
▁wander	-5221
▁beinahe	-5222
▁details	-5223
▁spielte	-5224
▁verbindet	-5225
▁natürlichen	-5226
▁beschäftigen	-5227
▁beispielsweise	-5228
bas	-5229
mma	-5230
prä	-5231
üge	-5232
▁99	-5233
frei	-5234
nahm	-5235
passt	-5236
▁code	-5237
▁live	-5238
aturen	-5239
fangen	-5240
gehend	-5241
rechte	-5242
spruch	-5243
▁behin	-5244
▁paten	-5245
▁wagen	-5246
zentrum	-5247
▁schlaf	-5248
▁ansicht	-5249
▁beweise	-5250
▁francis	-5251
▁konkurr	-5252
▁maßstab	-5253
▁beschrän	-5254
▁beschloss	-5255
▁besondere	-5256
issenschaft	-5257
▁wesentlich	-5258
▁grundlegende	-5259
▁medizinische	-5260
▁schwierigkeiten	-5261
hel	-5262
utt	-5263
klen	-5264
rige	-5265
stat	-5266
öpfe	-5267
ühlt	-5268
▁erm	-5269
▁kerl	-5270
▁rote	-5271
schrän	-5272
▁nötig	-5273
▁wuchs	-5274
▁übrig	-5275
▁dauern	-5276
▁größen	-5277
▁lebten	-5278
▁berechn	-5279
▁fischer	-5280
▁gefällt	-5281
▁geistes	-5282
▁schaden	-5283
▁umgeben	-5284
▁website	-5285
▁überein	-5286
▁transpar	-5287
▁emotionen	-5288
▁entdeckte	-5289
▁erklärung	-5290
▁deutschland	-5291
möglichkeiten	-5292
▁zivilisation	-5293
tä	-5294
gro	-5295
org	-5296
tro	-5297
war	-5298
anen	-5299
▁zuzu	-5300
umenten	-5301
▁erwart	-5302
▁inhalt	-5303
▁school	-5304
▁derzeit	-5305
▁install	-5306
▁werbung	-5307
mensionen	-5308
▁annehmen	-5309
▁arbeiter	-5310
▁zerstört	-5311
ehm	-5312
hält	-5313
ippe	-5314
mord	-5315
sser	-5316
▁off	-5317
ichts	-5318
schau	-5319
olitik	-5320
▁blieb	-5321
▁pingu	-5322
▁quasi	-5323
▁chemik	-5324
▁heißen	-5325
▁willst	-5326
▁zusätz	-5327
▁vergröß	-5328
▁zeichnen	-5329
▁aufgebaut	-5330
▁erscheint	-5331
▁intellekt	-5332
▁darstellen	-5333
▁jedenfalls	-5334
▁verhältnis	-5335
ls	-5336
jem	-5337
ube	-5338
äne	-5339
▁fru	-5340
bares	-5341
fähig	-5342
wagen	-5343
▁bemüh	-5344
▁verab	-5345
fordert	-5346
gruppen	-5347
sprache	-5348
▁anteil	-5349
▁setzte	-5350
▁steigt	-5351
▁sequenz	-5352
▁nachbarn	-5353
▁operation	-5354
▁vorfahren	-5355
▁beobachtet	-5356
▁mitarbeiter	-5357
▁selbstverständ	-5358
ld	-5359
uß	-5360
▁ew	-5361
▁sl	-5362
▁ve	-5363
ufel	-5364
▁anb	-5365
▁lass	-5366
▁witz	-5367
üchern	-5368
▁fähig	-5369
▁platt	-5370
▁stufe	-5371
▁vorne	-5372
▁weiße	-5373
▁zitat	-5374
▁christ	-5375
▁durchs	-5376
▁pflanz	-5377
▁schuld	-5378
endungen	-5379
▁gebeten	-5380
▁solange	-5381
▁spannen	-5382
▁freundin	-5383
▁vermitteln	-5384
▁schrecklich	-5385
▁situationen	-5386
▁grundsätzlich	-5387
com	-5388
ozi	-5389
aria	-5390
eise	-5391
herr	-5392
ones	-5393
▁got	-5394
▁pun	-5395
▁roh	-5396
▁sum	-5397
tzeit	-5398
▁baut	-5399
▁kosm	-5400
▁spir	-5401
▁feind	-5402
▁fälle	-5403
▁kohle	-5404
▁konfr	-5405
▁anführ	-5406
▁mexiko	-5407
▁tiefer	-5408
▁erwähnt	-5409
▁französ	-5410
▁hindern	-5411
▁verdopp	-5412
istischen	-5413
▁vertraut	-5414
▁bereichen	-5415
▁irgendjem	-5416
▁langfrist	-5417
▁interessen	-5418
▁korruption	-5419
▁unabhängig	-5420
▁allgemeinen	-5421
▁erg	-5422
linge	-5423
▁qual	-5424
▁teen	-5425
▁bibli	-5426
▁toten	-5427
▁world	-5428
stimmen	-5429
▁darwin	-5430
▁enorme	-5431
▁handel	-5432
▁soviel	-5433
▁streit	-5434
▁mächtig	-5435
▁müssten	-5436
▁solcher	-5437
▁verring	-5438
▁kulturen	-5439
▁schlafen	-5440
▁geschickt	-5441
▁notwendig	-5442
▁großmutter	-5443
▁feststellen	-5444
see	-5445
vin	-5446
ügt	-5447
▁kö	-5448
▁pak	-5449
▁süß	-5450
ehren	-5451
▁bele	-5452
▁gemü	-5453
▁kreuz	-5454
▁vögel	-5455
▁ausgel	-5456
▁herein	-5457
▁junger	-5458
▁quelle	-5459
▁singen	-5460
▁umfeld	-5461
▁verblü	-5462
▁auswahl	-5463
▁italien	-5464
forschung	-5465
▁aufnahme	-5466
▁folgende	-5467
▁lebenser	-5468
▁schätzen	-5469
versorgung	-5470
▁digitalen	-5471
▁diskussion	-5472
▁inspiriert	-5473
▁medikament	-5474
▁persönlichen	-5475
yr	-5476
zig	-5477
dium	-5478
skop	-5479
▁dre	-5480
lager	-5481
unken	-5482
▁rake	-5483
▁zahn	-5484
▁anrei	-5485
▁bestä	-5486
▁enden	-5487
▁lager	-5488
▁stuhl	-5489
▁tumor	-5490
▁vorzu	-5491
▁erlaub	-5492
▁lehren	-5493
▁signal	-5494
▁ökonom	-5495
ktivität	-5496
▁schreib	-5497
isationen	-5498
▁besuchen	-5499
▁verteilt	-5500
▁kontinent	-5501
▁strategie	-5502
▁buchstaben	-5503
▁definition	-5504
▁vorhersagen	-5505
sc	-5506
fig	-5507
kri	-5508
▁mr	-5509
eten	-5510
vard	-5511
▁urs	-5512
▁lich	-5513
▁wurz	-5514
fahrer	-5515
tismus	-5516
▁letzt	-5517
▁stock	-5518
▁wofür	-5519
▁achten	-5520
▁effekt	-5521
▁freien	-5522
▁kochen	-5523
▁langer	-5524
▁treten	-5525
▁vergew	-5526
istische	-5527
▁hierher	-5528
▁student	-5529
▁versteht	-5530
▁aufnehmen	-5531
▁betroffen	-5532
▁aufzubauen	-5533
▁westlichen	-5534
▁persönliche	-5535
igte	-5536
kung	-5537
oben	-5538
ulpt	-5539
▁mas	-5540
▁wäl	-5541
▁zeh	-5542
erung	-5543
nungs	-5544
▁open	-5545
▁rief	-5546
▁seid	-5547
▁enorm	-5548
▁start	-5549
▁tests	-5550
▁zieht	-5551
▁chemie	-5552
▁diesel	-5553
▁grünen	-5554
▁zauber	-5555
▁molekül	-5556
▁verhand	-5557
▁bedenken	-5558
▁bereiche	-5559
▁erstellt	-5560
▁jahrzehnt	-5561
▁australien	-5562
▁untersucht	-5563
▁architekten	-5564
20	-5565
alog	-5566
mehr	-5567
ugel	-5568
▁top	-5569
ember	-5570
riffe	-5571
▁hind	-5572
▁obje	-5573
▁spät	-5574
kelett	-5575
▁gehör	-5576
▁blauen	-5577
▁ergibt	-5578
▁heisst	-5579
qualität	-5580
▁lokalen	-5581
▁anderson	-5582
▁diagramm	-5583
▁entstand	-5584
▁geräusch	-5585
▁gespielt	-5586
▁anwendung	-5587
▁beinhaltet	-5588
▁gegenseitig	-5589
▁schwieriger	-5590
▁unterstützt	-5591
▁faszinierend	-5592
öd	-5593
ida	-5594
int	-5595
ipe	-5596
pha	-5597
reu	-5598
reif	-5599
ston	-5600
▁air	-5601
ancen	-5602
eilen	-5603
mmert	-5604
weile	-5605
▁brut	-5606
▁haar	-5607
▁male	-5608
▁grüne	-5609
▁ledig	-5610
▁süden	-5611
▁hinten	-5612
▁kriegs	-5613
▁mittag	-5614
▁rechen	-5615
issionen	-5616
▁besitzt	-5617
▁harvard	-5618
▁lächeln	-5619
▁malaria	-5620
▁besessen	-5621
▁bildungs	-5622
▁gefallen	-5623
▁mehrheit	-5624
▁transpor	-5625
▁tausenden	-5626
▁vermeiden	-5627
▁verbessert	-5628
▁erinnerungen	-5629
▁unterrichten	-5630
tan	-5631
itel	-5632
kton	-5633
olly	-5634
üche	-5635
▁att	-5636
preis	-5637
staat	-5638
ublik	-5639
▁heiß	-5640
▁juli	-5641
▁prop	-5642
▁seht	-5643
fernen	-5644
üstung	-5645
▁gehol	-5646
▁hunde	-5647
▁kapit	-5648
▁rhyth	-5649
▁seele	-5650
problem	-5651
▁gegend	-5652
▁gelöst	-5653
▁kannte	-5654
▁sonder	-5655
▁stärke	-5656
▁vieles	-5657
▁worauf	-5658
▁berührt	-5659
▁niedrig	-5660
▁verlust	-5661
▁welchem	-5662
verbrauch	-5663
▁existenz	-5664
▁kreieren	-5665
▁ähnliche	-5666
▁lediglich	-5667
▁widerstand	-5668
▁irgendjemand	-5669
▁wirtschaftliche	-5670
kat	-5671
hrop	-5672
iein	-5673
klär	-5674
▁abw	-5675
▁etc	-5676
▁jan	-5677
othek	-5678
viert	-5679
▁eier	-5680
▁fehl	-5681
▁wahn	-5682
▁yout	-5683
kultur	-5684
▁gemäl	-5685
▁manip	-5686
▁schen	-5687
gründet	-5688
▁modern	-5689
sprozess	-5690
▁standen	-5691
verhalten	-5692
▁dahinter	-5693
▁digitale	-5694
▁kognitiv	-5695
▁kongress	-5696
▁betrachte	-5697
▁entfernen	-5698
▁potential	-5699
ied	-5700
eile	-5701
hört	-5702
ckten	-5703
ender	-5704
tritt	-5705
▁entz	-5706
▁kate	-5707
▁prob	-5708
▁synt	-5709
äusern	-5710
▁anstr	-5711
▁gesto	-5712
▁initi	-5713
▁bauten	-5714
▁rollen	-5715
▁teufel	-5716
▁tonnen	-5717
▁verknü	-5718
▁absicht	-5719
▁einiges	-5720
▁erkrank	-5721
▁risiken	-5722
▁zuhören	-5723
▁darunter	-5724
▁echtzeit	-5725
▁leistungs	-5726
▁teilweise	-5727
▁verlangen	-5728
▁zusammenf	-5729
▁überrasch	-5730
▁erwachsene	-5731
▁überwinden	-5732
▁menschlicher	-5733
hu	-5734
ram	-5735
lehr	-5736
nach	-5737
▁flu	-5738
▁gre	-5739
▁pan	-5740
hlung	-5741
kette	-5742
linie	-5743
▁grie	-5744
▁kurs	-5745
▁nett	-5746
▁real	-5747
iziert	-5748
reisen	-5749
▁blatt	-5750
▁hyper	-5751
einhalb	-5752
ließend	-5753
▁ausgew	-5754
▁blumen	-5755
▁epidem	-5756
▁herren	-5757
▁meinte	-5758
▁fahrrad	-5759
▁galaxie	-5760
▁grundle	-5761
▁liefern	-5762
▁wissens	-5763
▁youtube	-5764
▁äußerst	-5765
▁anschein	-5766
▁vergewal	-5767
▁verstehe	-5768
▁dieselben	-5769
▁wirkliche	-5770
▁geschlossen	-5771
▁afrikanischen	-5772
öh	-5773
hes	-5774
ise	-5775
▁23	-5776
▁bä	-5777
beln	-5778
heim	-5779
hese	-5780
ktes	-5781
ores	-5782
▁bur	-5783
▁pat	-5784
▁rum	-5785
barer	-5786
boden	-5787
denkt	-5788
mater	-5789
zieht	-5790
▁2008	-5791
▁droh	-5792
▁hell	-5793
▁phot	-5794
▁bauch	-5795
▁jewei	-5796
▁sowas	-5797
▁weihn	-5798
systeme	-5799
▁ausges	-5800
▁belieb	-5801
▁billig	-5802
▁george	-5803
▁mangel	-5804
▁winter	-5805
▁aussage	-5806
▁charles	-5807
▁erhöhen	-5808
▁freiwill	-5809
▁eindeutig	-5810
▁grundlage	-5811
▁instrument	-5812
▁übernehmen	-5813
▁beschrieben	-5814
▁kombination	-5815
▁kompliziert	-5816
zz	-5817
akt	-5818
ley	-5819
berg	-5820
erne	-5821
iveau	-5822
▁human	-5823
▁james	-5824
▁pfund	-5825
ausende	-5826
reibung	-5827
▁bedarf	-5828
▁gewiss	-5829
▁senden	-5830
▁vorder	-5831
besonder	-5832
▁meister	-5833
▁trocken	-5834
losigkeit	-5835
▁eingesch	-5836
▁gegenwart	-5837
▁aktivitäten	-5838
▁bedürfnisse	-5839
ago	-5840
ird	-5841
ire	-5842
plom	-5843
▁11.	-5844
▁anp	-5845
▁täu	-5846
anger	-5847
weite	-5848
▁aspe	-5849
▁bund	-5850
▁höre	-5851
▁nasa	-5852
▁paul	-5853
▁fährt	-5854
▁kenia	-5855
ittlich	-5856
▁akadem	-5857
▁austau	-5858
▁gelebt	-5859
▁gesamt	-5860
▁gewohn	-5861
▁führungs	-5862
▁spektrum	-5863
▁wertvoll	-5864
▁berichten	-5865
▁einfaches	-5866
▁veränderte	-5867
▁insbesonder	-5868
yl	-5869
tere	-5870
▁sur	-5871
acher	-5872
räume	-5873
▁länd	-5874
▁skla	-5875
▁baute	-5876
▁blaue	-5877
▁kabel	-5878
▁stahl	-5879
▁befrei	-5880
▁besagt	-5881
▁brücke	-5882
▁fabrik	-5883
▁krimin	-5884
▁schätz	-5885
▁zufall	-5886
bevölker	-5887
▁komment	-5888
▁momentan	-5889
▁pakistan	-5890
▁positive	-5891
▁erfindung	-5892
▁gebraucht	-5893
▁gegründet	-5894
▁südafrika	-5895
▁gemeinsame	-5896
▁chemikalien	-5897
▁großartigen	-5898
▁gö	-5899
adel	-5900
rett	-5901
▁gig	-5902
▁ums	-5903
ehung	-5904
▁amaz	-5905
▁hing	-5906
▁lieb	-5907
ichern	-5908
kungen	-5909
lösung	-5910
wenden	-5911
▁brief	-5912
▁damen	-5913
▁drauf	-5914
▁folie	-5915
▁relev	-5916
▁market	-5917
▁mengen	-5918
▁überqu	-5919
material	-5920
pflanzen	-5921
▁afrikas	-5922
▁momente	-5923
▁quanten	-5924
▁wechsel	-5925
▁leichter	-5926
▁offenbar	-5927
▁perfekte	-5928
▁schritte	-5929
▁bekannten	-5930
▁transform	-5931
▁transport	-5932
bevölkerung	-5933
▁fasziniert	-5934
▁akzeptieren	-5935
▁statistiken	-5936
▁insbesondere	-5937
▁vorzustellen	-5938
▁funktionierte	-5939
leb	-5940
▁ul	-5941
▁wh	-5942
bern	-5943
gert	-5944
▁brü	-5945
▁ill	-5946
menge	-5947
▁ausb	-5948
▁kühl	-5949
drückt	-5950
gesamt	-5951
haften	-5952
karten	-5953
▁räume	-5954
▁versp	-5955
stoffen	-5956
▁aufbau	-5957
▁bietet	-5958
▁führer	-5959
▁kirche	-5960
▁lokale	-5961
▁lungen	-5962
▁ration	-5963
▁erhielt	-5964
▁glaubte	-5965
▁kapitel	-5966
▁konfron	-5967
▁lektion	-5968
▁nigeria	-5969
▁unteren	-5970
▁verstär	-5971
▁wieviel	-5972
▁zeitung	-5973
▁springen	-5974
▁wechseln	-5975
▁francisco	-5976
▁scheinbar	-5977
▁automatisch	-5978
▁sicherheits	-5979
▁interessantes	-5980
oo	-5981
vo	-5982
uls	-5983
wen	-5984
asie	-5985
förm	-5986
▁com	-5987
▁gal	-5988
▁hem	-5989
▁mic	-5990
amour	-5991
behör	-5992
inken	-5993
▁nähr	-5994
achter	-5995
bilden	-5996
ischem	-5997
▁küste	-5998
▁woran	-5999
▁zwang	-6000
▁amazon	-6001
▁konzep	-6002
▁ozeane	-6003
▁manchen	-6004
▁übersch	-6005
▁besseres	-6006
▁ereignis	-6007
▁komponen	-6008
▁metapher	-6009
▁erweitern	-6010
▁speziellen	-6011
▁dargestellt	-6012
▁stammzellen	-6013
▁ursprünglich	-6014
▁überraschend	-6015
do	-6016
bet	-6017
ikt	-6018
▁sä	-6019
ines	-6020
star	-6021
▁abl	-6022
zesse	-6023
ätter	-6024
▁alex	-6025
▁eink	-6026
▁kart	-6027
▁koch	-6028
licken	-6029
stechn	-6030
▁nukle	-6031
▁stehe	-6032
▁wüste	-6033
prozess	-6034
▁anhand	-6035
▁leiten	-6036
▁origin	-6037
▁völker	-6038
▁anerken	-6039
▁drücken	-6040
▁glamour	-6041
▁nervenz	-6042
▁signale	-6043
▁trinken	-6044
▁wirkung	-6045
▁zweifel	-6046
▁erlebnis	-6047
▁lebendig	-6048
▁kostenlos	-6049
▁bezeichnen	-6050
▁geburtstag	-6051
▁einstellung	-6052
▁terrorismus	-6053
▁menschliches	-6054
vis	-6055
önt	-6056
ühe	-6057
▁75	-6058
inst	-6059
▁19.	-6060
▁600	-6061
▁höl	-6062
▁stir	-6063
bstoff	-6064
tigten	-6065
tionen	-6066
▁atmen	-6067
▁erdbe	-6068
▁jener	-6069
▁profi	-6070
▁steve	-6071
lischen	-6072
▁ausger	-6073
▁diplom	-6074
▁fingen	-6075
▁gottes	-6076
▁innere	-6077
▁löcher	-6078
▁neurow	-6079
▁skulpt	-6080
▁ansieht	-6081
▁weshalb	-6082
▁zeigten	-6083
▁zweimal	-6084
▁russland	-6085
▁literatur	-6086
▁profession	-6087
▁verbrechen	-6088
▁verwandelt	-6089
▁gemeinsamen	-6090
▁präsentation	-6091
▁unterhaltung	-6092
▁gerechtigkeit	-6093
▁nachhaltigkeit	-6094
ael	-6095
cyc	-6096
pos	-6097
ruh	-6098
ging	-6099
tive	-6100
▁abh	-6101
metho	-6102
sätze	-6103
▁froh	-6104
▁moch	-6105
▁show	-6106
design	-6107
nommen	-6108
▁korre	-6109
▁samen	-6110
fliegen	-6111
sterben	-6112
▁aktion	-6113
▁kanada	-6114
▁landen	-6115
▁realen	-6116
▁unfall	-6117
▁dauerte	-6118
▁enthält	-6119
▁teenager	-6120
▁unmittel	-6121
▁weiterer	-6122
produktion	-6123
▁elefanten	-6124
▁gebrochen	-6125
▁gedächtnis	-6126
▁moralische	-6127
gesellschaft	-6128
▁aufgewachsen	-6129
▁mittlerweile	-6130
▁unglaublichen	-6131
ech	-6132
tal	-6133
alte	-6134
gelt	-6135
ward	-6136
▁ann	-6137
▁pra	-6138
▁wüs	-6139
kontr	-6140
▁adam	-6141
▁farb	-6142
▁flex	-6143
▁lebe	-6144
▁sorg	-6145
▁stür	-6146
▁tour	-6147
bilder	-6148
dienst	-6149
lernen	-6150
quelle	-6151
▁immun	-6152
▁micro	-6153
▁phase	-6154
▁wovon	-6155
wechsel	-6156
örungen	-6157
▁anfing	-6158
▁hunger	-6159
▁merken	-6160
gelassen	-6161
▁veranst	-6162
▁vorteile	-6163
▁webseite	-6164
▁behaupten	-6165
▁beobachte	-6166
▁verglichen	-6167
▁alternative	-6168
▁organisieren	-6169
bio	-6170
sum	-6171
tze	-6172
▁ip	-6173
▁ri	-6174
smod	-6175
▁194	-6176
▁sar	-6177
dreht	-6178
▁2010	-6179
▁ener	-6180
▁erhe	-6181
▁glüh	-6182
▁nase	-6183
dollar	-6184
kräfte	-6185
muster	-6186
recken	-6187
▁gelie	-6188
▁rufen	-6189
▁sympt	-6190
▁teles	-6191
▁trick	-6192
itation	-6193
▁ausser	-6194
▁iphone	-6195
▁rennen	-6196
leistung	-6197
▁bekomme	-6198
▁gewählt	-6199
▁treiben	-6200
▁anstelle	-6201
▁beeindru	-6202
▁bemerkte	-6203
▁falschen	-6204
leistungen	-6205
▁folgenden	-6206
▁schicksal	-6207
▁beibringen	-6208
▁sogenannte	-6209
▁chinesische	-6210
▁fortschritte	-6211
äft	-6212
iche	-6213
spar	-6214
▁geg	-6215
▁nar	-6216
ahnen	-6217
utern	-6218
▁böse	-6219
▁chic	-6220
▁sing	-6221
punkte	-6222
▁misch	-6223
▁ohren	-6224
▁worum	-6225
richtet	-6226
▁abfall	-6227
▁alltag	-6228
▁pflege	-6229
▁soweit	-6230
▁führten	-6231
▁gebiete	-6232
▁hielten	-6233
▁merkwür	-6234
▁unsicher	-6235
▁betrieben	-6236
▁billionen	-6237
▁einschrän	-6238
▁geräusche	-6239
▁zusätzlich	-6240
▁ausstellung	-6241
▁darstellung	-6242
▁jahrzehnten	-6243
▁untersuchung	-6244
geschwindigkeit	-6245
bür	-6246
eis	-6247
hrt	-6248
▁gt	-6249
▁lt	-6250
oxid	-6251
▁eli	-6252
▁okt	-6253
drück	-6254
ttung	-6255
bücher	-6256
ktiver	-6257
winkel	-6258
▁erhol	-6259
▁hilfs	-6260
▁lügen	-6261
▁noten	-6262
▁spann	-6263
▁auspro	-6264
▁geschw	-6265
▁grosse	-6266
▁märkte	-6267
▁spüren	-6268
▁tanzen	-6269
▁welten	-6270
▁wikipe	-6271
▁erneuer	-6272
▁gericht	-6273
▁musiker	-6274
▁nutzung	-6275
▁tatsäch	-6276
▁verlang	-6277
arbeitung	-6278
▁geholfen	-6279
▁gesichter	-6280
▁komplexen	-6281
▁marketing	-6282
▁wenigstens	-6283
▁innovationen	-6284
▁medizinischen	-6285
30	-6286
kla	-6287
rel	-6288
täu	-6289
ymp	-6290
▁2.	-6291
tend	-6292
▁pho	-6293
▁tur	-6294
ügend	-6295
▁auff	-6296
▁bezü	-6297
▁quer	-6298
▁stan	-6299
bungen	-6300
dieren	-6301
▁asien	-6302
▁günst	-6303
▁magie	-6304
▁zehnt	-6305
gedacht	-6306
ografie	-6307
▁hinauf	-6308
▁strand	-6309
▁wirken	-6310
▁erkannt	-6311
▁gekauft	-6312
▁michael	-6313
▁anführer	-6314
▁physikal	-6315
▁resultat	-6316
▁sichtbar	-6317
▁betreiben	-6318
▁bezüglich	-6319
▁enthalten	-6320
▁ingenieur	-6321
▁antwortete	-6322
▁durchführen	-6323
▁verschwunden	-6324
▁vorstellungen	-6325
ep	-6326
▁rö	-6327
andt	-6328
nütz	-6329
phen	-6330
wald	-6331
zenz	-6332
zten	-6333
▁ath	-6334
asien	-6335
icken	-6336
gerung	-6337
stücke	-6338
tausen	-6339
ührung	-6340
▁horiz	-6341
▁schme	-6342
▁umher	-6343
tierung	-6344
▁bedien	-6345
▁bundes	-6346
▁grippe	-6347
▁heilen	-6348
▁schlei	-6349
▁trafen	-6350
isierung	-6351
ollywood	-6352
▁einzeln	-6353
▁quellen	-6354
▁sternen	-6355
schneiden	-6356
▁anschaut	-6357
▁genügend	-6358
▁geschenk	-6359
▁regionen	-6360
▁schweden	-6361
▁aufnahmen	-6362
▁basierend	-6363
▁langsamer	-6364
▁versteckt	-6365
▁prinzipien	-6366
▁restaurant	-6367
▁unterricht	-6368
▁nachgedacht	-6369
bom	-6370
hof	-6371
kul	-6372
azin	-6373
nern	-6374
zipl	-6375
öser	-6376
▁dör	-6377
krise	-6378
ordin	-6379
soren	-6380
äufer	-6381
mechan	-6382
▁erwar	-6383
▁stern	-6384
mitglie	-6385
spiegel	-6386
▁fokuss	-6387
▁golden	-6388
▁presse	-6389
▁schnee	-6390
gegangen	-6391
▁chancen	-6392
▁gemälde	-6393
▁konserv	-6394
▁starben	-6395
▁verschm	-6396
▁genießen	-6397
▁hinunter	-6398
▁derselben	-6399
▁ernährung	-6400
▁insgesamt	-6401
▁wikipedia	-6402
▁arabischen	-6403
▁wettbewerb	-6404
▁zusammenzu	-6405
▁konzentriert	-6406
brid	-6407
part	-6408
zial	-6409
▁bla	-6410
▁dns	-6411
▁lad	-6412
▁ost	-6413
▁stä	-6414
kehrt	-6415
älter	-6416
ünden	-6417
▁span	-6418
▁armee	-6419
▁treib	-6420
griffen	-6421
rüstung	-6422
▁berück	-6423
▁bezahl	-6424
▁tiefen	-6425
▁aufgere	-6426
▁spenden	-6427
▁überwäl	-6428
▁republik	-6429
▁schreibt	-6430
▁umfassen	-6431
▁versagen	-6432
▁wahnsinn	-6433
▁darstellt	-6434
▁irgendwel	-6435
▁irgendeine	-6436
▁weltweiten	-6437
▁inspirieren	-6438
▁fantastische	-6439
▁klassenzimmer	-6440
▁gemeinschaften	-6441
ack	-6442
pel	-6443
urz	-6444
▁27	-6445
▁py	-6446
ison	-6447
▁gps	-6448
euert	-6449
▁1000	-6450
▁kalt	-6451
▁ruhe	-6452
▁wach	-6453
reiche	-6454
ueller	-6455
▁angem	-6456
▁chaos	-6457
▁fokus	-6458
▁gehei	-6459
▁heben	-6460
▁phant	-6461
▁detail	-6462
▁flücht	-6463
▁gesamm	-6464
vermögen	-6465
▁chicago	-6466
▁fremden	-6467
▁grossen	-6468
▁stoppen	-6469
▁versamm	-6470
schriften	-6471
▁kampagne	-6472
▁kleidung	-6473
▁schlacht	-6474
▁speziell	-6475
oberfläche	-6476
▁scheitern	-6477
▁ausgesetzt	-6478
▁inzwischen	-6479
▁jahrzehnte	-6480
▁öffentlich	-6481
▁elektrische	-6482
▁lebenserwart	-6483
col	-6484
ney	-6485
▁mü	-6486
▁zü	-6487
erte	-6488
komp	-6489
schi	-6490
stür	-6491
zung	-6492
▁lab	-6493
▁max	-6494
▁nir	-6495
onent	-6496
onien	-6497
samen	-6498
▁2007	-6499
▁dire	-6500
▁expl	-6501
▁hieß	-6502
▁jüng	-6503
▁trug	-6504
▁weis	-6505
zeigen	-6506
▁1.000	-6507
▁kurve	-6508
▁liber	-6509
▁paris	-6510
systems	-6511
▁boston	-6512
▁erneut	-6513
▁pollen	-6514
bekommen	-6515
▁100.000	-6516
▁annahme	-6517
▁debatte	-6518
▁argument	-6519
▁beachten	-6520
▁mikroben	-6521
▁proteine	-6522
▁vielmehr	-6523
ussendlich	-6524
▁bedeutete	-6525
▁computern	-6526
▁spielzeug	-6527
▁versorgen	-6528
▁eingeladen	-6529
▁ereignisse	-6530
▁verblüffen	-6531
▁wundervoll	-6532
▁anscheinend	-6533
▁biologische	-6534
▁kontrolliert	-6535
▁schlussendlich	-6536
ci	-6537
eg	-6538
ime	-6539
kür	-6540
king	-6541
vert	-6542
▁hir	-6543
athie	-6544
stero	-6545
▁bang	-6546
▁fürs	-6547
▁mart	-6548
▁mini	-6549
▁erwär	-6550
▁fehlt	-6551
▁säuge	-6552
▁verur	-6553
dlichen	-6554
ierungs	-6555
▁fläche	-6556
▁kindes	-6557
▁status	-6558
▁suchte	-6559
aufnahme	-6560
ieinhalb	-6561
▁angesch	-6562
▁besorgt	-6563
▁dokumen	-6564
▁doppelt	-6565
▁flächen	-6566
▁streben	-6567
▁untersch	-6568
▁beteiligt	-6569
▁ernsthaft	-6570
▁unterwegs	-6571
▁entfernung	-6572
▁regierungs	-6573
▁psychologie	-6574
▁sonnenlicht	-6575
sterblichkeit	-6576
▁entscheidend	-6577
▁überraschung	-6578
▁programmieren	-6579
▁veröffentlichen	-6580
fi	-6581
cin	-6582
its	-6583
here	-6584
schm	-6585
▁beu	-6586
▁fau	-6587
▁ruf	-6588
▁wem	-6589
andid	-6590
eidet	-6591
weich	-6592
ünder	-6593
▁flor	-6594
werken	-6595
werten	-6596
▁draht	-6597
▁erfol	-6598
▁higgs	-6599
▁impro	-6600
bewusst	-6601
standen	-6602
▁eingeb	-6603
▁faktor	-6604
▁hörten	-6605
▁robert	-6606
▁stücke	-6607
▁beenden	-6608
▁chirurg	-6609
▁offenen	-6610
▁traurig	-6611
▁drittens	-6612
▁erweiter	-6613
▁programme	-6614
▁zunehmend	-6615
▁depression	-6616
▁hinzufügen	-6617
▁langweilig	-6618
▁wahrnehmen	-6619
▁dimensionen	-6620
▁grundlegend	-6621
▁inspiration	-6622
▁verbreitung	-6623
▁voneinander	-6624
▁entdeckungen	-6625
▁informations	-6626
▁bemerkenswert	-6627
▁eu	-6628
▁ug	-6629
comp	-6630
eigt	-6631
tien	-6632
▁250	-6633
▁can	-6634
▁hüh	-6635
▁lar	-6636
enter	-6637
halts	-6638
nchen	-6639
plant	-6640
▁2005	-6641
▁akte	-6642
▁ethn	-6643
▁mode	-6644
▁sech	-6645
bringt	-6646
freund	-6647
riffen	-6648
▁auton	-6649
▁eisen	-6650
▁kämpf	-6651
▁scien	-6652
▁sorge	-6653
▁warte	-6654
▁deiner	-6655
▁dienen	-6656
▁feiern	-6657
▁flügel	-6658
▁global	-6659
▁handys	-6660
▁hängen	-6661
▁schalt	-6662
▁ergeben	-6663
▁geschma	-6664
▁letzter	-6665
▁batterie	-6666
▁bewirken	-6667
▁gesichts	-6668
▁verliert	-6669
▁afrikaner	-6670
▁aufgeregt	-6671
▁niemanden	-6672
▁spezielle	-6673
▁umzugehen	-6674
▁bezeichnet	-6675
▁frankreich	-6676
▁sichtweise	-6677
▁university	-6678
▁algorithmen	-6679
▁instrumente	-6680
▁konsequenzen	-6681
▁dreidimension	-6682
kap	-6683
ory	-6684
ots	-6685
▁dh	-6686
▁zy	-6687
ehrt	-6688
fung	-6689
komm	-6690
▁pen	-6691
▁tin	-6692
▁wid	-6693
▁ärm	-6694
gangs	-6695
ismen	-6696
ässer	-6697
▁chef	-6698
▁ghan	-6699
▁sper	-6700
pflanz	-6701
▁alpha	-6702
▁knapp	-6703
▁wirkt	-6704
station	-6705
▁astero	-6706
▁futter	-6707
▁island	-6708
▁planen	-6709
▁schach	-6710
▁unwahr	-6711
▁angriff	-6712
▁dringen	-6713
▁dunklen	-6714
▁gezogen	-6715
▁kameras	-6716
▁skelett	-6717
▁älteren	-6718
▁bekannte	-6719
▁erdbeben	-6720
▁nebenbei	-6721
▁schauten	-6722
▁verdient	-6723
▁wünschte	-6724
▁zeitraum	-6725
▁begreifen	-6726
▁mitnehmen	-6727
▁verfahren	-6728
▁brustkrebs	-6729
▁genetische	-6730
▁zerstörung	-6731
▁eigentliche	-6732
▁vorbereitet	-6733
▁wunderbaren	-6734
▁hinterlassen	-6735
ica	-6736
ics	-6737
ops	-6738
▁22	-6739
bran	-6740
leib	-6741
mpft	-6742
▁abt	-6743
▁box	-6744
▁erb	-6745
▁imm	-6746
▁jer	-6747
küste	-6748
viele	-6749
▁half	-6750
▁raub	-6751
▁schä	-6752
▁tele	-6753
mittag	-6754
▁beton	-6755
▁misst	-6756
▁scham	-6757
▁unvor	-6758
▁abente	-6759
▁angeht	-6760
▁beherr	-6761
▁einzus	-6762
▁falten	-6763
▁gelang	-6764
▁höchst	-6765
▁oberen	-6766
▁vorhin	-6767
▁winzig	-6768
▁angeles	-6769
▁aspekte	-6770
▁gedicht	-6771
▁taschen	-6772
▁begegnen	-6773
▁leuchten	-6774
▁abgesehen	-6775
▁anzusehen	-6776
▁bekämpfen	-6777
▁definiert	-6778
▁reduziert	-6779
▁verrückte	-6780
▁beeindruck	-6781
▁änderungen	-6782
▁herstellung	-6783
▁vergangenen	-6784
▁wirtschafts	-6785
▁lebenserwartung	-6786
abl	-6787
pus	-6788
▁sw	-6789
obel	-6790
rang	-6791
sour	-6792
älte	-6793
▁mig	-6794
gespr	-6795
illen	-6796
lesen	-6797
▁bord	-6798
▁infe	-6799
▁kore	-6800
▁meth	-6801
rieren	-6802
wellen	-6803
zahlen	-6804
▁berge	-6805
▁cyber	-6806
▁humor	-6807
▁kateg	-6808
▁obama	-6809
▁teams	-6810
▁womit	-6811
▁zähne	-6812
zwungen	-6813
▁dichte	-6814
▁kaufte	-6815
▁lächer	-6816
▁marken	-6817
▁metall	-6818
▁schuhe	-6819
▁schicht	-6820
▁träumen	-6821
▁anpassen	-6822
▁ausgeben	-6823
▁erfüllen	-6824
▁ernähren	-6825
▁schulter	-6826
▁geschäfte	-6827
▁potenzial	-6828
▁wichtiges	-6829
▁eingeführt	-6830
▁ingenieure	-6831
▁richtungen	-6832
▁wiederholen	-6833
▁interessanten	-6834
za	-6835
xis	-6836
ärm	-6837
▁ts	-6838
derm	-6839
sich	-6840
uche	-6841
utet	-6842
üter	-6843
▁cir	-6844
▁cle	-6845
▁mad	-6846
▁ära	-6847
führt	-6848
nügen	-6849
unruh	-6850
▁biom	-6851
▁juni	-6852
▁legt	-6853
▁mama	-6854
geräte	-6855
handel	-6856
linien	-6857
▁alltä	-6858
▁angen	-6859
▁decke	-6860
▁garan	-6861
▁haiti	-6862
▁olymp	-6863
▁polio	-6864
▁beides	-6865
▁erhöht	-6866
▁explos	-6867
▁machst	-6868
▁beunruh	-6869
▁dichter	-6870
▁mittels	-6871
▁nannten	-6872
▁schönes	-6873
▁spinnen	-6874
▁anhalten	-6875
▁gegenden	-6876
▁gelassen	-6877
▁horizont	-6878
▁intensiv	-6879
▁männchen	-6880
▁verschie	-6881
▁letztlich	-6882
▁kulturelle	-6883
▁schwierige	-6884
▁teilnehmer	-6885
▁zusammenge	-6886
▁technischen	-6887
▁verursachen	-6888
▁andererseits	-6889
▁bevölkerungs	-6890
▁persönlichkeit	-6891
hre	-6892
obi	-6893
ota	-6894
tru	-6895
zum	-6896
dach	-6897
▁ank	-6898
▁hai	-6899
▁lam	-6900
▁sms	-6901
stamm	-6902
üssen	-6903
▁bahn	-6904
▁rock	-6905
▁rönt	-6906
gebiet	-6907
▁anruf	-6908
▁besei	-6909
▁ghana	-6910
▁kongo	-6911
▁ungeh	-6912
▁übert	-6913
▁gemüse	-6914
▁geruch	-6915
▁höhere	-6916
▁neigen	-6917
▁niveau	-6918
▁rezept	-6919
▁street	-6920
▁theore	-6921
▁wenden	-6922
▁general	-6923
▁verlauf	-6924
▁berühren	-6925
▁chinesen	-6926
▁erfassen	-6927
▁gebäuden	-6928
▁krankenh	-6929
▁mehreren	-6930
▁nationale	-6931
▁vergnügen	-6932
zeichnungen	-6933
wissenschaften	-6934
▁nachbarschaft	-6935
▁außergewöhnlich	-6936
pri	-6937
ruf	-6938
züg	-6939
▁av	-6940
▁vi	-6941
back	-6942
oler	-6943
omas	-6944
ülle	-6945
▁don	-6946
▁kün	-6947
▁pin	-6948
▁ras	-6949
▁rek	-6950
elang	-6951
gebäu	-6952
mails	-6953
▁haie	-6954
▁mosk	-6955
▁myth	-6956
▁stim	-6957
eilung	-6958
graben	-6959
▁befeh	-6960
▁karik	-6961
▁level	-6962
▁recyc	-6963
ichtete	-6964
mittelt	-6965
▁schild	-6966
▁verwen	-6967
▁mobilte	-6968
▁negativ	-6969
▁schwere	-6970
▁starken	-6971
▁exponent	-6972
▁glaubten	-6973
▁seltsame	-6974
▁vorwärts	-6975
▁zentrale	-6976
▁angelegen	-6977
▁erforscht	-6978
▁hoffnungs	-6979
▁indischen	-6980
▁weltkrieg	-6981
schnittlich	-6982
▁bibliothek	-6983
▁dunkelheit	-6984
▁interaktiv	-6985
▁ländlichen	-6986
▁vorsichtig	-6987
▁eigenschaft	-6988
▁einzigartig	-6989
▁erwartungen	-6990
▁terroristen	-6991
ams	-6992
tin	-6993
▁cm	-6994
cket	-6995
ftig	-6996
holt	-6997
same	-6998
äufe	-6999
▁kuh	-7000
▁mak	-7001
atein	-7002
auten	-7003
firma	-7004
gener	-7005
reift	-7006
wesen	-7007
▁2009	-7008
▁dist	-7009
▁grav	-7010
▁nimm	-7011
▁pazi	-7012
leiter	-7013
mensch	-7014
▁frühe	-7015
▁hitze	-7016
▁nahen	-7017
▁prior	-7018
▁subst	-7019
▁verde	-7020
▁zweit	-7021
schicht	-7022
▁alters	-7023
▁analog	-7024
▁center	-7025
▁enttäu	-7026
▁keines	-7027
▁kriege	-7028
▁latein	-7029
funktion	-7030
▁dankbar	-7031
▁entwurf	-7032
▁krieges	-7033
▁nirgend	-7034
▁ägypten	-7035
▁getrennt	-7036
▁hundertt	-7037
▁kreative	-7038
▁lebenden	-7039
▁ursprung	-7040
▁kreativen	-7041
▁mikroskop	-7042
gehensweise	-7043
▁dazwischen	-7044
▁investiert	-7045
▁beigebracht	-7046
▁neuigkeiten	-7047
▁konfrontiert	-7048
▁mathematiker	-7049
▁grundlegenden	-7050
▁weiterentwick	-7051
bus	-7052
dro	-7053
irk	-7054
tic	-7055
▁dü	-7056
bein	-7057
soft	-7058
▁hon	-7059
▁mio	-7060
eiter	-7061
leute	-7062
▁glet	-7063
▁leer	-7064
▁wozu	-7065
führer	-7066
messer	-7067
schiff	-7068
▁griff	-7069
▁hypot	-7070
▁malen	-7071
fischen	-7072
gemacht	-7073
politik	-7074
sproble	-7075
▁reihen	-7076
▁schlug	-7077
gefallen	-7078
stimmung	-7079
▁brechen	-7080
▁koordin	-7081
▁röntgen	-7082
▁problems	-7083
▁reagiert	-7084
▁ausmachen	-7085
▁bedrohung	-7086
▁belohnung	-7087
▁berechnen	-7088
▁wachstums	-7089
▁ignorieren	-7090
▁gleichgewicht	-7091
ya	-7092
arr	-7093
hai	-7094
uar	-7095
film	-7096
osex	-7097
grenz	-7098
iness	-7099
malen	-7100
vileg	-7101
▁1960	-7102
▁besa	-7103
▁chip	-7104
▁dame	-7105
▁ritu	-7106
▁schi	-7107
▁bibel	-7108
▁diabe	-7109
▁dicht	-7110
▁flexi	-7111
▁hoher	-7112
▁meere	-7113
▁offiz	-7114
schläge	-7115
▁nervös	-7116
▁späten	-7117
▁therap	-7118
▁vierte	-7119
▁weisen	-7120
▁besucht	-7121
▁musikal	-7122
▁stärken	-7123
▁aktuelle	-7124
▁besuchte	-7125
▁erklärte	-7126
▁fahrzeug	-7127
▁theorien	-7128
▁visuelle	-7129
▁weisheit	-7130
▁denselben	-7131
▁besonderen	-7132
▁schlechtes	-7133
▁verwendung	-7134
▁transparenz	-7135
▁wundervolle	-7136
▁zurückgehen	-7137
▁wirtschaftsw	-7138
▁identifizieren	-7139
ats	-7140
gin	-7141
ice	-7142
▁ky	-7143
arma	-7144
burg	-7145
denz	-7146
okol	-7147
urop	-7148
ähen	-7149
▁cor	-7150
▁mau	-7151
▁sus	-7152
matik	-7153
ratet	-7154
tteln	-7155
▁1990	-7156
▁brow	-7157
▁knie	-7158
▁line	-7159
▁meet	-7160
▁präz	-7161
▁visu	-7162
andern	-7163
findet	-7164
stisch	-7165
▁anspr	-7166
▁beruh	-7167
▁brill	-7168
▁enkel	-7169
▁kugel	-7170
▁peter	-7171
▁reser	-7172
▁ruhig	-7173
chester	-7174
▁bildet	-7175
▁kommer	-7176
▁liebte	-7177
▁recher	-7178
▁spirit	-7179
▁studio	-7180
▁umwand	-7181
geschäft	-7182
ierenden	-7183
▁benutze	-7184
▁geteilt	-7185
▁systema	-7186
▁tauchen	-7187
maschinen	-7188
▁faktoren	-7189
▁physiker	-7190
▁training	-7191
▁verfolgt	-7192
▁ökonomen	-7193
▁microsoft	-7194
▁plattform	-7195
▁projekten	-7196
▁schmerzen	-7197
▁ähnliches	-7198
▁einfachheit	-7199
▁wasserstoff	-7200
▁elektrischen	-7201
▁einrichtungen	-7202
▁28	-7203
▁bg	-7204
iner	-7205
zusp	-7206
▁120	-7207
▁ren	-7208
▁van	-7209
▁wut	-7210
euern	-7211
stete	-7212
stuhl	-7213
vater	-7214
▁bier	-7215
▁brun	-7216
▁budd	-7217
▁fair	-7218
▁häss	-7219
▁lese	-7220
▁salz	-7221
▁stap	-7222
klasse	-7223
schten	-7224
▁bedro	-7225
▁brand	-7226
▁figur	-7227
▁front	-7228
▁geome	-7229
▁harte	-7230
▁könne	-7231
▁linke	-7232
▁stieg	-7233
dringen	-7234
▁deinem	-7235
▁gebrau	-7236
▁jünger	-7237
▁medium	-7238
▁proben	-7239
▁schaue	-7240
▁thomas	-7241
▁wahlen	-7242
designer	-7243
ierungen	-7244
▁analyse	-7245
▁anstieg	-7246
▁blätter	-7247
▁paralle	-7248
▁dokument	-7249
▁erwähnen	-7250
▁studiert	-7251
▁vermögen	-7252
▁empfinden	-7253
▁gestartet	-7254
▁politisch	-7255
▁umständen	-7256
▁nationalen	-7257
▁willkommen	-7258
▁wunderschöne	-7259
kw	-7260
ele	-7261
erk	-7262
fot	-7263
gut	-7264
ham	-7265
ias	-7266
▁36	-7267
arto	-7268
▁ark	-7269
▁bob	-7270
▁vag	-7271
eihen	-7272
endes	-7273
statt	-7274
▁jack	-7275
▁last	-7276
▁mamm	-7277
▁sele	-7278
▁umso	-7279
fältig	-7280
uchtet	-7281
▁jenem	-7282
▁leber	-7283
▁wärme	-7284
mischen	-7285
▁höhlen	-7286
▁leiter	-7287
▁reflek	-7288
▁stille	-7289
▁unterb	-7290
▁wohlbe	-7291
▁yorker	-7292
▁ältere	-7293
▁öffnet	-7294
gleichen	-7295
▁abgesch	-7296
▁bericht	-7297
▁science	-7298
▁wünsche	-7299
▁kleinere	-7300
▁privileg	-7301
▁riesiges	-7302
▁systemen	-7303
▁winzigen	-7304
geschlagen	-7305
▁konflikte	-7306
▁schwanger	-7307
▁weihnacht	-7308
▁englischen	-7309
▁nachhaltig	-7310
▁reaktionen	-7311
▁übersetzen	-7312
▁oberflächen	-7313
▁organisiert	-7314
▁präsidenten	-7315
▁traditionelle	-7316
bro	-7317
dat	-7318
eme	-7319
enk	-7320
pla	-7321
mern	-7322
ossi	-7323
sthe	-7324
vide	-7325
▁jon	-7326
▁mün	-7327
▁zig	-7328
▁bush	-7329
▁risk	-7330
▁saal	-7331
▁stet	-7332
▁strö	-7333
andelt	-7334
izient	-7335
▁carto	-7336
▁exakt	-7337
▁küche	-7338
anlagen	-7339
gezogen	-7340
staaten	-7341
uchtung	-7342
zustand	-7343
▁aussah	-7344
▁chirur	-7345
▁explod	-7346
▁hassen	-7347
▁offene	-7348
▁partei	-7349
▁wütend	-7350
computer	-7351
gekommen	-7352
▁berühmt	-7353
▁betrieb	-7354
▁durchzu	-7355
▁gesetzt	-7356
▁vorgang	-7357
▁erfinder	-7358
▁gebieten	-7359
▁auftreten	-7360
▁denkweise	-7361
▁effizienz	-7362
▁vorschlag	-7363
▁wiederver	-7364
▁beschreibt	-7365
▁population	-7366
▁glücklicher	-7367
▁biologischen	-7368
▁entschlossen	-7369
▁verschiedener	-7370
kra	-7371
▁26	-7372
▁ye	-7373
▁ät	-7374
fang	-7375
züge	-7376
▁big	-7377
▁pre	-7378
▁pum	-7379
▁vul	-7380
ckung	-7381
rauen	-7382
ächer	-7383
▁feed	-7384
▁füße	-7385
▁gelb	-7386
▁läng	-7387
▁türk	-7388
anlage	-7389
wirken	-7390
▁apple	-7391
▁einbe	-7392
▁entsp	-7393
▁klick	-7394
▁lehre	-7395
▁marke	-7396
▁missb	-7397
▁selbe	-7398
▁serie	-7399
▁stärk	-7400
▁valle	-7401
▁zählt	-7402
▁öfter	-7403
gerufen	-7404
▁atomen	-7405
▁echtes	-7406
▁kredit	-7407
▁potent	-7408
▁stirbt	-7409
▁wälder	-7410
jähriger	-7411
schaffen	-7412
▁anstren	-7413
▁bevorzu	-7414
▁flederm	-7415
▁protein	-7416
▁zerstör	-7417
▁diagnost	-7418
▁hinblick	-7419
▁pinguine	-7420
▁speicher	-7421
▁benutzten	-7422
▁wiederher	-7423
▁angesichts	-7424
▁schlimmste	-7425
▁unsichtbar	-7426
▁verstecken	-7427
▁anwendungen	-7428
▁genetischen	-7429
▁moralischen	-7430
▁philosophie	-7431
▁sogenannten	-7432
▁investitionen	-7433
car	-7434
ony	-7435
ost	-7436
ägt	-7437
fand	-7438
wort	-7439
▁ego	-7440
▁tja	-7441
biert	-7442
liste	-7443
▁ehre	-7444
▁life	-7445
drehen	-7446
drücke	-7447
lefone	-7448
▁saßen	-7449
▁drehte	-7450
▁filmen	-7451
▁fliegt	-7452
▁gewann	-7453
▁organe	-7454
▁tränen	-7455
▁wartet	-7456
▁ausgest	-7457
▁diszipl	-7458
▁dutzend	-7459
▁höheren	-7460
▁jeweils	-7461
▁lernten	-7462
▁rechner	-7463
▁schokol	-7464
▁ausnahme	-7465
▁autismus	-7466
▁gegenwär	-7467
▁gründete	-7468
▁hindurch	-7469
▁höchsten	-7470
▁wünschen	-7471
▁abenteuer	-7472
▁chemische	-7473
▁infiziert	-7474
▁neugierig	-7475
▁versicher	-7476
ischerweise	-7477
▁angemessen	-7478
▁emotionale	-7479
▁motivation	-7480
▁organismus	-7481
▁reparieren	-7482
▁analysieren	-7483
▁chinesischen	-7484
▁schauspieler	-7485
▁zurückkehren	-7486
500	-7487
aku	-7488
bur	-7489
ike	-7490
own	-7491
▁0,	-7492
▁65	-7493
iens	-7494
strä	-7495
▁195	-7496
▁gän	-7497
▁hüb	-7498
▁jur	-7499
▁kab	-7500
▁ohr	-7501
▁ört	-7502
appen	-7503
dungs	-7504
knall	-7505
schwe	-7506
teste	-7507
trags	-7508
▁alko	-7509
▁brei	-7510
▁ther	-7511
▁trat	-7512
▁zwöl	-7513
gänger	-7514
steine	-7515
▁achse	-7516
▁befür	-7517
▁desig	-7518
▁geeig	-7519
▁gefol	-7520
▁katze	-7521
▁neutr	-7522
▁stich	-7523
fordern	-7524
gebiete	-7525
▁fliege	-7526
▁frustr	-7527
▁instin	-7528
▁muskel	-7529
stration	-7530
▁diesmal	-7531
▁gewöhnt	-7532
▁höchste	-7533
▁klavier	-7534
▁pflanze	-7535
▁vernünf	-7536
▁zentral	-7537
▁fettleib	-7538
▁gemessen	-7539
▁gerettet	-7540
▁jenseits	-7541
▁sinnvoll	-7542
▁symptome	-7543
▁gezwungen	-7544
▁resultate	-7545
▁ungeheuer	-7546
▁weibliche	-7547
▁funktionen	-7548
▁teilnehmen	-7549
▁irgendeinem	-7550
▁katastrophe	-7551
▁irgendwelche	-7552
▁universitäten	-7553
▁weltbevölkerung	-7554
sl	-7555
bir	-7556
bit	-7557
don	-7558
hnt	-7559
lag	-7560
anal	-7561
emin	-7562
lant	-7563
▁dum	-7564
▁fro	-7565
anzig	-7566
▁2006	-7567
▁vorn	-7568
annter	-7569
körper	-7570
skraft	-7571
▁braun	-7572
▁bösen	-7573
▁freie	-7574
▁geöff	-7575
▁graus	-7576
▁logik	-7577
▁texas	-7578
quellen	-7579
▁anweis	-7580
▁daumen	-7581
▁ebenen	-7582
▁fahrer	-7583
▁improv	-7584
▁kaputt	-7585
▁paläst	-7586
▁polizi	-7587
▁preise	-7588
aufgaben	-7589
zukommen	-7590
▁angehen	-7591
▁bedeckt	-7592
▁muskeln	-7593
▁richten	-7594
▁verließ	-7595
▁weltall	-7596
alisierte	-7597
regierung	-7598
▁eingehen	-7599
▁früheren	-7600
▁stanford	-7601
alisierten	-7602
▁gesammelt	-7603
▁gespräche	-7604
▁maßnahmen	-7605
▁treibhaus	-7606
▁britischen	-7607
▁gemeinnütz	-7608
▁mitglieder	-7609
▁offensicht	-7610
▁regelmäßig	-7611
▁strategien	-7612
▁konsumenten	-7613
▁beeindruckend	-7614
kö	-7615
ati	-7616
kal	-7617
ses	-7618
ania	-7619
ckel	-7620
grad	-7621
ight	-7622
vort	-7623
üren	-7624
▁ast	-7625
▁ham	-7626
▁kör	-7627
▁mac	-7628
▁tee	-7629
größe	-7630
letzt	-7631
▁1980	-7632
▁base	-7633
▁bran	-7634
▁harm	-7635
▁konz	-7636
▁sieh	-7637
ausend	-7638
chnung	-7639
gebung	-7640
spanne	-7641
▁fossi	-7642
▁jenen	-7643
▁sowje	-7644
▁talen	-7645
isierte	-7646
ogenese	-7647
▁abends	-7648
▁assozi	-7649
▁authen	-7650
▁belast	-7651
▁füllen	-7652
▁gipfel	-7653
▁glücks	-7654
▁januar	-7655
▁mochte	-7656
▁myster	-7657
▁sprung	-7658
▁verhei	-7659
▁verzer	-7660
chnitten	-7661
mögliche	-7662
▁alkohol	-7663
▁anwesen	-7664
▁ausland	-7665
▁greifen	-7666
▁lebende	-7667
▁stammen	-7668
▁symmetr	-7669
▁systems	-7670
▁ursache	-7671
▁vernetz	-7672
▁zwingen	-7673
▁änderte	-7674
▁ärmsten	-7675
setzungen	-7676
▁anbieten	-7677
▁ausgaben	-7678
▁ausgehen	-7679
▁begrenzt	-7680
▁betracht	-7681
▁epidemie	-7682
▁mitglied	-7683
▁prozesse	-7684
▁schweine	-7685
▁sensoren	-7686
▁weibchen	-7687
▁höhepunkt	-7688
▁nachfrage	-7689
▁verpflich	-7690
▁handlungen	-7691
▁menschlich	-7692
▁aufeinander	-7693
▁diskutieren	-7694
▁versprechen	-7695
▁videospiele	-7696
flu	-7697
har	-7698
yto	-7699
▁bf	-7700
▁jh	-7701
park	-7702
strö	-7703
städ	-7704
stät	-7705
tika	-7706
▁arz	-7707
▁lux	-7708
ffekt	-7709
gänge	-7710
ülern	-7711
▁flog	-7712
▁homo	-7713
achung	-7714
ativer	-7715
reicht	-7716
sprach	-7717
versen	-7718
waffen	-7719
▁bewäl	-7720
▁brach	-7721
▁breit	-7722
▁flach	-7723
▁konst	-7724
▁respe	-7725
▁staub	-7726
▁szene	-7727
▁wohlt	-7728
▁wände	-7729
▁bomben	-7730
▁dialog	-7731
▁frucht	-7732
▁inklus	-7733
▁metern	-7734
▁ratten	-7735
▁sprich	-7736
▁valley	-7737
▁überfl	-7738
ologisch	-7739
▁büchern	-7740
▁digital	-7741
▁geraten	-7742
▁neulich	-7743
▁raketen	-7744
▁schwach	-7745
▁schwein	-7746
▁vermute	-7747
▁zurecht	-7748
▁eröffnet	-7749
▁fantasie	-7750
▁hingehen	-7751
▁schickte	-7752
▁schwerer	-7753
▁änderung	-7754
zentration	-7755
▁physische	-7756
▁positiven	-7757
▁visuellen	-7758
▁außerorden	-7759
▁kommerziel	-7760
▁physischen	-7761
▁schwestern	-7762
▁verteilung	-7763
▁wiederholt	-7764
▁investition	-7765
▁schlimmsten	-7766
▁hinsichtlich	-7767
▁bemerkenswerte	-7768
ii	-7769
tn	-7770
yd	-7771
üd	-7772
aff	-7773
hiop	-7774
tech	-7775
ühen	-7776
▁aug	-7777
▁bip	-7778
▁hob	-7779
▁leb	-7780
arden	-7781
rufen	-7782
änner	-7783
▁befr	-7784
▁beur	-7785
▁ever	-7786
leiten	-7787
▁circa	-7788
▁orien	-7789
▁pferd	-7790
▁titan	-7791
▁übung	-7792
▁budget	-7793
▁keinem	-7794
▁sektor	-7795
▁uganda	-7796
▁fließen	-7797
▁gesunde	-7798
▁kreiert	-7799
▁amerikas	-7800
▁arbeitsp	-7801
▁befassen	-7802
▁benutzte	-7803
▁diabetes	-7804
▁gesunden	-7805
▁zugleich	-7806
▁beitragen	-7807
▁nachdenkt	-7808
▁toiletten	-7809
ministerium	-7810
▁ausdrücken	-7811
▁prototypen	-7812
▁selbstmord	-7813
▁treibstoff	-7814
▁berechnungen	-7815
▁komplizierter	-7816
▁repräsentiert	-7817
▁globalisierung	-7818
bie	-7819
bru	-7820
ift	-7821
ipp	-7822
tun	-7823
▁32	-7824
▁kg	-7825
agte	-7826
ammt	-7827
bene	-7828
kind	-7829
▁por	-7830
dizin	-7831
fache	-7832
igend	-7833
▁1950	-7834
▁2004	-7835
▁frag	-7836
▁gete	-7837
▁nano	-7838
▁üben	-7839
archie	-7840
dioxid	-7841
gelegt	-7842
stoßen	-7843
zenten	-7844
▁fried	-7845
▁gedul	-7846
▁löwen	-7847
▁raten	-7848
▁waffe	-7849
gemeine	-7850
steigen	-7851
▁doppel	-7852
▁fließt	-7853
▁nahezu	-7854
▁nutzer	-7855
▁respek	-7856
▁werdet	-7857
▁äthiop	-7858
sammlung	-7859
▁auftrag	-7860
▁designs	-7861
▁erfolgs	-7862
▁großzüg	-7863
▁kontinu	-7864
▁lehrern	-7865
▁richter	-7866
▁setzten	-7867
▁verbrei	-7868
▁absolute	-7869
▁ausmacht	-7870
▁behaupte	-7871
▁biologen	-7872
▁geöffnet	-7873
▁liebling	-7874
▁privaten	-7875
▁toilette	-7876
▁umstände	-7877
▁verletzt	-7878
▁bewegungs	-7879
▁fahrzeuge	-7880
▁schweigen	-7881
▁symmetrie	-7882
▁allgemeine	-7883
▁ausrüstung	-7884
▁besonderes	-7885
▁versorgung	-7886
▁unterhalten	-7887
▁zukünftigen	-7888
▁europäischen	-7889
▁festgestellt	-7890
▁privatsphäre	-7891
▁ungleichheit	-7892
▁unternehmens	-7893
gül	-7894
▁hä	-7895
aben	-7896
akul	-7897
gewe	-7898
osen	-7899
pend	-7900
sper	-7901
stel	-7902
öten	-7903
ügel	-7904
üger	-7905
▁gez	-7906
▁krä	-7907
▁mah	-7908
achel	-7909
inger	-7910
▁2001	-7911
▁lärm	-7912
▁pand	-7913
▁plus	-7914
schild	-7915
▁blase	-7916
▁dient	-7917
▁haare	-7918
▁invol	-7919
▁lagen	-7920
▁legte	-7921
▁nadel	-7922
▁onkel	-7923
▁stets	-7924
▁trink	-7925
▁tritt	-7926
gebäude	-7927
smodell	-7928
▁befest	-7929
▁benzin	-7930
▁bestra	-7931
▁metaph	-7932
▁moskit	-7933
▁praxis	-7934
▁tasche	-7935
▁wahren	-7936
▁beträgt	-7937
▁enormen	-7938
▁ersetzt	-7939
▁heutige	-7940
▁klingen	-7941
▁lichter	-7942
▁unerwar	-7943
▁unschul	-7944
▁bescheid	-7945
▁einziges	-7946
▁erkunden	-7947
▁geograph	-7948
▁hinweise	-7949
▁schießen	-7950
▁schreibe	-7951
▁therapie	-7952
unterricht	-7953
▁geschmack	-7954
▁hollywood	-7955
▁probieren	-7956
▁unterhalt	-7957
▁verteilen	-7958
▁weltweite	-7959
▁ähnlichen	-7960
▁übersetzt	-7961
krankheiten	-7962
▁ausgegeben	-7963
▁dramatisch	-7964
▁entdeckten	-7965
▁flüssigkeit	-7966
▁komponenten	-7967
▁kulturellen	-7968
▁afrikanische	-7969
▁nervenzellen	-7970
▁verbesserung	-7971
▁verschwindet	-7972
▁ausschließlich	-7973
▁schriftsteller	-7974
ey	-7975
fo	-7976
ub	-7977
lip	-7978
typ	-7979
▁2,	-7980
▁95	-7981
▁cl	-7982
fabr	-7983
felt	-7984
folg	-7985
leit	-7986
stil	-7987
vice	-7988
▁ske	-7989
exper	-7990
lösen	-7991
weist	-7992
▁1970	-7993
▁appl	-7994
▁grau	-7995
▁klug	-7996
▁noti	-7997
▁skal	-7998
▁spur	-7999
garten	-8000
steckt	-8001
strate	-8002
straße	-8003
▁altes	-8004
▁ausbr	-8005
▁frühl	-8006
▁lokal	-8007
▁oxyto	-8008
▁spont	-8009
▁tätig	-8010
▁wasch	-8011
▁ärger	-8012
ologien	-8013
version	-8014
▁forder	-8015
▁kandid	-8016
▁kontra	-8017
▁tolles	-8018
▁umgang	-8019
▁werten	-8020
▁wohltä	-8021
tisieren	-8022
▁anfängt	-8023
▁ehemann	-8024
▁komprom	-8025
▁magazin	-8026
▁schwanz	-8027
▁schöner	-8028
▁spitzen	-8029
▁urknall	-8030
▁betreten	-8031
▁erlangen	-8032
▁gebäudes	-8033
▁geworfen	-8034
▁griechen	-8035
▁schnelle	-8036
▁vorträge	-8037
▁ansichten	-8038
▁bedeutend	-8039
▁gletscher	-8040
▁standpunkt	-8041
▁technische	-8042
▁wirklichen	-8043
▁blickwinkel	-8044
▁verarbeiten	-8045
▁katastrophen	-8046
▁wohlbefinden	-8047
▁zurückkommen	-8048
▁geschichtener	-8049
uth	-8050
▁vo	-8051
arth	-8052
ates	-8053
klin	-8054
ulen	-8055
▁700	-8056
▁dru	-8057
▁kul	-8058
▁sec	-8059
acken	-8060
hafen	-8061
heber	-8062
uster	-8063
▁brie	-8064
▁kilo	-8065
▁manh	-8066
▁mist	-8067
▁nest	-8068
▁pein	-8069
▁zerb	-8070
effekt	-8071
eltern	-8072
lehnen	-8073
ritten	-8074
speich	-8075
ändler	-8076
▁annäh	-8077
▁behör	-8078
▁carol	-8079
▁ehren	-8080
▁event	-8081
▁höhle	-8082
▁käfer	-8083
▁mathe	-8084
▁prima	-8085
▁vietn	-8086
▁werbe	-8087
▁zwölf	-8088
tragung	-8089
▁blasen	-8090
▁clever	-8091
▁ehemal	-8092
▁klinik	-8093
▁kuchen	-8094
▁oxford	-8095
▁trends	-8096
▁angebot	-8097
▁bedroht	-8098
▁gelangt	-8099
▁inhalte	-8100
▁protest	-8101
▁rauchen	-8102
▁wurzeln	-8103
▁zuletzt	-8104
▁bedauern	-8105
▁bewahren	-8106
▁diagnose	-8107
▁feedback	-8108
▁getestet	-8109
▁illusion	-8110
▁konzepte	-8111
▁sozialer	-8112
▁stiftung	-8113
▁aktuellen	-8114
▁betreffen	-8115
▁explosion	-8116
▁schlagzei	-8117
▁techniken	-8118
▁entstehung	-8119
▁lebensraum	-8120
▁verbrennen	-8121
▁vorgestellt	-8122
▁komplizierte	-8123
▁entscheidende	-8124
▁entschuldigung	-8125
oh	-8126
ani	-8127
äub	-8128
ümm	-8129
able	-8130
erei	-8131
feln	-8132
ival	-8133
kern	-8134
last	-8135
okra	-8136
orte	-8137
reut	-8138
stoß	-8139
team	-8140
ödie	-8141
ünde	-8142
▁brä	-8143
▁cal	-8144
▁clo	-8145
▁woh	-8146
▁zen	-8147
ehmer	-8148
eifen	-8149
romos	-8150
▁elen	-8151
▁gand	-8152
▁stab	-8153
▁tote	-8154
bridge	-8155
heimer	-8156
terien	-8157
▁autob	-8158
▁rüber	-8159
▁stick	-8160
▁trage	-8161
▁übers	-8162
konstru	-8163
▁ballon	-8164
▁brauch	-8165
▁kalten	-8166
▁profit	-8167
▁umfang	-8168
▁verlor	-8169
▁vertik	-8170
▁gelehrt	-8171
▁kümmert	-8172
▁wertsch	-8173
▁befreien	-8174
▁demonstr	-8175
▁jährlich	-8176
▁minister	-8177
▁oxytocin	-8178
▁schülern	-8179
▁austausch	-8180
▁erhielten	-8181
▁errichten	-8182
▁gleichung	-8183
▁internets	-8184
▁komplexer	-8185
▁statistik	-8186
▁unterhalb	-8187
▁vereinten	-8188
▁wiederauf	-8189
▁beschützen	-8190
▁gegenstand	-8191
▁umzusetzen	-8192
▁verringern	-8193
▁überprüfen	-8194
▁kooperation	-8195
▁mechanismus	-8196
▁nachhaltige	-8197
▁profitieren	-8198
▁auszudrücken	-8199
▁industrielle	-8200
▁ungewöhnlich	-8201
anc	-8202
con	-8203
krä	-8204
mor	-8205
put	-8206
rix	-8207
urr	-8208
way	-8209
▁tv	-8210
boot	-8211
illi	-8212
letz	-8213
lied	-8214
phys	-8215
▁800	-8216
▁jüd	-8217
▁weh	-8218
gehör	-8219
griff	-8220
kunst	-8221
roren	-8222
spers	-8223
▁king	-8224
▁löst	-8225
▁papa	-8226
▁seil	-8227
▁thun	-8228
mungen	-8229
sorgan	-8230
summen	-8231
▁knopf	-8232
▁magne	-8233
▁steig	-8234
▁synch	-8235
▁verpa	-8236
fleisch	-8237
▁beinen	-8238
▁bäumen	-8239
▁durfte	-8240
▁eingef	-8241
▁empfeh	-8242
▁köpfen	-8243
▁mannes	-8244
▁pocken	-8245
▁synthe	-8246
▁treibt	-8247
▁wirbel	-8248
▁argumen	-8249
▁beschäd	-8250
▁blicken	-8251
▁fußball	-8252
▁private	-8253
▁punkten	-8254
▁regener	-8255
▁schädel	-8256
▁urheber	-8257
▁verwirk	-8258
▁wodurch	-8259
▁zweites	-8260
▁aufstieg	-8261
▁gebildet	-8262
▁gebrauch	-8263
▁original	-8264
▁skulptur	-8265
▁spannend	-8266
▁bedürfnis	-8267
▁erinnerte	-8268
▁inklusive	-8269
▁schrieben	-8270
▁wohlhaben	-8271
▁asteroiden	-8272
▁auswirkung	-8273
▁konvention	-8274
▁künstliche	-8275
▁nachmittag	-8276
▁verbraucht	-8277
▁virtuellen	-8278
▁anerkennung	-8279
▁operationen	-8280
▁verbrauchen	-8281
▁schreckliche	-8282
▁abgeschlossen	-8283
--	-8284
hh	-8285
▁85	-8286
denk	-8287
klar	-8288
vern	-8289
▁aqu	-8290
▁här	-8291
▁leh	-8292
▁lkw	-8293
▁rem	-8294
lässt	-8295
orter	-8296
virus	-8297
▁bron	-8298
▁euer	-8299
▁gast	-8300
▁hard	-8301
▁mahl	-8302
▁mais	-8303
kinder	-8304
sitzen	-8305
uelles	-8306
▁5.000	-8307
▁dreie	-8308
▁herab	-8309
▁hölle	-8310
▁illeg	-8311
▁kapaz	-8312
▁lasse	-8313
▁pause	-8314
▁ultra	-8315
▁wette	-8316
▁ästhe	-8317
wertung	-8318
zugehen	-8319
▁20.000	-8320
▁danken	-8321
▁dinger	-8322
▁filter	-8323
▁fremde	-8324
▁martin	-8325
▁pharma	-8326
▁ruanda	-8327
▁schief	-8328
reichend	-8329
ständige	-8330
▁beliebt	-8331
▁empfind	-8332
▁fühlten	-8333
▁gewinnt	-8334
▁glühbir	-8335
▁liefert	-8336
▁schmutz	-8337
▁trennen	-8338
▁zwanzig	-8339
ulationen	-8340
zeichnung	-8341
▁benutzer	-8342
▁einblick	-8343
▁sexuelle	-8344
▁überlebt	-8345
krankungen	-8346
▁erfordert	-8347
▁gestaltet	-8348
▁irgendwas	-8349
▁virtuelle	-8350
▁angekommen	-8351
▁aussterben	-8352
▁elektronen	-8353
▁vermittelt	-8354
▁zukünftige	-8355
▁angetrieben	-8356
▁zusätzliche	-8357
▁abhängigkeit	-8358
▁intelligente	-8359
▁durcheinander	-8360
▁menschlichkeit	-8361
sä	-8362
hop	-8363
kol	-8364
▁kb	-8365
▁pc	-8366
elen	-8367
espe	-8368
holz	-8369
mith	-8370
pper	-8371
urer	-8372
▁gei	-8373
▁jim	-8374
▁tel	-8375
ielen	-8376
legal	-8377
schel	-8378
äufig	-8379
▁mary	-8380
▁zust	-8381
andert	-8382
assten	-8383
fachen	-8384
instit	-8385
jenige	-8386
lament	-8387
lehrer	-8388
ramide	-8389
spunkt	-8390
▁apfel	-8391
▁gigan	-8392
▁mauer	-8393
▁satur	-8394
▁schiz	-8395
▁tempo	-8396
assungs	-8397
theorie	-8398
▁fuhren	-8399
▁katzen	-8400
▁knoten	-8401
▁obdach	-8402
▁option	-8403
▁reform	-8404
▁schall	-8405
▁spuren	-8406
▁stämme	-8407
▁blutgef	-8408
▁dynamik	-8409
▁geburts	-8410
▁illegal	-8411
▁landete	-8412
ianischen	-8413
▁amazonas	-8414
▁einziger	-8415
▁energien	-8416
▁gegessen	-8417
▁heiraten	-8418
▁nochmals	-8419
▁schließt	-8420
▁verdammt	-8421
▁angepasst	-8422
▁definitiv	-8423
▁einheiten	-8424
▁flughafen	-8425
▁institute	-8426
▁intuition	-8427
▁vorkommen	-8428
▁westliche	-8429
▁zeitungen	-8430
▁gestaltung	-8431
▁gleichheit	-8432
▁journalist	-8433
▁verwandten	-8434
▁ausgebildet	-8435
▁einzusetzen	-8436
▁kombinieren	-8437
▁nordamerika	-8438
▁arbeitsplatz	-8439
▁produktivität	-8440
▁nahrungsmittel	-8441
dis	-8442
gno	-8443
het	-8444
nei	-8445
ros	-8446
tit	-8447
öne	-8448
▁33	-8449
illa	-8450
mark	-8451
rick	-8452
▁dop	-8453
▁lob	-8454
▁non	-8455
▁nör	-8456
▁oel	-8457
srate	-8458
tiven	-8459
ville	-8460
▁enzy	-8461
▁flag	-8462
▁gift	-8463
▁leit	-8464
▁lohn	-8465
▁tode	-8466
breite	-8467
decken	-8468
deuten	-8469
firmen	-8470
genden	-8471
ingung	-8472
mengen	-8473
mitten	-8474
ogramm	-8475
ündung	-8476
▁anste	-8477
▁chron	-8478
▁conne	-8479
▁derer	-8480
▁erhöh	-8481
▁gates	-8482
▁hügel	-8483
▁nobel	-8484
▁scher	-8485
▁smith	-8486
▁werke	-8487
▁willi	-8488
▁zogen	-8489
▁zuhör	-8490
▁graben	-8491
▁leeren	-8492
▁lenken	-8493
▁talent	-8494
▁weinen	-8495
menschen	-8496
pedition	-8497
▁anthrop	-8498
▁beitrag	-8499
▁dreimal	-8500
▁drucker	-8501
▁erfüllt	-8502
▁hinweis	-8503
▁korrekt	-8504
▁rechnen	-8505
▁verwirr	-8506
▁winzige	-8507
tisierung	-8508
▁erschien	-8509
▁schlange	-8510
▁wieviele	-8511
▁arbeitspl	-8512
▁ausführen	-8513
▁cambridge	-8514
▁erwärmung	-8515
▁erziehung	-8516
▁flugzeuge	-8517
▁geblieben	-8518
▁orchester	-8519
▁tätigkeit	-8520
▁abendessen	-8521
▁elektronik	-8522
▁schwerkraft	-8523
▁schwierigen	-8524
▁stattfinden	-8525
▁kohlendioxid	-8526
▁bürgermeister	-8527
▁gewissermaßen	-8528
▁unterscheidet	-8529
▁wunderschönen	-8530
bon	-8531
din	-8532
feh	-8533
rew	-8534
▁dä	-8535
▁pm	-8536
alem	-8537
anst	-8538
esie	-8539
sitz	-8540
unge	-8541
▁hut	-8542
▁lim	-8543
aller	-8544
elles	-8545
ündet	-8546
▁2003	-8547
▁amer	-8548
▁iron	-8549
▁kond	-8550
▁nied	-8551
▁ulti	-8552
anders	-8553
fühlen	-8554
vember	-8555
▁genie	-8556
▁green	-8557
▁kiste	-8558
▁party	-8559
▁polar	-8560
▁power	-8561
▁summe	-8562
▁sätze	-8563
▁unbeh	-8564
▁volle	-8565
behörde	-8566
verkehr	-8567
▁50.000	-8568
▁berufs	-8569
▁bestäu	-8570
▁einges	-8571
▁gehalt	-8572
▁herbei	-8573
▁küsten	-8574
▁phosph	-8575
▁poster	-8576
▁psychi	-8577
▁ultima	-8578
▁wüsten	-8579
▁autoren	-8580
▁flasche	-8581
▁gefüllt	-8582
▁geredet	-8583
▁manhatt	-8584
▁nutzten	-8585
▁oktober	-8586
katastrop	-8587
▁baseball	-8588
▁behinder	-8589
▁bewerten	-8590
▁beziehen	-8591
▁gesünder	-8592
▁inmitten	-8593
▁verlangt	-8594
▁verliebt	-8595
▁weltbank	-8596
▁überzeug	-8597
▁schichten	-8598
▁vielerlei	-8599
▁angeschaut	-8600
▁auftauchen	-8601
▁einstellen	-8602
▁engagement	-8603
▁religiösen	-8604
▁trainieren	-8605
▁anzuschauen	-8606
▁zeichnungen	-8607
▁depressionen	-8608
▁individuelle	-8609
▁kapitalismus	-8610
▁schreibtisch	-8611
▁weitermachen	-8612
▁international	-8613
▁sicherstellen	-8614
aa	-8615
pu	-8616
zo	-8617
agd	-8618
dam	-8619
drü	-8620
gur	-8621
tum	-8622
wie	-8623
,000	-8624
achs	-8625
ardo	-8626
otto	-8627
verl	-8628
wehr	-8629
öcke	-8630
▁bay	-8631
▁cra	-8632
▁soc	-8633
▁öst	-8634
bruar	-8635
mpfer	-8636
ulare	-8637
üchte	-8638
▁kehr	-8639
haufen	-8640
kasten	-8641
krimin	-8642
lässig	-8643
ordnet	-8644
▁allzu	-8645
▁anson	-8646
▁begrü	-8647
▁coole	-8648
▁derek	-8649
▁honig	-8650
▁jagen	-8651
▁kauft	-8652
▁köpfe	-8653
▁laser	-8654
▁länge	-8655
▁physi	-8656
▁probe	-8657
▁regul	-8658
▁verdr	-8659
▁verne	-8660
▁volks	-8661
▁welle	-8662
▁wirft	-8663
technik	-8664
timeter	-8665
tisiert	-8666
verschm	-8667
▁beglei	-8668
▁bergen	-8669
▁inseln	-8670
▁mandel	-8671
▁prakti	-8672
▁sinken	-8673
▁szenar	-8674
▁tollen	-8675
▁tricks	-8676
▁vagina	-8677
▁anfangs	-8678
▁beendet	-8679
▁februar	-8680
▁figuren	-8681
▁florida	-8682
▁suchten	-8683
igerweise	-8684
▁aufrecht	-8685
▁erledigt	-8686
▁fabriken	-8687
▁institut	-8688
▁reichtum	-8689
▁sicherer	-8690
▁streiten	-8691
▁ansonsten	-8692
▁effizient	-8693
▁erledigen	-8694
▁erzählten	-8695
▁hilfreich	-8696
▁hunderten	-8697
▁niedriger	-8698
▁nirgendwo	-8699
▁parlament	-8700
▁regenwald	-8701
bedingungen	-8702
▁ansprechen	-8703
▁einkommens	-8704
▁gewöhnlich	-8705
▁lächerlich	-8706
gemeinschaft	-8707
▁irgendeiner	-8708
▁journalisten	-8709
▁medikamenten	-8710
issenschaftler	-8711
▁durchzuführen	-8712
▁ursprüngliche	-8713
ki	-8714
mär	-8715
umb	-8716
▁eb	-8717
▁zo	-8718
blei	-8719
lein	-8720
otor	-8721
quem	-8722
unft	-8723
uste	-8724
zone	-8725
ülen	-8726
▁10-	-8727
▁191	-8728
▁alz	-8729
kampf	-8730
ppich	-8731
sorge	-8732
▁besp	-8733
▁euro	-8734
▁irre	-8735
▁just	-8736
▁klat	-8737
▁poly	-8738
▁schö	-8739
▁skep	-8740
▁wale	-8741
gewebe	-8742
person	-8743
wecken	-8744
zählen	-8745
▁appar	-8746
▁atlan	-8747
▁heiße	-8748
▁liebt	-8749
sträger	-8750
▁ameise	-8751
▁aufgeb	-8752
▁befrie	-8753
▁echter	-8754
▁erfuhr	-8755
▁erzähl	-8756
▁frisch	-8757
▁getrei	-8758
▁kompon	-8759
▁reiste	-8760
▁senken	-8761
▁stoßen	-8762
gewiesen	-8763
ichteten	-8764
probleme	-8765
schalten	-8766
▁ausgang	-8767
▁balance	-8768
▁fressen	-8769
▁kletter	-8770
▁kolonie	-8771
▁pazifik	-8772
▁reicher	-8773
▁rettung	-8774
▁studium	-8775
▁tropfen	-8776
▁unangen	-8777
▁würdest	-8778
schließen	-8779
▁business	-8780
▁empathie	-8781
▁erzielen	-8782
▁intuitiv	-8783
▁kopieren	-8784
▁relevant	-8785
▁sammlung	-8786
▁soziales	-8787
▁synchron	-8788
▁tragödie	-8789
▁verfügen	-8790
▁widerspr	-8791
▁alzheimer	-8792
▁anzeichen	-8793
▁begriffen	-8794
▁einwohner	-8795
▁fernseher	-8796
▁fischerei	-8797
▁folgender	-8798
▁fortgesch	-8799
▁genetisch	-8800
▁kreislauf	-8801
▁speichern	-8802
▁täuschung	-8803
▁unendlich	-8804
▁ausgewählt	-8805
▁bandbreite	-8806
▁chemischen	-8807
▁geschlagen	-8808
▁verhindert	-8809
▁abschließen	-8810
▁großartiger	-8811
▁großartiges	-8812
▁mittagessen	-8813
▁zweieinhalb	-8814
▁optimistisch	-8815
▁wundervollen	-8816
▁einschließlich	-8817
▁lebensqualität	-8818
▁untersuchungen	-8819
sek	-8820
tzu	-8821
umt	-8822
wol	-8823
▁3.	-8824
▁ib	-8825
arzt	-8826
baum	-8827
eins	-8828
emie	-8829
ftet	-8830
ilde	-8831
itor	-8832
wich	-8833
älle	-8834
änen	-8835
▁dez	-8836
▁err	-8837
▁fix	-8838
▁nav	-8839
▁sir	-8840
block	-8841
figur	-8842
flung	-8843
formt	-8844
leger	-8845
ucken	-8846
werks	-8847
▁anre	-8848
▁foss	-8849
▁kost	-8850
▁krab	-8851
▁maße	-8852
▁prem	-8853
gesund	-8854
ophren	-8855
uchsen	-8856
öpfung	-8857
▁attra	-8858
▁engag	-8859
▁etabl	-8860
▁falle	-8861
▁fremd	-8862
▁füßen	-8863
▁lücke	-8864
▁mäuse	-8865
▁sensi	-8866
▁smart	-8867
hundert	-8868
stunden	-8869
zentren	-8870
ziehung	-8871
▁antark	-8872
▁brüder	-8873
▁felsen	-8874
▁halben	-8875
▁sensor	-8876
▁spiels	-8877
▁widmen	-8878
▁ärzten	-8879
versität	-8880
▁abstand	-8881
▁distanz	-8882
▁erfasst	-8883
▁komisch	-8884
▁planung	-8885
▁zugeben	-8886
▁ankommen	-8887
▁bewohner	-8888
▁frühling	-8889
▁hervorra	-8890
▁mischung	-8891
▁sprecher	-8892
▁vernunft	-8893
▁vortrags	-8894
▁anzugehen	-8895
▁architekt	-8896
▁englische	-8897
▁mitteilen	-8898
▁offenheit	-8899
▁perfekten	-8900
▁schwarzes	-8901
▁aufmerksam	-8902
▁optimismus	-8903
▁finanzieren	-8904
▁schizophren	-8905
▁bewusstseins	-8906
▁experimentel	-8907
▁verzweiflung	-8908
▁konzentration	-8909
▁fortgeschritten	-8910
nd	-8911
hur	-8912
las	-8913
mat	-8914
ope	-8915
que	-8916
sbe	-8917
uck	-8918
ffin	-8919
icon	-8920
mitt	-8921
stei	-8922
▁adr	-8923
▁anl	-8924
▁bir	-8925
▁jes	-8926
▁ram	-8927
▁tas	-8928
▁tän	-8929
▁äqu	-8930
achse	-8931
dauer	-8932
diert	-8933
haber	-8934
pfern	-8935
sters	-8936
▁güte	-8937
▁matt	-8938
▁sexu	-8939
fanden	-8940
sicher	-8941
zierte	-8942
ästhes	-8943
▁geläh	-8944
▁grenz	-8945
▁kluft	-8946
▁reale	-8947
▁straf	-8948
▁urban	-8949
grenzen	-8950
methode	-8951
verhält	-8952
▁kurzer	-8953
▁lieder	-8954
▁marsch	-8955
▁unverm	-8956
▁vorles	-8957
▁wohnen	-8958
vielfalt	-8959
▁aggress	-8960
▁beginne	-8961
▁detaill	-8962
▁dopamin	-8963
▁hierfür	-8964
▁manager	-8965
▁paradig	-8966
▁realist	-8967
▁außerird	-8968
▁basieren	-8969
▁bedienen	-8970
▁billiger	-8971
▁diplomat	-8972
▁handlung	-8973
▁häufiger	-8974
▁liebsten	-8975
▁schaffte	-8976
▁schienen	-8977
▁schwefel	-8978
▁vielzahl	-8979
▁animation	-8980
▁berühmten	-8981
▁geschützt	-8982
▁großvater	-8983
▁kreaturen	-8984
▁rückwärts	-8985
▁strahlung	-8986
▁täglichen	-8987
▁umgekehrt	-8988
▁vereinbar	-8989
▁finanziert	-8990
▁management	-8991
▁reichweite	-8992
▁simulation	-8993
▁wörterbuch	-8994
▁überqueren	-8995
▁einrichtung	-8996
▁intelligent	-8997
▁mittelpunkt	-8998
▁widerspruch	-8999
▁zusammengef	-9000
▁überzeugung	-9001
▁alternativen	-9002
▁fotografiert	-9003
▁freiwilligen	-9004
▁industriellen	-9005
ms	-9006
ov	-9007
bai	-9008
gab	-9009
osn	-9010
▁wi	-9011
code	-9012
teln	-9013
äger	-9014
üten	-9015
▁amb	-9016
▁hen	-9017
▁imi	-9018
▁mob	-9019
▁vit	-9020
agent	-9021
bogen	-9022
inson	-9023
inzip	-9024
molek	-9025
reter	-9026
ropie	-9027
spezi	-9028
▁fröh	-9029
▁simp	-9030
▁vene	-9031
▁zuge	-9032
ennung	-9033
fällen	-9034
ichert	-9035
ladung	-9036
üllung	-9037
▁black	-9038
▁bruch	-9039
▁dreck	-9040
▁ideal	-9041
▁koran	-9042
▁liest	-9043
▁rauch	-9044
▁sonnt	-9045
▁toler	-9046
▁väter	-9047
legenen	-9048
wachsen	-9049
örtlich	-9050
▁binden	-9051
▁genaue	-9052
▁großem	-9053
▁poesie	-9054
▁reiche	-9055
▁staats	-9056
▁winkel	-9057
effizien	-9058
sichtigt	-9059
sprecher	-9060
zumachen	-9061
ächtigen	-9062
▁anreize	-9063
▁antibio	-9064
▁fischen	-9065
▁handels	-9066
▁königin	-9067
▁phantom	-9068
▁solaren	-9069
▁aufgeben	-9070
▁dezember	-9071
▁gewinner	-9072
▁herkunft	-9073
▁umsetzen	-9074
▁verboten	-9075
▁vielmals	-9076
▁übergang	-9077
▁anstellen	-9078
▁auswählen	-9079
▁autorität	-9080
▁berichtet	-9081
▁dimension	-9082
▁manhattan	-9083
▁störungen	-9084
▁technisch	-9085
bewusstsein	-9086
▁aktivieren	-9087
▁bescheiden	-9088
▁effektiver	-9089
▁involviert	-9090
▁klassische	-9091
▁leistungen	-9092
▁supermarkt	-9093
▁überlassen	-9094
▁erforschung	-9095
▁gegenstände	-9096
▁stattfindet	-9097
▁unterwasser	-9098
▁angestellten	-9099
▁beeindrucken	-9100
▁finanziellen	-9101
▁präsentieren	-9102
▁sonnensystem	-9103
▁erstaunlichen	-9104
▁individuellen	-9105
▁sterblichkeit	-9106
ish	-9107
lub	-9108
ora	-9109
sex	-9110
sol	-9111
zit	-9112
öch	-9113
iban	-9114
ilen	-9115
uzin	-9116
▁biz	-9117
▁cap	-9118
▁fik	-9119
▁joe	-9120
▁kum	-9121
▁out	-9122
▁rio	-9123
▁sat	-9124
auert	-9125
board	-9126
chnet	-9127
ision	-9128
ließt	-9129
smann	-9130
strom	-9131
teils	-9132
uchte	-9133
▁brem	-9134
▁mont	-9135
▁ring	-9136
▁warm	-9137
▁yeah	-9138
ordnen	-9139
tigend	-9140
ustern	-9141
▁arist	-9142
▁brook	-9143
▁endet	-9144
▁leder	-9145
grammen	-9146
wirkung	-9147
▁babies	-9148
▁beutel	-9149
▁breite	-9150
▁gelben	-9151
▁küchen	-9152
▁messer	-9153
▁progno	-9154
fertigen	-9155
wechseln	-9156
▁bewirkt	-9157
▁brennen	-9158
▁brücken	-9159
▁einkauf	-9160
▁homosex	-9161
▁kannten	-9162
▁motoren	-9163
▁strateg	-9164
▁wahrhaf	-9165
▁wirksam	-9166
irtschaft	-9167
sprogramm	-9168
wirkungen	-9169
▁andauern	-9170
▁beobacht	-9171
▁berühmte	-9172
▁blutgefä	-9173
▁geeignet	-9174
▁herrscht	-9175
▁kompeten	-9176
▁mithilfe	-9177
▁phosphor	-9178
▁startete	-9179
▁bakterium	-9180
▁einnehmen	-9181
▁hypothese	-9182
▁schickten	-9183
▁spektakul	-9184
▁aufregende	-9185
▁konkurrenz	-9186
▁merkwürdig	-9187
▁religionen	-9188
▁verdoppelt	-9189
▁vergrößern	-9190
▁überwachen	-9191
▁beobachtete	-9192
▁erfindungen	-9193
▁hilfsmittel	-9194
▁hindernisse	-9195
▁trinkwasser	-9196
▁verbraucher	-9197
▁beschreibung	-9198
▁erkrankungen	-9199
▁krankenschwe	-9200
▁beschleunigen	-9201
▁kommunikations	-9202
▁unabhängigkeit	-9203
▁sicherzustellen	-9204
lv	-9205
yo	-9206
had	-9207
ows	-9208
sau	-9209
uel	-9210
wäl	-9211
äck	-9212
öss	-9213
ünd	-9214
▁29	-9215
▁ue	-9216
bole	-9217
face	-9218
idee	-9219
igem	-9220
▁1,5	-9221
▁akk	-9222
▁bör	-9223
▁fla	-9224
▁gib	-9225
▁gif	-9226
▁nei	-9227
▁rea	-9228
▁sno	-9229
jahre	-9230
uropa	-9231
zeige	-9232
▁affe	-9233
▁funk	-9234
▁hipp	-9235
▁jose	-9236
▁kalk	-9237
▁nick	-9238
▁skiz	-9239
bellen	-9240
illige	-9241
inform	-9242
leiden	-9243
schmer	-9244
▁abgel	-9245
▁akust	-9246
▁anfäl	-9247
▁blogs	-9248
▁bären	-9249
▁ernte	-9250
▁genen	-9251
▁grand	-9252
▁kürze	-9253
▁media	-9254
▁möbel	-9255
▁proto	-9256
▁quali	-9257
▁redet	-9258
▁teure	-9259
▁unber	-9260
▁wende	-9261
fferenz	-9262
▁banken	-9263
▁erfand	-9264
▁multip	-9265
▁steine	-9266
▁tedtal	-9267
▁türkei	-9268
▁virgin	-9269
▁überre	-9270
lizieren	-9271
wachstum	-9272
änderung	-9273
▁blieben	-9274
▁blinden	-9275
▁niederl	-9276
▁radikal	-9277
programme	-9278
schreiben	-9279
▁annahmen	-9280
▁besitzer	-9281
▁größeres	-9282
▁heiligen	-9283
▁hochzeit	-9284
▁norwegen	-9285
▁objekten	-9286
▁primitiv	-9287
▁rhythmus	-9288
▁spielten	-9289
▁steigern	-9290
▁ältesten	-9291
temperatur	-9292
▁impfstoff	-9293
▁kognitive	-9294
▁prozesses	-9295
▁religiöse	-9296
▁schafften	-9297
▁selektion	-9298
▁beschaffen	-9299
▁glückliche	-9300
▁sorgfältig	-9301
▁verrückten	-9302
▁verurteilt	-9303
▁wahrschein	-9304
▁ausreichend	-9305
▁faszinieren	-9306
▁reihenfolge	-9307
▁städtischen	-9308
▁tiefgreifen	-9309
▁voraussagen	-9310
▁darzustellen	-9311
▁diskussionen	-9312
▁einzigartige	-9313
▁verletzungen	-9314
▁faszinierende	-9315
▁wohltätigkeit	-9316
▁aufzeichnungen	-9317
▁experimentieren	-9318
▁hunderttausende	-9319
-1	-9320
oß	-9321
low	-9322
neu	-9323
ray	-9324
ric	-9325
uni	-9326
▁55	-9327
▁mt	-9328
ahme	-9329
arre	-9330
fert	-9331
▁fbi	-9332
▁hub	-9333
▁jos	-9334
▁piz	-9335
▁rut	-9336
▁äuß	-9337
erten	-9338
läuft	-9339
namen	-9340
steht	-9341
▁adop	-9342
▁chao	-9343
▁gore	-9344
▁meme	-9345
▁mill	-9346
▁quan	-9347
▁reis	-9348
▁watt	-9349
chtern	-9350
ieller	-9351
inseln	-9352
ission	-9353
itiver	-9354
mische	-9355
ranten	-9356
räumen	-9357
sektor	-9358
strahl	-9359
▁atome	-9360
▁befol	-9361
▁gehst	-9362
▁insul	-9363
▁leser	-9364
▁luxus	-9365
▁meint	-9366
▁panik	-9367
▁story	-9368
▁tiger	-9369
brachte	-9370
geboren	-9371
▁anreiz	-9372
▁buches	-9373
▁howard	-9374
▁prüfen	-9375
▁stufen	-9376
gespräch	-9377
schungen	-9378
▁betonen	-9379
▁bewegte	-9380
▁daneben	-9381
▁effekte	-9382
▁gedreht	-9383
▁gerecht	-9384
▁muslime	-9385
▁platten	-9386
▁schlägt	-9387
▁tendenz	-9388
▁umfrage	-9389
▁wandern	-9390
▁wüssten	-9391
aktivität	-9392
▁anhänger	-9393
▁draussen	-9394
▁eröffnen	-9395
▁geringer	-9396
▁gleicher	-9397
▁ignoranz	-9398
▁kalorien	-9399
▁teleskop	-9400
▁angeboten	-9401
▁britische	-9402
▁ermutigen	-9403
▁feuerwehr	-9404
▁gewachsen	-9405
▁schneiden	-9406
▁studierte	-9407
▁bewältigen	-9408
▁emissionen	-9409
▁königreich	-9410
▁schokolade	-9411
▁stabilität	-9412
▁effizienter	-9413
▁verzweifelt	-9414
▁beizubringen	-9415
▁entsprechend	-9416
▁solarenergie	-9417
▁zehntausende	-9418
▁mathematische	-9419
▁bildungssystem	-9420
▁eingeschlossen	-9421
▁zusammenfassen	-9422
fü	-9423
rü	-9424
cer	-9425
pal	-9426
▁rb	-9427
empf	-9428
gase	-9429
gäng	-9430
iene	-9431
pers	-9432
ugen	-9433
zwei	-9434
▁17.	-9435
▁bzw	-9436
▁cri	-9437
▁cro	-9438
▁mai	-9439
▁nel	-9440
deckt	-9441
ergeb	-9442
ffung	-9443
klang	-9444
ogene	-9445
verse	-9446
äsche	-9447
▁agen	-9448
▁dete	-9449
▁gefl	-9450
▁geni	-9451
▁hass	-9452
▁ipod	-9453
▁lein	-9454
▁mühe	-9455
▁penn	-9456
▁tsun	-9457
▁vieh	-9458
bomben	-9459
istent	-9460
zähler	-9461
▁baumw	-9462
▁befra	-9463
▁exter	-9464
▁freit	-9465
▁galer	-9466
▁geprä	-9467
▁glaub	-9468
▁greif	-9469
▁leere	-9470
▁unaus	-9471
klärung	-9472
zierten	-9473
▁archiv	-9474
▁august	-9475
▁grauen	-9476
▁hacker	-9477
▁kontro	-9478
▁kreise	-9479
▁legten	-9480
▁neuron	-9481
▁räumen	-9482
▁saturn	-9483
▁sinnes	-9484
▁termin	-9485
▁unklar	-9486
▁vollen	-9487
▁zutief	-9488
fikation	-9489
isierten	-9490
stheorie	-9491
▁ankommt	-9492
▁antrieb	-9493
▁beängst	-9494
▁gefolgt	-9495
▁grösser	-9496
▁hierbei	-9497
▁laptops	-9498
▁mischen	-9499
▁taliban	-9500
▁töchter	-9501
▁vielfäl	-9502
▁vorbild	-9503
ikationen	-9504
kontrolle	-9505
otherapie	-9506
▁anliegen	-9507
▁erstaunt	-9508
▁indische	-9509
▁negative	-9510
▁spannung	-9511
revolution	-9512
▁auflösung	-9513
▁bedeutsam	-9514
▁deutschen	-9515
▁differenz	-9516
▁gewaltige	-9517
▁komplette	-9518
▁meinungen	-9519
▁männliche	-9520
▁verborgen	-9521
▁verkaufte	-9522
▁akzeptiert	-9523
▁berechnung	-9524
▁expedition	-9525
▁grundlagen	-9526
▁herzlichen	-9527
▁individuum	-9528
▁umgebungen	-9529
▁algorithmus	-9530
▁anweisungen	-9531
▁beobachtung	-9532
▁eingestellt	-9533
▁europäische	-9534
▁finanzielle	-9535
▁fokussieren	-9536
▁geheimnisse	-9537
▁verblüffend	-9538
▁ausgestorben	-9539
▁ausprobieren	-9540
▁konstruktion	-9541
▁unterrichtet	-9542
▁fantastischen	-9543
▁unglaubliches	-9544
▁repräsentieren	-9545
▁transportieren	-9546
▁ursprünglichen	-9547
▁außerordentlich	-9548
rö	-9549
bab	-9550
bat	-9551
gei	-9552
sey	-9553
yer	-9554
yle	-9555
▁ce	-9556
▁mi	-9557
geld	-9558
iser	-9559
kins	-9560
orth	-9561
phin	-9562
robo	-9563
stad	-9564
weiß	-9565
well	-9566
zier	-9567
▁fün	-9568
▁lou	-9569
▁rab	-9570
▁tes	-9571
▁wat	-9572
angel	-9573
ellos	-9574
heits	-9575
ieden	-9576
spart	-9577
▁2011	-9578
▁bohr	-9579
▁fang	-9580
▁käse	-9581
▁lego	-9582
▁mani	-9583
▁räum	-9584
▁wall	-9585
altete	-9586
bergen	-9587
besitz	-9588
senden	-9589
weiten	-9590
▁2.000	-9591
▁beför	-9592
▁femin	-9593
▁freue	-9594
▁sturm	-9595
▁tötet	-9596
▁wiegt	-9597
▁zehen	-9598
anthrop	-9599
nehmern	-9600
▁bestes	-9601
▁denkst	-9602
▁drüber	-9603
▁fassen	-9604
▁nelson	-9605
▁schmel	-9606
▁seiden	-9607
▁wortes	-9608
▁wähler	-9609
wegungen	-9610
▁ausländ	-9611
▁bezieht	-9612
▁bislang	-9613
▁breiten	-9614
▁drinnen	-9615
▁drucken	-9616
▁heilung	-9617
▁paradox	-9618
▁sendung	-9619
▁sonntag	-9620
▁zeitgen	-9621
▁züchten	-9622
ungsweise	-9623
▁auftritt	-9624
▁behörden	-9625
▁bewiesen	-9626
▁dutzende	-9627
▁entropie	-9628
▁freizeit	-9629
▁geleitet	-9630
▁gesetzen	-9631
▁getreide	-9632
▁globaler	-9633
▁lehrerin	-9634
▁normales	-9635
▁schenken	-9636
▁zutiefst	-9637
▁aktiviert	-9638
▁berechnet	-9639
▁chirurgen	-9640
▁hinweisen	-9641
▁karikatur	-9642
▁keinerlei	-9643
▁niemandem	-9644
▁standards	-9645
▁auffassung	-9646
▁biologisch	-9647
▁kombiniert	-9648
▁stickstoff	-9649
▁verpflicht	-9650
▁zentimeter	-9651
organisation	-9652
▁aufzunehmen	-9653
▁durchmesser	-9654
▁gewöhnliche	-9655
▁konsumieren	-9656
▁psychologen	-9657
▁restaurants	-9658
▁eigentlichen	-9659
▁erfolgreiche	-9660
▁jugendlichen	-9661
▁klimawandels	-9662
▁stoffwechsel	-9663
▁arbeitsplätze	-9664
▁interaktionen	-9665
▁notwendigkeit	-9666
▁menschenrechte	-9667
jo	-9668
ny	-9669
ace	-9670
atr	-9671
dex	-9672
nel	-9673
une	-9674
▁37	-9675
herz	-9676
inos	-9677
kurs	-9678
osis	-9679
prof	-9680
swür	-9681
udie	-9682
wing	-9683
▁idi	-9684
▁mum	-9685
▁tax	-9686
ammen	-9687
arfen	-9688
auben	-9689
dacht	-9690
lings	-9691
loser	-9692
probe	-9693
regel	-9694
stock	-9695
▁bell	-9696
▁dikt	-9697
▁fakt	-9698
▁fels	-9699
▁hero	-9700
▁hill	-9701
▁kreb	-9702
▁pilz	-9703
▁song	-9704
becken	-9705
dliche	-9706
indern	-9707
kriegs	-9708
source	-9709
tikeln	-9710
ündete	-9711
▁endes	-9712
▁found	-9713
▁graph	-9714
▁höhen	-9715
▁jesus	-9716
▁pilot	-9717
▁pläne	-9718
▁seife	-9719
▁slums	-9720
▁ständ	-9721
▁umgew	-9722
▁unbew	-9723
▁wollt	-9724
▁zwill	-9725
aterial	-9726
wärmung	-9727
▁arznei	-9728
▁felder	-9729
▁lauter	-9730
▁lincol	-9731
▁tempor	-9732
▁zigare	-9733
zutreten	-9734
▁anschau	-9735
▁gelingt	-9736
▁gesucht	-9737
▁indiens	-9738
▁insulin	-9739
▁schätze	-9740
▁silicon	-9741
▁sklaven	-9742
▁verteil	-9743
▁vietnam	-9744
▁zurzeit	-9745
▁dringend	-9746
▁gebunden	-9747
▁halluzin	-9748
▁personal	-9749
▁schulden	-9750
▁schuldig	-9751
▁typische	-9752
▁verraten	-9753
▁ausgestat	-9754
▁benötigte	-9755
▁disziplin	-9756
▁eingebaut	-9757
▁infektion	-9758
▁jedermann	-9759
▁kritische	-9760
▁produkten	-9761
▁trainiert	-9762
▁anzunehmen	-9763
▁beteiligen	-9764
▁durchgehen	-9765
▁festhalten	-9766
▁foundation	-9767
▁initiative	-9768
▁investoren	-9769
▁zueinander	-9770
▁durchlaufen	-9771
verschmutzung	-9772
▁schlagzeilen	-9773
▁vergewaltigt	-9774
▁durchschnitts	-9775
▁elektronische	-9776
▁fotografieren	-9777
▁größenordnung	-9778
▁programmierer	-9779
▁fettleibigkeit	-9780
uf	-9781
ary	-9782
gos	-9783
ino	-9784
ola	-9785
yon	-9786
äle	-9787
▁ig	-9788
▁up	-9789
erkt	-9790
orea	-9791
tran	-9792
▁18.	-9793
▁cel	-9794
▁law	-9795
▁ski	-9796
▁who	-9797
aster	-9798
ophen	-9799
opter	-9800
otten	-9801
right	-9802
öhnen	-9803
▁anat	-9804
▁ausf	-9805
▁bast	-9806
▁cous	-9807
▁gött	-9808
▁long	-9809
▁sche	-9810
▁spar	-9811
▁zens	-9812
eschön	-9813
fabrik	-9814
ketten	-9815
kommun	-9816
▁3.000	-9817
▁absor	-9818
▁ausde	-9819
▁blitz	-9820
▁bogen	-9821
▁bombe	-9822
▁count	-9823
▁dschi	-9824
▁ergän	-9825
▁erwer	-9826
▁jenes	-9827
▁kopie	-9828
▁krist	-9829
▁minen	-9830
▁shang	-9831
▁stell	-9832
▁stopp	-9833
▁ueber	-9834
▁verkl	-9835
▁wolke	-9836
▁zudem	-9837
blicken	-9838
ometern	-9839
setzten	-9840
▁methan	-9841
▁regist	-9842
▁second	-9843
ferenzen	-9844
gegenwär	-9845
getragen	-9846
schnitte	-9847
standard	-9848
zuhalten	-9849
▁behaupt	-9850
▁direkte	-9851
▁erleich	-9852
▁erstmal	-9853
▁fluores	-9854
▁fürchte	-9855
▁gewaltt	-9856
▁langleb	-9857
▁symbole	-9858
▁versagt	-9859
▁wohnung	-9860
▁zweiter	-9861
▁öffnete	-9862
▁analogie	-9863
▁dschihad	-9864
▁erwähnte	-9865
▁parallel	-9866
▁primaten	-9867
▁rauschen	-9868
▁riesiger	-9869
▁strahlen	-9870
▁woanders	-9871
▁zerbrech	-9872
▁aufstehen	-9873
▁datenbank	-9874
▁empfangen	-9875
▁erweitert	-9876
▁herstellt	-9877
▁kleineren	-9878
▁rollstuhl	-9879
▁zentralen	-9880
▁anzuwenden	-9881
▁beschränkt	-9882
▁dankeschön	-9883
▁kommentare	-9884
▁kunststoff	-9885
▁verstorben	-9886
▁beantwortet	-9887
▁beherrschen	-9888
▁emotionalen	-9889
▁staatlichen	-9890
▁verheiratet	-9891
▁wichtigkeit	-9892
▁erkenntnisse	-9893
▁intervention	-9894
▁studierenden	-9895
▁unsicherheit	-9896
▁schrecklichen	-9897
▁tatsächlichen	-9898
box	-9899
dar	-9900
häu	-9901
ilz	-9902
ini	-9903
kil	-9904
opf	-9905
ßig	-9906
▁dv	-9907
bell	-9908
kler	-9909
verk	-9910
zehn	-9911
▁blu	-9912
▁kau	-9913
▁mur	-9914
▁ray	-9915
▁squ	-9916
agten	-9917
arren	-9918
hoben	-9919
lafen	-9920
masse	-9921
onanz	-9922
ullen	-9923
verei	-9924
▁farm	-9925
▁ford	-9926
▁gumm	-9927
▁haup	-9928
▁kenn	-9929
▁leon	-9930
▁prie	-9931
▁radi	-9932
▁süch	-9933
berech	-9934
bereit	-9935
proben	-9936
umines	-9937
voller	-9938
ätzung	-9939
üsseln	-9940
▁betra	-9941
▁brian	-9942
▁gelbe	-9943
▁güter	-9944
▁haust	-9945
▁kanad	-9946
▁malte	-9947
▁schad	-9948
gesehen	-9949
medizin	-9950
schrank	-9951
▁anwalt	-9952
▁bewahr	-9953
▁brilli	-9954
▁decken	-9955
▁derzei	-9956
▁dörfer	-9957
▁flogen	-9958
▁gegner	-9959
▁herzin	-9960
▁impuls	-9961
▁kortex	-9962
▁merkte	-9963
▁mitlei	-9964
▁patent	-9965
▁photos	-9966
▁rakete	-9967
▁sendet	-9968
▁wurzel	-9969
bereiten	-9970
schafter	-9971
▁anrufen	-9972
▁anzeige	-9973
▁drohnen	-9974
▁kleider	-9975
▁kollege	-9976
▁leichte	-9977
▁lincoln	-9978
▁spanien	-9979
▁stammes	-9980
▁tiefsee	-9981
▁umfasst	-9982
kreislauf	-9983
▁anziehen	-9984
▁besserer	-9985
▁direktor	-9986
▁erlaubte	-9987
▁frequenz	-9988
▁fürchten	-9989
▁getragen	-9990
▁hingegen	-9991
▁kollabor	-9992
verstanden	-9993
▁anspruchs	-9994
▁erlaubnis	-9995
▁erschwing	-9996
▁negativen	-9997
▁typischen	-9998
▁verletzen	-9999
▁zustimmen	-10000
▁brennstoff	-10001
▁einerseits	-10002
▁fotografie	-10003
▁motivieren	-10004
▁unterdrück	-10005
▁architekton	-10006
▁atomenergie	-10007
▁eingeschrän	-10008
▁freiwillige	-10009
▁natürlicher	-10010
▁unsichtbare	-10011
▁wesentliche	-10012
▁angelegenheit	-10013
wissenschaftler	-10014
ema	-10015
pum	-10016
spf	-10017
ura	-10018
▁42	-10019
odie	-10020
prim	-10021
rien	-10022
ökon	-10023
▁amy	-10024
▁bit	-10025
▁bun	-10026
▁gay	-10027
▁sud	-10028
▁won	-10029
anner	-10030
günst	-10031
istin	-10032
itäre	-10033
legte	-10034
motor	-10035
▁2002	-10036
▁2050	-10037
▁allm	-10038
▁angi	-10039
▁clin	-10040
▁delf	-10041
▁hebt	-10042
▁rass	-10043
▁rate	-10044
▁rick	-10045
▁shak	-10046
▁tast	-10047
▁warf	-10048
asiten	-10049
fassen	-10050
plätze	-10051
reißen	-10052
sprodu	-10053
stimmt	-10054
ächter	-10055
▁ablen	-10056
▁abrah	-10057
▁inder	-10058
▁lande	-10059
▁lehrt	-10060
▁mexik	-10061
▁perio	-10062
▁sitze	-10063
▁sorgt	-10064
▁south	-10065
▁teilt	-10066
produkt	-10067
▁anlage	-10068
▁bringe	-10069
▁ehrgei	-10070
▁ernten	-10071
▁fasern	-10072
▁filmem	-10073
▁garage	-10074
▁gelegt	-10075
▁gerüst	-10076
▁konkre	-10077
▁korrig	-10078
▁kritik	-10079
▁landet	-10080
▁matrix	-10081
▁newton	-10082
▁phasen	-10083
▁portra	-10084
▁weizen	-10085
▁wüsste	-10086
gebildet	-10087
gehalten	-10088
gesteuer	-10089
geworfen	-10090
produkte	-10091
▁abhängt	-10092
▁allerer	-10093
▁banglad	-10094
▁branche	-10095
▁chromos	-10096
▁gestalt	-10097
▁goldene	-10098
▁konvers	-10099
▁massive	-10100
▁premier	-10101
▁strecke	-10102
▁verdeut	-10103
abschluss	-10104
aufnahmen	-10105
▁anderswo	-10106
▁arbeitsk	-10107
▁generell	-10108
▁jegliche	-10109
▁kolonien	-10110
▁mächtige	-10111
▁neuesten	-10112
▁robotern	-10113
▁substanz	-10114
▁verschle	-10115
▁versehen	-10116
▁versorgt	-10117
landschaft	-10118
▁alexander	-10119
▁angewandt	-10120
▁einfallen	-10121
▁einführen	-10122
▁erzählung	-10123
▁gestohlen	-10124
▁getrieben	-10125
▁hinterher	-10126
▁repräsent	-10127
▁schlangen	-10128
▁schütteln	-10129
▁äthiopien	-10130
▁bedeutende	-10131
▁durchbruch	-10132
▁gewaltigen	-10133
▁großeltern	-10134
▁interviews	-10135
▁nährstoffe	-10136
▁restlichen	-10137
▁säugetiere	-10138
▁verdoppeln	-10139
▁gefährliche	-10140
▁islamischen	-10141
▁mitgebracht	-10142
▁unabhängige	-10143
▁verbreitete	-10144
▁beschleunigt	-10145
▁beschäftigte	-10146
▁krankenhäuser	-10147
▁wirtschaftlich	-10148
▁einschränkungen	-10149
▁verletzlichkeit	-10150
aw	-10151
mag	-10152
ova	-10153
iole	-10154
luft	-10155
null	-10156
tein	-10157
wege	-10158
▁2,5	-10159
▁lud	-10160
▁rap	-10161
akten	-10162
diger	-10163
liebe	-10164
ramme	-10165
örder	-10166
▁2012	-10167
▁benj	-10168
▁bern	-10169
▁biol	-10170
▁einb	-10171
▁erbe	-10172
▁eric	-10173
▁feyn	-10174
▁hang	-10175
▁hekt	-10176
▁held	-10177
▁jazz	-10178
▁link	-10179
▁litt	-10180
▁news	-10181
▁rosa	-10182
▁sach	-10183
▁snow	-10184
▁unzu	-10185
eidung	-10186
eitete	-10187
frauen	-10188
hafter	-10189
ierbar	-10190
region	-10191
steten	-10192
▁algen	-10193
▁anony	-10194
▁ansah	-10195
▁baten	-10196
▁buddh	-10197
▁cloud	-10198
▁formt	-10199
▁gefil	-10200
▁hafen	-10201
▁hosen	-10202
▁korea	-10203
▁leise	-10204
▁liban	-10205
▁miner	-10206
▁minus	-10207
▁pizza	-10208
▁ratte	-10209
▁tafel	-10210
▁veget	-10211
▁vorur	-10212
bilität	-10213
digungs	-10214
kreisen	-10215
kriegen	-10216
ografen	-10217
ungslos	-10218
▁befand	-10219
▁betrug	-10220
▁brasil	-10221
▁bricht	-10222
▁folgte	-10223
▁freuen	-10224
▁hühner	-10225
▁minder	-10226
▁packen	-10227
▁siehst	-10228
▁trauma	-10229
▁treppe	-10230
forscher	-10231
▁abweich	-10232
▁anhören	-10233
▁applaus	-10234
▁günstig	-10235
▁haltung	-10236
▁oftmals	-10237
▁origami	-10238
▁riechen	-10239
▁stehlen	-10240
▁teppich	-10241
▁unfälle	-10242
▁wartete	-10243
konferenz	-10244
probieren	-10245
studenten	-10246
▁fossilen	-10247
▁merkmale	-10248
▁neandert	-10249
▁shanghai	-10250
bewegungen	-10251
▁computers	-10252
▁erreichte	-10253
▁führenden	-10254
▁jahrelang	-10255
▁kleinsten	-10256
▁kommentar	-10257
▁komplexes	-10258
▁molekular	-10259
▁moralisch	-10260
▁schätzung	-10261
▁sklaverei	-10262
▁verknüpft	-10263
▁verkörper	-10264
▁vertreten	-10265
übergreifen	-10266
▁integriert	-10267
▁werkzeugen	-10268
▁wohnzimmer	-10269
▁übernommen	-10270
▁allgegenwär	-10271
▁gravitation	-10272
▁kollektiven	-10273
▁traditionen	-10274
▁verwendeten	-10275
▁widerstands	-10276
▁landschaften	-10277
▁tatsächliche	-10278
▁festzustellen	-10279
▁intelligenten	-10280
▁interpretation	-10281
▁interpretieren	-10282
▁technologische	-10283
ux	-10284
bor	-10285
fuß	-10286
ika	-10287
lyn	-10288
mas	-10289
rus	-10290
ähe	-10291
übt	-10292
▁38	-10293
▁48	-10294
▁lg	-10295
▁ze	-10296
haut	-10297
kömm	-10298
onds	-10299
ütze	-10300
▁gär	-10301
▁läh	-10302
▁tar	-10303
▁unn	-10304
ansas	-10305
blatt	-10306
eland	-10307
fällt	-10308
kamen	-10309
ocken	-10310
orten	-10311
reche	-10312
rogen	-10313
usste	-10314
ühnen	-10315
▁chri	-10316
▁cola	-10317
▁hals	-10318
▁kühe	-10319
▁märz	-10320
▁pest	-10321
▁plat	-10322
▁quot	-10323
▁töne	-10324
▁zelt	-10325
▁zugr	-10326
esseln	-10327
haftes	-10328
hängen	-10329
sender	-10330
ummern	-10331
ährung	-10332
▁abhol	-10333
▁antik	-10334
▁aufbl	-10335
▁belei	-10336
▁ethik	-10337
▁fügen	-10338
▁hydro	-10339
▁loszu	-10340
▁magen	-10341
▁neuse	-10342
▁rande	-10343
▁risik	-10344
▁schub	-10345
▁türen	-10346
▁zuver	-10347
abdruck	-10348
analyse	-10349
energie	-10350
viertel	-10351
wohnern	-10352
▁deprim	-10353
▁formel	-10354
▁genome	-10355
▁geschm	-10356
▁halfen	-10357
▁liebes	-10358
▁magnet	-10359
▁portug	-10360
▁reserv	-10361
freiheit	-10362
heimlich	-10363
leuchten	-10364
methoden	-10365
▁agieren	-10366
▁gewinne	-10367
▁gewohnt	-10368
▁herkömm	-10369
▁indones	-10370
▁logisch	-10371
▁mandela	-10372
▁meeting	-10373
▁märkten	-10374
▁nuklear	-10375
▁präzise	-10376
▁sammelt	-10377
▁schwamm	-10378
▁spontan	-10379
▁steuert	-10380
▁unbesch	-10381
▁verzerr	-10382
▁willkür	-10383
▁aufwuchs	-10384
▁beschwer	-10385
▁durchaus	-10386
▁elektrom	-10387
▁erstmals	-10388
▁forschen	-10389
▁jedesmal	-10390
▁physisch	-10391
▁projekts	-10392
▁schalter	-10393
▁verkehrs	-10394
▁zugrunde	-10395
emissionen	-10396
▁absichten	-10397
▁angesicht	-10398
▁begleitet	-10399
▁bestätigt	-10400
▁daraufhin	-10401
▁innovativ	-10402
▁jederzeit	-10403
▁kapazität	-10404
▁klinische	-10405
▁rekonstru	-10406
▁schwellen	-10407
▁zeichnung	-10408
wasserstoff	-10409
▁einbringen	-10410
▁eineinhalb	-10411
▁erkrankung	-10412
▁existierte	-10413
▁kandidaten	-10414
▁unbekannte	-10415
stechnologie	-10416
▁antibiotika	-10417
▁ausprobiert	-10418
▁integrieren	-10419
▁jugendliche	-10420
▁naturschutz	-10421
▁politischer	-10422
▁schmerzhaft	-10423
▁transparent	-10424
▁umgewandelt	-10425
▁unmittelbar	-10426
▁vorschlagen	-10427
▁wettbewerbs	-10428
kommunikation	-10429
▁gelegentlich	-10430
▁größtenteils	-10431
▁hausaufgaben	-10432
▁persönlicher	-10433
▁programmiert	-10434
▁urheberrecht	-10435
amerikanischen	-10436
▁demokratische	-10437
▁meeresspiegel	-10438
▁transportiert	-10439
▁demokratischen	-10440
▁transformation	-10441
▁premierminister	-10442
▁q	-10443
cor	-10444
inv	-10445
tts	-10446
▁7.	-10447
▁bm	-10448
▁cr	-10449
blog	-10450
dest	-10451
konz	-10452
lebt	-10453
ness	-10454
sens	-10455
unen	-10456
▁350	-10457
▁agr	-10458
▁hmm	-10459
▁led	-10460
▁reh	-10461
▁äng	-10462
digte	-10463
famil	-10464
iehen	-10465
reckt	-10466
sport	-10467
uther	-10468
utung	-10469
öscht	-10470
▁ewig	-10471
▁flut	-10472
▁isst	-10473
▁panz	-10474
▁pion	-10475
▁treu	-10476
▁ärzt	-10477
faktor	-10478
folgen	-10479
school	-10480
schrau	-10481
wander	-10482
▁amate	-10483
▁detro	-10484
▁eurem	-10485
▁gemäß	-10486
▁klare	-10487
▁mcdon	-10488
▁müsst	-10489
▁navig	-10490
▁pfeil	-10491
▁popul	-10492
▁traur	-10493
▁tromm	-10494
▁warst	-10495
fahrung	-10496
zession	-10497
▁30.000	-10498
▁akzept	-10499
▁autist	-10500
▁bequem	-10501
▁berlin	-10502
▁blinde	-10503
▁briefe	-10504
▁county	-10505
▁gitter	-10506
▁halbes	-10507
▁herbst	-10508
▁kurzes	-10509
▁plätze	-10510
▁raffin	-10511
▁raumes	-10512
▁riecht	-10513
▁teller	-10514
▁unsinn	-10515
▁urlaub	-10516
▁vaters	-10517
▁weiten	-10518
▁würfel	-10519
behalten	-10520
faktoren	-10521
frequenz	-10522
gebieten	-10523
gefahren	-10524
netzwerk	-10525
reaktion	-10526
ästhesie	-10527
▁beeintr	-10528
▁feynman	-10529
▁freitag	-10530
▁geformt	-10531
▁gelände	-10532
▁johnson	-10533
▁körpern	-10534
▁schnapp	-10535
▁schufen	-10536
▁weitaus	-10537
sichtigen	-10538
▁anfingen	-10539
▁auslösen	-10540
▁eigentum	-10541
▁erzähler	-10542
▁friedens	-10543
▁geflogen	-10544
▁gespeich	-10545
▁gesunken	-10546
▁gewalttä	-10547
▁immerhin	-10548
▁möchtest	-10549
▁parteien	-10550
▁radikale	-10551
▁rational	-10552
▁schweren	-10553
▁sicheren	-10554
▁vermuten	-10555
▁vorgehen	-10556
amerikaner	-10557
▁antarktis	-10558
▁berührung	-10559
▁beschrieb	-10560
▁geometrie	-10561
▁motiviert	-10562
▁probanden	-10563
▁wachsende	-10564
▁zuzuhören	-10565
geschichten	-10566
▁ausschnitt	-10567
▁beseitigen	-10568
▁betrachter	-10569
▁einfachste	-10570
▁elektroden	-10571
▁generieren	-10572
▁hersteller	-10573
▁kategorien	-10574
▁männlichen	-10575
▁polizisten	-10576
▁psychische	-10577
▁unheimlich	-10578
▁völkermord	-10579
▁beeindruckt	-10580
▁bestandteil	-10581
▁glücklichen	-10582
▁verschieben	-10583
▁wunderbares	-10584
▁ausgestattet	-10585
▁jahrhunderte	-10586
▁wahrgenommen	-10587
▁artenvielfalt	-10588
▁konzentrierte	-10589
▁untereinander	-10590
▁verwirklichen	-10591
▁physikalischen	-10592
hs	-10593
anw	-10594
aps	-10595
fas	-10596
ila	-10597
oni	-10598
▁31	-10599
isen	-10600
meer	-10601
opft	-10602
otte	-10603
tain	-10604
zens	-10605
älen	-10606
▁are	-10607
▁dän	-10608
▁elf	-10609
▁kro	-10610
▁ran	-10611
▁ret	-10612
▁tak	-10613
▁val	-10614
agert	-10615
apier	-10616
brett	-10617
frika	-10618
ianer	-10619
iland	-10620
laubt	-10621
opfen	-10622
äusen	-10623
üllte	-10624
▁dile	-10625
▁fuer	-10626
▁hawa	-10627
▁hong	-10628
▁inne	-10629
▁käme	-10630
▁lock	-10631
▁stig	-10632
▁tony	-10633
▁vaku	-10634
brüche	-10635
ertigt	-10636
felder	-10637
itären	-10638
presse	-10639
regeln	-10640
rollen	-10641
stands	-10642
terung	-10643
▁analy	-10644
▁earth	-10645
▁einig	-10646
▁ferne	-10647
▁henry	-10648
▁nutze	-10649
▁proth	-10650
▁rasch	-10651
▁runde	-10652
▁saudi	-10653
▁texte	-10654
▁weite	-10655
▁zunge	-10656
flasche	-10657
rechung	-10658
▁auszur	-10659
▁balken	-10660
▁baumkr	-10661
▁comics	-10662
▁griech	-10663
▁hektar	-10664
▁insekt	-10665
▁klaren	-10666
▁korrel	-10667
▁kümmer	-10668
▁langes	-10669
▁sahara	-10670
▁singap	-10671
▁teurer	-10672
▁untere	-10673
kampagne	-10674
springen	-10675
streifen	-10676
stritten	-10677
▁aktiven	-10678
▁anwälte	-10679
▁austral	-10680
▁begeben	-10681
▁charlie	-10682
▁delfine	-10683
▁dörfern	-10684
▁erheben	-10685
▁gelähmt	-10686
▁gemeint	-10687
▁genetik	-10688
▁heilige	-10689
▁mitleid	-10690
▁mitteln	-10691
▁orangen	-10692
▁rituale	-10693
▁teilten	-10694
▁vertrag	-10695
▁waschen	-10696
▁wörtern	-10697
▁zusehen	-10698
leitungen	-10699
▁abwasser	-10700
▁atlantik	-10701
▁gelaufen	-10702
▁gewaltig	-10703
▁globales	-10704
▁hardware	-10705
▁haushalt	-10706
▁leinwand	-10707
▁pyramide	-10708
▁recherch	-10709
▁strassen	-10710
▁streifen	-10711
▁verläuft	-10712
▁verwende	-10713
▁angezogen	-10714
▁anpassung	-10715
▁ausgelöst	-10716
▁automobil	-10717
▁erkannten	-10718
▁eventuell	-10719
▁gestiegen	-10720
▁kollektiv	-10721
▁kreativer	-10722
▁rückseite	-10723
▁umgesetzt	-10724
▁verleihen	-10725
▁verschmel	-10726
▁versetzen	-10727
geschrieben	-10728
versprechen	-10729
▁einführung	-10730
▁jahrtausen	-10731
▁kompromiss	-10732
▁netzwerken	-10733
▁vergleicht	-10734
erkrankungen	-10735
▁aufgestellt	-10736
▁ausgedrückt	-10737
▁geschlechts	-10738
▁heimatstadt	-10739
▁konstruiert	-10740
▁unglücklich	-10741
▁exponentiell	-10742
▁republikaner	-10743
▁unsichtbaren	-10744
▁identifiziert	-10745
▁schizophrenie	-10746
▁auszuprobieren	-10747
▁führungskräfte	-10748
ax	-10749
ni	-10750
bra	-10751
cal	-10752
fle	-10753
irt	-10754
ody	-10755
▁ms	-10756
▁os	-10757
atar	-10758
diag	-10759
kopp	-10760
kter	-10761
mart	-10762
nutz	-10763
reen	-10764
saal	-10765
stär	-10766
such	-10767
ttes	-10768
äser	-10769
▁pul	-10770
▁roy	-10771
▁sun	-10772
▁twe	-10773
endig	-10774
kamer	-10775
kennt	-10776
labor	-10777
noten	-10778
swert	-10779
titel	-10780
▁1998	-10781
▁aufb	-10782
▁chor	-10783
▁come	-10784
▁ekel	-10785
▁jeff	-10786
▁prüf	-10787
▁ruft	-10788
▁sang	-10789
▁tank	-10790
▁umar	-10791
bricht	-10792
dachte	-10793
gender	-10794
grenze	-10795
ickelt	-10796
kamera	-10797
kreise	-10798
mpfung	-10799
schrei	-10800
sichts	-10801
öglich	-10802
▁anerk	-10803
▁beten	-10804
▁beute	-10805
▁blume	-10806
▁eurer	-10807
▁hinab	-10808
▁infor	-10809
▁juden	-10810
▁kanal	-10811
▁motto	-10812
▁nebel	-10813
▁north	-10814
▁obere	-10815
▁schil	-10816
▁sinkt	-10817
▁solle	-10818
▁stere	-10819
▁stieß	-10820
▁unerw	-10821
▁worin	-10822
bestand	-10823
branche	-10824
büchern	-10825
▁absolv	-10826
▁beiträ	-10827
▁chinas	-10828
▁frosch	-10829
▁gandhi	-10830
▁mythos	-10831
▁provin	-10832
▁rettet	-10833
▁riesig	-10834
▁schafe	-10835
▁tempel	-10836
▁unterr	-10837
▁watson	-10838
▁winden	-10839
▁wonach	-10840
▁zuvers	-10841
basierte	-10842
fizierte	-10843
schlägen	-10844
steuropa	-10845
▁ausgabe	-10846
▁cricket	-10847
▁detroit	-10848
▁drachen	-10849
▁entschl	-10850
▁erlebte	-10851
▁extreme	-10852
▁fingern	-10853
▁geplant	-10854
▁prostat	-10855
▁psychop	-10856
▁robotik	-10857
▁solches	-10858
▁typisch	-10859
▁william	-10860
maßnahmen	-10861
schmerzen	-10862
stelligen	-10863
unterhalt	-10864
▁astronom	-10865
▁autobahn	-10866
▁behälter	-10867
▁benjamin	-10868
▁betriebs	-10869
▁bewunder	-10870
▁christen	-10871
▁handelte	-10872
▁kliniken	-10873
▁könntest	-10874
▁manifest	-10875
▁niedrige	-10876
▁peinlich	-10877
▁strecken	-10878
▁versetzt	-10879
▁verwandt	-10880
▁wiederbe	-10881
gesundheit	-10882
mitglieder	-10883
▁angeblich	-10884
▁aufhalten	-10885
▁durchführ	-10886
▁eintreten	-10887
▁furchtbar	-10888
▁gefährdet	-10889
▁kategorie	-10890
▁mitfühlen	-10891
▁möglichst	-10892
▁seltsamen	-10893
▁wohnungen	-10894
▁örtlichen	-10895
▁analysiert	-10896
▁aufstellen	-10897
▁bestätigen	-10898
▁biolumines	-10899
▁elektromag	-10900
▁freiwillig	-10901
▁kontinuier	-10902
▁perfektion	-10903
▁verschwand	-10904
▁wahrhaftig	-10905
▁überdenken	-10906
▁erzählungen	-10907
▁fledermäuse	-10908
▁körperliche	-10909
▁veränderten	-10910
▁experimenten	-10911
▁langfristige	-10912
▁quadratmeter	-10913
▁verpflichtet	-10914
▁öffentlicher	-10915
▁entwicklungen	-10916
▁gelegenheiten	-10917
▁interessierte	-10918
▁üblicherweise	-10919
uv	-10920
bem	-10921
esh	-10922
▁iq	-10923
eilt	-10924
flie	-10925
gebr	-10926
pati	-10927
ppte	-10928
ruhe	-10929
uckt	-10930
zell	-10931
▁blö	-10932
▁fit	-10933
▁fox	-10934
▁haw	-10935
▁hof	-10936
▁nag	-10937
▁pip	-10938
▁vin	-10939
blase	-10940
oment	-10941
sucht	-10942
ührte	-10943
▁2020	-10944
▁2030	-10945
▁aust	-10946
▁beam	-10947
▁data	-10948
▁dünn	-10949
▁fuss	-10950
▁kell	-10951
▁mike	-10952
▁müde	-10953
▁pend	-10954
▁riff	-10955
▁seti	-10956
▁tans	-10957
▁ufer	-10958
endete	-10959
gelöst	-10960
griffe	-10961
menten	-10962
schern	-10963
üchtig	-10964
▁agend	-10965
▁altru	-10966
▁begra	-10967
▁chile	-10968
▁dampf	-10969
▁fahrt	-10970
▁fange	-10971
▁heter	-10972
▁jemen	-10973
▁orbit	-10974
▁rasen	-10975
▁seide	-10976
▁skala	-10977
▁state	-10978
digkeit	-10979
igungen	-10980
ingenie	-10981
nutzung	-10982
roboter	-10983
ünstler	-10984
▁americ	-10985
▁aristo	-10986
▁beauft	-10987
▁flagge	-10988
▁fusion	-10989
▁gewähr	-10990
▁geziel	-10991
▁hauses	-10992
▁hormon	-10993
▁ironie	-10994
▁klänge	-10995
▁lücken	-10996
▁mikrof	-10997
▁nieren	-10998
▁opfern	-10999
▁ozeans	-11000
▁supern	-11001
▁toller	-11002
personen	-11003
zutragen	-11004
▁aktuell	-11005
▁bemühen	-11006
▁fiktion	-11007
▁fordern	-11008
▁geprägt	-11009
▁häusern	-11010
▁meinten	-11011
▁redwood	-11012
▁schließ	-11013
▁störung	-11014
▁telesko	-11015
▁verblei	-11016
▁zugriff	-11017
krankheit	-11018
ordnungen	-11019
▁annähern	-11020
▁anspruch	-11021
▁flaschen	-11022
▁gedichte	-11023
▁geglaubt	-11024
▁gestoßen	-11025
▁kleinste	-11026
▁kritiker	-11027
▁november	-11028
▁problema	-11029
▁shakespe	-11030
▁singapur	-11031
▁tauschen	-11032
▁wörtlich	-11033
nullsummen	-11034
▁biosphäre	-11035
▁emotional	-11036
▁erschafft	-11037
▁kommenden	-11038
▁stärksten	-11039
▁wenigsten	-11040
▁angewendet	-11041
▁anzufangen	-11042
▁beispielen	-11043
▁bestimmtes	-11044
▁chinesisch	-11045
▁entfernten	-11046
▁garantiert	-11047
▁klinischen	-11048
▁palästinen	-11049
▁raumschiff	-11050
▁unmögliche	-11051
▁unvorstell	-11052
▁vergrößert	-11053
▁wachsenden	-11054
▁weiblichen	-11055
▁zuversicht	-11056
▁ökosysteme	-11057
▁überlebens	-11058
▁anwesenheit	-11059
▁botschaften	-11060
▁ermöglichte	-11061
▁historische	-11062
▁immunsystem	-11063
▁künstlichen	-11064
▁olympischen	-11065
▁verschaffen	-11066
amerikanische	-11067
dimensionalen	-11068
▁arzneimittel	-11069
▁fundamentale	-11070
▁führungspers	-11071
▁historischen	-11072
▁untersuchten	-11073
gesellschaften	-11074
▁aufgezeichnet	-11075
▁einzigartigen	-11076
▁überzeugungen	-11077
▁berücksichtigt	-11078
▁herausgestellt	-11079
▁intellektuelle	-11080
▁verantwortungs	-11081
▁veröffentlichte	-11082
▁zusammengefasst	-11083
ec	-11084
fu	-11085
üb	-11086
ado	-11087
ain	-11088
cel	-11089
hut	-11090
isa	-11091
zel	-11092
▁44	-11093
▁ut	-11094
alie	-11095
amie	-11096
ding	-11097
enkt	-11098
flos	-11099
gets	-11100
ieso	-11101
kenn	-11102
rief	-11103
wahr	-11104
▁bös	-11105
▁git	-11106
▁mul	-11107
▁pas	-11108
ablen	-11109
front	-11110
kanal	-11111
oskop	-11112
riert	-11113
splan	-11114
video	-11115
▁100-	-11116
▁1999	-11117
▁beat	-11118
▁capt	-11119
▁coca	-11120
▁doug	-11121
▁embr	-11122
▁kong	-11123
▁kreu	-11124
▁mord	-11125
▁serv	-11126
dichte	-11127
gewinn	-11128
grippe	-11129
haftet	-11130
ortion	-11131
tunion	-11132
zyklus	-11133
▁absur	-11134
▁ankam	-11135
▁anzug	-11136
▁brown	-11137
▁erdöl	-11138
▁ethan	-11139
▁gramm	-11140
▁immen	-11141
▁jäger	-11142
▁kurse	-11143
▁lohnt	-11144
▁nette	-11145
▁pilze	-11146
▁prost	-11147
▁rente	-11148
▁resul	-11149
▁ruder	-11150
▁teils	-11151
▁verfl	-11152
artikel	-11153
aufgabe	-11154
bleiben	-11155
förmige	-11156
schulen	-11157
▁aufbew	-11158
▁denker	-11159
▁elegan	-11160
▁endgül	-11161
▁erdgas	-11162
▁ersatz	-11163
▁feinde	-11164
▁mentor	-11165
▁nutzte	-11166
▁pferde	-11167
▁profil	-11168
▁prophe	-11169
▁redner	-11170
▁sender	-11171
▁square	-11172
▁treffe	-11173
▁vakuum	-11174
▁zielen	-11175
icherung	-11176
ähnliche	-11177
▁bananen	-11178
▁erfolge	-11179
▁experte	-11180
▁gereist	-11181
▁gerufen	-11182
▁grausam	-11183
▁himmels	-11184
▁hungers	-11185
▁lebensl	-11186
▁löschen	-11187
▁mysteri	-11188
▁nordpol	-11189
▁notfall	-11190
▁reprodu	-11191
▁rückmel	-11192
▁schweiz	-11193
▁sowieso	-11194
▁stipend	-11195
▁tsunami	-11196
▁vereint	-11197
▁vierten	-11198
▁vorherr	-11199
▁zuhörer	-11200
fizierten	-11201
gerichtet	-11202
rechungen	-11203
schreiten	-11204
▁abkommen	-11205
▁carolina	-11206
▁gelungen	-11207
▁mcdonald	-11208
▁normaler	-11209
▁schreien	-11210
▁verwirrt	-11211
▁vorlesen	-11212
▁bausteine	-11213
▁einladung	-11214
▁ergreifen	-11215
▁genannten	-11216
▁ignoriert	-11217
▁künstlern	-11218
▁markieren	-11219
▁niedrigen	-11220
▁ressource	-11221
▁schweizer	-11222
▁starteten	-11223
▁verwandel	-11224
▁zeichnete	-11225
▁überfluss	-11226
▁übersehen	-11227
▁beurteilen	-11228
▁diskutiert	-11229
▁geographic	-11230
▁beleuchtung	-11231
▁entscheidet	-11232
▁ergebnissen	-11233
▁flüchtlinge	-11234
▁forschungen	-11235
▁irgendeinen	-11236
▁prioritäten	-11237
▁programmier	-11238
▁sowjetunion	-11239
▁spezifische	-11240
▁unbekannten	-11241
▁variationen	-11242
▁finanzierung	-11243
▁gewöhnlichen	-11244
▁herausstellt	-11245
▁manipulieren	-11246
organisationen	-11247
▁nebeneinander	-11248
▁treibhausgase	-11249
▁verschmutzung	-11250
▁diagnostiziert	-11251
▁mathematischen	-11252
▁geschäftsmodell	-11253
ano	-11254
bez	-11255
kli	-11256
oma	-11257
set	-11258
wör	-11259
öre	-11260
ürt	-11261
▁3,	-11262
▁72	-11263
▁ii	-11264
▁lä	-11265
▁ni	-11266
alls	-11267
dose	-11268
kain	-11269
muse	-11270
sack	-11271
ätzt	-11272
ürzt	-11273
▁192	-11274
▁alb	-11275
▁bol	-11276
▁ess	-11277
▁frö	-11278
▁ibm	-11279
▁kas	-11280
▁lot	-11281
▁pir	-11282
▁sky	-11283
brach	-11284
ebene	-11285
korea	-11286
liger	-11287
mität	-11288
musik	-11289
perrt	-11290
sonst	-11291
▁bekl	-11292
▁mega	-11293
▁note	-11294
▁pfad	-11295
▁rang	-11296
▁trop	-11297
ameter	-11298
anfall	-11299
apital	-11300
drüsen	-11301
gefügt	-11302
halter	-11303
linder	-11304
nutzen	-11305
physik	-11306
ättern	-11307
▁abbau	-11308
▁alarm	-11309
▁begab	-11310
▁bronx	-11311
▁ecken	-11312
▁engel	-11313
▁harry	-11314
▁jones	-11315
▁kleid	-11316
▁merkt	-11317
▁parks	-11318
▁scott	-11319
▁stirn	-11320
▁synap	-11321
▁tauch	-11322
▁tinte	-11323
studien	-11324
▁agenda	-11325
▁andrew	-11326
▁anwend	-11327
▁drückt	-11328
▁enthus	-11329
▁kokain	-11330
▁krähen	-11331
▁leidet	-11332
▁redete	-11333
▁steven	-11334
▁trugen	-11335
▁tunnel	-11336
▁tänzer	-11337
▁umlauf	-11338
▁vulkan	-11339
▁woraus	-11340
▁zweier	-11341
engungen	-11342
institut	-11343
kontroll	-11344
strecken	-11345
▁200.000	-11346
▁benannt	-11347
▁beschul	-11348
▁connect	-11349
▁herumzu	-11350
▁hungrig	-11351
▁hypothe	-11352
▁stephen	-11353
▁tomaten	-11354
▁vernach	-11355
▁zualler	-11356
verfahren	-11357
▁befanden	-11358
▁brooklyn	-11359
▁einladen	-11360
▁erlernen	-11361
▁ermutigt	-11362
▁isoliert	-11363
▁klettern	-11364
▁meinungs	-11365
▁schieben	-11366
▁schweben	-11367
▁schöpfer	-11368
▁standort	-11369
▁stimmung	-11370
▁vorkommt	-11371
verbindung	-11372
▁aufweisen	-11373
▁ausnahmen	-11374
▁durchfall	-11375
▁empfänger	-11376
▁entkommen	-11377
▁forschern	-11378
▁gerichtet	-11379
▁metaphern	-11380
▁mitmachen	-11381
▁produktiv	-11382
▁rezession	-11383
▁techniker	-11384
▁umwandeln	-11385
▁zugegeben	-11386
▁aktivisten	-11387
▁engagieren	-11388
▁fallschirm	-11389
▁gezeichnet	-11390
▁grundstück	-11391
▁indonesien	-11392
▁innenstadt	-11393
▁kritischen	-11394
▁neuseeland	-11395
▁regulieren	-11396
▁schauspiel	-11397
▁schlussfol	-11398
▁vorhersage	-11399
▁angegriffen	-11400
▁anstrengung	-11401
▁aristoteles	-11402
▁erschaffung	-11403
▁gespeichert	-11404
▁gleichungen	-11405
▁kostengünst	-11406
▁langfristig	-11407
▁theoretisch	-11408
▁überwachung	-11409
▁anschließend	-11410
▁begeisterung	-11411
▁muslimischen	-11412
▁persönliches	-11413
▁systematisch	-11414
▁umweltschutz	-11415
▁demonstrieren	-11416
▁entschuldigen	-11417
▁zufriedenheit	-11418
▁verbesserungen	-11419
▁zivilisationen	-11420
▁berücksichtigen	-11421
▁lebensunterhalt	-11422
bc	-11423
dä	-11424
su	-11425
mie	-11426
ona	-11427
ret	-11428
öck	-11429
▁34	-11430
▁lü	-11431
aida	-11432
bett	-11433
brot	-11434
eier	-11435
esst	-11436
ifik	-11437
ikro	-11438
iums	-11439
port	-11440
rede	-11441
öhne	-11442
ümer	-11443
▁190	-11444
▁30-	-11445
▁apr	-11446
▁moz	-11447
▁nad	-11448
▁nic	-11449
▁oma	-11450
▁one	-11451
▁que	-11452
▁ron	-11453
anter	-11454
azine	-11455
bauer	-11456
halle	-11457
thalb	-11458
▁1900	-11459
▁brad	-11460
▁gall	-11461
▁guer	-11462
▁hack	-11463
▁inti	-11464
▁kino	-11465
▁opti	-11466
▁rauf	-11467
▁rohr	-11468
acheln	-11469
fehler	-11470
gentin	-11471
ielles	-11472
lichem	-11473
moment	-11474
männer	-11475
stätte	-11476
▁anten	-11477
▁audio	-11478
▁bonob	-11479
▁euren	-11480
▁gelei	-11481
▁gestr	-11482
▁heira	-11483
▁notiz	-11484
▁vergi	-11485
▁wilde	-11486
▁wortw	-11487
alteten	-11488
bezogen	-11489
ination	-11490
liziert	-11491
platten	-11492
schafts	-11493
spunkte	-11494
tlichen	-11495
üchtern	-11496
▁action	-11497
▁autoun	-11498
▁beruht	-11499
▁bewaff	-11500
▁bewerk	-11501
▁bildes	-11502
▁geschn	-11503
▁geträn	-11504
▁götter	-11505
▁hawaii	-11506
▁helium	-11507
▁kämpfe	-11508
▁leitet	-11509
▁liefen	-11510
▁linsen	-11511
▁master	-11512
▁perspe	-11513
▁reifen	-11514
▁schrum	-11515
▁tasman	-11516
▁teilte	-11517
▁wohler	-11518
▁wärmer	-11519
ituation	-11520
▁ankunft	-11521
▁begehen	-11522
▁cartoon	-11523
▁denkens	-11524
▁eingang	-11525
▁gefühlt	-11526
▁klicken	-11527
▁konzert	-11528
▁mustern	-11529
▁präsent	-11530
▁scheibe	-11531
▁station	-11532
▁streich	-11533
▁umsonst	-11534
▁wildnis	-11535
▁wuchsen	-11536
▁zutaten	-11537
ständigen	-11538
wertungen	-11539
zeichnete	-11540
▁abnehmen	-11541
▁aussagen	-11542
▁begraben	-11543
▁beliebte	-11544
▁bereitet	-11545
▁errungen	-11546
▁gefroren	-11547
▁gehirnen	-11548
▁gewässer	-11549
▁glaubens	-11550
▁jüngeren	-11551
▁komische	-11552
▁langzeit	-11553
▁leonardo	-11554
▁priester	-11555
▁vereinen	-11556
▁verlegen	-11557
▁zukunfts	-11558
▁überlegt	-11559
ografische	-11560
▁abstrakte	-11561
▁einzelner	-11562
▁erfüllung	-11563
▁frühstück	-11564
▁identisch	-11565
▁lektionen	-11566
▁recycling	-11567
▁schachtel	-11568
▁trainings	-11569
▁verhaftet	-11570
▁versionen	-11571
▁anderthalb	-11572
▁anpassungs	-11573
▁ausbreiten	-11574
▁charaktere	-11575
▁demokraten	-11576
▁hierarchie	-11577
▁kilometern	-11578
▁kognitiven	-11579
▁kostenlose	-11580
▁lebensstil	-11581
▁praktische	-11582
▁unangenehm	-11583
▁zeitgenöss	-11584
▁zeitspanne	-11585
▁absichtlich	-11586
▁bürgerkrieg	-11587
▁erwachsener	-11588
▁kooperieren	-11589
▁solarzellen	-11590
▁zuallererst	-11591
▁ökonomische	-11592
▁übersetzung	-11593
▁herausfanden	-11594
▁nervensystem	-11595
▁spezifischen	-11596
▁verschmelzen	-11597
▁beschäftigung	-11598
▁demonstration	-11599
▁dokumentieren	-11600
▁erstaunliches	-11601
▁wissenschafts	-11602
▁offensichtliche	-11603
aks	-11604
ita	-11605
mut	-11606
pop	-11607
ral	-11608
sag	-11609
säu	-11610
ule	-11611
van	-11612
ößt	-11613
▁43	-11614
▁46	-11615
▁bö	-11616
▁dp	-11617
aker	-11618
ause	-11619
empl	-11620
mten	-11621
sign	-11622
synd	-11623
ummy	-11624
ägen	-11625
▁1,2	-11626
▁20-	-11627
▁aer	-11628
▁han	-11629
▁inj	-11630
▁kie	-11631
▁mis	-11632
▁nam	-11633
abeth	-11634
attle	-11635
eiler	-11636
ering	-11637
farbe	-11638
farkt	-11639
herum	-11640
irekt	-11641
lampe	-11642
milli	-11643
reben	-11644
reser	-11645
üpfen	-11646
▁barm	-11647
▁darm	-11648
▁diät	-11649
▁fung	-11650
▁gekl	-11651
▁irrt	-11652
▁jetz	-11653
▁moun	-11654
▁path	-11655
▁renn	-11656
▁seri	-11657
▁time	-11658
ansatz	-11659
bieten	-11660
fällig	-11661
gelenk	-11662
märkte	-11663
sehbar	-11664
spitze	-11665
strafe	-11666
städte	-11667
ularen	-11668
unkten	-11669
ydummy	-11670
ächern	-11671
ächtig	-11672
▁berat	-11673
▁betäu	-11674
▁busch	-11675
▁comic	-11676
▁dekor	-11677
▁dünne	-11678
▁elite	-11679
▁favor	-11680
▁kevin	-11681
▁meile	-11682
▁raums	-11683
▁rekru	-11684
▁rover	-11685
▁segel	-11686
▁starr	-11687
▁trieb	-11688
▁wegzu	-11689
▁weich	-11690
einheit	-11691
eistern	-11692
mmunity	-11693
ordnete	-11694
syndrom	-11695
▁angere	-11696
▁arthur	-11697
▁bäcker	-11698
▁derart	-11699
▁einher	-11700
▁essens	-11701
▁farmer	-11702
▁greift	-11703
▁joseph	-11704
▁nähern	-11705
▁orange	-11706
▁scharf	-11707
▁schrit	-11708
▁silber	-11709
▁stapel	-11710
▁strafe	-11711
▁säulen	-11712
▁ungere	-11713
▁ähnelt	-11714
derweise	-11715
software	-11716
strahlen	-11717
teilchen	-11718
▁bindung	-11719
▁ehrgeiz	-11720
▁entwarf	-11721
▁fördert	-11722
▁hiermit	-11723
▁integra	-11724
▁jüngste	-11725
▁pestizi	-11726
▁saubere	-11727
▁schloss	-11728
▁währung	-11729
▁antreibt	-11730
▁argentin	-11731
▁ausgesch	-11732
▁bereiten	-11733
▁biomasse	-11734
▁cartoons	-11735
▁erwischt	-11736
▁irration	-11737
▁markiert	-11738
▁reformen	-11739
▁ursachen	-11740
▁vergeben	-11741
▁verlässt	-11742
▁virginia	-11743
▁ökologie	-11744
▁übersetz	-11745
ergebnisse	-11746
lichkeiten	-11747
▁bekannter	-11748
▁beruhigen	-11749
▁dynamisch	-11750
▁einzelnes	-11751
▁parasiten	-11752
▁parkinson	-11753
▁reduktion	-11754
▁schnellen	-11755
▁tatsachen	-11756
▁tendieren	-11757
▁unvermeid	-11758
gehörigkeit	-11759
▁auszusehen	-11760
▁bearbeiten	-11761
▁dummydummy	-11762
▁erschienen	-11763
▁simulieren	-11764
▁skulpturen	-11765
▁transplant	-11766
▁verstärken	-11767
▁verwendete	-11768
▁wahnsinnig	-11769
▁wohingegen	-11770
▁zigaretten	-11771
▁angiogenese	-11772
▁behandlungs	-11773
▁erneuerbare	-11774
▁erscheinung	-11775
▁gesichtsaus	-11776
▁japanischen	-11777
▁klassischen	-11778
▁kühlschrank	-11779
▁philanthrop	-11780
▁studierende	-11781
▁verarbeitet	-11782
▁konstruieren	-11783
▁mobiltelefon	-11784
▁verteidigung	-11785
▁angeschlossen	-11786
▁ausgesprochen	-11787
▁beobachtungen	-11788
▁einstellungen	-11789
▁fluoreszieren	-11790
▁hervorbringen	-11791
▁physikalische	-11792
▁zusammenbruch	-11793
▁folgendermaßen	-11794
▁krankenhäusern	-11795
▁intellektuellen	-11796
ua	-11797
ads	-11798
amp	-11799
bal	-11800
bot	-11801
mte	-11802
red	-11803
urt	-11804
wal	-11805
▁cd	-11806
▁nr	-11807
auto	-11808
bast	-11809
groß	-11810
inkt	-11811
rand	-11812
umin	-11813
west	-11814
wett	-11815
▁130	-11816
▁193	-11817
▁anz	-11818
▁häu	-11819
▁pix	-11820
▁sav	-11821
anzug	-11822
denke	-11823
kolle	-11824
lickt	-11825
loses	-11826
länge	-11827
ohnen	-11828
ottet	-11829
reuen	-11830
selbe	-11831
twick	-11832
ützer	-11833
▁3000	-11834
▁asia	-11835
▁aufr	-11836
▁back	-11837
▁bosn	-11838
▁einl	-11839
▁foot	-11840
▁grab	-11841
▁grob	-11842
▁hans	-11843
▁infr	-11844
▁mall	-11845
▁mari	-11846
▁maxi	-11847
▁modi	-11848
▁puls	-11849
▁rose	-11850
▁taxi	-11851
▁ware	-11852
antwor	-11853
attung	-11854
behand	-11855
gingen	-11856
iction	-11857
mäßige	-11858
rahmen	-11859
skrise	-11860
studie	-11861
triebs	-11862
zettel	-11863
▁april	-11864
▁büros	-11865
▁fleck	-11866
▁glied	-11867
▁herrn	-11868
▁hütte	-11869
▁imper	-11870
▁kluge	-11871
▁linse	-11872
▁lunge	-11873
▁paare	-11874
▁reine	-11875
▁schuf	-11876
▁suppe	-11877
▁ungew	-11878
▁verär	-11879
▁wolle	-11880
glicher	-11881
mäßigen	-11882
rechner	-11883
smuster	-11884
streben	-11885
▁40.000	-11886
▁aktive	-11887
▁becher	-11888
▁daniel	-11889
▁endete	-11890
▁exempl	-11891
▁flüsse	-11892
▁genehm	-11893
▁harten	-11894
▁ketten	-11895
▁kriter	-11896
▁lichts	-11897
▁mumbai	-11898
▁stigma	-11899
▁taucht	-11900
▁trauer	-11901
▁waisen	-11902
▁zwecke	-11903
bewohner	-11904
gerissen	-11905
istenten	-11906
▁anlagen	-11907
▁atember	-11908
▁dienste	-11909
▁dollars	-11910
▁dunkler	-11911
▁durften	-11912
▁gründer	-11913
▁koralle	-11914
▁kreatur	-11915
▁maschin	-11916
▁müttern	-11917
▁pinguin	-11918
▁schlage	-11919
▁spender	-11920
▁starkes	-11921
▁steckte	-11922
▁truppen	-11923
▁unrecht	-11924
▁übungen	-11925
absichtig	-11926
kilometer	-11927
vertrauen	-11928
▁american	-11929
▁genossen	-11930
▁hühnchen	-11931
▁instabil	-11932
▁referenz	-11933
▁tansania	-11934
▁tägliche	-11935
▁weiterzu	-11936
ungsmittel	-11937
▁arabische	-11938
▁aussuchen	-11939
▁demselben	-11940
▁einnahmen	-11941
▁entlassen	-11942
▁fußgänger	-11943
▁glamourös	-11944
▁klatschen	-11945
▁kunstwerk	-11946
▁schmelzen	-11947
▁schwachen	-11948
▁unbewusst	-11949
▁universen	-11950
▁verstärkt	-11951
▁wertvolle	-11952
unternehmer	-11953
▁angebracht	-11954
▁angewiesen	-11955
▁aufklärung	-11956
▁beinhalten	-11957
▁beliebigen	-11958
▁elternteil	-11959
▁komponente	-11960
▁konflikten	-11961
▁körperlich	-11962
▁millimeter	-11963
▁nachkommen	-11964
▁unendliche	-11965
▁veranschau	-11966
▁verletzung	-11967
▁versteckte	-11968
▁angestellte	-11969
▁austauschen	-11970
▁beigetragen	-11971
▁mittelalter	-11972
▁natürliches	-11973
▁richtlinien	-11974
▁vermächtnis	-11975
▁übertragung	-11976
▁alltäglichen	-11977
▁atemberauben	-11978
▁bestandteile	-11979
▁griechenland	-11980
▁vergleichbar	-11981
▁verständlich	-11982
▁ökonomischen	-11983
▁anstrengungen	-11984
▁argumentieren	-11985
▁chemotherapie	-11986
▁französischen	-11987
▁korallenriffe	-11988
▁verteidigungs	-11989
sorganisationen	-11990
▁amerikanischer	-11991
▁vorgehensweise	-11992
▁weltwirtschaft	-11993
▁geschäftsführer	-11994
▁halluzinationen	-11995
▁voraussetzungen	-11996
cc	-11997
ly	-11998
ehl	-11999
kör	-12000
lem	-12001
ump	-12002
wan	-12003
wel	-12004
▁lh	-12005
dite	-12006
heil	-12007
iegt	-12008
impf	-12009
lenn	-12010
oche	-12011
penh	-12012
samt	-12013
schü	-12014
show	-12015
sius	-12016
unts	-12017
▁dvd	-12018
▁ere	-12019
▁eti	-12020
▁exo	-12021
▁gir	-12022
▁gor	-12023
▁hür	-12024
▁pik	-12025
▁sug	-12026
andet	-12027
bombe	-12028
bären	-12029
maler	-12030
mungs	-12031
olera	-12032
opard	-12033
packt	-12034
räder	-12035
samer	-12036
ssinn	-12037
ttert	-12038
▁1984	-12039
▁1995	-12040
▁abed	-12041
▁demü	-12042
▁ertr	-12043
▁foie	-12044
▁horm	-12045
▁jagd	-12046
▁mult	-12047
▁palm	-12048
▁pant	-12049
▁proj	-12050
▁seni	-12051
▁sieb	-12052
▁supr	-12053
▁zero	-12054
▁zwie	-12055
▁übel	-12056
bahnen	-12057
bienen	-12058
farben	-12059
nummer	-12060
sparen	-12061
usalem	-12062
ässern	-12063
ührten	-12064
▁agrar	-12065
▁aufsp	-12066
▁ausro	-12067
▁craig	-12068
▁dicke	-12069
▁feder	-12070
▁gewün	-12071
▁grupp	-12072
▁hohem	-12073
▁holte	-12074
▁indus	-12075
▁kamel	-12076
▁kathe	-12077
▁orden	-12078
▁rasse	-12079
▁sarah	-12080
▁somal	-12081
▁sorte	-12082
▁spinn	-12083
▁subje	-12084
▁tatto	-12085
▁union	-12086
▁veter	-12087
▁zerti	-12088
bewegen	-12089
flossen	-12090
kennung	-12091
pflanzt	-12092
prinzip	-12093
sequenz	-12094
spitzen	-12095
▁aktien	-12096
▁bekann	-12097
▁bühnen	-12098
▁campus	-12099
▁gewehr	-12100
▁infrar	-12101
▁junges	-12102
▁killer	-12103
▁kopenh	-12104
▁legiti	-12105
▁lippen	-12106
▁mozart	-12107
▁psycho	-12108
▁pumpen	-12109
▁regime	-12110
▁syrien	-12111
▁tinten	-12112
▁ungehe	-12113
▁unterm	-12114
▁verwei	-12115
▁vögeln	-12116
beziehen	-12117
künstler	-12118
mechanik	-12119
spolitik	-12120
sproblem	-12121
▁ausgeht	-12122
▁ausüben	-12123
▁belohnt	-12124
▁bürgern	-12125
▁celsius	-12126
▁cholera	-12127
▁clinton	-12128
▁dilemma	-12129
▁einheim	-12130
▁erholen	-12131
▁erkläre	-12132
▁geräten	-12133
▁kauften	-12134
▁koennen	-12135
▁landwir	-12136
▁pflegen	-12137
▁project	-12138
▁scheiße	-12139
▁service	-12140
▁sichere	-12141
▁verwund	-12142
einkommen	-12143
strahlung	-12144
▁befolgen	-12145
▁extremen	-12146
▁fließend	-12147
▁geradezu	-12148
▁kontrast	-12149
▁kristall	-12150
▁reporter	-12151
▁rückkehr	-12152
▁schwelle	-12153
▁signifik	-12154
▁szenario	-12155
▁tastatur	-12156
▁tiefgrün	-12157
▁argumente	-12158
▁drastisch	-12159
▁geschenkt	-12160
▁gründeten	-12161
▁interface	-12162
▁kurzfrist	-12163
▁mobilität	-12164
▁potenziel	-12165
▁rohstoffe	-12166
▁schöpfung	-12167
▁teilnahme	-12168
▁therapien	-12169
▁womöglich	-12170
dimensionen	-12171
verständnis	-12172
▁aufwachsen	-12173
▁baumkronen	-12174
▁bemühungen	-12175
▁gebrauchen	-12176
▁konsequenz	-12177
▁kopenhagen	-12178
▁meerwasser	-12179
▁platzieren	-12180
▁verbleiben	-12181
▁verkauften	-12182
▁verringert	-12183
▁versichern	-12184
▁verwaltung	-12185
▁wochenende	-12186
technologien	-12187
▁brennstoffe	-12188
▁dankbarkeit	-12189
▁erklärungen	-12190
▁erweiterung	-12191
▁philosophen	-12192
▁vernachläss	-12193
▁behandlungen	-12194
▁betrachteten	-12195
▁elektromagne	-12196
▁französische	-12197
▁hinterfragen	-12198
▁konkurrieren	-12199
▁militärische	-12200
▁reflektieren	-12201
▁respektieren	-12202
▁temperaturen	-12203
▁verarbeitung	-12204
▁überwältigen	-12205
▁eingeschränkt	-12206
▁jahrhunderten	-12207
▁mobiltelefone	-12208
▁veranstaltung	-12209
▁verhandlungen	-12210
▁elektronischen	-12211
▁zusammenkommen	-12212
▁angelegenheiten	-12213
ces	-12214
iva	-12215
ktu	-12216
ois	-12217
oto	-12218
wis	-12219
▁4.	-12220
▁98	-12221
▁ek	-12222
▁oz	-12223
▁uh	-12224
gesp	-12225
hoch	-12226
korn	-12227
verw	-12228
will	-12229
ädag	-12230
ällt	-12231
ärer	-12232
▁12.	-12233
▁act	-12234
▁aha	-12235
▁amt	-12236
▁ara	-12237
▁bor	-12238
▁cat	-12239
▁dod	-12240
▁ero	-12241
▁fär	-12242
▁kub	-12243
▁ohn	-12244
▁tok	-12245
dring	-12246
euten	-12247
freie	-12248
gerte	-12249
geräu	-12250
ieber	-12251
kugel	-12252
lanta	-12253
mikro	-12254
sburg	-12255
▁asth	-12256
▁aßen	-12257
▁baue	-12258
▁diam	-12259
▁diff	-12260
▁galt	-12261
▁gäng	-12262
▁haft	-12263
▁kram	-12264
▁lege	-12265
▁ofen	-12266
▁pitt	-12267
▁sieg	-12268
▁spag	-12269
bedarf	-12270
beding	-12271
blasen	-12272
geheim	-12273
gehirn	-12274
schuhe	-12275
stchen	-12276
tasche	-12277
undern	-12278
▁4.000	-12279
▁alice	-12280
▁besaß	-12281
▁dumme	-12282
▁kyros	-12283
▁larry	-12284
▁mutig	-12285
▁schuh	-12286
▁strei	-12287
▁symph	-12288
▁söhne	-12289
▁unzäh	-12290
▁verzö	-12291
artiges	-12292
ikopter	-12293
planung	-12294
▁albert	-12295
▁allmäh	-12296
▁beacht	-12297
▁besorg	-12298
▁bombar	-12299
▁delfin	-12300
▁essenz	-12301
▁flucht	-12302
▁folien	-12303
▁freier	-12304
▁geduld	-12305
▁gefiel	-12306
▁gramma	-12307
▁grösse	-12308
▁ideale	-12309
▁implan	-12310
▁irland	-12311
▁kathol	-12312
▁kehren	-12313
▁keller	-12314
▁klappt	-12315
▁kontak	-12316
▁luther	-12317
▁macher	-12318
▁marath	-12319
▁montag	-12320
▁reflex	-12321
▁riefen	-12322
▁runden	-12323
▁sterbe	-12324
▁strich	-12325
▁veranl	-12326
▁wahres	-12327
▁ähneln	-12328
handlung	-12329
jähriges	-12330
rechnung	-12331
regionen	-12332
stafrika	-12333
▁abraham	-12334
▁atlanta	-12335
▁everest	-12336
▁fesseln	-12337
▁gebilde	-12338
▁geister	-12339
▁kartoff	-12340
▁kondome	-12341
▁kämpfer	-12342
▁membran	-12343
▁monster	-12344
▁montere	-12345
▁museums	-12346
▁nachher	-12347
▁spazier	-12348
▁starker	-12349
▁steinen	-12350
▁strasse	-12351
▁südlich	-12352
▁visuell	-12353
arbeitern	-12354
fizierung	-12355
strategie	-12356
▁anzeigen	-12357
▁arabisch	-12358
▁besucher	-12359
▁derselbe	-12360
▁designen	-12361
▁einkaufs	-12362
▁freundes	-12363
▁gefühlen	-12364
▁gelandet	-12365
▁geringen	-12366
▁gespannt	-12367
▁gewissem	-12368
▁harmonie	-12369
▁motorrad	-12370
▁probiert	-12371
▁relation	-12372
▁rückgang	-12373
▁schlicht	-12374
▁trennung	-12375
▁verklein	-12376
▁vollzeit	-12377
▁zeichnet	-12378
▁zustande	-12379
▁ästhetik	-12380
▁abschnitt	-12381
▁annähernd	-12382
▁antreiben	-12383
▁aufregung	-12384
▁batterien	-12385
▁bemerkten	-12386
▁dokumente	-12387
▁erheblich	-12388
▁errichtet	-12389
▁erwartete	-12390
▁geleistet	-12391
▁messungen	-12392
▁supernova	-12393
▁umbringen	-12394
▁umsetzung	-12395
▁verbrauch	-12396
▁verpassen	-12397
▁verwunder	-12398
▁widerspie	-12399
perspektive	-12400
▁anzupassen	-12401
▁aufzugeben	-12402
▁bevorzugen	-12403
▁enttäuscht	-12404
▁frustriert	-12405
▁geschossen	-12406
▁informiert	-12407
▁künstlerin	-12408
▁ordentlich	-12409
▁tageslicht	-12410
▁ultimative	-12411
▁verhandeln	-12412
▁videospiel	-12413
▁weitgehend	-12414
katastrophen	-12415
verbindungen	-12416
▁aufgefallen	-12417
▁befriedigen	-12418
▁betrachtung	-12419
▁filmemacher	-12420
▁informieren	-12421
▁meeresboden	-12422
▁produktions	-12423
▁prozentsatz	-12424
▁präsentiert	-12425
▁realisieren	-12426
▁relativität	-12427
▁sehvermögen	-12428
▁abschließend	-12429
▁kindergarten	-12430
▁kriminalität	-12431
▁teilzunehmen	-12432
▁unterbrochen	-12433
▁zusätzlichen	-12434
▁ökologischen	-12435
▁intelligenter	-12436
▁organisierten	-12437
▁ungewöhnliche	-12438
▁zeitschriften	-12439
▁entscheidenden	-12440
▁psychologische	-12441
▁herzkrankheiten	-12442
-2	-12443
ae	-12444
ju	-12445
äk	-12446
arg	-12447
bun	-12448
die	-12449
imp	-12450
lor	-12451
rea	-12452
zed	-12453
ädt	-12454
▁ss	-12455
ades	-12456
anor	-12457
bane	-12458
cent	-12459
chip	-12460
dian	-12461
enix	-12462
fass	-12463
ffel	-12464
höhe	-12465
infe	-12466
iver	-12467
onym	-12468
phia	-12469
ppel	-12470
▁bam	-12471
▁caf	-12472
▁gur	-12473
▁lex	-12474
▁müh	-12475
▁pie	-12476
▁seg	-12477
▁tha	-12478
▁tit	-12479
apfen	-12480
gemäß	-12481
idmet	-12482
insel	-12483
level	-12484
misch	-12485
stift	-12486
still	-12487
suche	-12488
teren	-12489
▁1994	-12490
▁afro	-12491
▁beer	-12492
▁blue	-12493
▁clip	-12494
▁enge	-12495
▁finn	-12496
▁glän	-12497
▁graf	-12498
▁grön	-12499
▁holl	-12500
▁reiz	-12501
▁ruin	-12502
▁sant	-12503
▁sied	-12504
▁sier	-12505
▁zorn	-12506
▁züge	-12507
bertät	-12508
burger	-12509
eisten	-12510
größte	-12511
kommst	-12512
papier	-12513
prozen	-12514
regend	-12515
reuung	-12516
spuren	-12517
stream	-12518
tliche	-12519
üttert	-12520
▁apoll	-12521
▁billi	-12522
▁blüte	-12523
▁brett	-12524
▁bruno	-12525
▁damal	-12526
▁erder	-12527
▁hasse	-12528
▁hebel	-12529
▁himal	-12530
▁hülle	-12531
▁joshu	-12532
▁kunde	-12533
▁louis	-12534
▁maler	-12535
▁minim	-12536
▁mount	-12537
▁nackt	-12538
▁netze	-12539
▁patri	-12540
▁route	-12541
▁sagst	-12542
▁sauer	-12543
▁spitz	-12544
▁stört	-12545
▁vorbe	-12546
▁übern	-12547
altungs	-12548
brieren	-12549
dienste	-12550
gesetze	-12551
lichung	-12552
orgungs	-12553
osition	-12554
schritt	-12555
trische	-12556
utation	-12557
verletz	-12558
zurufen	-12559
▁anrufe	-12560
▁briten	-12561
▁brutto	-12562
▁deines	-12563
▁disney	-12564
▁drohne	-12565
▁förder	-12566
▁genial	-12567
▁klassi	-12568
▁lagern	-12569
▁mauern	-12570
▁misser	-12571
▁paaren	-12572
▁panzer	-12573
▁passiv	-12574
▁raster	-12575
▁saison	-12576
▁soldat	-12577
▁südpol	-12578
▁tippen	-12579
▁urteil	-12580
▁wilder	-12581
altungen	-12582
biologie	-12583
flaschen	-12584
formance	-12585
ianische	-12586
ssysteme	-12587
stattung	-12588
▁abgeben	-12589
▁afrikan	-12590
▁beraten	-12591
▁berkele	-12592
▁bestech	-12593
▁eingebe	-12594
▁elefant	-12595
▁folgten	-12596
▁gefilmt	-12597
▁geliebt	-12598
▁gemerkt	-12599
▁idealen	-12600
▁kopiert	-12601
▁krieger	-12602
▁libanon	-12603
▁melodie	-12604
▁merkmal	-12605
▁neigung	-12606
▁ozeanen	-12607
▁pflicht	-12608
▁phoenix	-12609
▁schickt	-12610
▁schwimm	-12611
▁seattle	-12612
▁springt	-12613
▁stimmte	-12614
▁tödlich	-12615
▁verdamm	-12616
▁vereinf	-12617
▁wählten	-12618
millionen	-12619
stellungs	-12620
sterreich	-12621
▁abhängen	-12622
▁angenehm	-12623
▁angriffe	-12624
▁bedecken	-12625
▁berichte	-12626
▁eingriff	-12627
▁hässlich	-12628
▁kreation	-12629
▁pandemie	-12630
▁partikel	-12631
▁pubertät	-12632
▁rechnung	-12633
▁schleimp	-12634
▁verknüpf	-12635
▁ökonomie	-12636
▁überholt	-12637
änderungen	-12638
▁abspielen	-12639
▁aufgehört	-12640
▁ausgehend	-12641
▁bestanden	-12642
▁dauerhaft	-12643
▁haushalts	-12644
▁platziert	-12645
▁schönsten	-12646
▁stattfand	-12647
▁vornehmen	-12648
▁übernimmt	-12649
nachrichten	-12650
▁beunruhigt	-12651
▁erreichten	-12652
▁ineinander	-12653
▁mitgefühls	-12654
▁schockiert	-12655
▁verfassung	-12656
▁zahlreiche	-12657
unterschiede	-12658
▁bundesstaat	-12659
▁genauigkeit	-12660
▁grundschule	-12661
▁infektionen	-12662
▁romantische	-12663
▁schnellsten	-12664
▁stundenlang	-12665
▁unternommen	-12666
▁untersuchte	-12667
▁vorbereiten	-12668
▁weitergeben	-12669
▁angesprochen	-12670
▁gefährlichen	-12671
▁geschlechter	-12672
▁gewohnheiten	-12673
▁konversation	-12674
▁körperlichen	-12675
▁nachhaltigen	-12676
▁perspektiven	-12677
▁traditionell	-12678
▁unterdrücken	-12679
▁wiederaufbau	-12680
▁behinderungen	-12681
▁existierenden	-12682
▁partnerschaft	-12683
▁schwierigsten	-12684
▁vorgeschlagen	-12685
▁weitergegeben	-12686
▁funktionsweise	-12687
▁nebenwirkungen	-12688
▁zusammensetzen	-12689
.-	-12690
hä	-12691
lö	-12692
mi	-12693
ye	-12694
esa	-12695
job	-12696
rim	-12697
öte	-12698
▁aß	-12699
▁äh	-12700
arkt	-12701
ckta	-12702
cola	-12703
elig	-12704
etro	-12705
fiel	-12706
lere	-12707
prei	-12708
ters	-12709
uver	-12710
weit	-12711
öpft	-12712
▁10.	-12713
▁bee	-12714
▁edi	-12715
▁hot	-12716
▁höf	-12717
▁jet	-12718
▁koh	-12719
▁lak	-12720
▁psy	-12721
▁tyr	-12722
▁wag	-12723
▁wit	-12724
aring	-12725
arium	-12726
eiert	-12727
eitig	-12728
feuer	-12729
geist	-12730
hetti	-12731
iefel	-12732
klass	-12733
osten	-12734
quote	-12735
reden	-12736
ärzte	-12737
äufen	-12738
▁alas	-12739
▁anbe	-12740
▁bach	-12741
▁bade	-12742
▁boom	-12743
▁coll	-12744
▁hefe	-12745
▁koso	-12746
▁kran	-12747
▁lade	-12748
▁logo	-12749
▁pack	-12750
▁sour	-12751
banken	-12752
emonie	-12753
gründe	-12754
gängig	-12755
häuser	-12756
igsten	-12757
inchen	-12758
jahren	-12759
liefer	-12760
medien	-12761
museum	-12762
sprung	-12763
trägen	-12764
uverne	-12765
videos	-12766
zessen	-12767
üllten	-12768
▁abkür	-12769
▁alber	-12770
▁anbau	-12771
▁bälle	-12772
▁erläu	-12773
▁faust	-12774
▁frakt	-12775
▁kälte	-12776
▁namib	-12777
▁regal	-12778
▁stren	-12779
▁these	-12780
▁trock	-12781
▁tunes	-12782
▁white	-12783
▁witze	-12784
auschen	-12785
brecher	-12786
händler	-12787
mädchen	-12788
okratie	-12789
stecken	-12790
stätten	-12791
uminium	-12792
▁asthma	-12793
▁donner	-12794
▁ernste	-12795
▁gesten	-12796
▁gucken	-12797
▁hacken	-12798
▁hierzu	-12799
▁kasten	-12800
▁kommst	-12801
▁künste	-12802
▁massiv	-12803
▁mosche	-12804
▁mäusen	-12805
▁normen	-12806
▁schatz	-12807
▁social	-12808
▁stören	-12809
▁unvoll	-12810
▁wachte	-12811
▁wright	-12812
▁wunden	-12813
chnungen	-12814
mitglied	-12815
sprojekt	-12816
▁anlegen	-12817
▁aufhört	-12818
▁aufwand	-12819
▁befreit	-12820
▁dschung	-12821
▁filtern	-12822
▁füttern	-12823
▁klische	-12824
▁prüfung	-12825
▁redeten	-12826
▁richtet	-12827
▁schiffe	-12828
▁schlamm	-12829
▁schützt	-12830
▁stewart	-12831
▁stützen	-12832
▁talente	-12833
▁verscha	-12834
▁vorüber	-12835
istischer	-12836
patienten	-12837
stationen	-12838
ähnlichen	-12839
▁anfällig	-12840
▁aussicht	-12841
▁berkeley	-12842
▁besiegen	-12843
▁einbauen	-12844
▁einsicht	-12845
▁eintritt	-12846
▁erforder	-12847
▁grönland	-12848
▁infrarot	-12849
▁kritisch	-12850
▁magazine	-12851
▁monterey	-12852
▁nachvoll	-12853
▁religiös	-12854
▁schlimme	-12855
▁schrittw	-12856
▁schwimmt	-12857
▁telefone	-12858
▁traurige	-12859
▁versuchs	-12860
▁üblichen	-12861
haftigkeit	-12862
strukturen	-12863
▁ausdrucks	-12864
▁bedingung	-12865
▁behauptet	-12866
▁betrunken	-12867
▁bewundern	-12868
▁entnehmen	-12869
▁gesteuert	-12870
▁herkommen	-12871
▁jerusalem	-12872
▁loswerden	-12873
▁paradigma	-12874
▁parkplatz	-12875
▁spaghetti	-12876
▁varianten	-12877
▁verbergen	-12878
▁verlaufen	-12879
▁verließen	-12880
sgeschichte	-12881
▁allmählich	-12882
▁aneinander	-12883
▁aufgegeben	-12884
▁beschädigt	-12885
▁entschloss	-12886
▁fortpflanz	-12887
▁fotografen	-12888
▁freundlich	-12889
▁gefangenen	-12890
▁helikopter	-12891
▁herausfand	-12892
▁innovative	-12893
▁politikern	-12894
▁proportion	-12895
▁subvention	-12896
▁verknüpfen	-12897
▁verrichten	-12898
▁vorherigen	-12899
▁wiederverw	-12900
▁österreich	-12901
▁anschließen	-12902
▁bahnbrechen	-12903
▁bedrohungen	-12904
▁dreieinhalb	-12905
▁einbeziehen	-12906
▁geschwister	-12907
▁hervorrufen	-12908
▁herzinfarkt	-12909
▁hinzugefügt	-12910
▁krebszellen	-12911
▁psychischen	-12912
▁shakespeare	-12913
▁versteckten	-12914
▁verteidigen	-12915
▁weihnachten	-12916
▁älterwerden	-12917
informationen	-12918
issenschaften	-12919
▁erderwärmung	-12920
▁gleichberech	-12921
▁herauskommen	-12922
▁hervorragend	-12923
▁installation	-12924
▁interessiere	-12925
▁lautsprecher	-12926
▁mammographie	-12927
▁verschwanden	-12928
▁vollständige	-12929
▁ausgezeichnet	-12930
▁herausfordern	-12931
▁stattgefunden	-12932
▁währenddessen	-12933
▁professionelle	-12934
▁visualisierung	-12935
▁zurückzukehren	-12936
▁bewerkstelligen	-12937
▁quantenmechanik	-12938
ai	-12939
uk	-12940
vö	-12941
aya	-12942
cra	-12943
ela	-12944
nik	-12945
nor	-12946
rip	-12947
sko	-12948
ves	-12949
ynt	-12950
▁47	-12951
▁96	-12952
▁dj	-12953
▁hm	-12954
▁kh	-12955
bart	-12956
besp	-12957
ctus	-12958
effe	-12959
eife	-12960
eiht	-12961
frem	-12962
haie	-12963
ikon	-12964
lief	-12965
mien	-12966
ocht	-12967
opol	-12968
ädie	-12969
ölfe	-12970
▁450	-12971
▁cli	-12972
▁cur	-12973
▁fan	-12974
▁inf	-12975
▁jup	-12976
▁kug	-12977
▁mrd	-12978
▁mrt	-12979
▁sad	-12980
▁vok	-12981
▁wuß	-12982
ampus	-12983
diges	-12984
eider	-12985
ittes	-12986
okoll	-12987
pläne	-12988
qaida	-12989
tests	-12990
üchen	-12991
üstet	-12992
▁1997	-12993
▁5000	-12994
▁coch	-12995
▁erbl	-12996
▁karo	-12997
▁laun	-12998
▁nike	-12999
▁norm	-13000
▁puzz	-13001
▁rout	-13002
▁sexy	-13003
▁wuer	-13004
ession	-13005
hieren	-13006
ington	-13007
kriege	-13008
kuchen	-13009
laster	-13010
lebens	-13011
legten	-13012
lingen	-13013
listen	-13014
locken	-13015
länder	-13016
packen	-13017
setzte	-13018
sslich	-13019
ummeln	-13020
▁ahnen	-13021
▁ermor	-13022
▁feier	-13023
▁freud	-13024
▁fäden	-13025
▁führe	-13026
▁ginge	-13027
▁knall	-13028
▁lewis	-13029
▁lobby	-13030
▁model	-13031
▁myzel	-13032
▁pille	-13033
▁publi	-13034
▁spass	-13035
▁weist	-13036
antwort	-13037
bericht	-13038
bildern	-13039
findung	-13040
partner	-13041
steiger	-13042
studium	-13043
tausend	-13044
wandeln	-13045
ündeten	-13046
▁ablauf	-13047
▁absatz	-13048
▁altmod	-13049
▁auszut	-13050
▁bezirk	-13051
▁eintau	-13052
▁ganzer	-13053
▁hübsch	-13054
▁kehrte	-13055
▁kleben	-13056
▁ladung	-13057
▁lampen	-13058
▁linear	-13059
▁maßstä	-13060
▁mücken	-13061
▁netten	-13062
▁nötige	-13063
▁perman	-13064
▁philip	-13065
▁platte	-13066
▁rebell	-13067
▁schale	-13068
▁schwul	-13069
▁server	-13070
▁sierra	-13071
▁stoffe	-13072
▁zeugen	-13073
▁ängste	-13074
▁üblich	-13075
assungen	-13076
gerungen	-13077
ineering	-13078
ordneten	-13079
schätzen	-13080
spartner	-13081
▁abfolge	-13082
▁abläuft	-13083
▁anbauen	-13084
▁bedient	-13085
▁berater	-13086
▁bezogen	-13087
▁dauernd	-13088
▁inhalts	-13089
▁jupiter	-13090
▁kommand	-13091
▁liebten	-13092
▁nummern	-13093
▁seither	-13094
▁sexuell	-13095
▁stachel	-13096
▁verfein	-13097
▁verfügt	-13098
▁walmart	-13099
▁älteste	-13100
▁äußeren	-13101
betrieben	-13102
gebrochen	-13103
schichten	-13104
▁aufnimmt	-13105
▁auslöser	-13106
▁barmherz	-13107
▁begangen	-13108
▁beiseite	-13109
▁benennen	-13110
▁bewertet	-13111
▁chemiker	-13112
▁deutsche	-13113
▁dienstag	-13114
▁doppelte	-13115
▁flexibel	-13116
▁gedauert	-13117
▁gewidmet	-13118
▁gänzlich	-13119
▁hungersn	-13120
▁illegale	-13121
▁momenten	-13122
▁optionen	-13123
▁superhel	-13124
▁verluste	-13125
▁verpasst	-13126
▁zurückge	-13127
▁zustände	-13128
▁zutrifft	-13129
experiment	-13130
zusprechen	-13131
▁absoluten	-13132
▁aluminium	-13133
▁angreifen	-13134
▁ansteigen	-13135
▁attraktiv	-13136
▁ausbilden	-13137
▁eigentums	-13138
▁endeffekt	-13139
▁förderung	-13140
▁generiert	-13141
▁glühbirne	-13142
▁hindernis	-13143
▁phänomene	-13144
▁schultern	-13145
▁südlichen	-13146
▁teilhaben	-13147
▁thunfisch	-13148
▁unbegrenz	-13149
▁webseiten	-13150
▁zuständig	-13151
▁antikörper	-13152
▁anzubieten	-13153
▁astronomen	-13154
▁benötigten	-13155
▁connectome	-13156
▁ernährungs	-13157
▁glühbirnen	-13158
▁hauptstadt	-13159
▁herzschlag	-13160
▁historisch	-13161
▁hoffnungen	-13162
▁häufigsten	-13163
▁optimieren	-13164
▁organische	-13165
▁positionen	-13166
▁programmen	-13167
▁staatliche	-13168
▁behinderung	-13169
▁flüchtlings	-13170
▁ingenieuren	-13171
▁korrigieren	-13172
▁nervenzelle	-13173
▁unerwartete	-13174
▁zeitschrift	-13175
▁musikalische	-13176
▁organisierte	-13177
▁rechenschaft	-13178
▁schaltkreise	-13179
▁wortwörtlich	-13180
▁einverstanden	-13181
▁erdoberfläche	-13182
▁fantastisches	-13183
▁komplizierten	-13184
▁verschwendung	-13185
▁vertrauenswür	-13186
▁zusammenspiel	-13187
▁überschreiten	-13188
▁zusammenbringen	-13189
gu	-13190
bod	-13191
cla	-13192
män	-13193
ors	-13194
rey	-13195
tas	-13196
val	-13197
üre	-13198
▁8.	-13199
▁wk	-13200
▁wu	-13201
alth	-13202
belt	-13203
dere	-13204
droh	-13205
hang	-13206
ical	-13207
illt	-13208
ites	-13209
kund	-13210
mess	-13211
muck	-13212
näck	-13213
ollt	-13214
sstu	-13215
stem	-13216
▁1,3	-13217
▁140	-13218
▁15-	-13219
▁160	-13220
▁900	-13221
▁bre	-13222
▁chr	-13223
▁hit	-13224
▁küh	-13225
▁lyn	-13226
▁mes	-13227
▁nom	-13228
▁nsa	-13229
▁sha	-13230
▁vib	-13231
▁zet	-13232
▁zoo	-13233
agern	-13234
boote	-13235
bühne	-13236
dsten	-13237
ierst	-13238
igmen	-13239
kläss	-13240
neter	-13241
psych	-13242
zepte	-13243
▁bart	-13244
▁beij	-13245
▁dood	-13246
▁food	-13247
▁häus	-13248
▁jane	-13249
▁jord	-13250
▁kürz	-13251
▁mech	-13252
▁myst	-13253
▁naiv	-13254
▁quar	-13255
▁tags	-13256
▁turm	-13257
▁unnö	-13258
▁zone	-13259
besten	-13260
chtert	-13261
gesagt	-13262
ildete	-13263
lenden	-13264
macher	-13265
marsch	-13266
massen	-13267
ochten	-13268
ologin	-13269
ressen	-13270
risiko	-13271
ynamik	-13272
ängern	-13273
▁6.000	-13274
▁anbie	-13275
▁ausbe	-13276
▁befäh	-13277
▁elend	-13278
▁haken	-13279
▁hüfte	-13280
▁impul	-13281
▁input	-13282
▁quell	-13283
▁simul	-13284
▁spart	-13285
▁stunt	-13286
▁venus	-13287
▁zahlt	-13288
▁ziehe	-13289
▁zweif	-13290
▁zweig	-13291
familie	-13292
fähigen	-13293
ichtung	-13294
ivalent	-13295
knochen	-13296
kranken	-13297
släufig	-13298
stücken	-13299
verbrau	-13300
verlust	-13301
ächtigt	-13302
▁akteur	-13303
▁banker	-13304
▁barbar	-13305
▁bemüht	-13306
▁bewohn	-13307
▁dünger	-13308
▁einzur	-13309
▁essent	-13310
▁fehlte	-13311
▁gemalt	-13312
▁genies	-13313
▁kollab	-13314
▁krisen	-13315
▁kurven	-13316
▁lecker	-13317
▁mikrob	-13318
▁netter	-13319
▁source	-13320
▁spinne	-13321
▁tugend	-13322
▁tumore	-13323
▁tötete	-13324
▁ziegen	-13325
algorith	-13326
▁akteure	-13327
▁alltags	-13328
▁anfühlt	-13329
▁ansteck	-13330
▁belegen	-13331
▁besaßen	-13332
▁delphin	-13333
▁eigener	-13334
▁erreich	-13335
▁gehörte	-13336
▁hochwer	-13337
▁längere	-13338
▁patente	-13339
▁pfeifen	-13340
▁schlich	-13341
▁sichern	-13342
▁sterber	-13343
▁süchtig	-13344
▁zehntel	-13345
▁übliche	-13346
gerechnet	-13347
reibungen	-13348
zeitalter	-13349
▁ablaufen	-13350
▁begriffe	-13351
▁detektor	-13352
▁folglich	-13353
▁gesetzes	-13354
▁goldenen	-13355
▁gouverne	-13356
▁hartnäck	-13357
▁jüngsten	-13358
▁moderner	-13359
▁resonanz	-13360
▁schlauer	-13361
▁schmeckt	-13362
▁schwache	-13363
▁variante	-13364
▁visionen	-13365
▁vorhaben	-13366
▁wirkungs	-13367
▁zylinder	-13368
verhältnis	-13369
▁angerufen	-13370
▁erschreck	-13371
▁ideologie	-13372
▁kriterien	-13373
▁landkarte	-13374
▁nachahmen	-13375
▁positives	-13376
▁projektes	-13377
▁raumfahrt	-13378
▁sammelten	-13379
▁schaffung	-13380
▁schwächen	-13381
▁skeptisch	-13382
▁verbringe	-13383
▁vertreter	-13384
▁verwalten	-13385
materialien	-13386
mechanismus	-13387
▁akademiker	-13388
▁ansammlung	-13389
▁bedeutungs	-13390
▁beobachter	-13391
▁diplomatie	-13392
▁geringsten	-13393
▁highschool	-13394
▁hinterkopf	-13395
▁ingenieurs	-13396
▁intensität	-13397
▁mahlzeiten	-13398
▁nördlichen	-13399
▁skelettmus	-13400
▁städtische	-13401
▁südamerika	-13402
▁ausgestellt	-13403
▁bangladesch	-13404
▁bergsteiger	-13405
▁betrachtete	-13406
▁cyberkrimin	-13407
▁erschrecken	-13408
▁frustration	-13409
▁hochgeladen	-13410
▁mechanismen	-13411
▁performance	-13412
▁regulierung	-13413
▁schätzungen	-13414
▁statistisch	-13415
▁tätigkeiten	-13416
▁verfügbaren	-13417
▁verursachte	-13418
▁ausgerichtet	-13419
▁beängstigend	-13420
▁installieren	-13421
▁umweltfreund	-13422
▁zwangsläufig	-13423
▁entscheidungs	-13424
▁erfolgreichen	-13425
▁gemeinnützige	-13426
▁lateinamerika	-13427
▁unterschieden	-13428
▁vorzubereiten	-13429
▁beeindruckende	-13430
cs	-13431
kk	-13432
üt	-13433
ata	-13434
bos	-13435
hah	-13436
ico	-13437
ios	-13438
ols	-13439
tie	-13440
twe	-13441
▁5.	-13442
▁86	-13443
▁ec	-13444
▁id	-13445
▁uv	-13446
agon	-13447
aiss	-13448
beam	-13449
chem	-13450
elos	-13451
freu	-13452
glas	-13453
hall	-13454
igan	-13455
klop	-13456
kons	-13457
neur	-13458
orig	-13459
pert	-13460
rain	-13461
sand	-13462
umpf	-13463
view	-13464
▁15.	-13465
▁16.	-13466
▁180	-13467
▁187	-13468
▁bad	-13469
▁int	-13470
▁tai	-13471
▁zus	-13472
augen	-13473
autos	-13474
earch	-13475
otter	-13476
szeit	-13477
uhren	-13478
viren	-13479
ziele	-13480
öpfen	-13481
▁able	-13482
▁aktu	-13483
▁carl	-13484
▁fügt	-13485
▁ikon	-13486
▁klau	-13487
▁obst	-13488
▁pier	-13489
▁ruck	-13490
▁tedx	-13491
▁unfa	-13492
ansion	-13493
epidem	-13494
ichere	-13495
ienten	-13496
pagnen	-13497
raffer	-13498
schaut	-13499
sebene	-13500
skrank	-13501
spielt	-13502
splant	-13503
ströme	-13504
stufen	-13505
träger	-13506
ützten	-13507
▁ankün	-13508
▁beher	-13509
▁delhi	-13510
▁empor	-13511
▁fahre	-13512
▁fülle	-13513
▁geste	-13514
▁herde	-13515
▁inten	-13516
▁invas	-13517
▁kling	-13518
▁plötz	-13519
▁polen	-13520
▁remix	-13521
▁schir	-13522
▁setze	-13523
▁sound	-13524
▁space	-13525
▁steck	-13526
▁sumpf	-13527
▁trost	-13528
▁ungem	-13529
▁unsch	-13530
▁verhe	-13531
▁wille	-13532
▁zeile	-13533
▁ängst	-13534
▁überd	-13535
fferson	-13536
fähiger	-13537
komplex	-13538
konflik	-13539
paganda	-13540
positiv	-13541
treffen	-13542
weichen	-13543
▁60.000	-13544
▁aufruf	-13545
▁befehl	-13546
▁comedy	-13547
▁deuten	-13548
▁entwir	-13549
▁entwür	-13550
▁erober	-13551
▁erspar	-13552
▁fakult	-13553
▁festen	-13554
▁feucht	-13555
▁feuern	-13556
▁fluktu	-13557
▁gelder	-13558
▁globus	-13559
▁hammer	-13560
▁health	-13561
▁heranz	-13562
▁horror	-13563
▁kambod	-13564
▁kansas	-13565
▁koffer	-13566
▁kürzer	-13567
▁listen	-13568
▁mobile	-13569
▁nadeln	-13570
▁oberfl	-13571
▁passag	-13572
▁psyche	-13573
▁puppen	-13574
▁quadra	-13575
▁quanti	-13576
▁rannte	-13577
▁regnet	-13578
▁scherz	-13579
▁umsatz	-13580
▁verges	-13581
▁verspr	-13582
▁verzei	-13583
▁volkes	-13584
▁äußere	-13585
aissance	-13586
werkzeug	-13587
▁anblick	-13588
▁billige	-13589
▁dichten	-13590
▁dirigen	-13591
▁dreieck	-13592
▁drängen	-13593
▁einzelt	-13594
▁fehlern	-13595
▁fordert	-13596
▁interag	-13597
▁kennedy	-13598
▁kostete	-13599
▁lautete	-13600
▁lernens	-13601
▁mancher	-13602
▁mentale	-13603
▁mochten	-13604
▁piloten	-13605
▁samstag	-13606
▁schätzt	-13607
▁skizzen	-13608
▁vitamin	-13609
▁wandeln	-13610
▁wäldern	-13611
▁überaus	-13612
schrauber	-13613
schrecken	-13614
▁autonome	-13615
▁begegnet	-13616
▁bildeten	-13617
▁erachten	-13618
▁erwecken	-13619
▁fehlende	-13620
▁football	-13621
▁ganzheit	-13622
▁geistige	-13623
▁geschick	-13624
▁herausge	-13625
▁lehrplan	-13626
▁meetings	-13627
▁mikrofon	-13628
▁moskitos	-13629
▁mädchens	-13630
▁research	-13631
▁sammelte	-13632
▁schildkr	-13633
▁umdrehen	-13634
▁unvorher	-13635
▁warteten	-13636
▁örtliche	-13637
▁übertrag	-13638
verteilung	-13639
▁außenwelt	-13640
▁beliebige	-13641
▁besuchten	-13642
▁bruchteil	-13643
▁depressiv	-13644
▁derjenige	-13645
▁designern	-13646
▁einkaufen	-13647
▁fehlenden	-13648
▁geistigen	-13649
▁geldgeber	-13650
▁imitieren	-13651
▁jefferson	-13652
▁luftfahrt	-13653
▁migration	-13654
▁neugierde	-13655
▁positiver	-13656
▁riskieren	-13657
▁spazieren	-13658
▁universal	-13659
▁verbrannt	-13660
▁werkstatt	-13661
fähigkeiten	-13662
geschnitten	-13663
möglichkeit	-13664
▁anerkennen	-13665
▁begeistern	-13666
▁effiziente	-13667
▁impfstoffe	-13668
▁kollektive	-13669
▁mutationen	-13670
▁steigerung	-13671
▁umgebracht	-13672
▁umstritten	-13673
▁untergrund	-13674
▁vernünftig	-13675
▁vorurteile	-13676
▁zufälligen	-13677
versicherung	-13678
▁abschneiden	-13679
▁ausgelöscht	-13680
▁ausschalten	-13681
▁empfindlich	-13682
▁geschnitten	-13683
▁molekularen	-13684
▁notaufnahme	-13685
▁notwendigen	-13686
▁plattformen	-13687
▁reflektiert	-13688
▁renaissance	-13689
▁schleimpilz	-13690
▁verletzlich	-13691
▁weitergehen	-13692
▁widerstehen	-13693
▁wunderbarer	-13694
▁übermitteln	-13695
▁bemerkenswer	-13696
▁inspirierend	-13697
▁verlangsamen	-13698
▁verschlüssel	-13699
▁wahrzunehmen	-13700
▁zwischenzeit	-13701
▁abgeschnitten	-13702
▁arbeitskräfte	-13703
▁einschränkung	-13704
▁geschäftswelt	-13705
▁herausstellte	-13706
▁herunterladen	-13707
▁schnittstelle	-13708
▁verpflichtung	-13709
▁allgegenwärtig	-13710
▁typischerweise	-13711
▁schwangerschaft	-13712
▁technologischen	-13713
▁vielversprechen	-13714
äs	-13715
ars	-13716
idi	-13717
ily	-13718
kod	-13719
ußt	-13720
▁52	-13721
▁6.	-13722
▁74	-13723
▁zö	-13724
atür	-13725
erbe	-13726
gant	-13727
irur	-13728
itis	-13729
kose	-13730
lvia	-13731
osse	-13732
rebs	-13733
rein	-13734
rott	-13735
▁bow	-13736
▁deh	-13737
▁hur	-13738
▁jac	-13739
▁jay	-13740
▁lhc	-13741
▁mix	-13742
▁pur	-13743
▁sho	-13744
▁shr	-13745
▁öko	-13746
alore	-13747
asten	-13748
atrie	-13749
babwe	-13750
chern	-13751
cover	-13752
flüge	-13753
lecht	-13754
point	-13755
serie	-13756
siver	-13757
unsch	-13758
vögel	-13759
ückte	-13760
▁1930	-13761
▁anek	-13762
▁arte	-13763
▁emer	-13764
▁faul	-13765
▁happ	-13766
▁hosp	-13767
▁intr	-13768
▁künf	-13769
▁leug	-13770
▁milo	-13771
▁moma	-13772
▁punk	-13773
▁ruhm	-13774
▁saat	-13775
▁sehn	-13776
▁slum	-13777
▁stoß	-13778
▁subs	-13779
▁teig	-13780
▁tust	-13781
▁ultr	-13782
▁utop	-13783
▁vulk	-13784
finanz	-13785
händer	-13786
künfte	-13787
legung	-13788
minist	-13789
rechts	-13790
schuss	-13791
steuer	-13792
stunde	-13793
swerte	-13794
teilte	-13795
westen	-13796
wörter	-13797
▁album	-13798
▁archä	-13799
▁athle	-13800
▁bauer	-13801
▁beach	-13802
▁biene	-13803
▁chips	-13804
▁entmu	-13805
▁flüch	-13806
▁gebir	-13807
▁impor	-13808
▁lasen	-13809
▁makro	-13810
▁mitzu	-13811
▁pädag	-13812
▁reist	-13813
▁schaf	-13814
▁tesla	-13815
liessen	-13816
mittler	-13817
sammeln	-13818
sendung	-13819
thimmel	-13820
tzeitig	-13821
veranst	-13822
zulegen	-13823
▁alaska	-13824
▁apollo	-13825
▁arrang	-13826
▁belegt	-13827
▁beläst	-13828
▁betrag	-13829
▁bewege	-13830
▁brille	-13831
▁buddha	-13832
▁fossil	-13833
▁fünfte	-13834
▁gelehr	-13835
▁kerzen	-13836
▁kosmos	-13837
▁kriegt	-13838
▁lauten	-13839
▁lehrte	-13840
▁leihen	-13841
▁letzen	-13842
▁museen	-13843
▁mörder	-13844
▁röhren	-13845
▁schoss	-13846
▁schwär	-13847
▁sexual	-13848
▁sylvia	-13849
▁träger	-13850
▁umgibt	-13851
▁umkehr	-13852
▁vorant	-13853
▁wilden	-13854
▁zeilen	-13855
allappen	-13856
bereiche	-13857
digungen	-13858
lösungen	-13859
moleküle	-13860
schieben	-13861
stellige	-13862
verstand	-13863
▁ausführ	-13864
▁bedenkt	-13865
▁beweist	-13866
▁dreißig	-13867
▁externe	-13868
▁flecken	-13869
▁fünftel	-13870
▁fünften	-13871
▁galerie	-13872
▁gattung	-13873
▁gemisch	-13874
▁hormone	-13875
▁händler	-13876
▁indigen	-13877
▁infolge	-13878
▁journal	-13879
▁kräften	-13880
▁leitete	-13881
▁nötigen	-13882
▁reaktor	-13883
▁schläft	-13884
▁trommel	-13885
▁wassers	-13886
▁wundern	-13887
▁älterer	-13888
schritten	-13889
sprobleme	-13890
störungen	-13891
sätzliche	-13892
▁abschied	-13893
▁anforder	-13894
▁ausdrück	-13895
▁besorgen	-13896
▁betrügen	-13897
▁betrüger	-13898
▁gerissen	-13899
▁gesamtes	-13900
▁handvoll	-13901
▁indianer	-13902
▁klarheit	-13903
▁libellen	-13904
▁mahlzeit	-13905
▁massiven	-13906
▁mountain	-13907
▁plankton	-13908
▁polizist	-13909
▁rohstoff	-13910
▁schalten	-13911
▁schließe	-13912
▁senioren	-13913
▁spanisch	-13914
▁südafrik	-13915
▁thailand	-13916
▁toleranz	-13917
▁wiederzu	-13918
▁zulassen	-13919
▁überschw	-13920
▁überwach	-13921
generation	-13922
▁abholzung	-13923
▁bangalore	-13924
▁brillante	-13925
▁bräuchten	-13926
▁dominiert	-13927
▁dschungel	-13928
▁ehemalige	-13929
▁eindrucks	-13930
▁entwarfen	-13931
▁geschicht	-13932
▁grammatik	-13933
▁haushalte	-13934
▁molekülen	-13935
▁prothesen	-13936
▁schmetter	-13937
▁steuerung	-13938
▁unbekannt	-13939
▁vermehren	-13940
▁vermischt	-13941
▁veteranen	-13942
▁visueller	-13943
▁zufällige	-13944
▁überblick	-13945
▁überflüss	-13946
übertragung	-13947
▁assoziiert	-13948
▁aufsteigen	-13949
▁ausgedacht	-13950
▁ausrichten	-13951
▁einsamkeit	-13952
▁einzugehen	-13953
▁flugzeugen	-13954
▁fokussiert	-13955
▁lebenszeit	-13956
▁mitbringen	-13957
▁molekulare	-13958
▁musikstück	-13959
▁nachdachte	-13960
▁operations	-13961
▁psychiater	-13962
▁schüchtern	-13963
▁sichtbaren	-13964
▁spielzeuge	-13965
▁symmetrien	-13966
▁todesfälle	-13967
▁verabschie	-13968
▁vernetzung	-13969
▁versammeln	-13970
▁verspreche	-13971
▁vertrieben	-13972
▁wendepunkt	-13973
▁zeitraffer	-13974
▁zweifellos	-13975
▁dergleichen	-13976
▁eingebettet	-13977
▁gemeinsames	-13978
▁herauskommt	-13979
▁hinausgehen	-13980
▁kontinenten	-13981
▁multination	-13982
▁nachthimmel	-13983
▁praktischen	-13984
▁rechtzeitig	-13985
▁universelle	-13986
▁verlangsamt	-13987
▁vordergrund	-13988
▁windenergie	-13989
▁ökologische	-13990
▁überwältigt	-13991
▁akademischen	-13992
▁aussergewöhn	-13993
▁bereitschaft	-13994
▁vorbereitung	-13995
▁erfolgreicher	-13996
▁fundamentalen	-13997
▁schreckliches	-13998
▁transformieren	-13999
▁psychologischen	-14000
▁selbstvertrauen	-14001
gst	-14002
sti	-14003
tre	-14004
▁53	-14005
▁59	-14006
▁bü	-14007
▁sn	-14008
alai	-14009
auff	-14010
char	-14011
eide	-14012
eith	-14013
entz	-14014
fred	-14015
fuhr	-14016
funk	-14017
gige	-14018
ions	-14019
läuf	-14020
mass	-14021
ockt	-14022
oden	-14023
okon	-14024
oton	-14025
quis	-14026
ript	-14027
räne	-14028
trat	-14029
umer	-14030
wahl	-14031
wale	-14032
yota	-14033
äres	-14034
ärkt	-14035
▁---	-14036
▁adi	-14037
▁cre	-14038
▁dol	-14039
▁geo	-14040
▁isa	-14041
▁neh	-14042
▁sap	-14043
▁zuw	-14044
atter	-14045
ction	-14046
essim	-14047
esung	-14048
glied	-14049
haler	-14050
iktor	-14051
journ	-14052
rimin	-14053
sauce	-14054
trägt	-14055
typen	-14056
urcht	-14057
utnik	-14058
üsten	-14059
▁1991	-14060
▁alan	-14061
▁audi	-14062
▁cham	-14063
▁chop	-14064
▁cris	-14065
▁crow	-14066
▁east	-14067
▁ebay	-14068
▁ehrf	-14069
▁grus	-14070
▁helm	-14071
▁huhn	-14072
▁love	-14073
▁mons	-14074
▁palä	-14075
▁peer	-14076
▁pent	-14077
▁repl	-14078
▁rufe	-14079
▁süße	-14080
▁terr	-14081
▁zoll	-14082
erfolg	-14083
fahrts	-14084
fähige	-14085
iedeln	-14086
iegend	-14087
kehrte	-14088
luster	-14089
rennen	-14090
rächen	-14091
seiten	-14092
üsselt	-14093
▁auslö	-14094
▁basen	-14095
▁blutz	-14096
▁boote	-14097
▁broad	-14098
▁dalai	-14099
▁dosis	-14100
▁enger	-14101
▁faden	-14102
▁flick	-14103
▁gepar	-14104
▁irren	-14105
▁kolum	-14106
▁lagos	-14107
▁lampe	-14108
▁massa	-14109
▁oktop	-14110
▁orang	-14111
▁refle	-14112
▁river	-14113
▁rocke	-14114
▁table	-14115
▁tibet	-14116
▁wählt	-14117
archite	-14118
artiger	-14119
aschall	-14120
drucker	-14121
kameras	-14122
kräften	-14123
schirme	-14124
stadium	-14125
straßen	-14126
tierter	-14127
usionen	-14128
verkauf	-14129
wichtig	-14130
▁absurd	-14131
▁arktis	-14132
▁berufe	-14133
▁blüten	-14134
▁canyon	-14135
▁columb	-14136
▁edward	-14137
▁elimin	-14138
▁frisst	-14139
▁heroin	-14140
▁johnny	-14141
▁joshua	-14142
▁konver	-14143
▁konzip	-14144
▁kämpft	-14145
▁nathan	-14146
▁pessim	-14147
▁rassen	-14148
▁schrau	-14149
▁simpel	-14150
▁sprang	-14151
▁stetig	-14152
▁supral	-14153
▁teuren	-14154
▁tyrann	-14155
▁unwohl	-14156
▁viktor	-14157
▁wandte	-14158
▁wänden	-14159
▁zusamm	-14160
▁ärztin	-14161
klässler	-14162
schlüsse	-14163
schützer	-14164
sekunden	-14165
ssystems	-14166
▁aktiver	-14167
▁apparat	-14168
▁auslöst	-14169
▁befasst	-14170
▁besuche	-14171
▁durchdr	-14172
▁erträge	-14173
▁erzogen	-14174
▁ethanol	-14175
▁frösche	-14176
▁früchte	-14177
▁genauen	-14178
▁grosser	-14179
▁jüngere	-14180
▁komfort	-14181
▁kreisen	-14182
▁landung	-14183
▁leichen	-14184
▁lustige	-14185
▁offener	-14186
▁rehabil	-14187
▁reichte	-14188
▁sammler	-14189
▁scannen	-14190
▁schaffe	-14191
▁schnurr	-14192
▁spezial	-14193
▁sputnik	-14194
▁stadium	-14195
▁stiegen	-14196
▁taucher	-14197
▁töteten	-14198
▁verviel	-14199
▁zentren	-14200
▁ägypter	-14201
▁äquator	-14202
erkennung	-14203
gespräche	-14204
tigkeiten	-14205
wettbewer	-14206
ändischen	-14207
▁authenti	-14208
▁bewegten	-14209
▁einklang	-14210
▁erziehen	-14211
▁fröhlich	-14212
▁gedeihen	-14213
▁geheimen	-14214
▁grafiken	-14215
▁konstant	-14216
▁kreuzung	-14217
▁kämpften	-14218
▁leuchtet	-14219
▁magische	-14220
▁michigan	-14221
▁mittlere	-14222
▁modellen	-14223
▁ostküste	-14224
▁partnern	-14225
▁philadel	-14226
▁portugal	-14227
▁reinigen	-14228
▁sandwich	-14229
▁scheiben	-14230
▁seltenen	-14231
▁tedtalks	-14232
▁tiefsten	-14233
▁tödliche	-14234
▁unterird	-14235
▁verträge	-14236
ausbildung	-14237
gestaltung	-14238
ichtigkeit	-14239
ologischer	-14240
wohnheiten	-14241
▁antwortet	-14242
▁aufpassen	-14243
▁aufzeigen	-14244
▁belastung	-14245
▁bezahlung	-14246
▁blindheit	-14247
▁blockiert	-14248
▁ethischen	-14249
▁gründlich	-14250
▁hamburger	-14251
▁handlungs	-14252
▁künstlich	-14253
▁materials	-14254
▁mächtigen	-14255
▁mächtiger	-14256
▁palästina	-14257
▁parameter	-14258
▁patientin	-14259
▁recherche	-14260
▁seltsames	-14261
▁spektrums	-14262
▁unzählige	-14263
▁variation	-14264
▁vorsitzen	-14265
▁übergehen	-14266
preisträger	-14267
scheidungen	-14268
universität	-14269
▁astronomie	-14270
[...]
