<pad>	0
<s>	0
</s>	0
<unk>	0
▁t	-0
▁th	-1
▁a	-2
▁i	-3
▁w	-4
▁the	-5
▁,	-6
▁s	-7
re	-8
▁o	-9
▁.	-10
in	-11
at	-12
nd	-13
er	-14
ou	-15
▁c	-16
▁b	-17
▁m	-18
▁h	-19
ing	-20
▁and	-21
en	-22
▁p	-23
▁to	-24
on	-25
▁f	-26
▁d	-27
an	-28
▁'	-29
es	-30
▁of	-31
ll	-32
or	-33
▁in	-34
▁l	-35
ed	-36
▁y	-37
is	-38
it	-39
ar	-40
▁that	-41
▁g	-42
▁we	-43
▁n	-44
▁you	-45
om	-46
as	-47
▁wh	-48
▁it	-49
ic	-50
le	-51
ve	-52
al	-53
▁e	-54
▁is	-55
ow	-56
▁be	-57
us	-58
ut	-59
ion	-60
ot	-61
et	-62
▁re	-63
▁on	-64
▁ha	-65
▁this	-66
ct	-67
ent	-68
ver	-69
ld	-70
▁so	-71
ay	-72
se	-73
all	-74
▁st	-75
ro	-76
id	-77
st	-78
ig	-79
ur	-80
ly	-81
▁he	-82
ch	-83
ke	-84
▁for	-85
ce	-86
▁"	-87
▁they	-88
ra	-89
▁was	-90
▁an	-91
▁do	-92
im	-93
▁are	-94
▁u	-95
▁go	-96
ir	-97
▁li	-98
ith	-99
▁k	-100
ally	-101
op	-102
▁what	-103
th	-104
▁with	-105
▁se	-106
▁ab	-107
▁have	-108
am	-109
▁but	-110
▁can	-111
▁-	-112
▁--	-113
▁as	-114
▁mo	-115
ation	-116
out	-117
ht	-118
▁j	-119
▁sh	-120
ol	-121
▁wor	-122
▁ne	-123
▁com	-124
▁?	-125
ere	-126
▁at	-127
very	-128
▁there	-129
▁me	-130
ad	-131
▁ch	-132
ould	-133
▁not	-134
▁about	-135
▁r	-136
▁all	-137
ill	-138
ant	-139
ter	-140
ge	-141
il	-142
▁fr	-143
ul	-144
▁som	-145
oo	-146
ust	-147
▁ex	-148
▁pro	-149
▁my	-150
ers	-151
▁or	-152
▁de	-153
use	-154
ight	-155
▁pe	-156
▁one	-157
▁con	-158
art	-159
▁like	-160
um	-161
ear	-162
▁peop	-163
▁bec	-164
▁people	-165
pp	-166
▁ma	-167
ck	-168
ess	-169
▁if	-170
ure	-171
ate	-172
ies	-173
ive	-174
▁from	-175
▁kn	-176
est	-177
▁v	-178
ity	-179
▁now	-180
▁al	-181
ect	-182
ble	-183
nt	-184
if	-185
ist	-186
qu	-187
ind	-188
▁our	-189
▁te	-190
▁these	-191
▁just	-192
ink	-193
▁us	-194
▁int	-195
▁out	-196
▁know	-197
ook	-198
▁sp	-199
ause	-200
rou	-201
▁thing	-202
▁:	-203
od	-204
▁when	-205
un	-206
▁because	-207
▁see	-208
▁very	-209
▁tr	-210
▁them	-211
▁think	-212
▁who	-213
and	-214
ie	-215
▁up	-216
os	-217
ort	-218
▁get	-219
▁how	-220
▁pl	-221
her	-222
▁by	-223
▁some	-224
ich	-225
▁act	-226
▁going	-227
▁1	-228
ci	-229
iv	-230
ain	-231
▁your	-232
og	-233
one	-234
▁more	-235
▁im	-236
▁sa	-237
▁had	-238
▁year	-239
el	-240
▁tim	-241
▁here	-242
▁look	-243
▁which	-244
▁en	-245
▁would	-246
00	-247
▁su	-248
▁were	-249
ap	-250
ine	-251
ment	-252
▁really	-253
our	-254
▁comp	-255
▁their	-256
▁want	-257
ast	-258
ame	-259
ually	-260
▁work	-261
em	-262
▁co	-263
▁ta	-264
▁le	-265
ard	-266
▁than	-267
▁then	-268
iz	-269
act	-270
ous	-271
gh	-272
reat	-273
ack	-274
▁way	-275
▁world	-276
hing	-277
▁every	-278
▁no	-279
are	-280
ose	-281
▁man	-282
▁un	-283
▁time	-284
▁has	-285
▁per	-286
▁don	-287
▁oth	-288
ans	-289
▁qu	-290
▁actually	-291
ab	-292
▁ev	-293
ore	-294
▁exp	-295
ide	-296
▁will	-297
▁into	-298
▁where	-299
▁could	-300
▁say	-301
▁ag	-302
ag	-303
▁fe	-304
▁things	-305
ace	-306
res	-307
ong	-308
ild	-309
ence	-310
▁did	-311
itt	-312
ions	-313
▁am	-314
age	-315
▁years	-316
ud	-317
▁somet	-318
▁other	-319
▁well	-320
alk	-321
▁any	-322
▁tw	-323
▁af	-324
▁cl	-325
▁right	-326
iff	-327
ach	-328
nder	-329
▁new	-330
ical	-331
▁been	-332
▁ar	-333
▁happ	-334
▁make	-335
▁diff	-336
▁pr	-337
▁she	-338
ip	-339
▁po	-340
▁said	-341
so	-342
▁bu	-343
▁start	-344
▁over	-345
▁fir	-346
▁need	-347
▁ro	-348
▁part	-349
▁something	-350
▁2	-351
ree	-352
fe	-353
red	-354
▁first	-355
▁two	-356
▁dis	-357
▁imp	-358
own	-359
ia	-360
▁mu	-361
▁back	-362
ory	-363
ite	-364
ice	-365
ry	-366
▁those	-367
▁lo	-368
▁kind	-369
pt	-370
▁got	-371
olog	-372
orm	-373
▁much	-374
round	-375
▁call	-376
ount	-377
ens	-378
▁differe	-379
de	-380
▁litt	-381
ang	-382
▁little	-383
ign	-384
▁also	-385
ater	-386
▁ph	-387
ass	-388
ff	-389
ound	-390
▁lot	-391
cent	-392
ib	-393
sel	-394
▁most	-395
▁spe	-396
▁cont	-397
ue	-398
ght	-399
▁ac	-400
ple	-401
▁talk	-402
ces	-403
ult	-404
way	-405
▁des	-406
▁only	-407
ves	-408
▁even	-409
▁ad	-410
ber	-411
▁bet	-412
▁his	-413
rain	-414
▁life	-415
king	-416
▁sy	-417
ving	-418
▁under	-419
▁ind	-420
ome	-421
vel	-422
co	-423
▁res	-424
ated	-425
ody	-426
able	-427
▁day	-428
▁br	-429
▁many	-430
▁take	-431
▁bl	-432
ations	-433
▁good	-434
▁let	-435
ph	-436
▁hum	-437
▁different	-438
ms	-439
▁does	-440
ep	-441
ru	-442
ict	-443
ial	-444
ish	-445
other	-446
ick	-447
rough	-448
▁ide	-449
▁her	-450
int	-451
▁why	-452
▁real	-453
▁down	-454
▁through	-455
▁around	-456
▁put	-457
ood	-458
ell	-459
du	-460
▁inter	-461
▁comm	-462
▁may	-463
ance	-464
ase	-465
▁sc	-466
pl	-467
▁pre	-468
ire	-469
▁show	-470
ark	-471
▁use	-472
ents	-473
▁tell	-474
urn	-475
cess	-476
▁being	-477
ange	-478
day	-479
▁em	-480
form	-481
▁fl	-482
▁ra	-483
▁off	-484
▁great	-485
▁same	-486
ible	-487
▁come	-488
ade	-489
▁sm	-490
▁thou	-491
▁happen	-492
ors	-493
▁inc	-494
▁too	-495
▁proble	-496
chn	-497
▁try	-498
ak	-499
▁gen	-500
ress	-501
▁;	-502
▁big	-503
▁car	-504
wn	-505
ary	-506
ject	-507
▁three	-508
▁fact	-509
ath	-510
▁techn	-511
ob	-512
iver	-513
pe	-514
▁count	-515
▁doing	-516
ether	-517
ys	-518
ful	-519
xt	-520
ual	-521
stem	-522
▁wr	-523
ric	-524
▁gr	-525
ically	-526
▁gu	-527
ning	-528
▁find	-529
ting	-530
▁human	-531
▁pers	-532
▁sur	-533
per	-534
▁thank	-535
▁again	-536
▁tra	-537
▁after	-538
ile	-539
▁app	-540
ology	-541
ved	-542
▁percent	-543
▁system	-544
▁build	-545
▁sim	-546
ac	-547
▁stud	-548
▁child	-549
▁dec	-550
illion	-551
ied	-552
fore	-553
▁called	-554
thing	-555
ren	-556
ower	-557
nds	-558
ord	-559
body	-560
▁ear	-561
self	-562
ons	-563
▁rem	-564
igh	-565
▁fo	-566
▁long	-567
▁today	-568
▁wom	-569
▁inst	-570
be	-571
▁quest	-572
▁made	-573
▁inv	-574
ition	-575
▁lear	-576
▁exper	-577
ating	-578
▁bel	-579
▁should	-580
ious	-581
ics	-582
▁ob	-583
▁own	-584
ft	-585
les	-586
▁import	-587
erest	-588
cial	-589
ize	-590
we	-591
te	-592
ian	-593
▁sch	-594
ars	-595
▁turn	-596
▁cour	-597
▁bas	-598
oss	-599
▁mean	-600
▁design	-601
▁last	-602
▁end	-603
▁underst	-604
ities	-605
av	-606
000	-607
▁thought	-608
▁hel	-609
▁gl	-610
▁sci	-611
▁another	-612
▁didn	-613
▁interest	-614
▁bo	-615
▁play	-616
con	-617
ates	-618
▁idea	-619
▁brain	-620
▁ask	-621
▁change	-622
▁creat	-623
ty	-624
▁gra	-625
ction	-626
▁person	-627
▁its	-628
▁ke	-629
ub	-630
▁important	-631
▁him	-632
▁feel	-633
▁cr	-634
▁started	-635
▁before	-636
▁dr	-637
▁rel	-638
▁trans	-639
▁exam	-640
,000	-641
▁3	-642
▁went	-643
▁give	-644
ail	-645
als	-646
▁ins	-647
ise	-648
▁cons	-649
gan	-650
▁course	-651
ool	-652
ull	-653
▁bit	-654
▁never	-655
ution	-656
ough	-657
▁sl	-658
▁point	-659
▁ele	-660
▁understand	-661
▁imag	-662
▁problem	-663
▁coll	-664
▁produ	-665
▁story	-666
▁mon	-667
▁might	-668
▁better	-669
▁help	-670
ular	-671
▁belie	-672
ists	-673
ility	-674
▁found	-675
▁kid	-676
▁school	-677
▁sort	-678
kes	-679
atter	-680
ert	-681
▁next	-682
ily	-683
▁la	-684
▁eng	-685
▁num	-686
▁able	-687
▁ok	-688
▁pol	-689
▁few	-690
▁plan	-691
ros	-692
▁sol	-693
▁power	-694
▁still	-695
▁art	-696
ix	-697
lic	-698
▁ago	-699
▁each	-700
▁high	-701
▁ent	-702
▁water	-703
▁tog	-704
▁together	-705
eric	-706
▁hu	-707
▁19	-708
▁fam	-709
oth	-710
▁str	-711
uc	-712
▁comple	-713
erg	-714
ense	-715
▁place	-716
▁came	-717
▁technology	-718
▁mod	-719
ward	-720
ience	-721
▁seco	-722
▁ser	-723
▁cent	-724
▁learn	-725
▁ter	-726
▁commun	-727
ited	-728
▁10	-729
▁min	-730
mo	-731
▁med	-732
velop	-733
▁nat	-734
ave	-735
atch	-736
▁dat	-737
▁fin	-738
▁rec	-739
▁used	-740
ween	-741
▁ed	-742
▁four	-743
▁question	-744
ather	-745
read	-746
alth	-747
▁between	-748
ness	-749
▁20	-750
▁develop	-751
▁ext	-752
▁small	-753
ized	-754
▁mom	-755
▁love	-756
▁maybe	-757
▁looking	-758
▁met	-759
old	-760
▁op	-761
▁women	-762
▁done	-763
ures	-764
iss	-765
arch	-766
▁att	-767
▁americ	-768
▁example	-769
▁light	-770
▁cre	-771
ram	-772
ways	-773
▁mus	-774
▁comput	-775
▁data	-776
ven	-777
ger	-778
▁el	-779
▁partic	-780
▁old	-781
▁doesn	-782
ific	-783
ines	-784
▁word	-785
iness	-786
ork	-787
az	-788
▁eff	-789
▁move	-790
▁lar	-791
ered	-792
▁stu	-793
▁grow	-794
ably	-795
ced	-796
ute	-797
▁bus	-798
▁cell	-799
ets	-800
▁far	-801
cept	-802
▁whole	-803
▁wanted	-804
▁beh	-805
▁read	-806
▁care	-807
▁5	-808
▁bi	-809
▁inform	-810
cy	-811
▁rep	-812
▁sk	-813
▁ever	-814
▁working	-815
▁cap	-816
▁children	-817
▁second	-818
▁hard	-819
▁war	-820
▁live	-821
▁gener	-822
▁million	-823
▁afric	-824
▁expl	-825
▁poss	-826
▁always	-827
▁trying	-828
▁univer	-829
▁book	-830
▁building	-831
conom	-832
▁reas	-833
▁giv	-834
ational	-835
▁chang	-836
ative	-837
ands	-838
selves	-839
ote	-840
ross	-841
▁believe	-842
▁econom	-843
oney	-844
▁less	-845
▁cor	-846
▁project	-847
▁five	-848
▁everything	-849
ird	-850
▁supp	-851
▁away	-852
cer	-853
ments	-854
ope	-855
▁country	-856
▁anim	-857
ps	-858
ural	-859
▁pict	-860
▁health	-861
▁using	-862
▁space	-863
▁kids	-864
▁sub	-865
ism	-866
▁form	-867
▁cou	-868
▁open	-869
gin	-870
▁4	-871
▁information	-872
▁number	-873
▁pres	-874
▁vis	-875
▁frie	-876
ract	-877
▁hand	-878
▁prob	-879
▁resp	-880
▁means	-881
▁ca	-882
▁run	-883
▁inf	-884
nect	-885
ah	-886
here	-887
▁organ	-888
▁teach	-889
vers	-890
▁took	-891
▁times	-892
ruct	-893
▁thinking	-894
▁lead	-895
▁sing	-896
▁money	-897
▁doll	-898
▁spec	-899
ries	-900
▁food	-901
hip	-902
▁home	-903
alf	-904
led	-905
▁acc	-906
▁create	-907
▁interesting	-908
ks	-909
▁mark	-910
▁left	-911
▁quite	-912
ead	-913
▁walk	-914
gg	-915
▁compan	-916
▁process	-917
aces	-918
▁intern	-919
▁mind	-920
ew	-921
▁wo	-922
vern	-923
air	-924
▁pub	-925
▁become	-926
iew	-927
▁prog	-928
its	-929
▁reg	-930
▁fun	-931
▁best	-932
ues	-933
▁enough	-934
▁head	-935
ention	-936
sw	-937
aut	-938
▁set	-939
▁energ	-940
ock	-941
ten	-942
▁getting	-943
▁fut	-944
cr	-945
▁govern	-946
▁conf	-947
pr	-948
▁elect	-949
▁sense	-950
ories	-951
▁bring	-952
▁probably	-953
▁jo	-954
▁cur	-955
▁cle	-956
ale	-957
▁comes	-958
▁cam	-959
ouse	-960
iting	-961
▁gre	-962
▁char	-963
ont	-964
ital	-965
▁future	-966
▁happened	-967
▁energy	-968
▁answ	-969
▁earth	-970
▁stuff	-971
▁social	-972
▁grou	-973
vir	-974
▁air	-975
ertain	-976
▁glob	-977
▁contro	-978
▁without	-979
▁half	-980
▁talking	-981
ever	-982
▁making	-983
▁add	-984
▁connect	-985
▁month	-986
▁pat	-987
▁begin	-988
▁pret	-989
▁room	-990
▁sw	-991
▁pop	-992
▁z	-993
▁fu	-994
▁business	-995
ier	-996
▁pie	-997
▁dist	-998
▁hist	-999
▁top	-1000
ogra	-1001
ts	-1002
▁beaut	-1003
▁told	-1004
▁pretty	-1005
▁job	-1006
lf	-1007
▁science	-1008
▁col	-1009
▁else	-1010
▁phys	-1011
▁moment	-1012
ety	-1013
▁keep	-1014
▁sign	-1015
▁eas	-1016
▁anything	-1017
nce	-1018
viron	-1019
▁coming	-1020
▁ty	-1021
▁wee	-1022
▁africa	-1023
ient	-1024
▁model	-1025
cus	-1026
▁dollars	-1027
▁bad	-1028
▁sound	-1029
▁environ	-1030
ately	-1031
ng	-1032
ices	-1033
▁side	-1034
▁soci	-1035
▁body	-1036
▁such	-1037
ying	-1038
▁reason	-1039
▁opp	-1040
▁allow	-1041
ne	-1042
no	-1043
▁stop	-1044
ner	-1045
ior	-1046
▁city	-1047
▁prot	-1048
▁imagine	-1049
▁countries	-1050
▁makes	-1051
▁amaz	-1052
▁val	-1053
▁men	-1054
▁educ	-1055
▁once	-1056
▁rese	-1057
▁stand	-1058
arr	-1059
▁200	-1060
▁pass	-1061
▁lives	-1062
▁phot	-1063
▁six	-1064
▁hope	-1065
▁goes	-1066
▁across	-1067
▁okay	-1068
▁simple	-1069
▁aut	-1070
▁cult	-1071
olution	-1072
ember	-1073
fect	-1074
▁mid	-1075
▁par	-1076
der	-1077
▁bre	-1078
▁scient	-1079
ince	-1080
▁says	-1081
▁saw	-1082
me	-1083
▁later	-1084
▁basically	-1085
▁sit	-1086
uring	-1087
io	-1088
▁matter	-1089
▁prof	-1090
▁wonder	-1091
▁yet	-1092
▁particular	-1093
▁ey	-1094
▁living	-1095
▁happens	-1096
▁seen	-1097
▁having	-1098
▁experience	-1099
▁vide	-1100
▁det	-1101
▁fig	-1102
ided	-1103
ortun	-1104
▁asked	-1105
▁wa	-1106
▁hour	-1107
most	-1108
▁lang	-1109
▁picture	-1110
▁young	-1111
gs	-1112
man	-1113
▁global	-1114
▁rob	-1115
▁yes	-1116
▁research	-1117
▁mach	-1118
ization	-1119
▁stre	-1120
llow	-1121
▁mil	-1122
where	-1123
▁complete	-1124
▁music	-1125
▁environment	-1126
▁fore	-1127
ash	-1128
▁list	-1129
▁langu	-1130
▁face	-1131
▁while	-1132
ken	-1133
ings	-1134
ograph	-1135
▁computer	-1136
ught	-1137
▁mem	-1138
▁effect	-1139
▁ways	-1140
ality	-1141
▁share	-1142
▁thous	-1143
oc	-1144
▁mor	-1145
▁sure	-1146
▁case	-1147
▁rest	-1148
▁both	-1149
▁family	-1150
aps	-1151
▁days	-1152
▁single	-1153
▁ref	-1154
ilt	-1155
▁almost	-1156
▁problems	-1157
▁watch	-1158
▁loc	-1159
▁planet	-1160
imes	-1161
▁equ	-1162
▁certain	-1163
▁remember	-1164
ott	-1165
arent	-1166
▁nothing	-1167
▁states	-1168
▁inside	-1169
▁whether	-1170
▁level	-1171
▁def	-1172
▁self	-1173
▁age	-1174
▁disco	-1175
iter	-1176
▁che	-1177
ins	-1178
▁lab	-1179
▁within	-1180
▁everybody	-1181
irl	-1182
▁test	-1183
▁ideas	-1184
ime	-1185
▁unt	-1186
▁pain	-1187
ots	-1188
▁guy	-1189
▁answer	-1190
ina	-1191
▁contin	-1192
▁hear	-1193
▁saying	-1194
▁exact	-1195
▁suc	-1196
ready	-1197
▁polit	-1198
▁possible	-1199
ulation	-1200
▁incred	-1201
▁sou	-1202
itive	-1203
▁history	-1204
ants	-1205
▁wrong	-1206
▁vir	-1207
▁treat	-1208
▁already	-1209
▁public	-1210
▁billion	-1211
na	-1212
lish	-1213
orn	-1214
▁looks	-1215
less	-1216
unch	-1217
▁dev	-1218
dle	-1219
ivid	-1220
osed	-1221
▁amazing	-1222
med	-1223
allen	-1224
▁product	-1225
▁cost	-1226
▁true	-1227
▁exc	-1228
ury	-1229
▁control	-1230
ank	-1231
▁ge	-1232
▁mag	-1233
▁news	-1234
▁someone	-1235
▁god	-1236
▁looked	-1237
▁ted	-1238
ron	-1239
▁dise	-1240
▁large	-1241
▁video	-1242
▁beautif	-1243
▁dire	-1244
▁aud	-1245
ern	-1246
▁30	-1247
▁state	-1248
▁heart	-1249
▁9	-1250
▁50	-1251
▁often	-1252
▁tre	-1253
▁kill	-1254
▁girl	-1255
ield	-1256
▁6	-1257
▁sec	-1258
▁heard	-1259
▁cancer	-1260
ape	-1261
▁oh	-1262
▁net	-1263
oice	-1264
ivity	-1265
▁since	-1266
▁di	-1267
ware	-1268
▁dra	-1269
side	-1270
▁15	-1271
▁nor	-1272
aterial	-1273
▁myself	-1274
▁ass	-1275
utes	-1276
▁adv	-1277
work	-1278
▁cond	-1279
ases	-1280
pect	-1281
▁full	-1282
▁challen	-1283
▁fil	-1284
▁works	-1285
vious	-1286
▁iss	-1287
▁language	-1288
▁sometimes	-1289
▁class	-1290
▁cal	-1291
ndred	-1292
cle	-1293
▁words	-1294
uro	-1295
land	-1296
▁isn	-1297
▁beautiful	-1298
▁100	-1299
▁figure	-1300
▁hundred	-1301
ters	-1302
▁instead	-1303
▁united	-1304
ages	-1305
▁cells	-1306
▁piece	-1307
ians	-1308
imate	-1309
▁nature	-1310
▁pay	-1311
▁law	-1312
▁built	-1313
▁individ	-1314
▁community	-1315
▁until	-1316
▁couple	-1317
den	-1318
ling	-1319
▁cra	-1320
▁market	-1321
▁months	-1322
▁species	-1323
▁government	-1324
▁follow	-1325
br	-1326
▁woman	-1327
aper	-1328
▁abs	-1329
▁night	-1330
ering	-1331
▁incre	-1332
▁order	-1333
▁front	-1334
▁middle	-1335
▁group	-1336
▁house	-1337
oy	-1338
▁entire	-1339
▁education	-1340
▁line	-1341
▁terr	-1342
▁friends	-1343
▁result	-1344
▁material	-1345
nding	-1346
▁deep	-1347
▁universe	-1348
▁ye	-1349
get	-1350
▁exactly	-1351
▁individual	-1352
▁ret	-1353
▁view	-1354
ene	-1355
bers	-1356
ives	-1357
▁must	-1358
▁const	-1359
▁wasn	-1360
atic	-1361
▁completely	-1362
▁oce	-1363
▁8	-1364
▁av	-1365
▁appro	-1366
▁stories	-1367
bs	-1368
▁past	-1369
▁places	-1370
▁internet	-1371
▁quick	-1372
ator	-1373
tern	-1374
▁decided	-1375
line	-1376
▁train	-1377
▁object	-1378
▁arch	-1379
▁land	-1380
▁experim	-1381
▁students	-1382
▁india	-1383
▁huge	-1384
▁somebody	-1385
ane	-1386
ibly	-1387
▁pos	-1388
▁engine	-1389
▁taking	-1390
▁though	-1391
▁free	-1392
▁behav	-1393
up	-1394
▁tool	-1395
ustr	-1396
ired	-1397
▁inno	-1398
▁animals	-1399
▁bab	-1400
▁mass	-1401
▁ste	-1402
▁third	-1403
cing	-1404
▁red	-1405
▁name	-1406
ream	-1407
▁became	-1408
▁society	-1409
▁happening	-1410
▁deal	-1411
▁green	-1412
▁mother	-1413
ined	-1414
▁bro	-1415
▁kinds	-1416
omes	-1417
acter	-1418
▁success	-1419
▁itself	-1420
▁wind	-1421
▁yeah	-1422
▁game	-1423
▁close	-1424
▁america	-1425
▁everyone	-1426
▁rather	-1427
▁collect	-1428
▁complex	-1429
▁ve	-1430
▁mic	-1431
▁turns	-1432
ien	-1433
gest	-1434
▁rev	-1435
▁learned	-1436
uck	-1437
▁ris	-1438
▁hy	-1439
▁company	-1440
ats	-1441
▁har	-1442
▁ourselves	-1443
▁study	-1444
ared	-1445
▁gets	-1446
▁along	-1447
ructure	-1448
▁mess	-1449
ond	-1450
▁ones	-1451
ional	-1452
sy	-1453
ames	-1454
▁knew	-1455
▁minutes	-1456
ogn	-1457
▁fly	-1458
▁sun	-1459
▁univers	-1460
▁questions	-1461
▁meet	-1462
▁clear	-1463
to	-1464
▁against	-1465
cl	-1466
▁math	-1467
▁themselves	-1468
aster	-1469
▁guys	-1470
▁miss	-1471
ental	-1472
▁opportun	-1473
li	-1474
▁prov	-1475
..	-1476
etic	-1477
ability	-1478
rop	-1479
▁...	-1480
ision	-1481
icult	-1482
▁parent	-1483
▁program	-1484
▁dep	-1485
▁leg	-1486
▁invest	-1487
vation	-1488
▁bott	-1489
haps	-1490
▁hours	-1491
▁south	-1492
row	-1493
▁perhaps	-1494
cc	-1495
▁created	-1496
▁rad	-1497
itting	-1498
▁couldn	-1499
▁focus	-1500
▁worked	-1501
▁expect	-1502
wards	-1503
ctor	-1504
▁black	-1505
▁id	-1506
ones	-1507
▁bra	-1508
▁ho	-1509
▁norm	-1510
▁others	-1511
▁pred	-1512
▁relations	-1513
▁ant	-1514
urs	-1515
▁var	-1516
ients	-1517
▁hold	-1518
▁won	-1519
▁mar	-1520
ident	-1521
▁lots	-1522
▁speak	-1523
▁ple	-1524
▁meas	-1525
face	-1526
▁oper	-1527
▁es	-1528
▁natural	-1529
▁listen	-1530
rib	-1531
▁finally	-1532
ush	-1533
▁learning	-1534
▁seven	-1535
▁mot	-1536
▁happy	-1537
▁difficult	-1538
▁thousands	-1539
▁dem	-1540
▁liter	-1541
▁cir	-1542
▁ill	-1543
▁vi	-1544
▁squ	-1545
▁early	-1546
▁least	-1547
▁protect	-1548
▁systems	-1549
istic	-1550
▁mill	-1551
▁euro	-1552
▁obvious	-1553
▁field	-1554
▁disease	-1555
▁american	-1556
▁oil	-1557
▁gave	-1558
▁death	-1559
▁super	-1560
▁machine	-1561
cul	-1562
▁cut	-1563
▁sens	-1564
▁team	-1565
ples	-1566
ented	-1567
▁step	-1568
▁pot	-1569
▁fund	-1570
▁amount	-1571
▁chr	-1572
▁interact	-1573
ming	-1574
▁record	-1575
ium	-1576
▁fre	-1577
vered	-1578
▁north	-1579
▁outside	-1580
att	-1581
ider	-1582
▁recent	-1583
ake	-1584
olved	-1585
ination	-1586
gen	-1587
▁short	-1588
▁del	-1589
▁behavior	-1590
▁colle	-1591
▁audience	-1592
▁dig	-1593
▁technolog	-1594
▁typ	-1595
▁area	-1596
iqu	-1597
▁eight	-1598
▁network	-1599
ither	-1600
▁extra	-1601
▁wall	-1602
not	-1603
ially	-1604
ential	-1605
▁dru	-1606
attern	-1607
▁china	-1608
▁hands	-1609
▁europe	-1610
▁sym	-1611
▁fail	-1612
▁difference	-1613
▁da	-1614
▁taken	-1615
▁whatever	-1616
▁non	-1617
▁ocean	-1618
▁century	-1619
▁common	-1620
▁relationship	-1621
sych	-1622
▁moving	-1623
▁changed	-1624
▁wonderful	-1625
ster	-1626
▁grand	-1627
▁during	-1628
▁psych	-1629
ature	-1630
▁blue	-1631
▁arg	-1632
aking	-1633
▁beginning	-1634
▁york	-1635
▁pattern	-1636
▁sex	-1637
▁given	-1638
▁exist	-1639
▁jour	-1640
▁local	-1641
ides	-1642
▁demo	-1643
▁explain	-1644
astic	-1645
▁intell	-1646
▁eyes	-1647
utions	-1648
▁er	-1649
▁occ	-1650
ully	-1651
▁sud	-1652
▁turned	-1653
▁culture	-1654
▁easy	-1655
▁paper	-1656
▁absol	-1657
▁takes	-1658
verage	-1659
▁leave	-1660
▁support	-1661
▁tem	-1662
▁trad	-1663
▁terms	-1664
▁behind	-1665
▁communic	-1666
▁seeing	-1667
ted	-1668
▁absolute	-1669
▁pract	-1670
▁12	-1671
▁lim	-1672
▁tot	-1673
▁low	-1674
▁maj	-1675
▁instit	-1676
▁perfect	-1677
▁population	-1678
▁break	-1679
▁yourself	-1680
▁image	-1681
▁sent	-1682
▁needs	-1683
▁began	-1684
ipp	-1685
▁18	-1686
▁chem	-1687
▁reach	-1688
▁incl	-1689
▁event	-1690
ased	-1691
▁serv	-1692
itch	-1693
▁perform	-1694
ude	-1695
▁impro	-1696
ump	-1697
▁ess	-1698
▁opt	-1699
cious	-1700
▁fall	-1701
itions	-1702
▁ident	-1703
▁friend	-1704
▁needed	-1705
▁parts	-1706
aring	-1707
▁pick	-1708
inary	-1709
▁media	-1710
▁cannot	-1711
▁40	-1712
▁buy	-1713
▁extre	-1714
▁interested	-1715
▁repres	-1716
ply	-1717
year	-1718
▁dark	-1719
▁stay	-1720
▁consum	-1721
▁realized	-1722
▁cy	-1723
itect	-1724
▁architect	-1725
▁major	-1726
▁longer	-1727
▁present	-1728
▁national	-1729
▁simply	-1730
▁surpr	-1731
▁companies	-1732
idence	-1733
▁powerful	-1734
▁week	-1735
ton	-1736
▁poor	-1737
▁famil	-1738
▁parents	-1739
ret	-1740
▁emb	-1741
▁size	-1742
elt	-1743
ges	-1744
▁emot	-1745
▁situ	-1746
cra	-1747
▁center	-1748
▁eat	-1749
▁robot	-1750
▁personal	-1751
fully	-1752
app	-1753
▁ap	-1754
▁conv	-1755
▁dream	-1756
▁sea	-1757
▁tried	-1758
▁ground	-1759
▁sudden	-1760
▁transform	-1761
▁humans	-1762
▁viol	-1763
▁access	-1764
ison	-1765
rought	-1766
▁sum	-1767
▁gone	-1768
▁resour	-1769
▁ce	-1770
▁surv	-1771
▁civ	-1772
iving	-1773
ledge	-1774
▁key	-1775
▁press	-1776
port	-1777
▁cities	-1778
▁economic	-1779
▁enc	-1780
ising	-1781
▁cool	-1782
▁fish	-1783
▁scale	-1784
▁profess	-1785
els	-1786
ivers	-1787
▁white	-1788
▁father	-1789
▁vers	-1790
pid	-1791
▁rich	-1792
bo	-1793
▁value	-1794
mer	-1795
▁sil	-1796
▁direct	-1797
▁special	-1798
▁pen	-1799
▁slow	-1800
▁either	-1801
▁quickly	-1802
ax	-1803
he	-1804
ged	-1805
avor	-1806
▁felt	-1807
▁spend	-1808
rodu	-1809
▁feed	-1810
▁ice	-1811
▁draw	-1812
▁mult	-1813
▁photograph	-1814
▁ur	-1815
ilar	-1816
▁feet	-1817
▁weeks	-1818
▁leaders	-1819
▁spent	-1820
▁evolution	-1821
▁approach	-1822
▁opportunity	-1823
▁cop	-1824
▁street	-1825
▁orig	-1826
▁recogn	-1827
▁reality	-1828
osp	-1829
▁obs	-1830
▁micro	-1831
▁phone	-1832
ised	-1833
▁win	-1834
▁strong	-1835
▁priv	-1836
▁fight	-1837
crib	-1838
▁nice	-1839
ows	-1840
ators	-1841
▁force	-1842
▁travel	-1843
▁fast	-1844
▁wouldn	-1845
▁ability	-1846
ument	-1847
▁requ	-1848
▁known	-1849
▁shows	-1850
▁growth	-1851
ived	-1852
▁bar	-1853
▁dna	-1854
▁books	-1855
ological	-1856
▁sitting	-1857
▁incredible	-1858
▁dest	-1859
ibility	-1860
▁pur	-1861
▁bill	-1862
▁based	-1863
▁animal	-1864
▁predict	-1865
▁rock	-1866
hor	-1867
hood	-1868
▁near	-1869
▁camer	-1870
▁25	-1871
▁box	-1872
ife	-1873
ney	-1874
ards	-1875
▁sat	-1876
ouch	-1877
▁write	-1878
▁bottom	-1879
izing	-1880
▁lost	-1881
▁measure	-1882
eg	-1883
ule	-1884
rent	-1885
▁fear	-1886
▁areas	-1887
▁structure	-1888
end	-1889
▁changes	-1890
▁economy	-1891
▁pull	-1892
▁anyone	-1893
▁extreme	-1894
room	-1895
▁mole	-1896
▁soft	-1897
▁attention	-1898
▁foot	-1899
▁die	-1900
▁political	-1901
▁ir	-1902
▁arm	-1903
▁caus	-1904
▁film	-1905
▁stage	-1906
iny	-1907
▁hor	-1908
▁surface	-1909
ral	-1910
lect	-1911
▁tele	-1912
▁impact	-1913
▁vol	-1914
▁prin	-1915
▁brought	-1916
ids	-1917
ales	-1918
▁redu	-1919
▁vill	-1920
of	-1921
ler	-1922
▁crit	-1923
▁english	-1924
ains	-1925
▁respons	-1926
zy	-1927
inal	-1928
▁unf	-1929
▁electric	-1930
▁challenge	-1931
uth	-1932
▁sho	-1933
▁voice	-1934
▁knowledge	-1935
▁technologies	-1936
▁average	-1937
▁hot	-1938
▁born	-1939
▁blood	-1940
▁realize	-1941
▁similar	-1942
▁experiment	-1943
ex	-1944
com	-1945
▁indust	-1946
▁meaning	-1947
▁gal	-1948
▁main	-1949
ression	-1950
▁numbers	-1951
ny	-1952
ateg	-1953
▁civil	-1954
▁map	-1955
▁insp	-1956
▁physical	-1957
lt	-1958
▁hosp	-1959
▁medic	-1960
▁serious	-1961
ively	-1962
▁bene	-1963
▁growing	-1964
▁pa	-1965
▁mov	-1966
anger	-1967
cially	-1968
▁theory	-1969
▁developed	-1970
sh	-1971
ony	-1972
ford	-1973
ustain	-1974
entially	-1975
▁morning	-1976
▁scientists	-1977
▁fac	-1978
▁ball	-1979
▁comb	-1980
▁giving	-1981
▁ach	-1982
▁deg	-1983
▁camp	-1984
▁stra	-1985
▁forward	-1986
▁color	-1987
▁sour	-1988
▁mount	-1989
▁absolutely	-1990
▁feeling	-1991
ode	-1992
▁climate	-1993
▁patients	-1994
▁images	-1995
bon	-1996
▁anal	-1997
▁circ	-1998
▁repl	-1999
ances	-2000
▁post	-2001
▁road	-2002
▁text	-2003
▁wrote	-2004
▁hundreds	-2005
▁literally	-2006
▁dead	-2007
▁miles	-2008
▁running	-2009
ored	-2010
▁depe	-2011
▁seems	-2012
bor	-2013
erm	-2014
ills	-2015
▁stat	-2016
▁spread	-2017
▁starting	-2018
▁tradition	-2019
▁risk	-2020
▁guess	-2021
▁revolution	-2022
ption	-2023
▁visual	-2024
▁path	-2025
▁favor	-2026
▁movement	-2027
acy	-2028
▁mathem	-2029
▁general	-2030
▁rul	-2031
▁scre	-2032
▁compet	-2033
▁modern	-2034
▁compass	-2035
▁understanding	-2036
por	-2037
▁fur	-2038
▁gives	-2039
▁tools	-2040
▁nobody	-2041
by	-2042
▁60	-2043
ging	-2044
ified	-2045
▁worth	-2046
▁web	-2047
▁avail	-2048
▁proper	-2049
ned	-2050
▁dou	-2051
ggest	-2052
▁poll	-2053
▁soon	-2054
▁suggest	-2055
▁discovered	-2056
ove	-2057
▁sn	-2058
vent	-2059
▁type	-2060
▁current	-2061
lu	-2062
▁rele	-2063
▁relig	-2064
▁playing	-2065
▁development	-2066
par	-2067
ensive	-2068
▁touch	-2069
▁telling	-2070
▁prom	-2071
▁ah	-2072
▁cars	-2073
▁neigh	-2074
▁sustain	-2075
▁intellig	-2076
▁millions	-2077
▁recently	-2078
▁hon	-2079
▁among	-2080
ploy	-2081
▁est	-2082
▁sell	-2083
▁truth	-2084
▁creating	-2085
aged	-2086
▁polic	-2087
ilities	-2088
ero	-2089
imens	-2090
▁shape	-2091
▁except	-2092
▁obviously	-2093
ban	-2094
ades	-2095
▁flo	-2096
▁compassion	-2097
ung	-2098
ites	-2099
▁baby	-2100
▁phil	-2101
▁issue	-2102
▁describ	-2103
▁ox	-2104
ency	-2105
▁peri	-2106
▁concept	-2107
po	-2108
ift	-2109
▁hig	-2110
oud	-2111
▁ec	-2112
▁fire	-2113
▁prop	-2114
▁normal	-2115
▁period	-2116
▁emp	-2117
amed	-2118
eter	-2119
▁arr	-2120
▁innovation	-2121
▁university	-2122
▁achie	-2123
▁showed	-2124
eed	-2125
▁suff	-2126
▁flu	-2127
▁incredibly	-2128
▁neg	-2129
▁ult	-2130
▁seem	-2131
▁affect	-2132
▁fundam	-2133
▁talked	-2134
bit	-2135
▁aren	-2136
▁includ	-2137
▁aw	-2138
▁fa	-2139
ucle	-2140
▁espe	-2141
▁neur	-2142
▁alone	-2143
▁especially	-2144
go	-2145
asing	-2146
▁solution	-2147
▁available	-2148
ival	-2149
ther	-2150
▁patient	-2151
▁situation	-2152
▁track	-2153
asc	-2154
▁lay	-2155
▁online	-2156
▁experien	-2157
chan	-2158
▁fair	-2159
▁flow	-2160
▁sold	-2161
▁asking	-2162
▁subject	-2163
▁industry	-2164
▁developing	-2165
iant	-2166
▁bird	-2167
▁peace	-2168
▁benef	-2169
▁sever	-2170
▁designed	-2171
▁computers	-2172
▁wish	-2173
▁writing	-2174
▁trust	-2175
▁produce	-2176
erv	-2177
▁eye	-2178
▁haven	-2179
▁knows	-2180
▁nucle	-2181
▁forest	-2182
▁pictures	-2183
urity	-2184
▁rate	-2185
erence	-2186
▁solar	-2187
▁anybody	-2188
▁11	-2189
ique	-2190
▁please	-2191
▁resources	-2192
like	-2193
▁dom	-2194
▁save	-2195
▁drive	-2196
inese	-2197
▁smart	-2198
▁carbon	-2199
▁generation	-2200
gn	-2201
str	-2202
▁boy	-2203
▁tiny	-2204
▁80	-2205
▁led	-2206
▁bigger	-2207
▁office	-2208
▁medical	-2209
▁rain	-2210
▁solve	-2211
▁goog	-2212
▁react	-2213
▁becomes	-2214
▁several	-2215
yn	-2216
ences	-2217
▁sounds	-2218
▁convers	-2219
▁changing	-2220
osph	-2221
▁din	-2222
▁port	-2223
iction	-2224
▁chinese	-2225
▁bey	-2226
▁chance	-2227
▁issues	-2228
▁putting	-2229
▁evidence	-2230
▁199	-2231
▁nine	-2232
▁pu	-2233
ister	-2234
▁beyond	-2235
▁emerg	-2236
▁indeed	-2237
▁search	-2238
aw	-2239
lict	-2240
▁lea	-2241
▁rules	-2242
▁attack	-2243
ped	-2244
▁bacter	-2245
▁groups	-2246
▁reasons	-2247
▁conscious	-2248
ik	-2249
▁park	-2250
▁imm	-2251
▁tas	-2252
▁speed	-2253
▁message	-2254
ify	-2255
ma	-2256
ug	-2257
apt	-2258
▁function	-2259
▁ast	-2260
▁clos	-2261
▁choice	-2262
▁mechan	-2263
▁involved	-2264
▁software	-2265
▁certainly	-2266
▁choo	-2267
▁action	-2268
▁plant	-2269
▁notice	-2270
▁defin	-2271
une	-2272
▁lif	-2273
▁died	-2274
▁safe	-2275
▁digital	-2276
▁suddenly	-2277
ee	-2278
▁adm	-2279
▁eth	-2280
▁girls	-2281
▁towards	-2282
ires	-2283
▁virus	-2284
umb	-2285
▁sam	-2286
▁sle	-2287
ished	-2288
ishing	-2289
▁games	-2290
▁danger	-2291
▁bed	-2292
▁capt	-2293
▁device	-2294
▁google	-2295
xic	-2296
arily	-2297
oring	-2298
▁lived	-2299
▁table	-2300
▁necess	-2301
▁security	-2302
istan	-2303
▁link	-2304
▁interv	-2305
ese	-2306
vert	-2307
▁bal	-2308
▁particularly	-2309
pped	-2310
▁dan	-2311
▁mal	-2312
▁likely	-2313
▁international	-2314
▁lad	-2315
▁tend	-2316
▁hit	-2317
▁rid	-2318
▁cris	-2319
▁song	-2320
▁west	-2321
▁schools	-2322
▁character	-2323
▁div	-2324
▁log	-2325
▁pan	-2326
light	-2327
▁vision	-2328
▁democra	-2329
abor	-2330
▁virt	-2331
▁block	-2332
▁teachers	-2333
oph	-2334
▁scientific	-2335
ief	-2336
fort	-2337
oices	-2338
ously	-2339
▁east	-2340
▁basic	-2341
▁moved	-2342
▁materials	-2343
ext	-2344
▁bur	-2345
▁son	-2346
usion	-2347
▁square	-2348
ips	-2349
▁fant	-2350
▁farm	-2351
▁princi	-2352
▁totally	-2353
▁walking	-2354
▁syn	-2355
▁jobs	-2356
▁potential	-2357
▁bir	-2358
oms	-2359
▁marr	-2360
▁gas	-2361
▁tar	-2362
▁prim	-2363
▁vari	-2364
▁report	-2365
▁everywhere	-2366
▁send	-2367
▁cross	-2368
▁encou	-2369
▁anyway	-2370
lo	-2371
gth	-2372
rast	-2373
▁carry	-2374
▁screen	-2375
ressed	-2376
▁quality	-2377
book	-2378
omet	-2379
▁sky	-2380
▁hospital	-2381
ground	-2382
▁student	-2383
▁represent	-2384
medi	-2385
▁fem	-2386
▁onto	-2387
▁rece	-2388
▁star	-2389
▁wants	-2390
▁further	-2391
▁showing	-2392
▁starts	-2393
▁examples	-2394
▁extraord	-2395
▁skin	-2396
▁context	-2397
▁projects	-2398
▁narr	-2399
▁activ	-2400
▁breat	-2401
▁capital	-2402
icle	-2403
▁sand	-2404
▁aware	-2405
▁biggest	-2406
▁village	-2407
▁particip	-2408
▁eventually	-2409
ns	-2410
▁trees	-2411
▁stru	-2412
iar	-2413
come	-2414
▁door	-2415
▁consider	-2416
itary	-2417
▁chemical	-2418
▁violence	-2419
▁x	-2420
▁mob	-2421
ctors	-2422
▁stick	-2423
▁memory	-2424
▁journey	-2425
uly	-2426
▁fix	-2427
▁effic	-2428
▁positive	-2429
enom	-2430
▁joh	-2431
▁brit	-2432
▁camera	-2433
▁transl	-2434
▁largest	-2435
▁extremely	-2436
unt	-2437
▁earl	-2438
▁birth	-2439
▁creative	-2440
▁exciting	-2441
▁vac	-2442
▁spir	-2443
▁cause	-2444
▁graph	-2445
▁trial	-2446
▁imposs	-2447
▁plants	-2448
▁account	-2449
▁nuclear	-2450
▁conflict	-2451
▁dam	-2452
▁sequ	-2453
▁galax	-2454
ners	-2455
▁clean	-2456
▁labor	-2457
▁detail	-2458
▁threat	-2459
▁complic	-2460
▁activity	-2461
apan	-2462
▁cit	-2463
▁hiv	-2464
▁ready	-2465
▁store	-2466
▁results	-2467
▁discover	-2468
▁mathemat	-2469
▁thousand	-2470
cuss	-2471
iger	-2472
▁san	-2473
antly	-2474
▁bank	-2475
▁cart	-2476
isions	-2477
ai	-2478
▁bom	-2479
▁tom	-2480
▁meth	-2481
▁teacher	-2482
▁favorite	-2483
▁essentially	-2484
phone	-2485
▁fill	-2486
▁models	-2487
▁finding	-2488
▁introdu	-2489
▁strateg	-2490
how	-2491
▁apart	-2492
▁check	-2493
▁crazy	-2494
▁japan	-2495
▁perspect	-2496
▁democracy	-2497
ey	-2498
▁blind	-2499
▁meant	-2500
▁terror	-2501
▁supposed	-2502
▁happiness	-2503
▁somewhere	-2504
ring	-2505
▁sal	-2506
▁wait	-2507
▁doctor	-2508
▁return	-2509
▁dro	-2510
itten	-2511
▁role	-2512
▁lands	-2513
ery	-2514
▁ban	-2515
▁los	-2516
▁movie	-2517
osphere	-2518
▁remark	-2519
▁college	-2520
▁neighbor	-2521
▁ang	-2522
▁waste	-2523
▁immedi	-2524
▁connected	-2525
▁impossible	-2526
▁individuals	-2527
▁90	-2528
onse	-2529
▁grew	-2530
ughter	-2531
▁higher	-2532
▁african	-2533
oid	-2534
▁bud	-2535
▁watching	-2536
eth	-2537
verty	-2538
▁luck	-2539
▁medicine	-2540
▁organization	-2541
▁isl	-2542
▁named	-2543
ze	-2544
▁enj	-2545
▁lau	-2546
▁drug	-2547
▁magn	-2548
▁adult	-2549
▁brains	-2550
▁continue	-2551
▁buildings	-2552
50	-2553
ims	-2554
uit	-2555
▁cat	-2556
▁fing	-2557
▁lose	-2558
▁pack	-2559
▁disapp	-2560
▁thanks	-2561
▁usually	-2562
▁collabor	-2563
wh	-2564
▁16	-2565
ulate	-2566
▁fine	-2567
▁mine	-2568
ruction	-2569
▁passion	-2570
▁unfortun	-2571
erve	-2572
▁push	-2573
▁separ	-2574
▁faster	-2575
▁poverty	-2576
▁response	-2577
ipt	-2578
ops	-2579
cape	-2580
▁mis	-2581
others	-2582
▁improve	-2583
▁14	-2584
oming	-2585
▁burn	-2586
▁gold	-2587
▁citiz	-2588
▁worse	-2589
▁appear	-2590
▁ger	-2591
▁cold	-2592
▁cook	-2593
▁drugs	-2594
▁accept	-2595
▁larger	-2596
▁launch	-2597
▁progress	-2598
▁sorts	-2599
▁minute	-2600
▁allowed	-2601
▁central	-2602
mend	-2603
rest	-2604
▁webs	-2605
▁wife	-2606
▁traditional	-2607
cise	-2608
▁oxy	-2609
▁late	-2610
akes	-2611
idge	-2612
nces	-2613
▁diag	-2614
▁goal	-2615
▁ended	-2616
▁minds	-2617
▁sleep	-2618
▁series	-2619
▁objects	-2620
▁products	-2621
▁jud	-2622
▁tree	-2623
estern	-2624
▁bunch	-2625
▁forms	-2626
▁freed	-2627
▁source	-2628
▁colleag	-2629
▁continu	-2630
▁electricity	-2631
more	-2632
▁fle	-2633
odies	-2634
▁town	-2635
▁above	-2636
▁chris	-2637
▁influ	-2638
▁moral	-2639
▁taught	-2640
▁temper	-2641
▁position	-2642
▁communities	-2643
for	-2644
▁rand	-2645
▁zero	-2646
▁shown	-2647
▁tells	-2648
▁prison	-2649
▁fundamental	-2650
imp	-2651
inct	-2652
▁heav	-2653
▁choose	-2654
fer	-2655
sect	-2656
▁coun	-2657
▁wild	-2658
▁cases	-2659
▁detect	-2660
▁president	-2661
rage	-2662
▁site	-2663
▁assum	-2664
▁publish	-2665
▁architecture	-2666
▁ann	-2667
▁dad	-2668
▁deb	-2669
▁doc	-2670
▁king	-2671
▁finan	-2672
▁prote	-2673
▁author	-2674
▁concer	-2675
▁crisis	-2676
▁killed	-2677
▁points	-2678
▁rights	-2679
▁bacteria	-2680
▁complicated	-2681
▁extraordinary	-2682
▁muse	-2683
▁calcul	-2684
▁manage	-2685
▁somehow	-2686
▁strange	-2687
▁families	-2688
▁signific	-2689
uss	-2690
enomen	-2691
▁afford	-2692
▁clearly	-2693
▁distrib	-2694
▁conditions	-2695
▁198	-2696
ought	-2697
▁fort	-2698
▁page	-2699
▁magic	-2700
izations	-2701
▁content	-2702
▁discuss	-2703
▁reading	-2704
▁studies	-2705
▁phenomen	-2706
▁straight	-2707
aur	-2708
nal	-2709
atory	-2710
▁mist	-2711
▁urban	-2712
▁allows	-2713
▁however	-2714
▁neurons	-2715
▁upon	-2716
▁successful	-2717
rab	-2718
▁pieces	-2719
▁training	-2720
▁fantastic	-2721
▁perspective	-2722
ana	-2723
let	-2724
ror	-2725
▁sus	-2726
▁alth	-2727
▁clin	-2728
▁kept	-2729
▁purp	-2730
▁military	-2731
▁therefore	-2732
▁increasing	-2733
▁fram	-2734
inated	-2735
▁glass	-2736
▁respect	-2737
▁although	-2738
▁treatment	-2739
ann	-2740
iced	-2741
tend	-2742
▁hop	-2743
▁mars	-2744
ration	-2745
▁corre	-2746
▁lower	-2747
▁occur	-2748
▁smaller	-2749
▁version	-2750
▁decision	-2751
men	-2752
▁hom	-2753
▁hur	-2754
▁kil	-2755
▁infect	-2756
▁museum	-2757
▁excited	-2758
▁increase	-2759
ining	-2760
▁code	-2761
▁fasc	-2762
▁term	-2763
▁cloud	-2764
▁policy	-2765
▁achieve	-2766
▁throughout	-2767
▁pal	-2768
▁clim	-2769
▁older	-2770
▁stars	-2771
▁secret	-2772
▁physics	-2773
▁western	-2774
isms	-2775
▁swe	-2776
▁card	-2777
▁desp	-2778
▁roll	-2779
▁region	-2780
▁critical	-2781
met	-2782
oke	-2783
▁tv	-2784
ured	-2785
▁fra	-2786
▁alive	-2787
▁truly	-2788
▁actual	-2789
▁provide	-2790
rap	-2791
ube	-2792
▁201	-2793
vision	-2794
▁greater	-2795
▁seconds	-2796
▁service	-2797
▁machines	-2798
▁painting	-2799
dom	-2800
▁mr	-2801
emic	-2802
▁sor	-2803
▁veh	-2804
▁hero	-2805
▁trou	-2806
▁throw	-2807
▁himself	-2808
▁mention	-2809
▁patterns	-2810
▁standing	-2811
▁including	-2812
fact	-2813
▁ign	-2814
▁hell	-2815
▁board	-2816
ustrial	-2817
▁beings	-2818
▁christ	-2819
ech	-2820
iet	-2821
put	-2822
▁autom	-2823
▁lines	-2824
▁molec	-2825
▁engage	-2826
▁police	-2827
▁slight	-2828
▁robots	-2829
iversity	-2830
▁written	-2831
▁conversation	-2832
oon	-2833
▁ine	-2834
▁sad	-2835
▁broad	-2836
▁weight	-2837
▁biology	-2838
amp	-2839
iest	-2840
▁scr	-2841
cient	-2842
▁vict	-2843
▁anymore	-2844
▁explore	-2845
bb	-2846
▁13	-2847
▁genes	-2848
▁laugh	-2849
▁surger	-2850
soci	-2851
▁hey	-2852
▁spect	-2853
▁effort	-2854
▁americans	-2855
▁unfortunately	-2856
zz	-2857
▁price	-2858
▁beauty	-2859
▁skills	-2860
▁earlier	-2861
▁expensive	-2862
▁environmental	-2863
▁base	-2864
▁enorm	-2865
▁print	-2866
▁trick	-2867
▁anywhere	-2868
do	-2869
lebr	-2870
iling	-2871
ounds	-2872
▁shark	-2873
▁celebr	-2874
▁employ	-2875
▁freedom	-2876
▁production	-2877
ulf	-2878
▁21	-2879
▁init	-2880
uments	-2881
▁remind	-2882
▁contrib	-2883
▁specific	-2884
▁decisions	-2885
▁legs	-2886
▁yell	-2887
ission	-2888
▁trade	-2889
▁interview	-2890
▁recognize	-2891
rep	-2892
▁tit	-2893
ently	-2894
amm	-2895
ffic	-2896
iers	-2897
▁alg	-2898
▁whe	-2899
▁none	-2900
▁doctors	-2901
▁intelligence	-2902
▁cover	-2903
▁liber	-2904
▁loved	-2905
▁famous	-2906
▁listening	-2907
▁solutions	-2908
mb	-2909
back	-2910
▁cry	-2911
▁den	-2912
▁exh	-2913
▁costs	-2914
▁forget	-2915
▁private	-2916
▁practice	-2917
aging	-2918
▁innov	-2919
▁waiting	-2920
▁becoming	-2921
sequ	-2922
acity	-2923
itude	-2924
▁babies	-2925
▁plastic	-2926
▁dangerous	-2927
▁transport	-2928
▁rise	-2929
▁weren	-2930
itation	-2931
ologists	-2932
▁familiar	-2933
▁governments	-2934
ays	-2935
oles	-2936
▁dog	-2937
▁drink	-2938
▁associ	-2939
▁comfort	-2940
▁driving	-2941
cies	-2942
▁lat	-2943
▁thr	-2944
ained	-2945
▁afgh	-2946
inating	-2947
▁spirit	-2948
▁greatest	-2949
▁services	-2950
▁teaching	-2951
▁performance	-2952
ike	-2953
ira	-2954
rams	-2955
aries	-2956
▁wood	-2957
▁wealth	-2958
▁healthy	-2959
▁industrial	-2960
ises	-2961
▁dar	-2962
▁ord	-2963
▁weap	-2964
▁enjoy	-2965
▁walked	-2966
iven	-2967
▁atm	-2968
▁tur	-2969
ables	-2970
eties	-2971
▁symb	-2972
▁agree	-2973
▁range	-2974
▁electr	-2975
▁address	-2976
▁invented	-2977
lly	-2978
amic	-2979
▁ran	-2980
▁hall	-2981
▁catch	-2982
▁random	-2983
▁willing	-2984
▁humanity	-2985
▁direction	-2986
sc	-2987
time	-2988
▁jump	-2989
▁bodies	-2990
▁method	-2991
▁multip	-2992
▁unique	-2993
atically	-2994
▁institutions	-2995
rees	-2996
▁ver	-2997
▁final	-2998
▁raise	-2999
▁simpl	-3000
▁massive	-3001
▁immediately	-3002
ndon	-3003
▁ben	-3004
iding	-3005
▁shot	-3006
▁optim	-3007
▁determ	-3008
▁german	-3009
▁income	-3010
▁insect	-3011
▁nation	-3012
▁genetic	-3013
▁website	-3014
▁mountain	-3015
aly	-3016
iate	-3017
iles	-3018
resh	-3019
uted	-3020
▁floor	-3021
▁forth	-3022
▁various	-3023
▁effective	-3024
▁dyn	-3025
▁ken	-3026
▁ten	-3027
eless	-3028
▁harv	-3029
▁prep	-3030
▁river	-3031
▁types	-3032
▁afghan	-3033
▁strugg	-3034
unk	-3035
ceed	-3036
rene	-3037
▁john	-3038
▁laws	-3039
istics	-3040
▁gradu	-3041
imately	-3042
▁meeting	-3043
▁financial	-3044
ama	-3045
▁et	-3046
▁od	-3047
▁fit	-3048
▁tun	-3049
▁uses	-3050
▁demon	-3051
▁radio	-3052
▁sorry	-3053
▁flying	-3054
▁popular	-3055
▁instance	-3056
▁standard	-3057
bel	-3058
▁hair	-3059
▁worry	-3060
▁useful	-3061
▁following	-3062
▁rule	-3063
▁depend	-3064
▁levels	-3065
▁mental	-3066
▁values	-3067
▁electron	-3068
oper	-3069
▁shap	-3070
atives	-3071
▁integ	-3072
▁citizens	-3073
▁cultural	-3074
▁remarkable	-3075
ils	-3076
epend	-3077
▁arab	-3078
▁decide	-3079
▁saving	-3080
oty	-3081
uct	-3082
ried	-3083
erson	-3084
▁email	-3085
▁instr	-3086
▁oppos	-3087
▁surve	-3088
▁mostly	-3089
▁express	-3090
▁fuel	-3091
▁ahead	-3092
▁apply	-3093
▁match	-3094
▁career	-3095
▁supply	-3096
▁journal	-3097
▁mut	-3098
▁pig	-3099
water	-3100
▁blog	-3101
▁tiss	-3102
▁decade	-3103
▁infrast	-3104
▁24	-3105
▁dram	-3106
iation	-3107
▁honest	-3108
▁dav	-3109
attle	-3110
▁drop	-3111
▁london	-3112
▁speech	-3113
▁aid	-3114
▁bang	-3115
▁cust	-3116
▁demonstr	-3117
▁relative	-3118
▁ut	-3119
airs	-3120
ches	-3121
ping	-3122
▁196	-3123
▁nut	-3124
▁slide	-3125
ologist	-3126
▁commer	-3127
▁independ	-3128
▁politics	-3129
▁engineering	-3130
wise	-3131
▁500	-3132
▁quant	-3133
▁possibly	-3134
▁condition	-3135
▁television	-3136
ffe	-3137
yle	-3138
ores	-3139
▁hus	-3140
▁hyd	-3141
antic	-3142
▁gene	-3143
▁speaking	-3144
▁connection	-3145
board	-3146
▁concl	-3147
▁slightly	-3148
▁creativity	-3149
key	-3150
orrow	-3151
▁hous	-3152
▁motiv	-3153
▁forces	-3154
ervation	-3155
▁purpose	-3156
▁surround	-3157
ked	-3158
ball	-3159
▁hole	-3160
▁philos	-3161
▁decades	-3162
▁surgery	-3163
▁tens	-3164
▁survive	-3165
▁directly	-3166
▁neighborhood	-3167
rad	-3168
aign	-3169
▁physic	-3170
▁prevent	-3171
▁capacity	-3172
▁terrible	-3173
▁understood	-3174
▁tal	-3175
ricult	-3176
▁birds	-3177
▁displ	-3178
▁cooper	-3179
▁destro	-3180
▁oxygen	-3181
▁stress	-3182
▁switch	-3183
▁consequ	-3184
▁agricult	-3185
▁campaign	-3186
▁diseases	-3187
▁temperature	-3188
▁paid	-3189
▁coast	-3190
▁artist	-3191
▁summer	-3192
▁washing	-3193
▁enormous	-3194
ls	-3195
win	-3196
▁je	-3197
cell	-3198
▁tum	-3199
itted	-3200
▁appl	-3201
reprene	-3202
▁struct	-3203
▁reflect	-3204
▁societies	-3205
▁atmosphere	-3206
▁300	-3207
▁tor	-3208
ufact	-3209
▁boys	-3210
▁task	-3211
▁below	-3212
▁offic	-3213
▁total	-3214
▁tremend	-3215
▁conference	-3216
ef	-3217
▁fat	-3218
iforn	-3219
▁beat	-3220
▁fold	-3221
▁heat	-3222
▁whose	-3223
▁worst	-3224
▁dimens	-3225
▁helped	-3226
▁indian	-3227
▁shared	-3228
▁yellow	-3229
▁californ	-3230
▁networks	-3231
▁challenges	-3232
▁colleagues	-3233
▁infrastructure	-3234
izes	-3235
▁conc	-3236
▁smell	-3237
▁twice	-3238
▁highly	-3239
▁mobile	-3240
▁symbol	-3241
▁effects	-3242
▁controll	-3243
ios	-3244
the	-3245
ancy	-3246
itor	-3247
wood	-3248
▁crow	-3249
▁trib	-3250
▁flight	-3251
▁entreprene	-3252
ec	-3253
anda	-3254
▁ira	-3255
▁scan	-3256
▁active	-3257
▁belief	-3258
▁desert	-3259
▁genome	-3260
▁invent	-3261
▁island	-3262
▁manufact	-3263
▁organizations	-3264
icles	-3265
▁copy	-3266
▁mamm	-3267
▁closer	-3268
▁noticed	-3269
▁programs	-3270
▁published	-3271
▁male	-3272
▁austr	-3273
▁applic	-3274
▁histor	-3275
▁workers	-3276
▁california	-3277
▁fro	-3278
▁vul	-3279
aling	-3280
▁dance	-3281
▁frank	-3282
▁funny	-3283
▁expand	-3284
▁markets	-3285
▁respond	-3286
▁trouble	-3287
▁produced	-3288
gu	-3289
cles	-3290
load	-3291
rael	-3292
cules	-3293
▁bees	-3294
▁metap	-3295
▁shoot	-3296
▁causes	-3297
▁played	-3298
▁pressure	-3299
▁profound	-3300
anc	-3301
rench	-3302
▁doub	-3303
▁iran	-3304
▁eating	-3305
▁experiments	-3306
pro	-3307
raid	-3308
▁mix	-3309
▁pet	-3310
anced	-3311
inate	-3312
▁russ	-3313
▁legal	-3314
▁rough	-3315
▁democr	-3316
▁degrees	-3317
▁communication	-3318
▁relationships	-3319
cks	-3320
olve	-3321
arian	-3322
▁shock	-3323
▁afraid	-3324
▁bought	-3325
▁custom	-3326
▁evolved	-3327
▁consciousness	-3328
ray	-3329
ened	-3330
iber	-3331
rupt	-3332
▁ske	-3333
gress	-3334
▁wire	-3335
▁david	-3336
▁photo	-3337
▁corner	-3338
▁spaces	-3339
▁answers	-3340
▁original	-3341
▁surprising	-3342
▁ju	-3343
esis	-3344
▁plat	-3345
ashion	-3346
▁airpl	-3347
▁dying	-3348
▁breast	-3349
▁complexity	-3350
▁differences	-3351
used	-3352
▁etc	-3353
▁mad	-3354
atell	-3355
▁ecos	-3356
▁hang	-3357
▁lack	-3358
▁mich	-3359
▁poet	-3360
▁female	-3361
▁lights	-3362
▁choices	-3363
▁deliver	-3364
▁studying	-3365
▁communicate	-3366
▁differently	-3367
band	-3368
▁cru	-3369
order	-3370
▁loss	-3371
▁brill	-3372
ception	-3373
▁reduce	-3374
▁molecules	-3375
▁afghanistan	-3376
▁alt	-3377
orith	-3378
▁race	-3379
▁rare	-3380
▁10,000	-3381
▁satell	-3382
▁devices	-3383
▁mission	-3384
▁algorith	-3385
▁classroom	-3386
▁landscape	-3387
▁sustainable	-3388
zil	-3389
▁iraq	-3390
▁reco	-3391
▁vulner	-3392
▁ancient	-3393
▁knowing	-3394
▁nations	-3395
▁streets	-3396
▁diversity	-3397
▁emotional	-3398
ds	-3399
ste	-3400
cope	-3401
▁mos	-3402
pping	-3403
▁teen	-3404
▁broken	-3405
▁israel	-3406
▁creates	-3407
▁stopped	-3408
▁designers	-3409
▁scientist	-3410
▁experiences	-3411
▁gh	-3412
ystem	-3413
▁sick	-3414
▁swim	-3415
▁wide	-3416
▁bread	-3417
▁climb	-3418
▁coffe	-3419
▁altern	-3420
▁brazil	-3421
▁easily	-3422
▁window	-3423
▁attract	-3424
▁despite	-3425
▁bringing	-3426
▁foundation	-3427
hy	-3428
outh	-3429
▁tax	-3430
itter	-3431
▁band	-3432
▁bomb	-3433
▁gent	-3434
▁moon	-3435
▁trip	-3436
▁magaz	-3437
▁mexic	-3438
▁compon	-3439
▁seemed	-3440
▁target	-3441
▁artists	-3442
▁missing	-3443
▁biological	-3444
rew	-3445
tle	-3446
▁seas	-3447
aced	-3448
term	-3449
▁parad	-3450
▁photos	-3451
▁ecosystem	-3452
▁significant	-3453
ued	-3454
empt	-3455
▁wis	-3456
right	-3457
▁accord	-3458
▁corpor	-3459
▁eg	-3460
▁aids	-3461
▁cogn	-3462
▁1,000	-3463
▁habit	-3464
▁party	-3465
▁farmers	-3466
▁hearing	-3467
▁daughter	-3468
▁spending	-3469
▁background	-3470
▁commercial	-3471
▁opportunities	-3472
▁iron	-3473
▁mort	-3474
aining	-3475
▁basis	-3476
▁rapid	-3477
▁visit	-3478
▁coffee	-3479
▁passed	-3480
▁foreign	-3481
▁virtual	-3482
▁tremendous	-3483
▁gar	-3484
▁rom	-3485
ening	-3486
▁vast	-3487
▁stren	-3488
▁gotten	-3489
▁helping	-3490
▁members	-3491
▁efficient	-3492
ya	-3493
▁harm	-3494
▁analy	-3495
▁enter	-3496
▁fully	-3497
aff	-3498
▁cla	-3499
▁joy	-3500
▁dinos	-3501
▁contact	-3502
▁identity	-3503
▁responsibility	-3504
bert	-3505
rate	-3506
rogen	-3507
▁cheap	-3508
▁bridge	-3509
▁inspir	-3510
▁sexual	-3511
▁therap	-3512
▁brother	-3513
▁focused	-3514
▁strength	-3515
▁professor	-3516
fl	-3517
▁amb	-3518
▁ble	-3519
▁gun	-3520
▁vacc	-3521
▁accom	-3522
▁pleas	-3523
▁depart	-3524
▁unlike	-3525
▁religion	-3526
▁imagination	-3527
kn	-3528
night	-3529
▁gard	-3530
▁scul	-3531
▁weird	-3532
▁nearly	-3533
▁correct	-3534
▁addition	-3535
▁brilliant	-3536
▁leadership	-3537
val	-3538
vit	-3539
cript	-3540
▁host	-3541
▁stem	-3542
▁shift	-3543
▁moments	-3544
▁inspired	-3545
ius	-3546
off	-3547
▁1.	-3548
istry	-3549
▁join	-3550
▁shop	-3551
▁chick	-3552
▁feels	-3553
▁niger	-3554
▁demand	-3555
▁fairly	-3556
▁resist	-3557
▁failure	-3558
▁facebook	-3559
ding	-3560
ties	-3561
▁mas	-3562
▁que	-3563
house	-3564
▁seed	-3565
▁lucky	-3566
▁gentle	-3567
▁argument	-3568
▁opposite	-3569
▁particles	-3570
▁ultimately	-3571
ees	-3572
itely	-3573
icking	-3574
▁brand	-3575
▁bright	-3576
▁forever	-3577
▁negative	-3578
▁competition	-3579
mark	-3580
orge	-3581
arter	-3582
based	-3583
▁acad	-3584
▁core	-3585
▁forg	-3586
▁batter	-3587
▁sharing	-3588
▁partners	-3589
▁phenomenon	-3590
▁400	-3591
▁fed	-3592
▁inj	-3593
▁mit	-3594
▁summ	-3595
▁giant	-3596
▁invis	-3597
▁leads	-3598
▁noise	-3599
▁aspect	-3600
▁creatures	-3601
▁possibility	-3602
iot	-3603
zen	-3604
▁ug	-3605
hand	-3606
▁egg	-3607
rated	-3608
▁asia	-3609
▁exer	-3610
▁rout	-3611
▁tast	-3612
▁mouth	-3613
▁advant	-3614
▁consid	-3615
▁notion	-3616
▁remote	-3617
▁sculpt	-3618
▁transp	-3619
▁austral	-3620
▁describe	-3621
▁religious	-3622
la	-3623
▁fol	-3624
dimens	-3625
orders	-3626
▁lunch	-3627
ography	-3628
▁french	-3629
▁emotion	-3630
▁fashion	-3631
ification	-3632
▁discovery	-3633
▁otherwise	-3634
▁depression	-3635
▁cred	-3636
▁horr	-3637
▁ship	-3638
atures	-3639
▁charge	-3640
▁double	-3641
▁tissue	-3642
▁volunt	-3643
▁planets	-3644
▁metaphor	-3645
▁ep	-3646
▁musl	-3647
▁repe	-3648
▁shel	-3649
ifying	-3650
▁master	-3651
▁concent	-3652
▁restaur	-3653
▁traffic	-3654
▁turning	-3655
▁elements	-3656
▁philosoph	-3657
arm	-3658
gar	-3659
reci	-3660
▁lin	-3661
▁tow	-3662
▁note	-3663
▁calls	-3664
▁motor	-3665
▁mouse	-3666
▁grandm	-3667
▁according	-3668
ami	-3669
cked	-3670
roud	-3671
vity	-3672
▁fab	-3673
ander	-3674
▁puzz	-3675
▁adapt	-3676
▁avoid	-3677
▁dollar	-3678
▁events	-3679
▁meters	-3680
▁stream	-3681
▁balance	-3682
▁husband	-3683
▁typical	-3684
▁european	-3685
ky	-3686
ada	-3687
cest	-3688
▁jew	-3689
ipped	-3690
▁cand	-3691
▁tough	-3692
ifically	-3693
▁related	-3694
▁benefits	-3695
▁distance	-3696
▁previous	-3697
▁importantly	-3698
▁necessarily	-3699
bu	-3700
vere	-3701
▁rot	-3702
▁chann	-3703
▁myster	-3704
▁billions	-3705
▁intellect	-3706
▁suffering	-3707
cop	-3708
▁nan	-3709
celer	-3710
▁chur	-3711
▁accur	-3712
▁bound	-3713
▁indic	-3714
connect	-3715
▁ancest	-3716
▁easier	-3717
▁insects	-3718
▁entirely	-3719
dimensional	-3720
ears	-3721
▁cro	-3722
▁mig	-3723
▁smo	-3724
▁held	-3725
▁vall	-3726
▁crash	-3727
▁eleph	-3728
▁fresh	-3729
▁maint	-3730
▁prize	-3731
▁stuck	-3732
▁shouldn	-3733
▁weapons	-3734
▁mathematics	-3735
reg	-3736
ses	-3737
eared	-3738
print	-3739
stein	-3740
▁ants	-3741
▁disp	-3742
▁edge	-3743
▁epid	-3744
▁tour	-3745
▁helps	-3746
▁newsp	-3747
▁proud	-3748
▁opened	-3749
▁sector	-3750
ographic	-3751
▁attempt	-3752
▁sequence	-3753
▁structures	-3754
▁responsible	-3755
head	-3756
pper	-3757
ront	-3758
▁mir	-3759
▁pow	-3760
▁chap	-3761
▁frequ	-3762
▁appreci	-3763
▁destroy	-3764
▁figured	-3765
▁leading	-3766
▁leaving	-3767
▁regular	-3768
▁hopefully	-3769
ager	-3770
esth	-3771
▁unc	-3772
iable	-3773
verse	-3774
▁boat	-3775
▁spot	-3776
▁faith	-3777
▁talks	-3778
▁dreams	-3779
▁raised	-3780
▁platform	-3781
set	-3782
wor	-3783
▁ax	-3784
iors	-3785
▁und	-3786
▁roof	-3787
▁paint	-3788
▁prior	-3789
▁finger	-3790
▁interp	-3791
ulations	-3792
▁holding	-3793
▁document	-3794
▁necessary	-3795
▁operating	-3796
▁institution	-3797
▁exch	-3798
▁libr	-3799
▁reve	-3800
ulated	-3801
▁click	-3802
▁exhib	-3803
▁quote	-3804
▁brings	-3805
▁convin	-3806
▁signal	-3807
▁transm	-3808
▁element	-3809
▁trained	-3810
▁childhood	-3811
▁cognitive	-3812
gra	-3813
ley	-3814
vant	-3815
▁weak	-3816
▁diver	-3817
▁grass	-3818
▁closed	-3819
▁microb	-3820
▁oceans	-3821
▁british	-3822
▁justice	-3823
▁matters	-3824
▁creation	-3825
▁influence	-3826
▁organisms	-3827
▁definition	-3828
▁investment	-3829
lin	-3830
isco	-3831
▁lapt	-3832
▁chair	-3833
▁embra	-3834
▁truck	-3835
▁circle	-3836
▁fortun	-3837
▁slowly	-3838
▁counter	-3839
▁install	-3840
▁require	-3841
▁studied	-3842
ibilities	-3843
▁galaxies	-3844
▁strategy	-3845
▁engineers	-3846
▁invisible	-3847
mm	-3848
eral	-3849
uros	-3850
▁150	-3851
▁hid	-3852
▁wow	-3853
▁snow	-3854
▁names	-3855
▁offer	-3856
▁degree	-3857
▁lesson	-3858
▁pounds	-3859
▁acceler	-3860
▁compare	-3861
▁succeed	-3862
▁believed	-3863
▁magazine	-3864
▁normally	-3865
▁surprise	-3866
▁construct	-3867
▁civilization	-3868
ica	-3869
rie	-3870
ysis	-3871
▁walls	-3872
▁failed	-3873
▁unless	-3874
▁equival	-3875
▁factory	-3876
▁station	-3877
▁compared	-3878
▁fighting	-3879
▁seriously	-3880
af	-3881
▁bag	-3882
▁dol	-3883
▁hyp	-3884
▁pun	-3885
▁row	-3886
idents	-3887
ipping	-3888
▁moves	-3889
▁novel	-3890
▁subst	-3891
lection	-3892
▁adults	-3893
▁caught	-3894
▁church	-3895
▁politic	-3896
▁constantly	-3897
oted	-3898
▁empt	-3899
▁frag	-3900
▁gall	-3901
▁seat	-3902
▁soil	-3903
▁coral	-3904
▁round	-3905
ometers	-3906
▁deeply	-3907
▁galaxy	-3908
▁symmet	-3909
▁mothers	-3910
▁accident	-3911
▁finished	-3912
▁collective	-3913
▁fascinating	-3914
iage	-3915
▁fis	-3916
agers	-3917
inist	-3918
▁bone	-3919
▁diet	-3920
▁meat	-3921
▁purs	-3922
urally	-3923
▁prost	-3924
▁colors	-3925
▁leader	-3926
▁artific	-3927
▁prototy	-3928
fo	-3929
irt	-3930
oun	-3931
enty	-3932
olds	-3933
▁cos	-3934
▁mur	-3935
▁shr	-3936
▁apple	-3937
▁argue	-3938
▁sister	-3939
▁whenever	-3940
▁advantage	-3941
▁professional	-3942
edia	-3943
pher	-3944
▁dry	-3945
essed	-3946
▁defe	-3947
▁begins	-3948
▁fields	-3949
▁fourth	-3950
▁letter	-3951
▁phones	-3952
▁invited	-3953
▁managed	-3954
▁precise	-3955
▁vehicle	-3956
▁concerned	-3957
cket	-3958
▁bon	-3959
▁len	-3960
▁saf	-3961
▁hate	-3962
▁opin	-3963
▁wave	-3964
ctions	-3965
▁franc	-3966
▁infin	-3967
▁surge	-3968
▁uncle	-3969
▁wheel	-3970
▁attach	-3971
▁reward	-3972
▁yester	-3973
▁benefit	-3974
▁capable	-3975
▁replace	-3976
▁languages	-3977
▁due	-3978
▁fif	-3979
▁mer	-3980
▁anti	-3981
▁subm	-3982
▁whom	-3983
ruption	-3984
▁astron	-3985
▁paying	-3986
▁protein	-3987
▁followed	-3988
▁perfectly	-3989
▁surprised	-3990
▁businesses	-3991
▁equivalent	-3992
▁consumption	-3993
▁interaction	-3994
▁increasingly	-3995
ypt	-3996
▁1,	-3997
uing	-3998
wide	-3999
▁era	-4000
▁peak	-4001
▁emotions	-4002
▁majority	-4003
▁washington	-4004
▁hi	-4005
aria	-4006
athy	-4007
care	-4008
▁hun	-4009
▁org	-4010
illed	-4011
ulous	-4012
▁ange	-4013
▁foss	-4014
▁intu	-4015
▁load	-4016
▁beach	-4017
▁brief	-4018
▁equip	-4019
▁sport	-4020
▁origin	-4021
▁wisdom	-4022
▁contract	-4023
▁molecule	-4024
▁described	-4025
▁economics	-4026
▁yesterday	-4027
ha	-4028
lex	-4029
omy	-4030
▁35	-4031
anes	-4032
throp	-4033
▁adop	-4034
▁flat	-4035
▁hack	-4036
▁nerv	-4037
▁paul	-4038
▁stock	-4039
▁darwin	-4040
▁implic	-4041
▁mexico	-4042
▁valley	-4043
▁twitter	-4044
▁weather	-4045
▁designer	-4046
▁everyday	-4047
▁launched	-4048
▁principles	-4049
▁gap	-4050
▁spl	-4051
uries	-4052
▁lady	-4053
▁crowd	-4054
▁dolph	-4055
▁egypt	-4056
▁rural	-4057
▁breath	-4058
▁exists	-4059
▁incent	-4060
▁spring	-4061
▁insight	-4062
▁married	-4063
▁richard	-4064
▁tomorrow	-4065
▁fal	-4066
▁disc	-4067
▁hasn	-4068
▁reef	-4069
▁equal	-4070
▁faces	-4071
▁synth	-4072
oration	-4073
▁versus	-4074
▁curious	-4075
▁wearing	-4076
▁planning	-4077
▁institute	-4078
▁mentioned	-4079
anz	-4080
cil	-4081
rel	-4082
und	-4083
rict	-4084
▁mel	-4085
apers	-4086
icity	-4087
known	-4088
▁gang	-4089
▁grad	-4090
▁soph	-4091
▁tick	-4092
▁cycle	-4093
▁grown	-4094
▁fellow	-4095
▁select	-4096
▁shapes	-4097
▁drawing	-4098
▁england	-4099
▁highest	-4100
▁limited	-4101
▁survival	-4102
▁currently	-4103
▁universal	-4104
▁department	-4105
bi	-4106
asa	-4107
hab	-4108
apse	-4109
▁pil	-4110
▁sen	-4111
▁bull	-4112
▁cosm	-4113
ensity	-4114
▁chimp	-4115
▁neuro	-4116
▁battle	-4117
▁organic	-4118
▁airplane	-4119
▁principle	-4120
▁statistics	-4121
▁distribution	-4122
ae	-4123
yl	-4124
ume	-4125
▁bul	-4126
craft	-4127
▁myth	-4128
▁shut	-4129
▁vent	-4130
forest	-4131
▁heads	-4132
▁steps	-4133
▁article	-4134
▁ordinary	-4135
▁received	-4136
▁equipment	-4137
▁agriculture	-4138
iat	-4139
▁gay	-4140
▁tap	-4141
▁bear	-4142
▁compl	-4143
▁daily	-4144
▁pages	-4145
▁pengu	-4146
▁debate	-4147
▁leaves	-4148
▁voices	-4149
▁letters	-4150
▁nervous	-4151
▁theater	-4152
▁treated	-4153
▁investig	-4154
▁property	-4155
▁sentence	-4156
▁soldiers	-4157
▁technical	-4158
▁researchers	-4159
mp	-4160
ibr	-4161
roll	-4162
▁rat	-4163
asion	-4164
estic	-4165
▁rein	-4166
▁wear	-4167
▁2,000	-4168
▁diagn	-4169
▁toile	-4170
▁commit	-4171
▁dinner	-4172
▁warming	-4173
▁japanese	-4174
▁multiple	-4175
▁separate	-4176
▁independent	-4177
emy	-4178
▁mat	-4179
point	-4180
▁fell	-4181
▁nutr	-4182
▁wond	-4183
▁plane	-4184
▁belong	-4185
▁driver	-4186
▁gather	-4187
▁harder	-4188
▁hidden	-4189
▁motion	-4190
▁germany	-4191
▁management	-4192
▁generations	-4193
ara	-4194
oom	-4195
▁amp	-4196
▁pip	-4197
olves	-4198
place	-4199
▁crime	-4200
▁kenya	-4201
▁damage	-4202
▁stupid	-4203
▁thinks	-4204
▁toward	-4205
▁feedback	-4206
▁continent	-4207
▁intelligent	-4208
▁ein	-4209
▁rub	-4210
▁arms	-4211
▁kore	-4212
▁ment	-4213
▁tail	-4214
▁valu	-4215
encies	-4216
▁awful	-4217
▁chain	-4218
▁folks	-4219
▁grade	-4220
▁users	-4221
▁reform	-4222
▁conduct	-4223
▁killing	-4224
▁dimensions	-4225
▁electrical	-4226
ta	-4227
col	-4228
ino	-4229
uge	-4230
bble	-4231
ogen	-4232
▁unp	-4233
▁abst	-4234
▁bush	-4235
▁date	-4236
▁categ	-4237
▁homes	-4238
▁prime	-4239
▁quiet	-4240
▁shoes	-4241
▁teles	-4242
▁expert	-4243
▁neuros	-4244
▁covered	-4245
▁volunte	-4246
▁einstein	-4247
▁grandmother	-4248
mon	-4249
pes	-4250
pet	-4251
▁bow	-4252
▁cow	-4253
ortex	-4254
▁coal	-4255
▁cloth	-4256
▁limit	-4257
▁negot	-4258
▁veget	-4259
▁caused	-4260
▁losing	-4261
▁signals	-4262
▁essential	-4263
▁interface	-4264
▁artificial	-4265
▁associated	-4266
▁experienced	-4267
▁intellectual	-4268
▁specifically	-4269
roph	-4270
ston	-4271
▁ves	-4272
anted	-4273
▁drag	-4274
▁maps	-4275
▁pros	-4276
▁vote	-4277
▁warm	-4278
ession	-4279
▁brown	-4280
▁hyper	-4281
▁lifet	-4282
▁manip	-4283
issions	-4284
▁advert	-4285
▁circum	-4286
▁explan	-4287
▁player	-4288
▁review	-4289
▁100,000	-4290
▁players	-4291
▁setting	-4292
▁testing	-4293
▁resource	-4294
mak	-4295
▁lie	-4296
▁pray	-4297
▁puts	-4298
▁recy	-4299
▁stim	-4300
elling	-4301
▁inner	-4302
▁liked	-4303
▁spoke	-4304
▁tumor	-4305
▁battery	-4306
▁suppose	-4307
▁whereas	-4308
▁consequences	-4309
ocol	-4310
▁van	-4311
▁crim	-4312
▁dial	-4313
▁scen	-4314
▁empty	-4315
▁layer	-4316
▁filled	-4317
▁sharks	-4318
▁arrived	-4319
▁keeping	-4320
▁watched	-4321
▁congress	-4322
▁engineer	-4323
amb	-4324
ett	-4325
rum	-4326
aked	-4327
semb	-4328
▁bits	-4329
▁hurt	-4330
▁kick	-4331
▁surf	-4332
▁wars	-4333
▁heavy	-4334
▁holes	-4335
▁scene	-4336
▁stood	-4337
▁frustr	-4338
▁garden	-4339
▁movies	-4340
▁poetry	-4341
▁appropr	-4342
▁australia	-4343
▁designing	-4344
▁mountains	-4345
▁kilometers	-4346
▁transition	-4347
que	-4348
cers	-4349
odes	-4350
▁bee	-4351
▁poo	-4352
force	-4353
▁evil	-4354
▁intr	-4355
▁tall	-4356
▁colon	-4357
▁grain	-4358
▁signs	-4359
▁deeper	-4360
▁finish	-4361
▁member	-4362
▁micros	-4363
▁picked	-4364
▁safety	-4365
▁vessel	-4366
gged	-4367
▁pac	-4368
▁wik	-4369
▁arts	-4370
icated	-4371
▁facts	-4372
▁ideal	-4373
▁extend	-4374
▁videos	-4375
▁britain	-4376
▁dealing	-4377
▁experts	-4378
▁advanced	-4379
▁identify	-4380
▁minister	-4381
▁convinced	-4382
▁processes	-4383
▁satellite	-4384
▁importance	-4385
▁comfortable	-4386
▁99	-4387
▁mc	-4388
cast	-4389
▁lic	-4390
▁army	-4391
▁desk	-4392
▁dots	-4393
▁lift	-4394
itness	-4395
▁recon	-4396
▁shall	-4397
▁solid	-4398
▁teeth	-4399
▁muscle	-4400
▁status	-4401
▁malaria	-4402
▁opening	-4403
▁marriage	-4404
▁northern	-4405
▁entertain	-4406
▁considered	-4407
▁convention	-4408
▁alternative	-4409
▁entrepreneurs	-4410
dy	-4411
▁45	-4412
▁ru	-4413
iency	-4414
▁hide	-4415
▁hung	-4416
▁swed	-4417
ushing	-4418
▁illeg	-4419
▁sites	-4420
▁sugar	-4421
▁gender	-4422
▁cutting	-4423
▁display	-4424
▁roughly	-4425
▁sources	-4426
▁worried	-4427
▁consumer	-4428
▁cultures	-4429
▁struggle	-4430
▁wondering	-4431
▁connections	-4432
▁dip	-4433
▁nav	-4434
▁ren	-4435
▁toy	-4436
erves	-4437
▁blow	-4438
▁hadn	-4439
ension	-4440
akistan	-4441
▁trials	-4442
▁cartoon	-4443
▁exchange	-4444
▁feelings	-4445
▁construction	-4446
ok	-4447
ri	-4448
oes	-4449
rete	-4450
zing	-4451
▁cha	-4452
▁mak	-4453
neath	-4454
▁ends	-4455
▁gain	-4456
▁gift	-4457
▁prev	-4458
▁broke	-4459
▁flies	-4460
▁horse	-4461
▁saved	-4462
▁calling	-4463
▁dynamic	-4464
▁variety	-4465
▁viruses	-4466
▁organized	-4467
▁typically	-4468
▁protection	-4469
▁underneath	-4470
ca	-4471
▁sla	-4472
▁grid	-4473
▁qual	-4474
▁auton	-4475
▁waves	-4476
▁budget	-4477
▁define	-4478
▁george	-4479
▁profit	-4480
▁exercise	-4481
▁expected	-4482
▁graduate	-4483
▁reaction	-4484
▁requires	-4485
▁valuable	-4486
▁mortality	-4487
▁corruption	-4488
▁definitely	-4489
▁properties	-4490
▁transformation	-4491
hi	-4492
ago	-4493
iti	-4494
zed	-4495
mber	-4496
▁wel	-4497
▁2000	-4498
▁bran	-4499
▁club	-4500
▁exec	-4501
▁flex	-4502
▁plus	-4503
▁shif	-4504
▁user	-4505
▁wake	-4506
▁chart	-4507
▁estab	-4508
▁honor	-4509
▁perce	-4510
▁prove	-4511
▁canada	-4512
▁facing	-4513
▁capture	-4514
▁chicken	-4515
▁illness	-4516
▁nigeria	-4517
▁carrying	-4518
▁location	-4519
▁pakistan	-4520
▁collection	-4521
▁effectively	-4522
mas	-4523
aurs	-4524
hyth	-4525
▁cub	-4526
▁lies	-4527
▁liqu	-4528
▁pure	-4529
▁spin	-4530
pected	-4531
▁fewer	-4532
▁studio	-4533
▁democratic	-4534
▁vulnerable	-4535
▁possibilities	-4536
cap	-4537
car	-4538
aled	-4539
fish	-4540
life	-4541
▁atl	-4542
▁les	-4543
▁auth	-4544
▁bare	-4545
▁shad	-4546
▁suit	-4547
▁unex	-4548
▁cards	-4549
▁kitch	-4550
▁march	-4551
▁stone	-4552
osition	-4553
▁forced	-4554
▁fossil	-4555
▁houses	-4556
▁convince	-4557
▁chemicals	-4558
▁chemistry	-4559
▁encourage	-4560
▁existence	-4561
▁producing	-4562
▁expression	-4563
▁mathematical	-4564
ss	-4565
enn	-4566
min	-4567
pan	-4568
uce	-4569
▁ded	-4570
▁glam	-4571
▁gree	-4572
▁hunt	-4573
▁nest	-4574
▁ring	-4575
acters	-4576
▁islam	-4577
▁steel	-4578
▁survey	-4579
▁contain	-4580
▁illustr	-4581
▁analysis	-4582
▁emerging	-4583
▁behaviors	-4584
▁generally	-4585
▁sophistic	-4586
▁worldwide	-4587
▁characters	-4588
▁represents	-4589
▁situations	-4590
▁politicians	-4591
20	-4592
cipl	-4593
tube	-4594
▁nur	-4595
▁pin	-4596
▁rit	-4597
iques	-4598
▁acqu	-4599
▁cast	-4600
▁decl	-4601
▁isol	-4602
▁jack	-4603
▁mira	-4604
▁tons	-4605
▁unit	-4606
▁aging	-4607
▁sight	-4608
▁smile	-4609
▁sweet	-4610
▁bubble	-4611
▁credit	-4612
▁ladies	-4613
▁winter	-4614
▁command	-4615
▁radical	-4616
▁reprodu	-4617
▁instrument	-4618
▁relatively	-4619
30	-4620
ux	-4621
▁py	-4622
abet	-4623
gets	-4624
▁aff	-4625
▁ing	-4626
▁spo	-4627
▁lawy	-4628
ulating	-4629
▁cameras	-4630
▁extract	-4631
▁gravity	-4632
▁harvard	-4633
▁selling	-4634
▁sending	-4635
▁witness	-4636
▁hydrogen	-4637
▁pleasure	-4638
▁thoughts	-4639
▁dinosaurs	-4640
▁employees	-4641
▁psychology	-4642
bur	-4643
▁eld	-4644
▁las	-4645
▁ped	-4646
▁wat	-4647
organ	-4648
▁diss	-4649
▁lect	-4650
▁poem	-4651
▁ride	-4652
▁goals	-4653
▁rates	-4654
▁forgot	-4655
▁height	-4656
▁rocket	-4657
▁library	-4658
▁privile	-4659
▁victims	-4660
▁carefully	-4661
▁healthcare	-4662
▁restaurant	-4663
rs	-4664
cont	-4665
▁pian	-4666
lation	-4667
▁hotel	-4668
▁minim	-4669
▁occup	-4670
▁risks	-4671
▁buying	-4672
▁fisher	-4673
▁hypoth	-4674
▁length	-4675
▁encoura	-4676
▁harvest	-4677
▁partner	-4678
▁youtube	-4679
▁generate	-4680
▁lifetime	-4681
▁messages	-4682
▁prepared	-4683
▁southern	-4684
▁disappear	-4685
▁newspaper	-4686
down	-4687
nded	-4688
stic	-4689
eline	-4690
porary	-4691
▁james	-4692
▁reven	-4693
▁union	-4694
▁compar	-4695
▁desire	-4696
▁factor	-4697
▁inevit	-4698
▁mirror	-4699
▁regard	-4700
▁remain	-4701
▁sphere	-4702
▁consist	-4703
▁promise	-4704
▁rapidly	-4705
▁clinical	-4706
▁epidemic	-4707
▁official	-4708
▁trillion	-4709
▁movements	-4710
▁practical	-4711
ij	-4712
ym	-4713
urb	-4714
irty	-4715
otic	-4716
ublic	-4717
lement	-4718
▁analog	-4719
▁former	-4720
▁laptop	-4721
▁depends	-4722
▁kitchen	-4723
abilities	-4724
▁abstract	-4725
▁anderson	-4726
▁brothers	-4727
▁circumst	-4728
▁recorded	-4729
▁introduce	-4730
▁molecular	-4731
▁introduced	-4732
▁profession	-4733
▁conservation	-4734
gl	-4735
ka	-4736
ael	-4737
log	-4738
uls	-4739
hold	-4740
▁ber	-4741
etics	-4742
lying	-4743
oting	-4744
▁diam	-4745
▁orch	-4746
▁pole	-4747
▁thin	-4748
▁added	-4749
▁atoms	-4750
▁claim	-4751
▁goods	-4752
▁metal	-4753
▁sides	-4754
▁skill	-4755
▁sympt	-4756
▁primary	-4757
▁release	-4758
▁francisco	-4759
▁naturally	-4760
▁evolutionary	-4761
dp	-4762
icy	-4763
▁cure	-4764
▁mand	-4765
▁runs	-4766
▁honey	-4767
▁serve	-4768
itarian	-4769
▁prefer	-4770
▁electro	-4771
▁lessons	-4772
▁affected	-4773
▁radiation	-4774
▁personally	-4775
▁techniques	-4776
eng	-4777
spe	-4778
uel	-4779
olic	-4780
orous	-4781
▁mart	-4782
▁unus	-4783
cience	-4784
▁court	-4785
▁domin	-4786
▁input	-4787
▁notes	-4788
▁liquid	-4789
▁organs	-4790
▁refuge	-4791
▁replic	-4792
▁sample	-4793
▁spider	-4794
▁applied	-4795
▁charles	-4796
▁diction	-4797
▁illegal	-4798
▁quantum	-4799
▁records	-4800
▁silence	-4801
▁apparent	-4802
▁spectrum	-4803
▁vehicles	-4804
▁emissions	-4805
▁invention	-4806
▁environments	-4807
oh	-4808
ded	-4809
igm	-4810
ingu	-4811
▁adj	-4812
▁asp	-4813
iring	-4814
▁bell	-4815
▁biom	-4816
▁clip	-4817
▁dogs	-4818
▁hill	-4819
▁impl	-4820
▁nasa	-4821
▁reci	-4822
▁3,000	-4823
▁clock	-4824
▁staff	-4825
▁advent	-4826
▁amazon	-4827
▁assign	-4828
▁contem	-4829
▁medium	-4830
▁season	-4831
▁worlds	-4832
▁establish	-4833
▁interests	-4834
▁marketing	-4835
▁terrorism	-4836
▁algorithms	-4837
▁discussion	-4838
▁technological	-4839
bors	-4840
▁ens	-4841
▁gdp	-4842
▁max	-4843
erved	-4844
icing	-4845
▁adam	-4846
▁cave	-4847
▁dish	-4848
▁remo	-4849
▁wine	-4850
▁horiz	-4851
▁ought	-4852
▁topic	-4853
▁acting	-4854
▁critic	-4855
▁monkey	-4856
▁senses	-4857
▁channel	-4858
▁dropped	-4859
▁eastern	-4860
▁mistake	-4861
▁opinion	-4862
▁windows	-4863
▁disaster	-4864
▁laboratory	-4865
▁mathematic	-4866
▁combination	-4867
▁sustainability	-4868
ham	-4869
icip	-4870
▁oct	-4871
itals	-4872
▁2008	-4873
▁silk	-4874
urance	-4875
▁estim	-4876
▁pitch	-4877
▁theme	-4878
▁bottle	-4879
▁conver	-4880
▁hoping	-4881
▁details	-4882
▁include	-4883
▁administ	-4884
▁efficiency	-4885
▁perception	-4886
▁collaboration	-4887
cal	-4888
rom	-4889
▁ii	-4890
▁bes	-4891
▁rig	-4892
build	-4893
▁resc	-4894
▁trig	-4895
ternal	-4896
▁false	-4897
▁keeps	-4898
▁satis	-4899
▁shame	-4900
quality	-4901
▁virgin	-4902
▁accompl	-4903
▁afterno	-4904
▁cooking	-4905
▁engaged	-4906
▁reached	-4907
▁unusual	-4908
▁memories	-4909
▁fundament	-4910
fit	-4911
lom	-4912
aren	-4913
umps	-4914
▁hol	-4915
enced	-4916
vable	-4917
▁cere	-4918
▁eggs	-4919
▁fert	-4920
▁wash	-4921
▁refer	-4922
▁assist	-4923
▁blocks	-4924
▁russia	-4925
▁whales	-4926
▁burning	-4927
▁centers	-4928
▁courage	-4929
▁feature	-4930
▁birthday	-4931
▁features	-4932
▁mistakes	-4933
▁occurred	-4934
▁interpret	-4935
▁neighbors	-4936
▁pollution	-4937
▁photographs	-4938
▁manufacturing	-4939
cond	-4940
uary	-4941
uits	-4942
▁bat	-4943
▁jan	-4944
▁sem	-4945
usive	-4946
▁alex	-4947
▁score	-4948
▁steve	-4949
▁upper	-4950
▁clouds	-4951
▁pulled	-4952
▁musical	-4953
▁rational	-4954
▁republic	-4955
▁ultimate	-4956
▁activities	-4957
▁components	-4958
▁literature	-4959
▁sophisticated	-4960
sa	-4961
esh	-4962
▁ip	-4963
▁1990	-4964
▁hits	-4965
▁hook	-4966
▁perm	-4967
arrass	-4968
stream	-4969
▁mosqu	-4970
▁pregn	-4971
▁storm	-4972
▁taste	-4973
▁diplom	-4974
▁driven	-4975
▁iphone	-4976
▁empower	-4977
▁forests	-4978
▁largely	-4979
▁relevant	-4980
▁embarrass	-4981
▁traveling	-4982
my	-4983
ox	-4984
cons	-4985
▁ham	-4986
▁mac	-4987
▁ven	-4988
child	-4989
scale	-4990
▁2010	-4991
▁barr	-4992
▁chic	-4993
▁joke	-4994
▁mush	-4995
▁pair	-4996
▁poly	-4997
▁vert	-4998
olving	-4999
▁dynam	-5000
▁cortex	-5001
▁reject	-5002
▁string	-5003
▁figures	-5004
▁michael	-5005
▁operate	-5006
▁pacific	-5007
▁singing	-5008
▁proteins	-5009
▁sunlight	-5010
▁ancestors	-5011
▁physically	-5012
▁destruction	-5013
▁transportation	-5014
bl	-5015
da	-5016
ums	-5017
osis	-5018
▁194	-5019
▁sir	-5020
▁1960	-5021
▁lake	-5022
▁milk	-5023
▁pool	-5024
▁sees	-5025
▁curve	-5026
▁resil	-5027
▁drives	-5028
▁excell	-5029
▁linked	-5030
▁option	-5031
▁scared	-5032
▁severe	-5033
▁actions	-5034
▁factors	-5035
▁nowhere	-5036
▁tonight	-5037
▁creature	-5038
▁dramatic	-5039
▁awareness	-5040
▁increased	-5041
▁operation	-5042
▁processing	-5043
▁participate	-5044
can	-5045
ole	-5046
▁na	-5047
▁aug	-5048
▁gut	-5049
▁haw	-5050
abled	-5051
▁bike	-5052
▁fake	-5053
▁mont	-5054
▁tape	-5055
ateful	-5056
▁5,000	-5057
▁films	-5058
▁ingred	-5059
▁marine	-5060
▁chicago	-5061
▁empathy	-5062
▁extinct	-5063
▁falling	-5064
▁quarter	-5065
▁visible	-5066
▁confront	-5067
▁contrast	-5068
▁occasion	-5069
▁required	-5070
▁afternoon	-5071
▁authority	-5072
▁electronic	-5073
▁meaningful	-5074
▁applications	-5075
▁presentation	-5076
au	-5077
foot	-5078
reed	-5079
what	-5080
▁dut	-5081
▁phr	-5082
▁vag	-5083
ament	-5084
ework	-5085
gment	-5086
▁dece	-5087
▁lens	-5088
▁pump	-5089
▁span	-5090
▁subs	-5091
▁zoom	-5092
▁falls	-5093
▁initi	-5094
▁renew	-5095
▁roads	-5096
▁tests	-5097
llywood	-5098
▁clever	-5099
▁perman	-5100
▁ritual	-5101
▁solved	-5102
▁clothes	-5103
▁concrete	-5104
▁existing	-5105
▁internal	-5106
▁collected	-5107
▁framework	-5108
▁hospitals	-5109
▁economists	-5110
▁psychological	-5111
rog	-5112
▁ze	-5113
keys	-5114
alled	-5115
▁gulf	-5116
▁soul	-5117
▁absor	-5118
▁lying	-5119
▁memor	-5120
▁recom	-5121
▁ridic	-5122
▁flower	-5123
▁formed	-5124
▁lifest	-5125
▁pollen	-5126
▁script	-5127
cription	-5128
▁amounts	-5129
▁circuit	-5130
▁comment	-5131
▁fishing	-5132
▁outcome	-5133
▁reverse	-5134
▁therapy	-5135
▁elephant	-5136
▁horrible	-5137
▁infected	-5138
▁released	-5139
▁tracking	-5140
▁mechanism	-5141
▁protected	-5142
▁percentage	-5143
▁exploration	-5144
▁inspiration	-5145
▁potentially	-5146
▁fundamentally	-5147
ov	-5148
nel	-5149
sec	-5150
tech	-5151
lands	-5152
▁flew	-5153
▁gras	-5154
▁stan	-5155
illing	-5156
iosity	-5157
▁coord	-5158
▁humor	-5159
▁multi	-5160
▁thick	-5161
inction	-5162
▁advice	-5163
▁boston	-5164
▁divide	-5165
▁stayed	-5166
▁closely	-5167
▁unknown	-5168
▁accurate	-5169
▁presence	-5170
▁computing	-5171
▁narrative	-5172
▁providing	-5173
▁appropriate	-5174
▁explanation	-5175
oint	-5176
▁cup	-5177
▁voc	-5178
hythm	-5179
▁jail	-5180
▁loud	-5181
▁mall	-5182
▁mile	-5183
▁obst	-5184
isters	-5185
▁chose	-5186
▁depth	-5187
▁frame	-5188
▁shell	-5189
▁wikip	-5190
▁boring	-5191
▁button	-5192
▁defined	-5193
▁intense	-5194
▁allowing	-5195
▁combined	-5196
▁constant	-5197
▁director	-5198
▁villages	-5199
▁wireless	-5200
▁gentlemen	-5201
nes	-5202
▁23	-5203
▁scar	-5204
anging	-5205
making	-5206
▁doubt	-5207
▁error	-5208
▁plate	-5209
▁queen	-5210
▁stret	-5211
▁trend	-5212
▁uncom	-5213
▁announ	-5214
▁france	-5215
aneously	-5216
▁decline	-5217
▁fingers	-5218
▁neither	-5219
▁somewhat	-5220
▁functions	-5221
▁innovative	-5222
▁mechanical	-5223
▁surrounded	-5224
▁challenging	-5225
▁circumstances	-5226
tail	-5227
▁bay	-5228
▁jer	-5229
▁odd	-5230
esome	-5231
gging	-5232
itors	-5233
riend	-5234
▁1980	-5235
▁bicy	-5236
▁clus	-5237
▁ears	-5238
▁mere	-5239
▁nurs	-5240
▁antib	-5241
▁bones	-5242
▁logic	-5243
▁piano	-5244
▁polar	-5245
▁songs	-5246
▁corres	-5247
▁desper	-5248
▁parall	-5249
▁strang	-5250
▁volume	-5251
▁vaccine	-5252
▁grateful	-5253
▁infinite	-5254
▁instruct	-5255
▁mushroom	-5256
▁stronger	-5257
▁subjects	-5258
▁explained	-5259
▁recording	-5260
▁sensitive	-5261
▁spiritual	-5262
▁controlled	-5263
▁productive	-5264
han	-5265
anta	-5266
berg	-5267
whel	-5268
▁600	-5269
▁dot	-5270
▁gps	-5271
▁raw	-5272
▁tab	-5273
iters	-5274
▁bath	-5275
▁busy	-5276
▁corn	-5277
▁cyber	-5278
▁embed	-5279
▁higgs	-5280
▁split	-5281
▁clinic	-5282
▁encoun	-5283
▁explos	-5284
▁muslim	-5285
▁remove	-5286
▁robert	-5287
inations	-5288
▁advance	-5289
▁combine	-5290
▁defense	-5291
▁evening	-5292
▁flowers	-5293
▁transpl	-5294
▁election	-5295
▁overwhel	-5296
▁penguins	-5297
▁romantic	-5298
▁swimming	-5299
▁wherever	-5300
▁christmas	-5301
▁telephone	-5302
▁wikipedia	-5303
▁conclusion	-5304
ih	-5305
ald	-5306
bre	-5307
cend	-5308
▁jul	-5309
▁tro	-5310
iture	-5311
▁gest	-5312
▁item	-5313
▁pink	-5314
▁sets	-5315
▁suic	-5316
▁zone	-5317
▁admit	-5318
▁aster	-5319
▁navig	-5320
▁whist	-5321
▁border	-5322
▁handle	-5323
▁inject	-5324
▁discipl	-5325
▁frankly	-5326
▁islands	-5327
▁regions	-5328
▁remains	-5329
▁collapse	-5330
▁continued	-5331
▁unexpected	-5332
▁educational	-5333
pa	-5334
za	-5335
500	-5336
ads	-5337
alu	-5338
ams	-5339
nda	-5340
omic	-5341
oons	-5342
▁250	-5343
▁ath	-5344
▁cash	-5345
▁cock	-5346
▁furn	-5347
▁horm	-5348
▁icon	-5349
▁outc	-5350
▁sept	-5351
▁tube	-5352
athers	-5353
▁anger	-5354
▁expon	-5355
▁judge	-5356
▁paris	-5357
▁stack	-5358
▁autism	-5359
▁deaths	-5360
▁enable	-5361
▁interf	-5362
▁careful	-5363
▁conserv	-5364
▁monkeys	-5365
▁overall	-5366
▁robotic	-5367
▁scratch	-5368
▁paradigm	-5369
▁treating	-5370
▁wondered	-5371
▁consumers	-5372
▁technique	-5373
▁telescope	-5374
▁underwater	-5375
▁instruments	-5376
▁transformed	-5377
▁implications	-5378
gr	-5379
vi	-5380
▁0	-5381
▁q	-5382
bed	-5383
lymp	-5384
▁pra	-5385
▁acts	-5386
▁biod	-5387
▁nose	-5388
▁rush	-5389
herent	-5390
▁boxes	-5391
▁label	-5392
▁phase	-5393
▁polio	-5394
▁rooms	-5395
▁chocol	-5396
▁colony	-5397
▁joined	-5398
▁relate	-5399
▁toilet	-5400
ographer	-5401
▁classes	-5402
▁embrace	-5403
▁equally	-5404
▁mosquit	-5405
▁samples	-5406
connected	-5407
▁domestic	-5408
▁measured	-5409
▁organism	-5410
▁curiosity	-5411
▁reference	-5412
▁behavioral	-5413
▁confidence	-5414
ita	-5415
mal	-5416
ota	-5417
▁2.	-5418
▁22	-5419
▁dh	-5420
crim	-5421
ests	-5422
onym	-5423
▁gla	-5424
ended	-5425
▁boom	-5426
▁cath	-5427
▁flag	-5428
▁pill	-5429
▁shar	-5430
▁dress	-5431
▁olymp	-5432
▁recyc	-5433
▁shake	-5434
▁weigh	-5435
▁deploy	-5436
▁golden	-5437
▁improv	-5438
▁storyt	-5439
▁suffer	-5440
▁surely	-5441
▁awesome	-5442
▁concert	-5443
▁offered	-5444
▁welcome	-5445
▁drinking	-5446
▁provided	-5447
▁centuries	-5448
▁corporate	-5449
▁identical	-5450
▁september	-5451
▁conventional	-5452
▁interestingly	-5453
hr	-5454
ula	-5455
van	-5456
sour	-5457
▁anx	-5458
▁fib	-5459
▁irr	-5460
▁ric	-5461
▁tea	-5462
eding	-5463
eness	-5464
lines	-5465
▁grab	-5466
▁tent	-5467
▁thom	-5468
▁colum	-5469
▁style	-5470
▁genius	-5471
▁heroes	-5472
▁papers	-5473
▁stands	-5474
▁airport	-5475
▁anticip	-5476
▁borders	-5477
▁constit	-5478
▁feeding	-5479
▁options	-5480
▁unclear	-5481
▁laughing	-5482
▁transfer	-5483
▁celebrate	-5484
▁statement	-5485
▁appreciate	-5486
▁architects	-5487
▁greenhouse	-5488
▁rainforest	-5489
▁application	-5490
▁automatically	-5491
▁entertainment	-5492
box	-5493
▁rw	-5494
ctic	-5495
greg	-5496
uses	-5497
▁ack	-5498
▁gam	-5499
▁tri	-5500
being	-5501
icted	-5502
▁axis	-5503
▁golf	-5504
▁lock	-5505
▁root	-5506
▁till	-5507
owered	-5508
▁angry	-5509
▁fixed	-5510
▁ghana	-5511
▁hello	-5512
▁knock	-5513
▁obama	-5514
▁toxic	-5515
▁attacks	-5516
▁housing	-5517
▁orchest	-5518
▁privacy	-5519
▁sensors	-5520
▁distinct	-5521
▁equation	-5522
▁microbes	-5523
▁obsessed	-5524
▁arguments	-5525
▁footprint	-5526
▁selection	-5527
▁spreading	-5528
▁standards	-5529
▁passionate	-5530
▁conversations	-5531
va	-5532
bal	-5533
amin	-5534
etch	-5535
ille	-5536
oses	-5537
▁bob	-5538
iform	-5539
uting	-5540
▁elim	-5541
▁congo	-5542
▁datab	-5543
▁liver	-5544
▁title	-5545
eration	-5546
▁agreed	-5547
▁assume	-5548
▁fabric	-5549
▁fright	-5550
▁prices	-5551
▁puzzle	-5552
▁carried	-5553
▁earthqu	-5554
▁funding	-5555
▁surgeon	-5556
▁violent	-5557
▁symptoms	-5558
▁cooperation	-5559
▁represented	-5560
aks	-5561
bage	-5562
gers	-5563
hour	-5564
iled	-5565
lock	-5566
nger	-5567
over	-5568
rous	-5569
▁mim	-5570
▁sed	-5571
▁uns	-5572
belie	-5573
itory	-5574
▁flor	-5575
ashing	-5576
imeter	-5577
phones	-5578
▁faced	-5579
▁globe	-5580
▁ignor	-5581
▁korea	-5582
▁latin	-5583
▁plans	-5584
▁tight	-5585
▁whale	-5586
▁agency	-5587
▁arrest	-5588
▁latest	-5589
▁mainly	-5590
▁orange	-5591
▁patent	-5592
▁placed	-5593
▁sweden	-5594
▁parking	-5595
▁proport	-5596
▁younger	-5597
▁overcome	-5598
▁determine	-5599
▁exploring	-5600
▁implement	-5601
▁lifestyle	-5602
▁exhibition	-5603
▁resistance	-5604
▁interactive	-5605
now	-5606
osh	-5607
sem	-5608
▁du	-5609
nday	-5610
opia	-5611
▁bio	-5612
▁hat	-5613
▁meg	-5614
▁tip	-5615
ounce	-5616
sters	-5617
▁alph	-5618
▁dign	-5619
▁june	-5620
▁prem	-5621
▁bombs	-5622
▁cents	-5623
▁dense	-5624
▁enemy	-5625
▁fifth	-5626
▁metab	-5627
▁pyram	-5628
▁tasks	-5629
▁owners	-5630
▁struck	-5631
▁causing	-5632
▁dancing	-5633
▁finance	-5634
▁impress	-5635
▁license	-5636
▁painful	-5637
▁outcomes	-5638
▁policies	-5639
▁component	-5640
▁constrain	-5641
▁presented	-5642
▁prototype	-5643
▁controlling	-5644
▁recognition	-5645
▁ts	-5646
rets	-5647
acing	-5648
arant	-5649
iders	-5650
osing	-5651
▁2005	-5652
▁2009	-5653
▁ages	-5654
▁cens	-5655
▁dere	-5656
▁ours	-5657
▁vibr	-5658
arency	-5659
▁aston	-5660
▁chief	-5661
▁delic	-5662
▁dozen	-5663
▁flood	-5664
▁scary	-5665
▁silic	-5666
▁smoke	-5667
▁geomet	-5668
▁slides	-5669
▁worker	-5670
etically	-5671
▁classic	-5672
▁divided	-5673
▁fiction	-5674
▁poorest	-5675
▁breaking	-5676
▁illusion	-5677
▁parallel	-5678
▁suggests	-5679
▁algorithm	-5680
▁breathing	-5681
▁measuring	-5682
▁translate	-5683
▁directions	-5684
▁philosophy	-5685
▁simplicity	-5686
▁distributed	-5687
▁dramatically	-5688
▁transparency	-5689
dr	-5690
asm	-5691
hol	-5692
iox	-5693
ost	-5694
rus	-5695
ups	-5696
keep	-5697
look	-5698
otes	-5699
▁der	-5700
▁lou	-5701
▁sar	-5702
▁twe	-5703
▁1950	-5704
▁budd	-5705
▁coin	-5706
▁disg	-5707
▁gray	-5708
▁mold	-5709
▁tack	-5710
▁flash	-5711
▁sales	-5712
▁tries	-5713
▁yield	-5714
iveness	-5715
▁filter	-5716
▁legacy	-5717
▁pocket	-5718
▁spoken	-5719
▁sports	-5720
▁traged	-5721
▁pushing	-5722
▁stretch	-5723
▁vessels	-5724
▁concepts	-5725
▁download	-5726
▁instinct	-5727
▁particle	-5728
▁depending	-5729
▁increases	-5730
▁insurance	-5731
▁paintings	-5732
▁precisely	-5733
▁connecting	-5734
▁fortunately	-5735
ek	-5736
aret	-5737
kind	-5738
ogue	-5739
oned	-5740
rors	-5741
soft	-5742
▁gro	-5743
▁carr	-5744
▁cord	-5745
▁elev	-5746
▁firm	-5747
▁grows	-5748
▁pharm	-5749
▁obstac	-5750
▁portra	-5751
▁tested	-5752
▁autonom	-5753
▁islamic	-5754
▁savings	-5755
▁disorder	-5756
▁dolphins	-5757
▁floating	-5758
▁maintain	-5759
▁meetings	-5760
▁chocolate	-5761
▁disorders	-5762
▁economies	-5763
▁sculpture	-5764
▁apparently	-5765
▁performing	-5766
▁interacting	-5767
▁interactions	-5768
oll	-5769
tes	-5770
vas	-5771
▁36	-5772
▁bg	-5773
cred	-5774
▁fan	-5775
▁bron	-5776
▁excl	-5777
▁neut	-5778
▁tank	-5779
▁crack	-5780
▁decre	-5781
▁haiti	-5782
▁nobel	-5783
▁titan	-5784
▁wired	-5785
▁acknow	-5786
▁extent	-5787
▁hearts	-5788
▁ignore	-5789
▁immune	-5790
▁lovely	-5791
▁phrase	-5792
▁proced	-5793
▁secure	-5794
▁signed	-5795
▁thomas	-5796
▁angeles	-5797
▁breathe	-5798
▁chapter	-5799
▁collaps	-5800
▁density	-5801
▁existed	-5802
▁achieved	-5803
▁africans	-5804
▁involves	-5805
▁printing	-5806
▁reaching	-5807
▁recovery	-5808
▁destroyed	-5809
▁practices	-5810
▁uncertain	-5811
▁fascinated	-5812
bra	-5813
aint	-5814
talk	-5815
▁cab	-5816
▁gig	-5817
esity	-5818
▁bubb	-5819
▁limb	-5820
▁lung	-5821
▁pace	-5822
▁pand	-5823
▁pour	-5824
▁stro	-5825
▁aside	-5826
▁explo	-5827
▁pilot	-5828
▁sheep	-5829
▁teams	-5830
▁toler	-5831
▁hunger	-5832
▁limits	-5833
▁scream	-5834
▁balloon	-5835
▁habitat	-5836
▁appeared	-5837
▁engaging	-5838
▁magnetic	-5839
▁properly	-5840
▁traveled	-5841
ologically	-5842
▁emergency	-5843
▁furniture	-5844
▁microsoft	-5845
wr	-5846
itz	-5847
pox	-5848
war	-5849
xas	-5850
yal	-5851
hips	-5852
lete	-5853
llar	-5854
▁jim	-5855
▁nic	-5856
▁wal	-5857
▁dict	-5858
▁diox	-5859
▁ethi	-5860
▁knee	-5861
▁lets	-5862
▁loop	-5863
▁plot	-5864
profit	-5865
▁elder	-5866
▁imper	-5867
▁paras	-5868
▁remem	-5869
▁reput	-5870
▁walks	-5871
▁50,000	-5872
▁adjust	-5873
▁agenda	-5874
▁behave	-5875
▁candid	-5876
▁plenty	-5877
▁thrown	-5878
▁disgust	-5879
▁federal	-5880
▁monitor	-5881
▁mystery	-5882
▁obesity	-5883
▁opposed	-5884
▁silicon	-5885
▁solving	-5886
▁suspect	-5887
▁unbelie	-5888
▁reduction	-5889
▁controvers	-5890
▁strategies	-5891
▁populations	-5892
▁productivity	-5893
agn	-5894
hop	-5895
▁26	-5896
rary	-5897
udes	-5898
uous	-5899
zees	-5900
▁aqu	-5901
▁cas	-5902
▁cod	-5903
▁spr	-5904
▁tag	-5905
▁wed	-5906
cence	-5907
leton	-5908
▁beer	-5909
▁boss	-5910
▁erad	-5911
▁stri	-5912
▁ther	-5913
▁trop	-5914
▁ugly	-5915
▁accum	-5916
▁legis	-5917
▁likes	-5918
▁maxim	-5919
▁orbit	-5920
▁persu	-5921
▁purch	-5922
▁schol	-5923
▁stere	-5924
▁texas	-5925
▁usual	-5926
▁assemb	-5927
▁crying	-5928
▁hardly	-5929
▁punish	-5930
▁repair	-5931
▁repeat	-5932
▁rising	-5933
▁scenar	-5934
▁authent	-5935
▁council	-5936
▁entered	-5937
▁kingdom	-5938
▁lecture	-5939
▁receive	-5940
▁academic	-5941
▁psychiat	-5942
▁secondly	-5943
▁shooting	-5944
▁shoulder	-5945
▁symmetry	-5946
▁encounter	-5947
▁permanent	-5948
▁commitment	-5949
▁advertising	-5950
▁manufacture	-5951
▁personality	-5952
▁entrepreneur	-5953
def	-5954
sum	-5955
heim	-5956
osen	-5957
tery	-5958
well	-5959
wich	-5960
▁eve	-5961
▁appe	-5962
▁clar	-5963
▁cute	-5964
▁rail	-5965
anzees	-5966
▁chest	-5967
▁evalu	-5968
▁glaci	-5969
▁tower	-5970
▁wings	-5971
raction	-5972
▁chosen	-5973
▁commod	-5974
▁conven	-5975
▁frozen	-5976
▁intent	-5977
▁native	-5978
▁rating	-5979
▁scales	-5980
▁talent	-5981
▁trends	-5982
▁writer	-5983
▁appears	-5984
▁ceiling	-5985
▁dignity	-5986
▁dioxide	-5987
▁distant	-5988
▁guarant	-5989
▁instant	-5990
▁millenn	-5991
▁wanting	-5992
▁attached	-5993
▁captured	-5994
▁criminal	-5995
▁embedded	-5996
▁estimate	-5997
▁stations	-5998
▁vertical	-5999
▁animation	-6000
▁backwards	-6001
▁conflicts	-6002
▁recognized	-6003
▁chimpanzees	-6004
▁disappeared	-6005
▁expectations	-6006
▁communications	-6007
azz	-6008
gic	-6009
▁65	-6010
thal	-6011
▁aim	-6012
▁hal	-6013
▁jes	-6014
▁wet	-6015
▁emph	-6016
▁flip	-6017
▁mary	-6018
▁quad	-6019
▁sacr	-6020
called	-6021
▁actor	-6022
▁gates	-6023
▁seeds	-6024
▁units	-6025
forward	-6026
through	-6027
▁20,000	-6028
▁diabet	-6029
▁neuron	-6030
▁palest	-6031
▁uganda	-6032
▁fortune	-6033
▁muscles	-6034
▁section	-6035
▁spectac	-6036
▁suicide	-6037
▁district	-6038
▁imagined	-6039
▁laughter	-6040
▁organize	-6041
▁dedicated	-6042
▁virtually	-6043
▁incentives	-6044
▁photography	-6045
ida	-6046
ault	-6047
fall	-6048
pass	-6049
rect	-6050
▁aer	-6051
▁nin	-6052
▁pul	-6053
inals	-6054
power	-6055
stand	-6056
while	-6057
▁dust	-6058
▁glad	-6059
▁nets	-6060
▁pupp	-6061
▁abuse	-6062
▁adopt	-6063
▁alien	-6064
▁champ	-6065
▁genoc	-6066
▁males	-6067
▁skull	-6068
anthrop	-6069
erences	-6070
uration	-6071
▁escape	-6072
▁expans	-6073
▁heaven	-6074
▁shadow	-6075
▁triang	-6076
▁weapon	-6077
▁amongst	-6078
▁charity	-6079
▁granted	-6080
▁january	-6081
▁rebuild	-6082
▁astronom	-6083
▁football	-6084
▁narrator	-6085
▁continues	-6086
▁recommend	-6087
▁afterwards	-6088
▁inequality	-6089
▁microscope	-6090
▁motivation	-6091
nic	-6092
org	-6093
vey	-6094
ardo	-6095
elly	-6096
iety	-6097
mers	-6098
▁inh	-6099
▁lux	-6100
▁nit	-6101
agger	-6102
using	-6103
▁cham	-6104
▁dump	-6105
▁hire	-6106
▁jeff	-6107
▁mice	-6108
▁rose	-6109
▁toys	-6110
▁angle	-6111
▁bible	-6112
▁blank	-6113
▁dirty	-6114
▁guard	-6115
▁roots	-6116
▁route	-6117
▁vital	-6118
▁wound	-6119
▁facial	-6120
▁farmer	-6121
▁paraly	-6122
▁delight	-6123
▁designs	-6124
▁initial	-6125
▁mammals	-6126
▁muslims	-6127
▁origami	-6128
▁raising	-6129
▁tedtalk	-6130
▁touched	-6131
▁diabetes	-6132
▁dynamics	-6133
▁produces	-6134
▁stanford	-6135
▁colleague	-6136
▁committed	-6137
▁customers	-6138
▁generated	-6139
▁intention	-6140
▁searching	-6141
▁capitalism	-6142
▁collecting	-6143
▁functional	-6144
▁governance	-6145
▁journalist	-6146
▁transparent	-6147
▁underground	-6148
▁neuroscience	-6149
cut	-6150
pal	-6151
▁32	-6152
illy	-6153
▁ate	-6154
▁obl	-6155
▁wip	-6156
class	-6157
owing	-6158
▁fulf	-6159
▁leap	-6160
▁rice	-6161
▁seek	-6162
▁soap	-6163
lessly	-6164
▁aband	-6165
▁finds	-6166
▁links	-6167
▁manif	-6168
▁meter	-6169
▁traum	-6170
▁utter	-6171
▁yours	-6172
▁youth	-6173
astroph	-6174
▁adding	-6175
▁attend	-6176
▁poison	-6177
▁powers	-6178
▁retire	-6179
▁aspects	-6180
▁bicycle	-6181
▁methods	-6182
▁aircraft	-6183
▁darkness	-6184
▁external	-6185
▁lighting	-6186
▁sandwich	-6187
▁copyright	-6188
▁elsewhere	-6189
▁boundaries	-6190
▁earthquake	-6191
▁historical	-6192
▁transplant	-6193
▁innovations	-6194
edy	-6195
▁ba	-6196
▁bf	-6197
▁rh	-6198
▁ub	-6199
walk	-6200
▁120	-6201
▁hem	-6202
ckets	-6203
iment	-6204
▁lone	-6205
▁mate	-6206
▁rely	-6207
father	-6208
▁crops	-6209
▁drill	-6210
▁laser	-6211
▁veter	-6212
century	-6213
▁actors	-6214
▁arabic	-6215
▁devast	-6216
▁fertil	-6217
▁integr	-6218
▁margin	-6219
▁missed	-6220
▁observ	-6221
▁oldest	-6222
▁smooth	-6223
▁diverse	-6224
▁efforts	-6225
▁prosper	-6226
▁speaker	-6227
▁provides	-6228
▁surfaces	-6229
▁excellent	-6230
▁privilege	-6231
▁catastroph	-6232
▁contribute	-6233
▁dictionary	-6234
▁engagement	-6235
▁participants	-6236
-1	-6237
aws	-6238
nam	-6239
ris	-6240
icop	-6241
iday	-6242
ione	-6243
viet	-6244
▁bos	-6245
▁ink	-6246
▁lob	-6247
▁reb	-6248
▁sin	-6249
inder	-6250
think	-6251
▁bars	-6252
▁chip	-6253
▁dear	-6254
▁emer	-6255
▁peer	-6256
▁salt	-6257
americ	-6258
arters	-6259
dollar	-6260
▁abund	-6261
▁advoc	-6262
▁audio	-6263
▁banks	-6264
▁chaos	-6265
▁drove	-6266
▁minor	-6267
▁opens	-6268
▁rocks	-6269
▁tears	-6270
▁ultra	-6271
▁upset	-6272
▁borrow	-6273
▁hungry	-6274
▁invite	-6275
▁satisf	-6276
▁tribes	-6277
▁cheaper	-6278
▁circles	-6279
▁concern	-6280
▁exposed	-6281
▁herself	-6282
▁inspire	-6283
▁pointed	-6284
▁pyramid	-6285
▁reconst	-6286
▁traject	-6287
▁accepted	-6288
▁hollywood	-6289
▁intuitive	-6290
▁musicians	-6291
▁affordable	-6292
▁operations	-6293
▁optimistic	-6294
▁terrorists	-6295
▁electronics	-6296
▁universities	-6297
oe	-6298
ua	-6299
ato	-6300
era	-6301
▁28	-6302
▁mt	-6303
▁nu	-6304
ener	-6305
▁beg	-6306
archy	-6307
enger	-6308
iated	-6309
orter	-6310
state	-6311
under	-6312
▁2004	-6313
▁beet	-6314
▁manh	-6315
▁aesth	-6316
▁cliff	-6317
▁fruit	-6318
▁guide	-6319
▁plays	-6320
▁thumb	-6321
▁barely	-6322
▁extrem	-6323
▁robust	-6324
▁silent	-6325
▁stable	-6326
children	-6327
▁diagram	-6328
▁helicop	-6329
▁tragedy	-6330
▁equality	-6331
▁hardware	-6332
▁pregnant	-6333
▁textbook	-6334
▁accidents	-6335
▁apartment	-6336
▁calculate	-6337
▁dependent	-6338
▁separated	-6339
▁variation	-6340
▁commission	-6341
▁resolution	-6342
▁globalization	-6343
ba	-6344
ixt	-6345
▁95	-6346
▁ja	-6347
case	-6348
▁hub	-6349
▁pad	-6350
▁unh	-6351
▁wid	-6352
going	-6353
▁2006	-6354
▁hier	-6355
▁pile	-6356
▁viet	-6357
▁wing	-6358
usions	-6359
▁blame	-6360
▁cryst	-6361
▁pione	-6362
▁spell	-6363
▁anonym	-6364
▁emphas	-6365
▁evolve	-6366
▁rescue	-6367
▁sevent	-6368
▁twenty	-6369
▁volcan	-6370
▁automob	-6371
▁beliefs	-6372
▁bubbles	-6373
▁consult	-6374
▁removed	-6375
▁globally	-6376
▁smallpox	-6377
▁speakers	-6378
▁theories	-6379
▁depressed	-6380
▁uncomfort	-6381
▁accessible	-6382
▁reputation	-6383
▁volunteers	-6384
▁agricultural	-6385
opy	-6386
▁os	-6387
lies	-6388
ubes	-6389
view	-6390
▁dim	-6391
▁enh	-6392
▁ray	-6393
▁caps	-6394
▁chim	-6395
▁clay	-6396
▁earn	-6397
▁gand	-6398
▁pref	-6399
▁wise	-6400
ivered	-6401
source	-6402
▁balls	-6403
▁cambr	-6404
▁conce	-6405
▁drawn	-6406
▁fluid	-6407
▁naked	-6408
▁peter	-6409
▁realm	-6410
▁recru	-6411
▁reefs	-6412
▁spots	-6413
▁stops	-6414
illance	-6415
▁attrib	-6416
▁locked	-6417
▁narrow	-6418
▁settle	-6419
▁soviet	-6420
▁briefly	-6421
▁disrupt	-6422
▁essence	-6423
▁letting	-6424
▁atlantic	-6425
▁dominant	-6426
▁incident	-6427
▁includes	-6428
▁manifest	-6429
▁returned	-6430
▁autonomous	-6431
▁ecosystems	-6432
▁integrated	-6433
▁protecting	-6434
▁ridiculous	-6435
▁consequence	-6436
▁intervention	-6437
ket	-6438
lyn	-6439
toc	-6440
top	-6441
▁doz	-6442
amine	-6443
eters	-6444
tocin	-6445
▁bias	-6446
▁brib	-6447
▁laid	-6448
▁tech	-6449
▁coach	-6450
▁crick	-6451
▁digit	-6452
▁jelly	-6453
▁relax	-6454
▁seats	-6455
▁sheet	-6456
▁strip	-6457
▁tired	-6458
▁views	-6459
ughters	-6460
▁arctic	-6461
▁branch	-6462
▁emerge	-6463
▁jewish	-6464
▁layers	-6465
▁output	-6466
▁poster	-6467
▁rarely	-6468
▁stages	-6469
▁sticks	-6470
▁theore	-6471
▁anthrop	-6472
▁clients	-6473
▁hanging	-6474
▁pulling	-6475
▁oxytocin	-6476
▁announced	-6477
▁supermark	-6478
▁geographic	-6479
▁demonstrate	-6480
▁probability	-6481
▁experimental	-6482
iel	-6483
son	-6484
uff	-6485
vin	-6486
▁ol	-6487
▁pm	-6488
ares	-6489
aust	-6490
ture	-6491
west	-6492
▁195	-6493
▁ooh	-6494
attan	-6495
opard	-6496
▁cott	-6497
▁neat	-6498
▁stom	-6499
makers	-6500
▁carol	-6501
▁chrom	-6502
▁chron	-6503
▁craft	-6504
▁legit	-6505
▁proof	-6506
▁skept	-6507
▁cheese	-6508
▁corals	-6509
▁excuse	-6510
▁oxford	-6511
▁partly	-6512
▁rwanda	-6513
▁tricks	-6514
▁waters	-6515
▁comprom	-6516
▁consume	-6517
▁ethical	-6518
▁picking	-6519
▁recover	-6520
▁reduced	-6521
▁symbols	-6522
▁visited	-6523
▁crossing	-6524
▁facility	-6525
▁unlikely	-6526
▁delivered	-6527
▁elections	-6528
▁manhattan	-6529
▁biologists	-6530
▁suggesting	-6531
▁discoveries	-6532
▁philanthrop	-6533
▁photographer	-6534
▁surveillance	-6535
▁neighborhoods	-6536
▁uncomfortable	-6537
des	-6538
rix	-6539
ura	-6540
▁ng	-6541
arre	-6542
oids	-6543
sing	-6544
▁10-	-6545
▁ash	-6546
▁boo	-6547
▁gon	-6548
▁hip	-6549
▁spa	-6550
alian	-6551
third	-6552
▁rent	-6553
mented	-6554
▁burst	-6555
▁disag	-6556
▁fiber	-6557
▁foods	-6558
▁obser	-6559
▁capita	-6560
▁landed	-6561
▁linear	-6562
▁martin	-6563
▁nurses	-6564
▁panels	-6565
▁prosth	-6566
▁senior	-6567
▁simult	-6568
▁spinal	-6569
▁trucks	-6570
▁disturb	-6571
▁florida	-6572
▁happier	-6573
▁liberal	-6574
▁sensory	-6575
▁writers	-6576
▁agencies	-6577
▁artistic	-6578
▁conclude	-6579
▁controls	-6580
▁ethiopia	-6581
▁genocide	-6582
▁isolated	-6583
▁reminded	-6584
▁repeated	-6585
▁frequency	-6586
▁ignorance	-6587
▁inspiring	-6588
▁physicist	-6589
▁predicted	-6590
▁synthetic	-6591
▁capability	-6592
▁industries	-6593
▁mechanisms	-6594
▁originally	-6595
▁resilience	-6596
▁satellites	-6597
▁improvement	-6598
▁observation	-6599
▁programming	-6600
▁spectacular	-6601
ev	-6602
aid	-6603
ari	-6604
bru	-6605
bits	-6606
capes	-6607
▁2001	-6608
▁adap	-6609
▁alco	-6610
▁debt	-6611
▁sulf	-6612
▁tied	-6613
▁vacu	-6614
apping	-6615
erable	-6616
ptions	-6617
▁arrow	-6618
▁devil	-6619
▁flour	-6620
▁italy	-6621
▁silly	-6622
▁tribe	-6623
▁willi	-6624
▁adoles	-6625
▁dozens	-6626
▁phosph	-6627
▁stores	-6628
▁crucial	-6629
▁impacts	-6630
▁painted	-6631
▁passing	-6632
▁persist	-6633
▁reports	-6634
▁session	-6635
▁statist	-6636
▁attitude	-6637
▁contains	-6638
▁focusing	-6639
▁reported	-6640
▁abilities	-6641
▁dimension	-6642
▁objective	-6643
▁determined	-6644
▁astonishing	-6645
▁biodiversity	-6646
▁breakthrough	-6647
▁vulnerability	-6648
▁characteristics	-6649
oir	-6650
▁0.	-6651
aker	-6652
ania	-6653
apor	-6654
onic	-6655
osal	-6656
rich	-6657
ulum	-6658
▁alb	-6659
▁biz	-6660
▁dow	-6661
level	-6662
riger	-6663
ville	-6664
▁acid	-6665
▁palm	-6666
▁quit	-6667
▁tong	-6668
esthes	-6669
▁antar	-6670
▁cable	-6671
▁derek	-6672
▁exped	-6673
▁fuels	-6674
▁joint	-6675
▁punch	-6676
▁reson	-6677
▁smith	-6678
▁stunt	-6679
unction	-6680
▁caring	-6681
▁curren	-6682
▁regret	-6683
▁sacred	-6684
▁skelet	-6685
▁vacuum	-6686
▁besides	-6687
▁pretend	-6688
▁revenue	-6689
▁russian	-6690
▁selfish	-6691
▁colonies	-6692
▁dinosaur	-6693
▁figuring	-6694
▁inherent	-6695
▁openness	-6696
▁proposed	-6697
▁refriger	-6698
▁elephants	-6699
▁expanding	-6700
▁forgotten	-6701
▁immediate	-6702
▁sentences	-6703
▁strangers	-6704
▁teenagers	-6705
▁disappoint	-6706
▁identified	-6707
▁translated	-6708
▁underlying	-6709
▁constructed	-6710
▁ingredients	-6711
▁occasionally	-6712
▁unbelievable	-6713
▁grandchildren	-6714
ecd	-6715
usi	-6716
rant	-6717
yard	-6718
▁bol	-6719
▁ceo	-6720
▁dop	-6721
tical	-6722
▁bats	-6723
▁cats	-6724
▁duck	-6725
▁frog	-6726
▁mail	-6727
heimer	-6728
othing	-6729
▁agent	-6730
▁bears	-6731
▁flows	-6732
▁johns	-6733
▁nerve	-6734
▁opera	-6735
▁panel	-6736
▁schiz	-6737
▁sharp	-6738
▁spark	-6739
▁threw	-6740
▁tooth	-6741
igation	-6742
▁chairs	-6743
▁curric	-6744
▁domain	-6745
▁dragon	-6746
▁inches	-6747
▁injury	-6748
▁intrig	-6749
▁needle	-6750
▁perpet	-6751
▁served	-6752
▁shrimp	-6753
▁bizarre	-6754
▁emerged	-6755
▁hunting	-6756
▁imagery	-6757
▁climbing	-6758
▁database	-6759
▁extended	-6760
▁homework	-6761
▁robotics	-6762
▁cambridge	-6763
▁completed	-6764
▁daughters	-6765
▁expansion	-6766
▁gathering	-6767
▁positions	-6768
▁suggested	-6769
▁expectancy	-6770
▁struggling	-6771
▁predictions	-6772
▁translation	-6773
▁contemporary	-6774
▁instructions	-6775
▁surprisingly	-6776
asy	-6777
aze	-6778
bar	-6779
ela	-6780
rid	-6781
agon	-6782
agos	-6783
fold	-6784
ober	-6785
▁bin	-6786
▁hen	-6787
▁lit	-6788
▁lun	-6789
bered	-6790
ested	-6791
itous	-6792
osure	-6793
▁2003	-6794
▁cert	-6795
▁eleg	-6796
▁fool	-6797
▁mode	-6798
▁publ	-6799
▁soup	-6800
bruary	-6801
parent	-6802
▁4,000	-6803
▁aspir	-6804
▁fract	-6805
▁holds	-6806
▁jesus	-6807
▁sixth	-6808
▁trash	-6809
attered	-6810
▁buried	-6811
▁degrad	-6812
▁garage	-6813
▁neural	-6814
▁richer	-6815
▁subtle	-6816
▁thresh	-6817
▁tumors	-6818
▁chromos	-6819
▁citizen	-6820
▁convert	-6821
▁dolphin	-6822
▁october	-6823
▁parties	-6824
▁shelter	-6825
▁sisters	-6826
▁smoking	-6827
▁soldier	-6828
▁answered	-6829
▁cartoons	-6830
▁dialogue	-6831
▁fabulous	-6832
▁february	-6833
▁flexible	-6834
▁economist	-6835
▁gradually	-6836
▁accomplish	-6837
▁attractive	-6838
▁grandfather	-6839
▁photographed	-6840
▁collaborative	-6841
▁administration	-6842
ras	-6843
▁85	-6844
▁gy	-6845
aran	-6846
east	-6847
oran	-6848
zero	-6849
▁fer	-6850
▁tut	-6851
▁wra	-6852
opher	-6853
▁dive	-6854
▁hind	-6855
▁plug	-6856
▁sink	-6857
▁sits	-6858
itudes	-6859
▁arist	-6860
▁dutch	-6861
▁ships	-6862
▁county	-6863
▁fought	-6864
▁matrix	-6865
▁shaped	-6866
▁vagina	-6867
interest	-6868
▁aggress	-6869
▁drivers	-6870
▁enterpr	-6871
▁failing	-6872
▁graphic	-6873
▁smarter	-6874
▁keyboard	-6875
▁measures	-6876
▁neurolog	-6877
▁restrict	-6878
▁schizoph	-6879
▁skeleton	-6880
▁sleeping	-6881
▁wildlife	-6882
▁documents	-6883
▁exception	-6884
▁fortunate	-6885
▁similarly	-6886
▁supported	-6887
▁difficulty	-6888
▁explaining	-6889
▁hypothesis	-6890
▁inevitable	-6891
▁proportion	-6892
▁architectural	-6893
tw	-6894
cel	-6895
eda	-6896
ndr	-6897
ola	-6898
ria	-6899
sey	-6900
udi	-6901
emen	-6902
iens	-6903
ilit	-6904
izer	-6905
▁191	-6906
▁800	-6907
▁alz	-6908
▁sav	-6909
▁sel	-6910
▁upd	-6911
cking	-6912
rical	-6913
▁brut	-6914
▁grat	-6915
▁hipp	-6916
▁homo	-6917
▁neck	-6918
▁rats	-6919
▁tone	-6920
ometer	-6921
soever	-6922
▁begun	-6923
▁edges	-6924
▁monit	-6925
▁nurse	-6926
▁plain	-6927
▁scott	-6928
related	-6929
▁compos	-6930
▁killer	-6931
▁merely	-6932
▁orient	-6933
▁pushed	-6934
▁saturn	-6935
▁turkey	-6936
▁analyze	-6937
▁deliber	-6938
▁elderly	-6939
▁garbage	-6940
▁leather	-6941
▁targets	-6942
▁warning	-6943
▁articles	-6944
▁category	-6945
▁choosing	-6946
▁dopamine	-6947
▁educated	-6948
▁informed	-6949
▁innocent	-6950
▁leverage	-6951
▁shopping	-6952
▁alzheimer	-6953
▁christian	-6954
▁highlight	-6955
▁primarily	-6956
▁mysterious	-6957
▁trajectory	-6958
▁whatsoever	-6959
▁uncertainty	-6960
▁successfully	-6961
▁institutional	-6962
▁representation	-6963
ata	-6964
pre	-6965
husi	-6966
icks	-6967
oded	-6968
▁lap	-6969
▁ros	-6970
▁sew	-6971
iance	-6972
oying	-6973
▁dumb	-6974
▁kiss	-6975
▁lamp	-6976
▁leaf	-6977
▁mood	-6978
▁odds	-6979
▁pigs	-6980
iology	-6981
▁array	-6982
▁mixed	-6983
▁spont	-6984
▁wider	-6985
athered	-6986
otherap	-6987
▁30,000	-6988
▁assess	-6989
▁breaks	-6990
▁lawyer	-6991
▁mining	-6992
▁pursue	-6993
▁recess	-6994
▁regime	-6995
▁reveal	-6996
▁rhythm	-6997
▁scores	-6998
▁unhapp	-6999
chnology	-7000
▁alcohol	-7001
▁anxiety	-7002
▁charges	-7003
▁founded	-7004
▁fragile	-7005
▁helpful	-7006
▁hitting	-7007
▁involve	-7008
▁paradox	-7009
▁disagree	-7010
▁perceive	-7011
▁sciences	-7012
▁initially	-7013
▁intuition	-7014
▁radically	-7015
▁realizing	-7016
▁curriculum	-7017
▁permission	-7018
▁simulation	-7019
▁treatments	-7020
▁description	-7021
▁capabilities	-7022
gi	-7023
ora	-7024
rol	-7025
▁3.	-7026
▁33	-7027
▁eb	-7028
▁kb	-7029
ache	-7030
eday	-7031
iban	-7032
illa	-7033
lson	-7034
orus	-7035
uity	-7036
▁ain	-7037
flies	-7038
▁bure	-7039
▁chop	-7040
▁gods	-7041
▁gore	-7042
▁guns	-7043
▁holy	-7044
▁meal	-7045
▁orph	-7046
▁pale	-7047
▁rick	-7048
icious	-7049
mingly	-7050
semble	-7051
▁lifes	-7052
▁owner	-7053
▁proto	-7054
▁squee	-7055
▁tempt	-7056
▁approx	-7057
▁arrive	-7058
▁decent	-7059
▁empire	-7060
▁ending	-7061
▁ensure	-7062
▁eradic	-7063
▁sensor	-7064
fficient	-7065
▁forming	-7066
▁immense	-7067
▁lawyers	-7068
▁miracle	-7069
▁promote	-7070
▁slavery	-7071
▁someday	-7072
▁threats	-7073
▁trigger	-7074
▁distingu	-7075
▁entering	-7076
▁optimism	-7077
▁stranger	-7078
▁throwing	-7079
▁adventure	-7080
▁glamorous	-7081
▁magnitude	-7082
▁nutrition	-7083
▁schizophren	-7084
vy	-7085
wa	-7086
wl	-7087
och	-7088
,500	-7089
born	-7090
ifer	-7091
road	-7092
vest	-7093
▁loo	-7094
▁piz	-7095
▁rio	-7096
▁tes	-7097
ading	-7098
emics	-7099
inson	-7100
iogen	-7101
maker	-7102
▁butt	-7103
▁dung	-7104
▁gate	-7105
▁leon	-7106
▁tear	-7107
▁tsun	-7108
▁tuna	-7109
engine	-7110
▁award	-7111
▁bronx	-7112
▁charl	-7113
▁gotta	-7114
▁outer	-7115
▁owned	-7116
▁phant	-7117
▁shore	-7118
parents	-7119
▁addict	-7120
▁canopy	-7121
▁convey	-7122
▁insist	-7123
▁rivers	-7124
▁subway	-7125
▁bottles	-7126
▁distort	-7127
▁enables	-7128
▁enthusi	-7129
▁fastest	-7130
▁highway	-7131
▁luckily	-7132
▁methane	-7133
▁observe	-7134
▁portion	-7135
▁prepare	-7136
▁rolling	-7137
▁staying	-7138
▁uniform	-7139
▁antibiot	-7140
▁baseball	-7141
▁channels	-7142
▁clothing	-7143
▁confused	-7144
▁shipping	-7145
▁conducted	-7146
▁confident	-7147
▁expecting	-7148
▁extension	-7149
▁orchestra	-7150
▁primitive	-7151
▁replicate	-7152
▁strategic	-7153
▁terrorist	-7154
▁traditions	-7155
▁demographic	-7156
▁demonstration	-7157
▁participation	-7158
sah	-7159
▁dy	-7160
agen	-7161
conf	-7162
▁cig	-7163
▁dys	-7164
▁joe	-7165
▁mah	-7166
▁tan	-7167
adays	-7168
igned	-7169
umble	-7170
worth	-7171
▁bend	-7172
▁buff	-7173
▁cous	-7174
▁crew	-7175
▁dawn	-7176
▁gaps	-7177
▁labs	-7178
▁unem	-7179
▁whis	-7180
utical	-7181
▁bored	-7182
▁civic	-7183
▁mayor	-7184
▁schem	-7185
▁slime	-7186
▁spray	-7187
▁stake	-7188
▁twist	-7189
▁weeke	-7190
angible	-7191
▁drones	-7192
▁excite	-7193
▁funded	-7194
▁negoti	-7195
▁victim	-7196
otherapy	-7197
▁arrange	-7198
▁closing	-7199
▁imaging	-7200
▁magical	-7201
▁regener	-7202
▁restore	-7203
▁rituals	-7204
▁wheelch	-7205
▁correspo	-7206
▁genetics	-7207
▁included	-7208
▁invested	-7209
▁judgment	-7210
▁nowadays	-7211
▁scholars	-7212
▁factories	-7213
▁paralyzed	-7214
▁comparison	-7215
▁continuing	-7216
▁profoundly	-7217
▁exponential	-7218
▁experiencing	-7219
bid	-7220
bul	-7221
dam	-7222
irm	-7223
isy	-7224
erer	-7225
fast	-7226
kins	-7227
pled	-7228
ship	-7229
viol	-7230
▁jar	-7231
▁jet	-7232
▁tie	-7233
chron	-7234
copes	-7235
field	-7236
ifice	-7237
stone	-7238
▁acou	-7239
▁arth	-7240
▁damn	-7241
▁jose	-7242
▁triv	-7243
▁urge	-7244
iences	-7245
nostic	-7246
▁altru	-7247
▁blogs	-7248
▁doors	-7249
▁drone	-7250
▁grace	-7251
▁indig	-7252
▁lions	-7253
▁pride	-7254
▁saudi	-7255
▁spain	-7256
▁ubiqu	-7257
ounding	-7258
section	-7259
working	-7260
▁august	-7261
▁entrop	-7262
▁occurs	-7263
▁recept	-7264
▁ticket	-7265
▁demands	-7266
▁enlight	-7267
▁glamour	-7268
▁indians	-7269
▁redwood	-7270
▁shocked	-7271
▁spreads	-7272
▁taliban	-7273
aceutical	-7274
▁december	-7275
▁detailed	-7276
▁drawings	-7277
▁explains	-7278
▁fraction	-7279
▁friendly	-7280
▁graphics	-7281
▁homeless	-7282
▁pandemic	-7283
▁remained	-7284
▁suffered	-7285
▁tendency	-7286
▁unemploy	-7287
▁airplanes	-7288
▁broadcast	-7289
▁explosion	-7290
▁investors	-7291
▁nutrients	-7292
▁qualities	-7293
▁remaining	-7294
▁facilities	-7295
▁influenced	-7296
▁assumptions	-7297
▁computation	-7298
▁genetically	-7299
▁conservative	-7300
▁simultaneously	-7301
ini	-7302
vis	-7303
▁ak	-7304
▁ss	-7305
bing	-7306
free	-7307
half	-7308
olit	-7309
part	-7310
▁awk	-7311
▁nom	-7312
▁sna	-7313
opath	-7314
otion	-7315
▁beij	-7316
▁dies	-7317
▁dile	-7318
▁dism	-7319
▁irre	-7320
▁lean	-7321
▁susp	-7322
active	-7323
aneous	-7324
encing	-7325
rained	-7326
urable	-7327
▁kills	-7328
▁marry	-7329
▁parli	-7330
▁respo	-7331
▁sauce	-7332
▁shout	-7333
▁spons	-7334
▁suspe	-7335
▁winds	-7336
▁aggreg	-7337
▁cotton	-7338
▁defend	-7339
▁formal	-7340
▁halluc	-7341
▁headed	-7342
▁howard	-7343
▁metric	-7344
▁rubber	-7345
▁shrink	-7346
▁silver	-7347
▁strike	-7348
▁tongue	-7349
▁tunnel	-7350
▁unable	-7351
▁widely	-7352
american	-7353
esthesia	-7354
orescent	-7355
▁analogy	-7356
▁awkward	-7357
▁beneath	-7358
▁chances	-7359
▁contrad	-7360
▁engines	-7361
▁flowing	-7362
▁metabol	-7363
▁peoples	-7364
▁phantom	-7365
▁routine	-7366
▁serving	-7367
▁spanish	-7368
▁wealthy	-7369
▁counting	-7370
▁covering	-7371
▁earliest	-7372
▁pointing	-7373
▁preserve	-7374
▁reinvent	-7375
▁scenario	-7376
▁obstacles	-7377
▁threshold	-7378
▁categories	-7379
▁compelling	-7380
▁ecological	-7381
▁impression	-7382
▁initiative	-7383
▁phosphorus	-7384
▁remembered	-7385
▁supporting	-7386
▁authorities	-7387
▁mathematicians	-7388
▁straightforward	-7389
che	-7390
don	-7391
fin	-7392
iac	-7393
mod	-7394
▁rb	-7395
abil	-7396
ails	-7397
play	-7398
quis	-7399
uman	-7400
umin	-7401
xual	-7402
▁bug	-7403
▁dub	-7404
▁jam	-7405
▁kar	-7406
▁nam	-7407
▁vel	-7408
▁vit	-7409
athan	-7410
lings	-7411
otted	-7412
▁hors	-7413
▁nick	-7414
▁prec	-7415
▁shit	-7416
▁suck	-7417
▁woke	-7418
asters	-7419
astics	-7420
minute	-7421
▁farms	-7422
▁fault	-7423
▁incor	-7424
▁intim	-7425
▁pause	-7426
▁ratio	-7427
▁revol	-7428
▁shelf	-7429
▁steal	-7430
▁tends	-7431
▁wires	-7432
inarily	-7433
saharan	-7434
▁athlet	-7435
▁combat	-7436
▁cosmic	-7437
▁endang	-7438
▁makers	-7439
▁preval	-7440
▁stones	-7441
▁tackle	-7442
▁trains	-7443
▁upside	-7444
▁adopted	-7445
▁affects	-7446
▁elected	-7447
▁gallery	-7448
▁located	-7449
▁officer	-7450
▁percept	-7451
▁printer	-7452
▁profile	-7453
▁profits	-7454
▁protest	-7455
▁tissues	-7456
▁comments	-7457
▁morality	-7458
▁musician	-7459
▁refugees	-7460
▁strongly	-7461
▁substant	-7462
▁synchron	-7463
▁addiction	-7464
▁classical	-7465
▁detection	-7466
▁improving	-7467
▁infection	-7468
▁instantly	-7469
▁investing	-7470
▁mechanics	-7471
▁passenger	-7472
▁workforce	-7473
▁additional	-7474
▁consistent	-7475
▁impressive	-7476
▁restaurants	-7477
▁corporations	-7478
▁significantly	-7479
▁interpretation	-7480
▁pharmaceutical	-7481
hh	-7482
sp	-7483
▁29	-7484
▁ib	-7485
aded	-7486
aine	-7487
fram	-7488
ipts	-7489
list	-7490
onge	-7491
umes	-7492
▁fbi	-7493
▁mri	-7494
anzee	-7495
attoo	-7496
burgh	-7497
gence	-7498
oning	-7499
▁cake	-7500
▁gear	-7501
▁indo	-7502
▁ipod	-7503
▁josh	-7504
▁lord	-7505
▁rape	-7506
▁stor	-7507
▁tanz	-7508
▁zeal	-7509
▁armed	-7510
▁brook	-7511
▁camps	-7512
▁divor	-7513
▁gonna	-7514
▁greek	-7515
▁herit	-7516
▁items	-7517
▁patch	-7518
▁rehab	-7519
▁viral	-7520
▁wheat	-7521
looking	-7522
tending	-7523
▁burned	-7524
▁freely	-7525
▁nelson	-7526
▁norway	-7527
▁sketch	-7528
▁speaks	-7529
▁tattoo	-7530
▁tracks	-7531
▁uncons	-7532
quarters	-7533
▁200,000	-7534
▁beating	-7535
▁courses	-7536
▁neander	-7537
▁reminds	-7538
▁secrets	-7539
▁winning	-7540
▁arrested	-7541
▁connects	-7542
▁contrary	-7543
▁currency	-7544
▁gathered	-7545
▁interven	-7546
▁reducing	-7547
▁shifting	-7548
▁socially	-7549
▁terribly	-7550
▁diagnosed	-7551
▁expertise	-7552
▁gentleman	-7553
▁approaches	-7554
▁chimpanzee	-7555
▁classrooms	-7556
▁endangered	-7557
▁frustrated	-7558
▁parliament	-7559
▁prediction	-7560
▁prevention	-7561
▁previously	-7562
ctu	-7563
ker	-7564
oma	-7565
▁lg	-7566
▁ms	-7567
▁tu	-7568
atar	-7569
coln	-7570
ghai	-7571
made	-7572
uded	-7573
▁bot	-7574
▁fox	-7575
▁ner	-7576
▁tin	-7577
allow	-7578
clock	-7579
copic	-7580
ctica	-7581
ogram	-7582
▁athe	-7583
▁bond	-7584
▁brun	-7585
▁coke	-7586
▁cows	-7587
▁cree	-7588
▁file	-7589
▁fits	-7590
▁ford	-7591
▁jazz	-7592
▁jung	-7593
▁keys	-7594
▁ngos	-7595
▁prol	-7596
▁shan	-7597
umines	-7598
▁bucks	-7599
▁cabin	-7600
▁cruel	-7601
▁downt	-7602
▁fancy	-7603
▁fears	-7604
▁grasp	-7605
▁index	-7606
▁inhab	-7607
▁insul	-7608
▁loves	-7609
▁maker	-7610
▁membr	-7611
▁memes	-7612
▁moore	-7613
▁santa	-7614
▁shirt	-7615
▁subur	-7616
▁burden	-7617
▁client	-7618
▁column	-7619
▁ethnic	-7620
▁gained	-7621
▁insane	-7622
▁jumped	-7623
▁manual	-7624
▁motors	-7625
▁newton	-7626
▁static	-7627
▁stroke	-7628
▁surviv	-7629
andering	-7630
▁barrier	-7631
▁cigaret	-7632
▁cluster	-7633
▁deserve	-7634
▁despair	-7635
▁entropy	-7636
▁footage	-7637
▁glasses	-7638
▁italian	-7639
▁lincoln	-7640
▁passive	-7641
▁stomach	-7642
▁storage	-7643
▁teenage	-7644
▁accounts	-7645
▁customer	-7646
▁distract	-7647
▁improved	-7648
▁interior	-7649
▁palestin	-7650
▁plastics	-7651
▁prostate	-7652
▁purposes	-7653
▁stereoty	-7654
▁cooperate	-7655
▁healthier	-7656
▁incentive	-7657
▁meanwhile	-7658
▁ownership	-7659
▁phenomena	-7660
▁physician	-7661
▁prisoners	-7662
▁procedure	-7663
▁stability	-7664
▁aggressive	-7665
▁antarctica	-7666
▁appearance	-7667
▁encouraged	-7668
▁extinction	-7669
▁researcher	-7670
▁terrifying	-7671
▁threatened	-7672
▁vegetables	-7673
▁wheelchair	-7674
▁approaching	-7675
▁competitive	-7676
▁established	-7677
▁reconstruct	-7678
▁unconscious	-7679
▁professionals	-7680
fi	-7681
bow	-7682
har	-7683
hea	-7684
lim	-7685
ocr	-7686
omp	-7687
▁55	-7688
▁gi	-7689
edge	-7690
lend	-7691
▁amy	-7692
▁coc	-7693
▁moz	-7694
▁tam	-7695
anged	-7696
aving	-7697
licit	-7698
reced	-7699
▁2002	-7700
▁abra	-7701
▁asks	-7702
▁deck	-7703
▁deli	-7704
▁genu	-7705
▁germ	-7706
▁heal	-7707
▁inex	-7708
▁rabb	-7709
▁subt	-7710
▁warr	-7711
▁ambig	-7712
▁asian	-7713
▁defic	-7714
▁delhi	-7715
▁henry	-7716
▁leban	-7717
▁numer	-7718
▁pairs	-7719
▁pizza	-7720
▁screw	-7721
▁shots	-7722
▁syndr	-7723
▁tubes	-7724
▁valid	-7725
▁worms	-7726
▁cycles	-7727
▁errors	-7728
▁excess	-7729
▁export	-7730
▁habits	-7731
▁lowest	-7732
▁propag	-7733
▁purple	-7734
▁upload	-7735
controll	-7736
▁closest	-7737
▁compete	-7738
▁destiny	-7739
▁females	-7740
▁glacier	-7741
▁hardest	-7742
▁harness	-7743
▁horizon	-7744
▁mandela	-7745
▁package	-7746
▁tsunami	-7747
▁believes	-7748
▁branches	-7749
▁generous	-7750
▁insights	-7751
▁managers	-7752
▁precious	-7753
▁reliable	-7754
▁replaced	-7755
▁shanghai	-7756
▁smallest	-7757
▁survived	-7758
▁teenager	-7759
▁tropical	-7760
▁unpreced	-7761
▁versions	-7762
▁anonymous	-7763
▁audiences	-7764
▁distances	-7765
▁interrupt	-7766
▁miserable	-7767
▁performed	-7768
▁protocell	-7769
▁religions	-7770
▁substance	-7771
▁temporary	-7772
otechnology	-7773
▁continents	-7774
▁helicopter	-7775
▁landscapes	-7776
▁ubiquitous	-7777
▁achievement	-7778
▁encouraging	-7779
▁limitations	-7780
▁supermarket	-7781
▁independence	-7782
▁unprecedented	-7783
bie	-7784
bye	-7785
dig	-7786
eds	-7787
see	-7788
▁uh	-7789
abul	-7790
neys	-7791
wind	-7792
▁cyl	-7793
▁dil	-7794
▁jih	-7795
▁voy	-7796
0,000	-7797
izers	-7798
rence	-7799
uctor	-7800
▁2011	-7801
▁anno	-7802
▁bind	-7803
▁brid	-7804
▁chef	-7805
▁fest	-7806
▁junk	-7807
▁penn	-7808
▁thus	-7809
▁tune	-7810
▁amate	-7811
▁anten	-7812
▁bless	-7813
▁brows	-7814
▁gases	-7815
▁hired	-7816
▁hydro	-7817
▁koran	-7818
▁overl	-7819
▁redef	-7820
▁slums	-7821
▁troub	-7822
▁annual	-7823
▁carpet	-7824
▁editor	-7825
▁fusion	-7826
▁hiding	-7827
▁marvel	-7828
▁nearby	-7829
▁planes	-7830
▁stored	-7831
▁sunday	-7832
▁tragic	-7833
▁arguing	-7834
▁drought	-7835
▁ecology	-7836
▁insulin	-7837
▁intrins	-7838
▁mindset	-7839
▁offices	-7840
▁ongoing	-7841
▁puzzles	-7842
▁reserve	-7843
▁retreat	-7844
▁synthes	-7845
▁tension	-7846
▁unhappy	-7847
▁asteroid	-7848
▁circuits	-7849
▁geometry	-7850
▁leonardo	-7851
▁magnific	-7852
▁alexander	-7853
▁estimates	-7854
▁headlines	-7855
▁medicines	-7856
▁sensation	-7857
▁succeeded	-7858
▁assumption	-7859
▁elementary	-7860
▁excitement	-7861
▁consciously	-7862
▁predictable	-7863
▁grandparents	-7864
▁storytelling	-7865
▁transforming	-7866
▁psychologists	-7867
▁interconnected	-7868
ati	-7869
auc	-7870
▁42	-7871
▁dv	-7872
▁jh	-7873
asty	-7874
away	-7875
cost	-7876
four	-7877
ilty	-7878
onia	-7879
phen	-7880
▁30-	-7881
▁dun	-7882
▁lam	-7883
▁luc	-7884
▁mud	-7885
▁pir	-7886
▁pit	-7887
▁ton	-7888
▁une	-7889
▁wol	-7890
icked	-7891
lades	-7892
mates	-7893
ushed	-7894
world	-7895
▁2050	-7896
▁batt	-7897
▁crop	-7898
▁july	-7899
▁lion	-7900
▁nuts	-7901
friend	-7902
▁badly	-7903
▁brian	-7904
▁caves	-7905
▁coinc	-7906
▁comic	-7907
▁eaten	-7908
▁elite	-7909
▁fires	-7910
▁jihad	-7911
▁lever	-7912
▁loose	-7913
▁mines	-7914
▁nodes	-7915
▁safer	-7916
▁satur	-7917
▁steam	-7918
▁amazed	-7919
▁basket	-7920
▁builds	-7921
▁bullet	-7922
▁comedy	-7923
▁fibers	-7924
▁murder	-7925
▁nerves	-7926
▁shakes	-7927
▁strict	-7928
▁subsid	-7929
▁traits	-7930
▁victor	-7931
▁chamber	-7932
▁cocaine	-7933
▁colored	-7934
▁cricket	-7935
▁farming	-7936
▁fathers	-7937
▁genuine	-7938
▁halfway	-7939
▁minimum	-7940
▁pursuit	-7941
▁resolve	-7942
▁seeking	-7943
▁stepped	-7944
▁vietnam	-7945
▁applying	-7946
▁delivery	-7947
▁honestly	-7948
▁offering	-7949
▁relation	-7950
▁syndrome	-7951
▁transmit	-7952
▁banglades	-7953
▁blindness	-7954
▁breakfast	-7955
▁jellyfish	-7956
▁reproduce	-7957
▁responses	-7958
▁signature	-7959
▁transcend	-7960
▁disability	-7961
▁inevitably	-7962
▁physicists	-7963
▁yourselves	-7964
▁association	-7965
▁discovering	-7966
▁historically	-7967
aa	-7968
cip	-7969
cor	-7970
mar	-7971
pie	-7972
▁ga	-7973
gent	-7974
hist	-7975
irlf	-7976
mony	-7977
outs	-7978
pers	-7979
▁20-	-7980
▁ads	-7981
▁ire	-7982
▁jon	-7983
▁rod	-7984
▁sty	-7985
asses	-7986
emies	-7987
heart	-7988
icial	-7989
ifact	-7990
produ	-7991
rance	-7992
uther	-7993
ynman	-7994
▁anat	-7995
▁bags	-7996
▁dent	-7997
▁dirt	-7998
▁drew	-7999
▁drum	-8000
▁eric	-8001
▁fate	-8002
▁hybr	-8003
▁jugg	-8004
▁mike	-8005
▁rope	-8006
▁toes	-8007
▁wrap	-8008
▁artic	-8009
▁brave	-8010
▁drown	-8011
▁exerc	-8012
▁hemis	-8013
▁peers	-8014
▁raped	-8015
▁redes	-8016
▁stair	-8017
▁trace	-8018
▁trail	-8019
ativity	-8020
▁agents	-8021
▁atomic	-8022
▁bother	-8023
▁config	-8024
▁estate	-8025
▁guilty	-8026
▁harbor	-8027
▁luxury	-8028
▁namely	-8029
▁nights	-8030
▁scenes	-8031
▁sheets	-8032
▁tempor	-8033
▁yorker	-8034
▁absence	-8035
▁academy	-8036
▁aristot	-8037
▁beijing	-8038
▁feynman	-8039
▁formula	-8040
▁gesture	-8041
▁hacking	-8042
▁harmony	-8043
▁hormone	-8044
▁johnson	-8045
▁pockets	-8046
▁proceed	-8047
▁propose	-8048
▁shortly	-8049
▁trivial	-8050
▁wedding	-8051
▁artifact	-8052
▁decrease	-8053
▁horizont	-8054
▁navigate	-8055
▁portrait	-8056
▁believing	-8057
▁biosphere	-8058
▁household	-8059
▁nonprofit	-8060
▁reactions	-8061
▁recycling	-8062
▁continuous	-8063
▁manipulate	-8064
▁newspapers	-8065
▁physicians	-8066
▁regardless	-8067
▁remarkably	-8068
▁retirement	-8069
▁interviewed	-8070
▁journalists	-8071
▁marketplace	-8072
▁technically	-8073
▁concentrated	-8074
▁demonstrated	-8075
▁compassionate	-8076
aby	-8077
ran	-8078
aeda	-8079
ague	-8080
chem	-8081
phal	-8082
rian	-8083
sell	-8084
▁350	-8085
▁hob	-8086
ansas	-8087
elled	-8088
eller	-8089
itzer	-8090
phony	-8091
stage	-8092
▁ampl	-8093
▁biol	-8094
▁bowl	-8095
▁bust	-8096
▁clue	-8097
▁glue	-8098
▁hans	-8099
▁infl	-8100
▁radi	-8101
▁tony	-8102
ancing	-8103
arians	-8104
mental	-8105
uction	-8106
▁6,000	-8107
▁dough	-8108
▁grabb	-8109
▁immun	-8110
▁knife	-8111
▁param	-8112
▁proph	-8113
▁royal	-8114
▁sched	-8115
▁shine	-8116
▁swiss	-8117
▁treas	-8118
▁yemen	-8119
itative	-8120
▁accent	-8121
▁covers	-8122
▁crimes	-8123
▁dating	-8124
▁execut	-8125
▁friday	-8126
▁parach	-8127
▁proven	-8128
▁recipe	-8129
▁summar	-8130
▁viewer	-8131
▁wheels	-8132
changing	-8133
▁bedroom	-8134
▁cancers	-8135
▁dressed	-8136
▁enemies	-8137
▁enforce	-8138
▁ignored	-8139
▁indones	-8140
▁mapping	-8141
▁toilets	-8142
▁useless	-8143
▁activist	-8144
▁attacked	-8145
▁carolina	-8146
▁enjoying	-8147
▁listened	-8148
▁mosquito	-8149
▁predator	-8150
▁shocking	-8151
▁worrying	-8152
▁affecting	-8153
▁collapsed	-8154
▁electrons	-8155
▁guarantee	-8156
▁intensive	-8157
▁locations	-8158
▁perceived	-8159
▁sacrifice	-8160
▁challenged	-8161
▁convenient	-8162
▁discipline	-8163
▁interviews	-8164
▁mainstream	-8165
▁reflection	-8166
▁antibiotics	-8167
▁contributed	-8168
▁foundations	-8169
▁legislation	-8170
▁proposition	-8171
▁surrounding	-8172
▁calculations	-8173
py	-8174
uk	-8175
enh	-8176
law	-8177
cycl	-8178
grad	-8179
▁15-	-8180
▁gif	-8181
▁nar	-8182
▁obt	-8183
arest	-8184
ashed	-8185
enous	-8186
eries	-8187
roach	-8188
▁blah	-8189
▁bold	-8190
▁cass	-8191
▁coat	-8192
▁inch	-8193
▁loan	-8194
▁melt	-8195
▁pige	-8196
▁sale	-8197
assemb	-8198
person	-8199
weight	-8200
▁chile	-8201
▁choir	-8202
▁donor	-8203
▁embod	-8204
▁embry	-8205
▁encry	-8206
▁gorge	-8207
▁hawai	-8208
▁lanes	-8209
▁lungs	-8210
▁marsh	-8211
▁minus	-8212
▁parks	-8213
▁stays	-8214
keepers	-8215
▁40,000	-8216
▁beaten	-8217
▁berlin	-8218
▁butter	-8219
▁campus	-8220
▁columb	-8221
▁compre	-8222
▁contam	-8223
▁loving	-8224
▁orders	-8225
▁packed	-8226
▁pedest	-8227
▁portug	-8228
▁proved	-8229
▁recall	-8230
▁render	-8231
▁tasman	-8232
▁topics	-8233
▁troops	-8234
▁captain	-8235
▁enabled	-8236
▁follows	-8237
▁iceland	-8238
▁ireland	-8239
▁penguin	-8240
▁readers	-8241
▁refugee	-8242
▁zealand	-8243
▁breeding	-8244
▁cellular	-8245
▁explicit	-8246
▁failures	-8247
▁heritage	-8248
▁historic	-8249
▁mobility	-8250
▁selected	-8251
▁stopping	-8252
▁competing	-8253
▁delicious	-8254
▁equations	-8255
▁preparing	-8256
▁recession	-8257
▁volunteer	-8258
▁workplace	-8259
▁assignment	-8260
▁expedition	-8261
▁generating	-8262
▁infections	-8263
▁monitoring	-8264
▁narratives	-8265
▁acknowledge	-8266
▁beautifully	-8267
▁constraints	-8268
▁philosopher	-8269
▁installation	-8270
▁personalized	-8271
▁psychologist	-8272
▁transmission	-8273
▁concentration	-8274
▁extraordinarily	-8275
hen	-8276
ias	-8277
yan	-8278
▁bm	-8279
aped	-8280
char	-8281
imag	-8282
irts	-8283
racy	-8284
▁apr	-8285
▁hut	-8286
▁ram	-8287
▁shy	-8288
inery	-8289
omics	-8290
peare	-8291
▁1900	-8292
▁2012	-8293
▁bite	-8294
▁calm	-8295
▁hong	-8296
▁mesh	-8297
▁nove	-8298
▁pear	-8299
▁sett	-8300
▁stad	-8301
▁toss	-8302
▁ward	-8303
comput	-8304
gments	-8305
ulsion	-8306
▁algae	-8307
▁bills	-8308
▁chips	-8309
▁detro	-8310
▁girlf	-8311
▁hills	-8312
▁homet	-8313
▁immig	-8314
▁impul	-8315
▁jewel	-8316
▁lingu	-8317
▁mcdon	-8318
▁pills	-8319
▁rings	-8320
▁spill	-8321
▁tiles	-8322
perform	-8323
powered	-8324
umented	-8325
▁chimps	-8326
▁comics	-8327
▁correl	-8328
▁fallen	-8329
▁magnet	-8330
▁offers	-8331
▁orphan	-8332
▁stimul	-8333
▁wooden	-8334
▁abraham	-8335
▁goodbye	-8336
▁healing	-8337
▁implant	-8338
▁manager	-8339
▁printed	-8340
▁request	-8341
criptions	-8342
▁altitude	-8343
▁bathroom	-8344
▁democrat	-8345
▁downtown	-8346
▁hometown	-8347
▁intended	-8348
▁skeletal	-8349
▁supplies	-8350
▁surgeons	-8351
▁tanzania	-8352
▁bacterial	-8353
▁biologist	-8354
▁describes	-8355
▁graduated	-8356
▁predators	-8357
▁territory	-8358
forestation	-8359
▁approached	-8360
▁automobile	-8361
▁bangladesh	-8362
▁biolumines	-8363
▁calculated	-8364
▁compromise	-8365
▁indigenous	-8366
▁prosperity	-8367
▁publishing	-8368
▁punishment	-8369
▁reasonable	-8370
▁expressions	-8371
▁shakespeare	-8372
▁embarrassing	-8373
▁civilizations	-8374
▁visualization	-8375
eu	-8376
ga	-8377
bod	-8378
mma	-8379
mun	-8380
▁ll	-8381
city	-8382
etti	-8383
mill	-8384
plus	-8385
rade	-8386
seen	-8387
step	-8388
utan	-8389
▁ibm	-8390
▁rib	-8391
▁tib	-8392
▁via	-8393
▁zip	-8394
▁zoo	-8395
apore	-8396
atson	-8397
ester	-8398
grade	-8399
isons	-8400
▁guid	-8401
▁lawn	-8402
▁meme	-8403
▁nord	-8404
▁sole	-8405
▁sons	-8406
▁unre	-8407
▁vice	-8408
cyclop	-8409
icient	-8410
▁april	-8411
▁bench	-8412
▁boats	-8413
▁camel	-8414
▁clint	-8415
▁delay	-8416
▁diarr	-8417
▁drops	-8418
▁gramm	-8419
▁loads	-8420
▁tiger	-8421
▁zones	-8422
essions	-8423
▁albert	-8424
▁apolog	-8425
▁assets	-8426
▁behalf	-8427
▁binary	-8428
▁criter	-8429
▁denial	-8430
▁immers	-8431
▁infant	-8432
▁posted	-8433
▁relief	-8434
▁safely	-8435
▁summit	-8436
▁tables	-8437
▁temple	-8438
▁voting	-8439
▁watson	-8440
▁discrim	-8441
▁enjoyed	-8442
▁exhaust	-8443
▁laptops	-8444
▁origins	-8445
▁passage	-8446
▁rethink	-8447
▁scanner	-8448
▁seventh	-8449
▁simpler	-8450
▁smiling	-8451
▁venture	-8452
▁whistle	-8453
▁accompan	-8454
▁backyard	-8455
▁ceremony	-8456
▁clusters	-8457
▁concerns	-8458
▁coverage	-8459
▁encyclop	-8460
▁november	-8461
▁overhead	-8462
▁vaccines	-8463
▁authentic	-8464
▁correctly	-8465
▁dominated	-8466
▁empowered	-8467
▁hierarchy	-8468
▁installed	-8469
▁overnight	-8470
▁planetary	-8471
▁receiving	-8472
▁seemingly	-8473
▁singapore	-8474
▁assistance	-8475
▁electrodes	-8476
▁engineered	-8477
▁frequently	-8478
▁sanitation	-8479
▁magnificent	-8480
▁partnership	-8481
▁collectively	-8482
▁connectivity	-8483
▁communicating	-8484
jo	-8485
ani	-8486
err	-8487
▁38	-8488
▁kh	-8489
cher	-8490
ette	-8491
grow	-8492
oral	-8493
▁huh	-8494
▁nap	-8495
▁orb	-8496
▁tox	-8497
aming	-8498
enses	-8499
ffect	-8500
gradu	-8501
human	-8502
phere	-8503
pring	-8504
▁2030	-8505
▁atom	-8506
▁benj	-8507
▁biof	-8508
▁cany	-8509
▁deaf	-8510
▁mant	-8511
▁murd	-8512
▁nano	-8513
▁rect	-8514
▁rome	-8515
▁sail	-8516
▁sexy	-8517
▁shoe	-8518
▁symp	-8519
▁unst	-8520
▁util	-8521
rating	-8522
▁alpha	-8523
▁deals	-8524
▁entry	-8525
▁fatal	-8526
▁harry	-8527
▁illum	-8528
▁inher	-8529
▁irony	-8530
▁meals	-8531
▁penet	-8532
▁plank	-8533
▁roles	-8534
▁sadly	-8535
▁sperm	-8536
▁straw	-8537
▁tweet	-8538
▁usage	-8539
▁chains	-8540
▁crowds	-8541
▁cultiv	-8542
▁curves	-8543
▁adapted	-8544
▁corrupt	-8545
▁dilemma	-8546
▁genomes	-8547
▁heading	-8548
▁logical	-8549
▁neutral	-8550
▁powered	-8551
▁reactor	-8552
▁spiders	-8553
▁strings	-8554
▁telecom	-8555
▁advances	-8556
▁brooklyn	-8557
▁calories	-8558
▁catching	-8559
▁complain	-8560
▁consumed	-8561
▁diameter	-8562
▁disabled	-8563
▁exposure	-8564
▁injuries	-8565
▁kindness	-8566
▁observed	-8567
▁randomly	-8568
▁recycled	-8569
▁sidewalk	-8570
▁simplest	-8571
▁striking	-8572
▁aesthetic	-8573
▁agreement	-8574
▁criminals	-8575
▁deception	-8576
▁formation	-8577
▁occurring	-8578
▁officials	-8579
▁relatives	-8580
▁renewable	-8581
▁residents	-8582
▁suspended	-8583
▁anticipate	-8584
▁legitimate	-8585
▁medication	-8586
▁variations	-8587
▁desperately	-8588
▁fluorescent	-8589
▁programmers	-8590
▁philanthropy	-8591
▁controversial	-8592
cs	-8593
ado	-8594
ali	-8595
gue	-8596
imb	-8597
nut	-8598
zes	-8599
▁ka	-8600
erey	-8601
lers	-8602
mart	-8603
page	-8604
take	-8605
▁dum	-8606
▁ech	-8607
▁gee	-8608
▁kat	-8609
▁mol	-8610
chool	-8611
omagn	-8612
press	-8613
quate	-8614
storm	-8615
▁2020	-8616
▁buck	-8617
▁bump	-8618
▁coch	-8619
▁crap	-8620
▁curt	-8621
▁lego	-8622
▁mast	-8623
▁offs	-8624
▁pier	-8625
▁sake	-8626
▁scal	-8627
▁seal	-8628
▁seti	-8629
▁thor	-8630
lihood	-8631
thirds	-8632
▁album	-8633
▁cheat	-8634
▁clubs	-8635
▁conqu	-8636
▁gross	-8637
▁inhib	-8638
▁jones	-8639
▁lobby	-8640
▁pants	-8641
▁pulse	-8642
▁remix	-8643
▁stead	-8644
▁taxes	-8645
▁vocal	-8646
▁woods	-8647
ascular	-8648
ressing	-8649
▁diving	-8650
▁donors	-8651
▁forbid	-8652
▁gandhi	-8653
▁gravit	-8654
▁helium	-8655
▁intact	-8656
▁manner	-8657
▁thread	-8658
▁banking	-8659
▁biomass	-8660
▁bridges	-8661
▁broader	-8662
▁bureauc	-8663
▁chronic	-8664
▁clinics	-8665
▁coastal	-8666
▁congest	-8667
▁doubled	-8668
▁educate	-8669
▁israeli	-8670
▁locally	-8671
▁mankind	-8672
▁terrain	-8673
▁deployed	-8674
▁memorial	-8675
▁monterey	-8676
▁nitrogen	-8677
▁peaceful	-8678
▁scanning	-8679
▁seawater	-8680
▁spinning	-8681
▁activists	-8682
▁amazingly	-8683
▁brazilian	-8684
▁comparing	-8685
▁estimated	-8686
▁indonesia	-8687
▁microbial	-8688
▁motivated	-8689
▁reflected	-8690
▁secretary	-8691
▁textbooks	-8692
▁hemisphere	-8693
▁illustrate	-8694
▁likelihood	-8695
▁psychopath	-8696
▁telescopes	-8697
▁distinction	-8698
▁electromagn	-8699
▁neuroscient	-8700
▁realization	-8701
▁theoretical	-8702
▁humanitarian	-8703
▁observations	-8704
▁temperatures	-8705
▁transformative	-8706
ja	-8707
cin	-8708
cla	-8709
mat	-8710
ona	-8711
two	-8712
urd	-8713
vae	-8714
▁31	-8715
▁48	-8716
▁ig	-8717
▁lu	-8718
▁ly	-8719
aken	-8720
anas	-8721
five	-8722
igma	-8723
oric	-8724
pond	-8725
▁por	-8726
▁ski	-8727
anges	-8728
ighth	-8729
inent	-8730
irect	-8731
pless	-8732
▁1998	-8733
▁blob	-8734
▁bulb	-8735
▁carl	-8736
▁cube	-8737
▁logo	-8738
▁mild	-8739
▁outs	-8740
▁scot	-8741
▁spat	-8742
▁tact	-8743
▁ties	-8744
▁vary	-8745
▁welf	-8746
driven	-8747
itable	-8748
orient	-8749
▁blink	-8750
▁couch	-8751
▁decor	-8752
▁drunk	-8753
▁fifty	-8754
▁funds	-8755
▁grave	-8756
▁laure	-8757
▁lists	-8758
▁maneu	-8759
▁mimic	-8760
▁norms	-8761
▁retro	-8762
▁ridge	-8763
▁wrist	-8764
theless	-8765
▁absorb	-8766
▁claims	-8767
▁emails	-8768
▁grades	-8769
▁grocer	-8770
▁hunter	-8771
▁livest	-8772
▁pencil	-8773
▁sovere	-8774
▁winner	-8775
▁belongs	-8776
▁clinton	-8777
▁enhance	-8778
▁filling	-8779
▁maximum	-8780
▁planted	-8781
▁scaling	-8782
▁staring	-8783
▁switzer	-8784
▁teaches	-8785
▁texture	-8786
▁trapped	-8787
▁activate	-8788
▁approved	-8789
▁boundary	-8790
▁compound	-8791
▁contempl	-8792
▁gorgeous	-8793
▁incorpor	-8794
▁literacy	-8795
▁opinions	-8796
▁promised	-8797
▁proposal	-8798
▁reserves	-8799
▁touching	-8800
▁transist	-8801
▁virginia	-8802
▁aristotle	-8803
▁attitudes	-8804
▁batteries	-8805
▁commodity	-8806
▁diagnosis	-8807
▁emergence	-8808
▁fisheries	-8809
▁intensity	-8810
▁surgeries	-8811
▁universes	-8812
▁visualize	-8813
▁phenomenal	-8814
▁structural	-8815
▁sufficient	-8816
▁cooperative	-8817
▁instruction	-8818
▁politically	-8819
▁switzerland	-8820
▁accomplished	-8821
▁continuously	-8822
▁measurements	-8823
▁nevertheless	-8824
▁approximately	-8825
▁mathematician	-8826
▁schizophrenia	-8827
ima	-8828
iro	-8829
isa	-8830
▁ky	-8831
▁om	-8832
iots	-8833
omed	-8834
pend	-8835
rane	-8836
▁1.2	-8837
▁ade	-8838
▁bor	-8839
▁ego	-8840
▁gor	-8841
▁kir	-8842
▁pix	-8843
▁sne	-8844
▁usa	-8845
▁vib	-8846
impse	-8847
oline	-8848
owers	-8849
raine	-8850
▁1999	-8851
▁alas	-8852
▁cuts	-8853
▁ende	-8854
▁enzy	-8855
▁glor	-8856
▁hamb	-8857
▁jane	-8858
▁kong	-8859
▁mumb	-8860
▁stew	-8861
▁turk	-8862
▁twin	-8863
▁verb	-8864
▁wins	-8865
iances	-8866
▁belly	-8867
▁bulbs	-8868
▁cyrus	-8869
▁depos	-8870
▁erect	-8871
▁flick	-8872
▁flock	-8873
▁grant	-8874
▁laden	-8875
▁longe	-8876
▁miner	-8877
▁mobil	-8878
▁naive	-8879
▁outdo	-8880
▁perip	-8881
▁pulls	-8882
▁sweat	-8883
osexual	-8884
▁andrew	-8885
▁elabor	-8886
▁foster	-8887
▁horses	-8888
▁marath	-8889
▁masses	-8890
▁prepar	-8891
▁riding	-8892
▁sensit	-8893
▁strain	-8894
▁unfold	-8895
▁artwork	-8896
▁carries	-8897
▁committ	-8898
▁cooling	-8899
▁corners	-8900
▁deepest	-8901
▁default	-8902
▁detroit	-8903
▁exploit	-8904
▁facilit	-8905
▁fantasy	-8906
▁glimpse	-8907
▁hackers	-8908
▁handful	-8909
▁happily	-8910
▁hostile	-8911
▁landing	-8912
▁rewards	-8913
▁stephen	-8914
▁welfare	-8915
▁whoever	-8916
▁william	-8917
▁alphabet	-8918
▁angiogen	-8919
▁announce	-8920
▁assembly	-8921
▁barriers	-8922
▁benjamin	-8923
▁calculus	-8924
▁criteria	-8925
▁cylinder	-8926
▁diarrhea	-8927
▁division	-8928
▁dropping	-8929
▁findings	-8930
▁hopeless	-8931
▁multiply	-8932
▁nigerian	-8933
▁olympics	-8934
▁revealed	-8935
▁websites	-8936
▁abundance	-8937
▁asteroids	-8938
▁longevity	-8939
▁machinery	-8940
▁realistic	-8941
▁resistant	-8942
▁screaming	-8943
▁shoulders	-8944
▁therapies	-8945
▁documented	-8946
▁exceptions	-8947
▁microphone	-8948
▁spacecraft	-8949
▁suggestion	-8950
▁composition	-8951
▁corporation	-8952
▁devastating	-8953
▁frightening	-8954
▁alternatives	-8955
▁computational	-8956
▁systematically	-8957
tr	-8958
ava	-8959
net	-8960
omb	-8961
tra	-8962
ador	-8963
alog	-8964
itar	-8965
▁192	-8966
▁jun	-8967
▁jur	-8968
▁pla	-8969
▁rap	-8970
▁rip	-8971
adian	-8972
arten	-8973
atoes	-8974
break	-8975
cover	-8976
creat	-8977
digit	-8978
inter	-8979
matic	-8980
sized	-8981
▁1930	-8982
▁apps	-8983
▁carp	-8984
▁coca	-8985
▁dood	-8986
▁dose	-8987
▁impr	-8988
▁leth	-8989
▁mini	-8990
▁mixt	-8991
▁neoc	-8992
▁pitt	-8993
▁prey	-8994
▁sque	-8995
▁unle	-8996
▁worm	-8997
culiar	-8998
enance	-8999
ifting	-9000
inator	-9001
inging	-9002
▁ambit	-9003
▁bonob	-9004
▁boost	-9005
▁brush	-9006
▁cream	-9007
▁crows	-9008
▁fence	-9009
▁fried	-9010
▁gains	-9011
▁infer	-9012
▁juice	-9013
▁juven	-9014
▁marks	-9015
▁messy	-9016
▁obese	-9017
▁picks	-9018
▁reass	-9019
▁recre	-9020
▁sends	-9021
▁shred	-9022
▁texts	-9023
▁voted	-9024
▁watts	-9025
faction	-9026
▁advers	-9027
▁arabia	-9028
▁argent	-9029
▁arthur	-9030
▁cattle	-9031
▁flavor	-9032
▁horror	-9033
▁immort	-9034
▁joseph	-9035
▁mentor	-9036
▁noneth	-9037
▁pestic	-9038
▁psycho	-9039
▁racing	-9040
▁revers	-9041
▁shower	-9042
▁steven	-9043
▁trauma	-9044
▁wishes	-9045
function	-9046
standing	-9047
▁antenna	-9048
▁commons	-9049
▁creator	-9050
▁crossed	-9051
▁earning	-9052
▁elegant	-9053
▁hopeful	-9054
▁labeled	-9055
▁laughed	-9056
▁nearest	-9057
▁nonviol	-9058
▁periods	-9059
▁reaches	-9060
▁sectors	-9061
▁stadium	-9062
▁strands	-9063
▁hormones	-9064
▁indicate	-9065
▁informal	-9066
▁mcdonald	-9067
▁ministry	-9068
▁minority	-9069
▁momentum	-9070
▁peculiar	-9071
▁prisoner	-9072
▁sexually	-9073
▁sometime	-9074
▁underest	-9075
▁visually	-9076
▁abandoned	-9077
▁administr	-9078
▁answering	-9079
▁attracted	-9080
▁candidate	-9081
▁favorites	-9082
▁livestock	-9083
▁mushrooms	-9084
▁parkinson	-9085
▁regularly	-9086
▁sequences	-9087
▁correspond	-9088
▁destroying	-9089
▁determines	-9090
▁discussing	-9091
▁privileged	-9092
▁discussions	-9093
▁nonetheless	-9094
▁understands	-9095
▁accelerating	-9096
▁contribution	-9097
▁introduction	-9098
▁overwhelming	-9099
▁representative	-9100
dis	-9101
ete	-9102
gas	-9103
oen	-9104
via	-9105
▁dp	-9106
▁iv	-9107
bees	-9108
bird	-9109
gend	-9110
offs	-9111
unks	-9112
word	-9113
ylac	-9114
▁190	-9115
▁ara	-9116
▁awe	-9117
▁gad	-9118
▁hmm	-9119
▁ron	-9120
▁sah	-9121
aired	-9122
asive	-9123
aware	-9124
ching	-9125
ifies	-9126
iolet	-9127
three	-9128
▁asth	-9129
▁blew	-9130
▁bosn	-9131
▁cage	-9132
▁mead	-9133
▁alter	-9134
▁careg	-9135
▁chess	-9136
▁hopes	-9137
▁indus	-9138
▁ingen	-9139
▁kevin	-9140
▁loses	-9141
▁meets	-9142
▁panic	-9143
▁penal	-9144
▁phoen	-9145
▁sizes	-9146
▁25,000	-9147
▁allies	-9148
▁cables	-9149
▁canvas	-9150
▁disney	-9151
▁dispar	-9152
▁divers	-9153
▁evapor	-9154
▁frames	-9155
▁greece	-9156
▁hybrid	-9157
▁iconic	-9158
▁kidney	-9159
▁mating	-9160
▁michel	-9161
▁modest	-9162
▁mumbai	-9163
▁nightm	-9164
▁retail	-9165
▁rotate	-9166
▁server	-9167
▁smells	-9168
▁thirty	-9169
▁thylac	-9170
▁unlock	-9171
ergarten	-9172
▁acquire	-9173
▁authors	-9174
▁charlie	-9175
▁couples	-9176
▁heavily	-9177
▁iranian	-9178
▁kidding	-9179
▁lebanon	-9180
▁logging	-9181
▁olympic	-9182
▁optical	-9183
▁patents	-9184
▁playful	-9185
▁pouring	-9186
▁screens	-9187
▁swallow	-9188
▁technic	-9189
▁trading	-9190
mentation	-9191
▁accuracy	-9192
▁autistic	-9193
▁autonomy	-9194
▁expanded	-9195
▁prospect	-9196
▁protocol	-9197
▁terrific	-9198
▁youngest	-9199
▁ambitious	-9200
▁associate	-9201
▁astronomy	-9202
▁convicted	-9203
▁diplomacy	-9204
▁expressed	-9205
▁geography	-9206
▁imagining	-9207
▁migration	-9208
▁mutations	-9209
▁parachute	-9210
▁responded	-9211
▁statistic	-9212
▁terrified	-9213
▁tolerance	-9214
▁christians	-9215
▁enterprise	-9216
▁horizontal	-9217
▁irrational	-9218
▁organizing	-9219
▁professors	-9220
▁prosthetic	-9221
▁distinguish	-9222
▁emotionally	-9223
▁preparation	-9224
▁specialized	-9225
▁constitution	-9226
ki	-9227
aza	-9228
cod	-9229
iju	-9230
ila	-9231
kin	-9232
nat	-9233
neg	-9234
oli	-9235
▁44	-9236
alem	-9237
burg	-9238
long	-9239
pack	-9240
udge	-9241
▁130	-9242
▁193	-9243
▁ell	-9244
▁kos	-9245
▁sib	-9246
abeth	-9247
cribe	-9248
gener	-9249
holds	-9250
ierra	-9251
keley	-9252
ormal	-9253
▁bern	-9254
▁blur	-9255
▁cape	-9256
▁chew	-9257
▁craw	-9258
▁dare	-9259
▁epip	-9260
▁epis	-9261
▁mask	-9262
▁nons	-9263
▁pent	-9264
▁whoa	-9265
elines	-9266
ijuana	-9267
income	-9268
istine	-9269
liness	-9270
▁align	-9271
▁arbit	-9272
▁bruno	-9273
▁candy	-9274
▁consp	-9275
▁craig	-9276
▁frogs	-9277
▁hated	-9278
▁louis	-9279
▁posed	-9280
▁resur	-9281
▁risky	-9282
▁squid	-9283
▁stumb	-9284
▁tibet	-9285
percent	-9286
▁appeal	-9287
▁brands	-9288
▁canyon	-9289
▁daniel	-9290
▁fluctu	-9291
▁format	-9292
▁hambur	-9293
▁hurric	-9294
▁korean	-9295
▁lifted	-9296
▁marrow	-9297
▁mozart	-9298
▁norden	-9299
▁plates	-9300
▁preced	-9301
▁presum	-9302
▁selves	-9303
▁slower	-9304
▁themes	-9305
▁worthy	-9306
▁150,000	-9307
▁condoms	-9308
▁folding	-9309
▁heating	-9310
▁inhabit	-9311
▁lottery	-9312
▁matched	-9313
▁outrage	-9314
▁phoenix	-9315
▁pleased	-9316
▁seattle	-9317
▁shepher	-9318
▁utterly	-9319
▁analyzed	-9320
▁berkeley	-9321
▁detector	-9322
▁forecast	-9323
▁inventor	-9324
▁mutation	-9325
▁parasite	-9326
▁priority	-9327
▁publicly	-9328
▁redesign	-9329
▁rejected	-9330
▁switched	-9331
▁symphony	-9332
▁thrilled	-9333
▁triangle	-9334
▁cockroach	-9335
▁integrate	-9336
▁negotiate	-9337
▁reasoning	-9338
▁witnessed	-9339
▁girlfriend	-9340
▁households	-9341
▁ingredient	-9342
▁practicing	-9343
▁prototypes	-9344
▁renewables	-9345
▁separation	-9346
▁undergradu	-9347
▁concentrate	-9348
▁destination	-9349
▁enforcement	-9350
▁investments	-9351
▁overwhelmed	-9352
▁palestinian	-9353
▁unfortunate	-9354
▁angiogenesis	-9355
▁coordination	-9356
▁dictionaries	-9357
▁kindergarten	-9358
▁representing	-9359
▁deforestation	-9360
▁accountability	-9361
tz	-9362
gal	-9363
nis	-9364
rin	-9365
▁pc	-9366
ithm	-9367
itis	-9368
rend	-9369
▁jaw	-9370
▁kin	-9371
▁pic	-9372
▁rac	-9373
▁yog	-9374
angle	-9375
brush	-9376
itate	-9377
olera	-9378
osity	-9379
proof	-9380
stics	-9381
▁1984	-9382
▁abed	-9383
▁aims	-9384
▁buzz	-9385
▁calc	-9386
▁cope	-9387
▁foie	-9388
▁hars	-9389
▁hint	-9390
▁jews	-9391
▁oven	-9392
▁peel	-9393
▁piss	-9394
▁shed	-9395
▁ster	-9396
▁surg	-9397
▁tags	-9398
▁tide	-9399
▁torn	-9400
violet	-9401
▁acids	-9402
▁alarm	-9403
▁alice	-9404
▁anecd	-9405
▁blown	-9406
▁cared	-9407
▁cares	-9408
▁crude	-9409
▁ethan	-9410
▁ethic	-9411
▁guerr	-9412
▁incom	-9413
▁mater	-9414
▁moder	-9415
▁probe	-9416
▁rains	-9417
▁revel	-9418
▁roofs	-9419
▁sarah	-9420
▁scaff	-9421
▁scans	-9422
▁slice	-9423
▁spare	-9424
▁supre	-9425
▁sweep	-9426
▁unint	-9427
▁vivid	-9428
▁12,000	-9429
▁60,000	-9430
▁aliens	-9431
▁barrel	-9432
▁copies	-9433
▁counts	-9434
▁equals	-9435
▁exquis	-9436
▁famine	-9437
▁guards	-9438
▁occupy	-9439
▁raises	-9440
▁shifts	-9441
▁unfair	-9442
▁unseen	-9443
▁weighs	-9444
ffective	-9445
▁assumed	-9446
▁atlanta	-9447
▁blowing	-9448
▁cholera	-9449
▁climbed	-9450
▁compreh	-9451
▁compute	-9452
▁envelop	-9453
▁exagger	-9454
▁liberty	-9455
▁masters	-9456
▁mastery	-9457
▁mexican	-9458
▁squares	-9459
▁superno	-9460
▁acoustic	-9461
▁actively	-9462
▁adoption	-9463
▁catholic	-9464
▁cheating	-9465
▁evolving	-9466
▁freezing	-9467
▁intimate	-9468
▁lifespan	-9469
▁mentally	-9470
▁pathways	-9471
▁targeted	-9472
▁tedtalks	-9473
▁variable	-9474
ographical	-9475
▁acknowled	-9476
▁converted	-9477
▁desperate	-9478
▁disasters	-9479
▁eliminate	-9480
▁embracing	-9481
▁platforms	-9482
▁adolescent	-9483
▁candidates	-9484
▁critically	-9485
▁delivering	-9486
▁metabolism	-9487
▁networking	-9488
▁priorities	-9489
▁relativity	-9490
▁sculptures	-9491
▁transported	-9492
▁ultraviolet	-9493
▁chemotherapy	-9494
▁economically	-9495
▁encyclopedia	-9496
▁philosophical	-9497
.5	-9498
bc	-9499
200	-9500
bag	-9501
cha	-9502
cre	-9503
elf	-9504
kyo	-9505
lon	-9506
oto	-9507
vol	-9508
wan	-9509
▁98	-9510
▁uk	-9511
▁wi	-9512
aves	-9513
beat	-9514
fare	-9515
gram	-9516
olen	-9517
oton	-9518
wing	-9519
▁lew	-9520
▁mum	-9521
▁pap	-9522
▁soc	-9523
berry	-9524
built	-9525
inity	-9526
iracy	-9527
month	-9528
ogens	-9529
oters	-9530
ouses	-9531
restr	-9532
▁adds	-9533
▁beam	-9534
▁beef	-9535
▁cher	-9536
▁cups	-9537
▁dele	-9538
▁eliz	-9539
▁nurt	-9540
▁odor	-9541
▁pays	-9542
▁pipe	-9543
▁scra	-9544
▁semi	-9545
coming	-9546
estone	-9547
shaped	-9548
▁1,500	-9549
▁advis	-9550
▁entit	-9551
▁favel	-9552
▁float	-9553
▁insec	-9554
▁kosov	-9555
▁larry	-9556
▁lifel	-9557
▁paste	-9558
▁reper	-9559
▁sheer	-9560
▁shops	-9561
▁steep	-9562
▁trips	-9563
▁tunis	-9564
▁yards	-9565
▁yeast	-9566
abulary	-9567
atories	-9568
enhagen	-9569
ocation	-9570
▁angles	-9571
▁argued	-9572
▁behold	-9573
▁boards	-9574
▁corrid	-9575
▁courts	-9576
▁deadly	-9577
▁digest	-9578
▁eighth	-9579
▁exotic	-9580
▁hawaii	-9581
▁insert	-9582
▁joshua	-9583
▁jungle	-9584
▁lethal	-9585
▁losses	-9586
▁pigeon	-9587
▁preach	-9588
▁stolen	-9589
▁tomato	-9590
ventions	-9591
▁airline	-9592
▁archive	-9593
▁columns	-9594
▁damaged	-9595
▁digging	-9596
▁everest	-9597
▁filters	-9598
▁fulfill	-9599
▁planned	-9600
▁prostit	-9601
▁shining	-9602
▁spatial	-9603
▁streams	-9604
▁travels	-9605
▁trusted	-9606
ationally	-9607
▁acquired	-9608
▁frontier	-9609
▁ideology	-9610
▁membrane	-9611
▁remotely	-9612
▁vacation	-9613
▁visiting	-9614
▁alongside	-9615
▁celebrity	-9616
▁collision	-9617
▁elizabeth	-9618
▁fishermen	-9619
▁generates	-9620
▁greenland	-9621
▁offspring	-9622
▁vegetable	-9623
▁accelerate	-9624
▁copenhagen	-9625
▁employment	-9626
▁enormously	-9627
▁infectious	-9628
▁symmetries	-9629
▁systematic	-9630
▁translator	-9631
▁celebration	-9632
▁democracies	-9633
▁documentary	-9634
▁integration	-9635
▁maintenance	-9636
▁practically	-9637
▁revolutions	-9638
▁statistical	-9639
▁symmetrical	-9640
▁contributing	-9641
▁philosophers	-9642
▁significance	-9643
▁authoritarian	-9644
▁interventions	-9645
fly	-9646
lor	-9647
nik	-9648
uba	-9649
▁bh	-9650
▁cd	-9651
▁lh	-9652
▁oz	-9653
▁vo	-9654
▁yo	-9655
agra	-9656
celi	-9657
enth	-9658
eyed	-9659
iful	-9660
qual	-9661
star	-9662
▁bip	-9663
▁cul	-9664
▁fog	-9665
▁pou	-9666
▁reh	-9667
▁tod	-9668
▁unw	-9669
▁woo	-9670
gency	-9671
▁belt	-9672
▁cine	-9673
▁cycl	-9674
▁jord	-9675
▁matt	-9676
▁narc	-9677
▁obso	-9678
▁pean	-9679
▁porn	-9680
▁prox	-9681
▁sang	-9682
▁stun	-9683
▁tues	-9684
▁unac	-9685
boards	-9686
celium	-9687
iatric	-9688
olitan	-9689
usalem	-9690
▁acres	-9691
▁apoll	-9692
▁blast	-9693
▁breed	-9694
▁chase	-9695
▁chord	-9696
▁drain	-9697
▁dread	-9698
▁escal	-9699
▁feeds	-9700
▁fired	-9701
▁freak	-9702
▁greet	-9703
▁manus	-9704
▁nasty	-9705
▁octop	-9706
▁shuff	-9707
▁slope	-9708
▁snake	-9709
▁sudan	-9710
▁tokyo	-9711
▁towns	-9712
▁wrest	-9713
ilation	-9714
▁absurd	-9715
▁alumin	-9716
▁beetle	-9717
▁calend	-9718
▁cathed	-9719
▁census	-9720
▁copied	-9721
▁firing	-9722
▁fundra	-9723
▁grains	-9724
▁lonely	-9725
▁mammal	-9726
▁mapped	-9727
▁marker	-9728
▁monday	-9729
▁passes	-9730
▁precip	-9731
▁refuse	-9732
▁regist	-9733
▁rolled	-9734
▁sierra	-9735
▁stabil	-9736
▁towers	-9737
▁viscer	-9738
▁waited	-9739
restrial	-9740
▁affairs	-9741
▁beetles	-9742
▁cardiac	-9743
▁counted	-9744
▁dancers	-9745
▁flights	-9746
▁injured	-9747
▁jeopard	-9748
▁longest	-9749
▁priorit	-9750
▁returns	-9751
▁richest	-9752
▁shorter	-9753
▁squeeze	-9754
▁stewart	-9755
▁talents	-9756
▁tuesday	-9757
▁visions	-9758
▁weekend	-9759
▁wrapped	-9760
▁cocktail	-9761
▁egyptian	-9762
▁entities	-9763
▁entrance	-9764
▁feminist	-9765
▁friction	-9766
▁gasoline	-9767
▁gestures	-9768
▁innovate	-9769
▁managing	-9770
▁maneuver	-9771
▁mycelium	-9772
▁pipeline	-9773
▁pleasant	-9774
▁regional	-9775
▁tangible	-9776
▁achieving	-9777
▁artifacts	-9778
▁astronaut	-9779
▁bacterium	-9780
▁countless	-9781
▁dictators	-9782
▁elaborate	-9783
▁indicates	-9784
▁integrity	-9785
▁jerusalem	-9786
▁parenting	-9787
▁pressures	-9788
▁principal	-9789
▁producers	-9790
▁replacing	-9791
▁reporting	-9792
▁screening	-9793
▁confronted	-9794
▁intentions	-9795
▁interfaces	-9796
▁journalism	-9797
▁millennium	-9798
▁predicting	-9799
▁preventing	-9800
▁projection	-9801
▁sequencing	-9802
▁vocabulary	-9803
▁collaborate	-9804
▁considering	-9805
▁corresponds	-9806
▁embarrassed	-9807
▁frustration	-9808
▁recognizing	-9809
▁republicans	-9810
▁sensitivity	-9811
▁catastrophic	-9812
▁headquarters	-9813
gy	-9814
hah	-9815
lar	-9816
pos	-9817
rey	-9818
ugg	-9819
wid	-9820
▁2,	-9821
▁bj	-9822
▁ot	-9823
alay	-9824
ergy	-9825
fing	-9826
fire	-9827
held	-9828
idal	-9829
igan	-9830
lear	-9831
nedy	-9832
oked	-9833
onds	-9834
plic	-9835
teen	-9836
umbs	-9837
▁12-	-9838
▁ark	-9839
▁eru	-9840
▁fda	-9841
▁hay	-9842
▁inn	-9843
▁kit	-9844
▁sco	-9845
▁syl	-9846
▁vin	-9847
arded	-9848
conds	-9849
front	-9850
naiss	-9851
speed	-9852
▁1995	-9853
▁apes	-9854
▁aunt	-9855
▁chat	-9856
▁depr	-9857
▁dick	-9858
▁dome	-9859
▁grim	-9860
▁heck	-9861
▁hump	-9862
▁merg	-9863
▁nich	-9864
▁node	-9865
▁orth	-9866
▁patr	-9867
▁reck	-9868
▁tort	-9869
▁wore	-9870
atible	-9871
erving	-9872
iously	-9873
ograms	-9874
vasive	-9875
▁acute	-9876
▁alert	-9877
▁femin	-9878
▁flesh	-9879
▁hoped	-9880
▁infra	-9881
▁laund	-9882
▁loans	-9883
▁loyal	-9884
▁slave	-9885
▁syria	-9886
▁tanks	-9887
ictions	-9888
imeters	-9889
itating	-9890
▁abroad	-9891
▁apples	-9892
▁beside	-9893
▁contag	-9894
▁copper	-9895
▁dishes	-9896
▁enrich	-9897
▁folded	-9898
▁hugely	-9899
▁ironic	-9900
▁luther	-9901
▁mixing	-9902
▁nether	-9903
▁peanut	-9904
▁potent	-9905
▁spiral	-9906
▁tagged	-9907
▁virtue	-9908
▁warmer	-9909
▁wasted	-9910
▁wright	-9911
computer	-9912
ountered	-9913
▁altered	-9914
▁charged	-9915
▁clarity	-9916
▁consens	-9917
▁consent	-9918
▁decides	-9919
▁desktop	-9920
▁endless	-9921
▁eternal	-9922
▁exhibit	-9923
▁grabbed	-9924
▁grocery	-9925
▁himalay	-9926
▁kennedy	-9927
▁leopard	-9928
▁neglect	-9929
▁ordered	-9930
▁segment	-9931
▁sensing	-9932
▁shifted	-9933
▁sulfide	-9934
▁supreme	-9935
▁surveys	-9936
▁texting	-9937
▁transit	-9938
naissance	-9939
▁annivers	-9940
▁assemble	-9941
▁attempts	-9942
▁canadian	-9943
▁checking	-9944
▁deciding	-9945
▁defining	-9946
▁envision	-9947
▁explored	-9948
▁habitats	-9949
▁helpless	-9950
▁humility	-9951
▁improvis	-9952
▁interpre	-9953
▁intimacy	-9954
▁lectures	-9955
▁nonsense	-9956
▁obsolete	-9957
▁receptor	-9958
▁revenues	-9959
▁saturday	-9960
▁simulate	-9961
▁sticking	-9962
▁superher	-9963
▁advertise	-9964
▁consuming	-9965
▁contained	-9966
▁cybercrim	-9967
▁finishing	-9968
▁hurricane	-9969
▁magazines	-9970
▁millennia	-9971
▁portraits	-9972
▁promoting	-9973
▁chromosome	-9974
▁congestion	-9975
▁describing	-9976
▁disappears	-9977
▁disturbing	-9978
▁programmed	-9979
▁responding	-9980
▁encountered	-9981
▁netherlands	-9982
▁improvements	-9983
▁prescription	-9984
▁satisfaction	-9985
▁exponentially	-9986
▁investigation	-9987
▁hallucinations	-9988
-2	-9989
ala	-9990
dra	-9991
idi	-9992
iva	-9993
▁43	-9994
▁52	-9995
▁96	-9996
bean	-9997
cola	-9998
eses	-9999
food	-10000
imed	-10001
leep	-10002
rist	-10003
size	-10004
uced	-10005
ucks	-10006
▁1.5	-10007
▁arc	-10008
▁blo	-10009
▁dvd	-10010
▁fou	-10011
▁glo	-10012
▁jup	-10013
▁lem	-10014
aters	-10015
bling	-10016
graph	-10017
illas	-10018
thals	-10019
▁anth	-10020
▁aven	-10021
▁beck	-10022
▁bent	-10023
▁bert	-10024
▁bore	-10025
▁dens	-10026
▁disk	-10027
▁edit	-10028
▁enab	-10029
▁glow	-10030
▁goat	-10031
▁lane	-10032
▁milo	-10033
▁plum	-10034
▁pond	-10035
▁puff	-10036
▁tale	-10037
▁thro	-10038
▁toll	-10039
▁vene	-10040
▁yard	-10041
alysis	-10042
ghetti	-10043
iments	-10044
iverse	-10045
rhythm	-10046
▁8,000	-10047
▁asset	-10048
▁brick	-10049
▁buses	-10050
▁clips	-10051
▁clues	-10052
▁daddy	-10053
▁danny	-10054
▁drama	-10055
▁fever	-10056
▁fungi	-10057
▁harsh	-10058
▁incon	-10059
▁milky	-10060
▁noisy	-10061
▁pipes	-10062
▁pound	-10063
▁regul	-10064
▁rises	-10065
▁seals	-10066
▁slept	-10067
▁stare	-10068
▁taboo	-10069
ructive	-10070
▁alaska	-10071
▁asleep	-10072
▁candle	-10073
▁casual	-10074
▁cookie	-10075
▁cracks	-10076
▁empath	-10077
▁equity	-10078
▁filmed	-10079
▁graphs	-10080
▁guitar	-10081
▁handed	-10082
▁imagin	-10083
▁kicked	-10084
▁legisl	-10085
▁mature	-10086
▁metals	-10087
▁prince	-10088
▁queens	-10089
▁reader	-10090
▁resemb	-10091
▁scheme	-10092
▁serves	-10093
▁submit	-10094
▁traces	-10095
▁treaty	-10096
▁viewed	-10097
▁alright	-10098
▁blessed	-10099
▁deficit	-10100
▁editors	-10101
▁farther	-10102
▁forgive	-10103
▁greatly	-10104
▁jumping	-10105
▁jupiter	-10106
▁markers	-10107
▁melting	-10108
▁mirrors	-10109
▁mixture	-10110
▁monster	-10111
▁penalty	-10112
▁praying	-10113
▁rehabil	-10114
▁shaking	-10115
▁shelves	-10116
▁strikes	-10117
▁thermal	-10118
▁tightly	-10119
▁warrior	-10120
▁aluminum	-10121
▁assuming	-10122
▁basement	-10123
▁chapters	-10124
▁diamonds	-10125
▁elevator	-10126
▁goodness	-10127
▁magician	-10128
▁marathon	-10129
▁modeling	-10130
▁motivate	-10131
▁portugal	-10132
▁resident	-10133
▁scaffold	-10134
▁surgical	-10135
▁symbolic	-10136
▁talented	-10137
controlled	-10138
ifications	-10139
▁breakdown	-10140
▁cardboard	-10141
▁consensus	-10142
▁container	-10143
▁demograph	-10144
▁exercises	-10145
▁isolation	-10146
▁jefferson	-10147
▁judgments	-10148
▁observing	-10149
▁precision	-10150
▁resilient	-10151
▁secondary	-10152
▁spaghetti	-10153
▁anesthesia	-10154
▁apartments	-10155
▁conceptual	-10156
▁disruptive	-10157
▁empowering	-10158
▁inherently	-10159
▁calculation	-10160
▁disciplines	-10161
▁empowerment	-10162
▁frequencies	-10163
▁implemented	-10164
▁investigate	-10165
▁orientation	-10166
▁progression	-10167
▁appreciation	-10168
▁authenticity	-10169
▁disabilities	-10170
▁laboratories	-10171
▁manipulation	-10172
▁neanderthals	-10173
▁perspectives	-10174
▁configuration	-10175
▁gravitational	-10176
▁participating	-10177
▁rehabilitation	-10178
▁scientifically	-10179
99	-10180
ano	-10181
bot	-10182
ili	-10183
izz	-10184
oly	-10185
rah	-10186
run	-10187
zzy	-10188
▁eu	-10189
asha	-10190
ason	-10191
ched	-10192
hors	-10193
lets	-10194
mind	-10195
ules	-10196
umen	-10197
▁ape	-10198
▁bid	-10199
▁caf	-10200
▁cum	-10201
▁dur	-10202
▁kle	-10203
▁naz	-10204
▁osc	-10205
▁owe	-10206
▁pav	-10207
▁rum	-10208
▁soy	-10209
actic	-10210
apped	-10211
ccoli	-10212
ctive	-10213
ength	-10214
heads	-10215
oding	-10216
piece	-10217
ppers	-10218
▁brad	-10219
▁brig	-10220
▁bugs	-10221
▁debr	-10222
▁font	-10223
▁gran	-10224
▁herd	-10225
▁menu	-10226
▁plut	-10227
▁seam	-10228
▁solo	-10229
▁zimb	-10230
cribed	-10231
ilated	-10232
itated	-10233
orters	-10234
verted	-10235
▁arena	-10236
▁arous	-10237
▁bonds	-10238
▁booth	-10239
▁bribe	-10240
▁discl	-10241
▁divid	-10242
▁draws	-10243
▁furth	-10244
▁ghost	-10245
▁jumps	-10246
▁knees	-10247
▁lexic	-10248
▁macro	-10249
▁namib	-10250
▁poems	-10251
▁qaeda	-10252
▁recur	-10253
▁rigid	-10254
▁trium	-10255
inished	-10256
ulative	-10257
▁avatar	-10258
▁brutal	-10259
▁cataly	-10260
▁kansas	-10261
▁lately	-10262
▁metrop	-10263
▁mouths	-10264
▁multin	-10265
▁pollut	-10266
▁powder	-10267
▁prayer	-10268
▁reserv	-10269
▁salary	-10270
▁shoots	-10271
▁soccer	-10272
▁sooner	-10273
▁speeds	-10274
▁stairs	-10275
▁submar	-10276
▁sylvia	-10277
▁timing	-10278
▁typing	-10279
▁upward	-10280
▁viable	-10281
▁applies	-10282
▁appoint	-10283
▁budgets	-10284
▁charter	-10285
▁chasing	-10286
▁copying	-10287
▁counsel	-10288
▁crashes	-10289
▁diamond	-10290
▁gardens	-10291
▁honored	-10292
▁matches	-10293
▁museums	-10294
▁primate	-10295
▁ratings	-10296
▁reforms	-10297
▁refused	-10298
▁thereby	-10299
▁torture	-10300
▁upright	-10301
izational	-10302
▁admitted	-10303
▁ambition	-10304
▁broccoli	-10305
▁champion	-10306
▁circular	-10307
▁columbia	-10308
▁consists	-10309
▁displays	-10310
▁embodied	-10311
▁famously	-10312
▁moreover	-10313
▁numerous	-10314
▁regulate	-10315
▁singular	-10316
▁stepping	-10317
▁stressed	-10318
▁thinkers	-10319
▁thorough	-10320
▁transact	-10321
▁uniquely	-10322
▁activated	-10323
▁blueprint	-10324
▁bombsight	-10325
▁massively	-10326
▁metabolic	-10327
▁mosquitos	-10328
▁obsession	-10329
▁processor	-10330
▁returning	-10331
▁staircase	-10332
▁summarize	-10333
▁surviving	-10334
▁therapist	-10335
▁accumulate	-10336
▁addressing	-10337
▁frightened	-10338
▁intriguing	-10339
▁inventions	-10340
▁millimeter	-10341
▁powerpoint	-10342
▁prevalence	-10343
▁profitable	-10344
▁propaganda	-10345
▁reflective	-10346
▁anniversary	-10347
▁correlation	-10348
▁functioning	-10349
▁microscopic	-10350
▁psychiatric	-10351
▁regulations	-10352
▁renaissance	-10353
▁disappointed	-10354
▁presidential	-10355
▁multinational	-10356
▁spontaneously	-10357
▁electromagnetic	-10358
eem	-10359
ena	-10360
hot	-10361
psy	-10362
sea	-10363
udd	-10364
▁34	-10365
▁46	-10366
▁86	-10367
▁oy	-10368
▁wk	-10369
adel	-10370
aver	-10371
mile	-10372
pted	-10373
reen	-10374
rels	-10375
rose	-10376
ynth	-10377
▁24-	-10378
▁dal	-10379
▁eco	-10380
▁gel	-10381
▁lak	-10382
▁mun	-10383
▁roo	-10384
▁tai	-10385
akers	-10386
alore	-10387
ilibr	-10388
pling	-10389
thood	-10390
▁1994	-10391
▁beds	-10392
▁crab	-10393
▁deci	-10394
▁eats	-10395
▁fier	-10396
▁folk	-10397
▁harr	-10398
▁lind	-10399
▁lith	-10400
▁lump	-10401
▁nike	-10402
▁offe	-10403
▁rays	-10404
▁slum	-10405
▁tedx	-10406
ailand	-10407
apagos	-10408
normal	-10409
redict	-10410
▁boots	-10411
▁carib	-10412
▁hatch	-10413
▁heter	-10414
▁lewis	-10415
▁paths	-10416
▁simul	-10417
▁spite	-10418
▁stamp	-10419
▁toast	-10420
▁towel	-10421
▁venus	-10422
holders	-10423
ocratic	-10424
▁15,000	-10425
▁ambass	-10426
▁angels	-10427
▁assure	-10428
▁banned	-10429
▁buddha	-10430
▁cambod	-10431
▁checks	-10432
▁cosmos	-10433
▁divine	-10434
▁ethics	-10435
▁fruits	-10436
▁hatred	-10437
▁helmet	-10438
▁hooked	-10439
▁insult	-10440
▁noises	-10441
▁respir	-10442
▁sahara	-10443
▁sticky	-10444
▁storms	-10445
▁tribal	-10446
▁underm	-10447
▁update	-10448
ilibrium	-10449
▁bananas	-10450
▁buttons	-10451
▁contest	-10452
▁dismiss	-10453
▁emerges	-10454
▁generic	-10455
▁grammar	-10456
▁iceberg	-10457
▁lighter	-10458
▁premise	-10459
▁pricing	-10460
▁relates	-10461
▁submers	-10462
▁subsequ	-10463
▁touches	-10464
▁vitamin	-10465
conscious	-10466
▁abundant	-10467
▁accommod	-10468
▁baseline	-10469
▁deserves	-10470
▁detected	-10471
▁festival	-10472
▁gigantic	-10473
▁minerals	-10474
▁patience	-10475
▁peripher	-10476
▁petition	-10477
▁plankton	-10478
▁primates	-10479
▁purchase	-10480
▁reflects	-10481
▁shepherd	-10482
▁thailand	-10483
▁weakness	-10484
▁analyzing	-10485
▁bangalore	-10486
▁committee	-10487
▁compounds	-10488
▁emphasize	-10489
▁enlighten	-10490
▁galapagos	-10491
▁involving	-10492
▁realities	-10493
▁sexuality	-10494
▁spaceship	-10495
▁sustained	-10496
▁tasmanian	-10497
▁unpredict	-10498
▁acceptance	-10499
▁beneficial	-10500
▁celebrated	-10501
▁connectome	-10502
▁fertilizer	-10503
▁invitation	-10504
▁opposition	-10505
▁physiology	-10506
▁playground	-10507
▁presenting	-10508
▁supportive	-10509
▁astronomers	-10510
▁calculating	-10511
▁perceptions	-10512
▁replacement	-10513
▁substantial	-10514
▁explanations	-10515
▁incidentally	-10516
▁collaborators	-10517
▁statistically	-10518
▁traditionally	-10519
bee	-10520
weg	-10521
wom	-10522
▁dj	-10523
▁ku	-10524
▁ny	-10525
abwe	-10526
acqu	-10527
agan	-10528
alia	-10529
anch	-10530
bral	-10531
elle	-10532
etal	-10533
heel	-10534
irst	-10535
jack	-10536
kers	-10537
mann	-10538
mate	-10539
oven	-10540
soon	-10541
▁125	-10542
▁450	-10543
▁adh	-10544
▁bib	-10545
▁fid	-10546
▁jay	-10547
▁oak	-10548
▁rna	-10549
▁von	-10550
▁wre	-10551
aches	-10552
appro	-10553
ffiti	-10554
ilson	-10555
liath	-10556
opian	-10557
ourse	-10558
rants	-10559
width	-10560
▁alar	-10561
▁ceos	-10562
▁conj	-10563
▁cort	-10564
▁cuba	-10565
▁dorm	-10566
▁extr	-10567
▁lips	-10568
▁obsc	-10569
▁pity	-10570
▁pose	-10571
▁rend	-10572
▁ross	-10573
▁rust	-10574
▁slog	-10575
▁sput	-10576
▁tips	-10577
▁ware	-10578
angelo	-10579
formed	-10580
handed	-10581
ocracy	-10582
school	-10583
stairs	-10584
unting	-10585
▁bonus	-10586
▁dedic	-10587
▁empir	-10588
▁forum	-10589
▁fuzzy	-10590
▁georg	-10591
▁incar	-10592
▁lagos	-10593
▁morph	-10594
▁newly	-10595
▁piles	-10596
▁pumps	-10597
▁rover	-10598
▁sells	-10599
▁tuned	-10600
▁twins	-10601
▁wiped	-10602
▁wives	-10603
iterate	-10604
▁admire	-10605
▁apollo	-10606
▁asthma	-10607
▁benign	-10608
▁bitter	-10609
▁cinema	-10610
▁circul	-10611
▁crocod	-10612
▁debris	-10613
▁earned	-10614
▁floors	-10615
▁greeks	-10616
▁humble	-10617
▁intric	-10618
▁kosovo	-10619
▁laying	-10620
▁norweg	-10621
▁scroll	-10622
▁singer	-10623
▁snakes	-10624
▁stigma	-10625
▁washed	-10626
aggering	-10627
oriented	-10628
▁amateur	-10629
▁ashamed	-10630
▁bankers	-10631
▁basking	-10632
▁catalog	-10633
▁divorce	-10634
▁dreamed	-10635
▁easiest	-10636
▁equator	-10637
▁expense	-10638
▁frontal	-10639
▁goliath	-10640
▁impulse	-10641
▁joining	-10642
▁linking	-10643
▁needles	-10644
▁octopus	-10645
▁onstage	-10646
▁persons	-10647
▁philipp	-10648
▁reveals	-10649
▁rockets	-10650
▁sadness	-10651
▁shadows	-10652
▁substit	-10653
▁wonders	-10654
▁altruism	-10655
▁ancestor	-10656
▁applause	-10657
▁cerebral	-10658
▁chickens	-10659
▁composed	-10660
▁confined	-10661
▁contents	-10662
▁daylight	-10663
▁endeavor	-10664
▁infinity	-10665
▁infrared	-10666
▁jeopardy	-10667
▁juvenile	-10668
▁miracles	-10669
▁misunder	-10670
▁operated	-10671
▁passions	-10672
▁planting	-10673
▁promises	-10674
▁register	-10675
▁siblings	-10676
▁superior	-10677
▁visitors	-10678
▁zimbabwe	-10679
▁attacking	-10680
▁democrats	-10681
▁illusions	-10682
▁intervene	-10683
▁kilometer	-10684
▁lightning	-10685
▁marijuana	-10686
▁nightmare	-10687
▁processed	-10688
▁respected	-10689
▁skeptical	-10690
▁stimulate	-10691
▁variables	-10692
▁voluntary	-10693
▁accurately	-10694
▁adaptation	-10695
▁convincing	-10696
▁dependence	-10697
▁disgusting	-10698
▁generosity	-10699
▁politician	-10700
▁recognizes	-10701
▁smartphone	-10702
▁statements	-10703
▁subjective	-10704
▁complaining	-10705
▁documenting	-10706
▁dragonflies	-10707
▁dysfunction	-10708
▁equilibrium	-10709
▁interviewer	-10710
▁rainforests	-10711
▁researching	-10712
▁storyteller	-10713
▁transmitted	-10714
▁deliberately	-10715
▁individually	-10716
▁intersection	-10717
▁partnerships	-10718
▁reproduction	-10719
▁personalities	-10720
▁revolutionary	-10721
▁characteristic	-10722
cup	-10723
flu	-10724
isc	-10725
jan	-10726
lla	-10727
pol	-10728
una	-10729
▁cp	-10730
chel	-10731
copy	-10732
inch	-10733
inea	-10734
mail	-10735
rays	-10736
▁1.3	-10737
▁50-	-10738
▁gag	-10739
▁geo	-10740
▁haz	-10741
▁lol	-10742
▁mes	-10743
▁sms	-10744
cture	-10745
cycle	-10746
idesp	-10747
ivals	-10748
ocity	-10749
pound	-10750
▁alan	-10751
▁dean	-10752
▁duty	-10753
▁ebay	-10754
▁fred	-10755
▁grey	-10756
▁inqu	-10757
▁lama	-10758
▁liby	-10759
▁mama	-10760
▁moma	-10761
▁pron	-10762
▁stir	-10763
▁trap	-10764
minded	-10765
ortion	-10766
▁alike	-10767
▁baker	-10768
▁beast	-10769
▁blend	-10770
▁chunk	-10771
▁codes	-10772
▁congr	-10773
▁cried	-10774
▁deter	-10775
▁diego	-10776
▁escap	-10777
▁faint	-10778
▁folds	-10779
▁guilt	-10780
▁hairs	-10781
▁hence	-10782
▁kidna	-10783
▁nepal	-10784
▁occas	-10785
▁pearl	-10786
▁physi	-10787
▁relie	-10788
▁repet	-10789
▁rolls	-10790
▁siber	-10791
▁suits	-10792
▁tenth	-10793
▁wells	-10794
conomic	-10795
fulness	-10796
▁acumen	-10797
▁archae	-10798
▁biases	-10799
▁bloody	-10800
▁confir	-10801
▁cousin	-10802
▁crafts	-10803
▁exceed	-10804
▁guinea	-10805
▁hammer	-10806
▁heroin	-10807
▁johnny	-10808
▁julian	-10809
▁league	-10810
▁mutual	-10811
▁nathan	-10812
▁nicely	-10813
▁philip	-10814
▁pilots	-10815
▁purely	-10816
▁scarce	-10817
▁steady	-10818
▁tricky	-10819
▁violin	-10820
▁voters	-10821
▁widesp	-10822
▁wished	-10823
assembly	-10824
▁auditor	-10825
▁babylon	-10826
▁browser	-10827
▁censors	-10828
▁chaotic	-10829
▁chemist	-10830
▁cousins	-10831
▁crystal	-10832
▁denmark	-10833
▁devoted	-10834
▁dispers	-10835
▁examine	-10836
▁explode	-10837
▁honesty	-10838
▁jewelry	-10839
▁minimal	-10840
▁montana	-10841
▁morally	-10842
▁natasha	-10843
▁newborn	-10844
▁notions	-10845
▁nucleus	-10846
▁pathway	-10847
▁slowing	-10848
▁swedish	-10849
▁tourist	-10850
▁unified	-10851
▁viewing	-10852
▁advocate	-10853
▁buddhist	-10854
▁colorful	-10855
▁commonly	-10856
▁equipped	-10857
▁guardian	-10858
▁headline	-10859
▁marginal	-10860
▁obstacle	-10861
▁operates	-10862
▁operator	-10863
▁outbreak	-10864
▁passport	-10865
▁pressing	-10866
▁producer	-10867
▁pursuing	-10868
▁rainfall	-10869
▁sections	-10870
▁suburban	-10871
▁supports	-10872
▁temporal	-10873
▁unaccept	-10874
▁apologize	-10875
▁argentina	-10876
▁assistant	-10877
▁automatic	-10878
▁cathedral	-10879
▁displaced	-10880
▁distorted	-10881
▁galleries	-10882
▁impressed	-10883
▁inflation	-10884
▁libraries	-10885
▁limestone	-10886
▁northeast	-10887
▁practiced	-10888
▁projected	-10889
▁recovered	-10890
▁sequenced	-10891
▁strengths	-10892
▁struggled	-10893
▁successes	-10894
▁supercond	-10895
engineering	-10896
▁acceptable	-10897
▁accounting	-10898
▁basketball	-10899
▁diagnostic	-10900
▁disconnect	-10901
▁enthusiasm	-10902
▁friendship	-10903
▁meditation	-10904
▁pedestrian	-10905
▁procedures	-10906
▁quantities	-10907
▁regenerate	-10908
▁regulation	-10909
▁staggering	-10910
▁standpoint	-10911
▁widespread	-10912
▁adolescence	-10913
▁chromosomes	-10914
▁controversy	-10915
▁expectation	-10916
▁frustrating	-10917
▁questioning	-10918
▁remembering	-10919
▁stimulation	-10920
▁willingness	-10921
▁wonderfully	-10922
▁biologically	-10923
▁disappearing	-10924
▁michelangelo	-10925
▁refrigerator	-10926
▁independently	-10927
▁manufacturers	-10928
▁entrepreneurial	-10929
100	-10930
300	-10931
bus	-10932
cet	-10933
jud	-10934
mes	-10935
pay	-10936
zer	-10937
▁53	-10938
▁mi	-10939
amas	-10940
bian	-10941
cale	-10942
cium	-10943
core	-10944
ctar	-10945
intu	-10946
isan	-10947
mass	-10948
neum	-10949
nutr	-10950
phia	-10951
ptic	-10952
robi	-10953
spec	-10954
zuel	-10955
▁185	-10956
▁aph	-10957
▁dod	-10958
▁lhc	-10959
▁ngo	-10960
▁nsa	-10961
▁obe	-10962
▁rud	-10963
▁sap	-10964
arial	-10965
arium	-10966
berty	-10967
gered	-10968
grand	-10969
inger	-10970
lical	-10971
munic	-10972
roots	-10973
sight	-10974
vance	-10975
▁1991	-10976
▁barb	-10977
▁cram	-10978
▁edin	-10979
▁gosh	-10980
▁hood	-10981
▁keen	-10982
▁moms	-10983
▁mund	-10984
▁nail	-10985
▁oecd	-10986
▁oops	-10987
▁quot	-10988
▁sixt	-10989
▁skip	-10990
▁slam	-10991
▁slip	-10992
▁trek	-10993
angers	-10994
depend	-10995
irling	-10996
tering	-10997
▁arise	-10998
▁crank	-10999
▁dalai	-11000
▁dates	-11001
▁doses	-11002
▁fails	-11003
▁firms	-11004
▁gamma	-11005
▁glory	-11006
▁holoc	-11007
▁jokes	-11008
▁lakes	-11009
▁leone	-11010
▁midst	-11011
▁noble	-11012
▁peaks	-11013
▁pitts	-11014
▁spike	-11015
▁steer	-11016
▁strat	-11017
▁sucks	-11018
▁swing	-11019
▁tesla	-11020
acities	-11021
genesis	-11022
million	-11023
umental	-11024
version	-11025
▁bosnia	-11026
▁cement	-11027
▁coined	-11028
▁colomb	-11029
▁defect	-11030
▁depths	-11031
▁eighty	-11032
▁elders	-11033
▁facult	-11034
▁fixing	-11035
▁intend	-11036
▁judges	-11037
▁labels	-11038
▁louder	-11039
▁marked	-11040
▁nectar	-11041
▁nicole	-11042
▁prosec	-11043
▁retina	-11044
▁slaves	-11045
▁spends	-11046
▁truths	-11047
▁warren	-11048
adelphia	-11049
specific	-11050
▁250,000	-11051
▁anatomy	-11052
▁blocked	-11053
▁bluefin	-11054
▁careers	-11055
▁confirm	-11056
▁cracked	-11057
▁crushed	-11058
▁desires	-11059
▁ethanol	-11060
▁finland	-11061
▁harmful	-11062
▁monsoon	-11063
▁posture	-11064
▁prisons	-11065
▁recruit	-11066
▁redisco	-11067
▁rescued	-11068
▁secular	-11069
▁skilled	-11070
▁sounded	-11071
▁sputnik	-11072
▁summary	-11073
▁surplus	-11074
▁tickets	-11075
▁triumph	-11076
▁victory	-11077
▁worship	-11078
▁adaptive	-11079
▁appropri	-11080
▁athletes	-11081
▁balanced	-11082
▁calendar	-11083
▁constitu	-11084
▁declared	-11085
▁doubling	-11086
▁evaluate	-11087
▁exploded	-11088
▁graffiti	-11089
▁michigan	-11090
▁modified	-11091
▁potatoes	-11092
▁presents	-11093
▁releases	-11094
▁sacrific	-11095
▁stealing	-11096
▁venezuel	-11097
▁aggregate	-11098
▁bandwidth	-11099
▁champions	-11100
▁cigarette	-11101
▁directors	-11102
▁edinburgh	-11103
▁fragments	-11104
▁geometric	-11105
▁graduates	-11106
▁humankind	-11107
▁improvise	-11108
▁inclusive	-11109
▁mythology	-11110
▁preserved	-11111
▁releasing	-11112
▁strangely	-11113
▁attraction	-11114
▁attributes	-11115
▁brainstorm	-11116
▁comparable	-11117
▁conscience	-11118
▁globalized	-11119
▁harvesting	-11120
▁imperative	-11121
▁multiverse	-11122
▁parameters	-11123
▁repeatedly	-11124
▁catastrophe	-11125
▁celebrating	-11126
▁coincidence	-11127
▁commodities	-11128
▁conferences	-11129
▁countryside	-11130
▁flexibility	-11131
▁introducing	-11132
▁spontaneous	-11133
▁acceleration	-11134
▁collaborator	-11135
▁consistently	-11136
▁philadelphia	-11137
▁unemployment	-11138
▁cybercriminals	-11139
▁environmentally	-11140
add	-11141
eys	-11142
igg	-11143
low	-11144
rer	-11145
tim	-11146
urt	-11147
▁cn	-11148
▁dm	-11149
▁sb	-11150
aste	-11151
atts	-11152
axis	-11153
bled	-11154
bone	-11155
eing	-11156
flow	-11157
inas	-11158
isha	-11159
onal	-11160
oped	-11161
orph	-11162
ousy	-11163
rine	-11164
uled	-11165
▁180	-11166
▁900	-11167
▁edi	-11168
▁esp	-11169
▁han	-11170
▁lee	-11171
▁lyn	-11172
▁plu	-11173
▁sid	-11174
▁tid	-11175
aurus	-11176
backs	-11177
ceton	-11178
ensed	-11179
erent	-11180
essim	-11181
fight	-11182
ilage	-11183
imony	-11184
oster	-11185
phing	-11186
shine	-11187
story	-11188
wheel	-11189
▁2015	-11190
▁argu	-11191
▁bamb	-11192
▁belo	-11193
▁doug	-11194
▁fame	-11195
▁fans	-11196
▁horn	-11197
▁jean	-11198
▁leak	-11199
▁peru	-11200
▁rept	-11201
▁sham	-11202
▁stam	-11203
▁tink	-11204
▁unin	-11205
irable	-11206
lethal	-11207
levant	-11208
lights	-11209
ogenic	-11210
resist	-11211
second	-11212
▁arose	-11213
▁boson	-11214
▁chore	-11215
▁crust	-11216
▁eager	-11217
▁elbow	-11218
▁forty	-11219
▁incub	-11220
▁keith	-11221
▁moist	-11222
▁ninth	-11223
▁oblig	-11224
▁orang	-11225
▁pneum	-11226
▁recla	-11227
▁sands	-11228
▁scope	-11229
▁templ	-11230
▁vegas	-11231
▁votes	-11232
▁wavel	-11233
inators	-11234
natural	-11235
▁agrees	-11236
▁banana	-11237
▁biased	-11238
▁bucket	-11239
▁bypass	-11240
▁coding	-11241
▁condom	-11242
▁crispr	-11243
▁dancer	-11244
▁expose	-11245
▁fights	-11246
▁hacker	-11247
▁improb	-11248
▁issued	-11249
▁jordan	-11250
▁ladder	-11251
▁larvae	-11252
▁lester	-11253
▁listed	-11254
▁pessim	-11255
▁potato	-11256
▁slowed	-11257
▁spades	-11258
▁spouse	-11259
▁undert	-11260
▁urgent	-11261
▁wilson	-11262
vascular	-11263
▁400,000	-11264
▁anytime	-11265
▁calcium	-11266
▁checked	-11267
▁compens	-11268
▁congrat	-11269
▁donated	-11270
▁epiphan	-11271
▁fingert	-11272
▁fossils	-11273
▁heights	-11274
▁inspect	-11275
▁knocked	-11276
▁laundry	-11277
▁literal	-11278
▁namibia	-11279
▁painter	-11280
▁portray	-11281
▁posters	-11282
▁puberty	-11283
▁reduces	-11284
▁refined	-11285
▁regrets	-11286
▁reinfor	-11287
▁reviews	-11288
▁sailing	-11289
▁scanned	-11290
▁seafood	-11291
▁spheres	-11292
▁squared	-11293
▁thirdly	-11294
▁tracked	-11295
▁utility	-11296
▁winners	-11297
▁wounded	-11298
▁annoying	-11299
▁blocking	-11300
▁blogging	-11301
▁certific	-11302
▁civilian	-11303
▁climbers	-11304
▁diplomat	-11305
▁dreaming	-11306
▁executed	-11307
▁flourish	-11308
▁glaciers	-11309
▁governor	-11310
▁impaired	-11311
▁imprison	-11312
▁missions	-11313
▁mustache	-11314
▁optimize	-11315
▁persuade	-11316
▁reporter	-11317
▁terminal	-11318
▁velocity	-11319
▁visceral	-11320
▁workshop	-11321
generation	-11322
ustainable	-11323
▁accepting	-11324
▁afterward	-11325
▁arbitrary	-11326
▁assembled	-11327
▁cartilage	-11328
▁conductor	-11329
▁delighted	-11330
▁discussed	-11331
▁educators	-11332
▁exclusive	-11333
▁filmmaker	-11334
▁honeybees	-11335
▁intrinsic	-11336
▁mysteries	-11337
▁parasites	-11338
▁pregnancy	-11339
▁princeton	-11340
▁promising	-11341
▁varieties	-11342
▁worldview	-11343
▁articulate	-11344
▁auditorium	-11345
▁compressed	-11346
▁divergence	-11347
▁grassroots	-11348
▁pollutants	-11349
▁randomness	-11350
▁unemployed	-11351
▁wavelength	-11352
▁accountable	-11353
▁battlefield	-11354
▁destructive	-11355
▁eradication	-11356
▁maintaining	-11357
▁mammography	-11358
▁problematic	-11359
▁reinventing	-11360
▁astronomical	-11361
▁demographics	-11362
▁unacceptable	-11363
▁conservatives	-11364
▁consideration	-11365
▁contradiction	-11366
▁enlightenment	-11367
▁undergraduate	-11368
80	-11369
fu	-11370
ni	-11371
600	-11372
cam	-11373
cko	-11374
hib	-11375
iza	-11376
mia	-11377
ois	-11378
raz	-11379
sur	-11380
▁54	-11381
▁59	-11382
▁ay	-11383
▁ov	-11384
▁um	-11385
▁zo	-11386
aire	-11387
hops	-11388
iner	-11389
ocks	-11390
plet	-11391
real	-11392
uate	-11393
verb	-11394
wall	-11395
▁40-	-11396
▁cav	-11397
▁dug	-11398
▁fee	-11399
▁pup	-11400
▁seb	-11401
▁sue	-11402
▁vig	-11403
ached	-11404
apses	-11405
avors	-11406
elect	-11407
integ	-11408
liers	-11409
ocamp	-11410
opoly	-11411
otive	-11412
shore	-11413
vania	-11414
▁1945	-11415
▁bunk	-11416
▁chin	-11417
▁gaze	-11418
▁pops	-11419
▁prag	-11420
▁rank	-11421
▁sabb	-11422
▁snap	-11423
▁swam	-11424
advant	-11425
health	-11426
▁arter	-11427
▁backs	-11428
▁blade	-11429
▁canal	-11430
▁chalk	-11431
▁desal	-11432
▁drift	-11433
▁fairy	-11434
▁fleet	-11435
▁hurts	-11436
▁inade	-11437
▁inexp	-11438
▁kings	-11439
▁landf	-11440
▁lasts	-11441
▁limbs	-11442
▁matth	-11443
▁mortg	-11444
▁perse	-11445
▁radar	-11446
▁recip	-11447
▁resid	-11448
▁rhino	-11449
▁ruins	-11450
▁skies	-11451
▁skype	-11452
▁spawn	-11453
▁spine	-11454
▁sword	-11455
▁ushah	-11456
▁wrink	-11457
ogether	-11458
▁avenue	-11459
▁bhutan	-11460
▁bounce	-11461
▁bumble	-11462
▁camels	-11463
▁decomp	-11464
▁defeat	-11465
▁differ	-11466
▁entity	-11467
▁evergl	-11468
▁fierce	-11469
▁firmly	-11470
▁gallon	-11471
▁harass	-11472
▁heroic	-11473
▁hotter	-11474
▁incons	-11475
▁misery	-11476
▁nuclei	-11477
▁puppet	-11478
▁shield	-11479
▁taller	-11480
▁tastes	-11481
▁theirs	-11482
▁thirds	-11483
▁timber	-11484
▁titles	-11485
building	-11486
cellular	-11487
chemical	-11488
osterone	-11489
▁300,000	-11490
▁abandon	-11491
▁aquatic	-11492
▁babbage	-11493
▁cabinet	-11494
▁carpent	-11495
▁cleaned	-11496
▁compact	-11497
▁episode	-11498
▁erectus	-11499
▁forcing	-11500
▁funeral	-11501
▁heavens	-11502
▁justify	-11503
▁liberia	-11504
▁mammoth	-11505
▁mentors	-11506
▁metrics	-11507
▁migrate	-11508
▁millise	-11509
▁multipl	-11510
▁mundane	-11511
▁recycle	-11512
▁settled	-11513
▁shipped	-11514
▁singers	-11515
▁symptom	-11516
▁volumes	-11517
condition	-11518
organized	-11519
▁agnostic	-11520
▁clapping	-11521
▁cleaning	-11522
▁commands	-11523
▁diagnose	-11524
▁drilling	-11525
▁enabling	-11526
▁envelope	-11527
▁fighters	-11528
▁founding	-11529
▁happiest	-11530
▁indirect	-11531
▁inviting	-11532
▁juggling	-11533
▁liberals	-11534
▁likewise	-11535
▁midnight	-11536
▁observer	-11537
▁province	-11538
▁receiver	-11539
▁redefine	-11540
▁referred	-11541
▁russians	-11542
▁sensible	-11543
▁sessions	-11544
▁shortcut	-11545
▁shouting	-11546
▁stewards	-11547
▁stumbled	-11548
▁sunshine	-11549
▁tedsters	-11550
▁unstable	-11551
▁veterans	-11552
▁williams	-11553
▁caribbean	-11554
▁cellphone	-11555
▁certainty	-11556
▁declining	-11557
▁demanding	-11558
▁disadvant	-11559
▁gratitude	-11560
▁hamburger	-11561
▁hippocamp	-11562
▁illnesses	-11563
▁implanted	-11564
▁instances	-11565
▁kilograms	-11566
▁neocortex	-11567
▁nurturing	-11568
▁palestine	-11569
▁paralysis	-11570
▁pervasive	-11571
▁relevance	-11572
▁resonance	-11573
▁schooling	-11574
▁selective	-11575
▁simulated	-11576
▁southeast	-11577
▁sovereign	-11578
▁submitted	-11579
▁survivors	-11580
▁vibrating	-11581
▁wandering	-11582
▁assessment	-11583
▁culturally	-11584
▁explicitly	-11585
▁humanities	-11586
▁irrigation	-11587
▁pesticides	-11588
▁pittsburgh	-11589
▁programmer	-11590
▁reasonably	-11591
▁republican	-11592
▁thankfully	-11593
▁unintended	-11594
▁accompanied	-11595
▁aspirations	-11596
▁automobiles	-11597
▁conclusions	-11598
▁existential	-11599
▁fundraising	-11600
▁meaningless	-11601
▁negotiation	-11602
▁specialists	-11603
▁neurogenesis	-11604
▁quantitative	-11605
▁testosterone	-11606
▁urbanization	-11607
▁photographers	-11608
ko	-11609
rh	-11610
800	-11611
dog	-11612
sex	-11613
syl	-11614
▁58	-11615
▁ao	-11616
▁kr	-11617
▁mm	-11618
▁rs	-11619
acle	-11620
atus	-11621
dest	-11622
esty	-11623
fits	-11624
ials	-11625
ican	-11626
ingo	-11627
obic	-11628
tles	-11629
uten	-11630
wire	-11631
zler	-11632
▁140	-11633
▁2.5	-11634
▁abu	-11635
▁bmw	-11636
▁cer	-11637
▁sha	-11638
▁tig	-11639
▁tou	-11640
asant	-11641
frame	-11642
gebra	-11643
ibera	-11644
illes	-11645
kings	-11646
negie	-11647
oping	-11648
tends	-11649
wired	-11650
▁amph	-11651
▁auto	-11652
▁balk	-11653
▁bulk	-11654
▁cafe	-11655
▁cues	-11656
▁dall	-11657
▁deny	-11658
▁dian	-11659
▁ease	-11660
▁eros	-11661
▁exit	-11662
▁goss	-11663
▁grip	-11664
▁lobe	-11665
▁mash	-11666
▁peps	-11667
▁rear	-11668
▁shir	-11669
▁sket	-11670
▁swar	-11671
▁tect	-11672
▁wage	-11673
atient	-11674
cripts	-11675
esteem	-11676
etical	-11677
hythms	-11678
ignant	-11679
rontal	-11680
ustice	-11681
▁ambul	-11682
▁angel	-11683
▁arrog	-11684
▁awake	-11685
▁bikes	-11686
▁epile	-11687
▁excer	-11688
▁frees	-11689
▁freud	-11690
▁grabs	-11691
▁halls	-11692
▁hobby	-11693
▁idiot	-11694
▁inert	-11695
▁insur	-11696
▁jerry	-11697
▁kilos	-11698
▁kyoto	-11699
▁locom	-11700
▁myths	-11701
▁oppon	-11702
▁riots	-11703
▁roman	-11704
▁saint	-11705
▁sanct	-11706
▁scand	-11707
▁simon	-11708
▁snaps	-11709
▁swamp	-11710
▁theft	-11711
▁tread	-11712
▁tuber	-11713
balance	-11714
centric	-11715
rospect	-11716
▁academ	-11717
▁arrows	-11718
▁balcon	-11719
▁bamboo	-11720
▁collar	-11721
▁cooler	-11722
▁copern	-11723
▁digits	-11724
▁edward	-11725
▁enters	-11726
▁falcon	-11727
▁finite	-11728
▁freeze	-11729
▁hollow	-11730
▁hotels	-11731
▁lasted	-11732
▁learns	-11733
▁legend	-11734
▁mosque	-11735
▁ninety	-11736
▁orgasm	-11737
▁prejud	-11738
▁priest	-11739
▁prizes	-11740
▁prohib	-11741
▁radius	-11742
▁samuel	-11743
▁scaled	-11744
▁sought	-11745
▁statue	-11746
▁taiwan	-11747
▁tender	-11748
▁thumbs	-11749
▁transf	-11750
▁triple	-11751
▁ultras	-11752
▁valued	-11753
▁voyage	-11754
▁wilder	-11755
▁writes	-11756
attering	-11757
breaking	-11758
conflict	-11759
ensively	-11760
friendly	-11761
ictional	-11762
sylvania	-11763
▁addicts	-11764
▁anxious	-11765
▁atheist	-11766
▁beaches	-11767
▁broadly	-11768
▁caltech	-11769
▁curator	-11770
▁descend	-11771
▁dragged	-11772
▁editing	-11773
▁francis	-11774
▁gaining	-11775
▁georgia	-11776
▁hawking	-11777
▁holiday	-11778
▁hunters	-11779
▁malnutr	-11780
▁manages	-11781
▁mustard	-11782
▁needing	-11783
▁placebo	-11784
▁quietly	-11785
▁reperto	-11786
▁rhythms	-11787
▁ringing	-11788
▁scripts	-11789
▁seasons	-11790
▁shuttle	-11791
▁somalia	-11792
▁teszler	-11793
▁volcano	-11794
▁warfare	-11795
▁wolfram	-11796
istically	-11797
▁abnormal	-11798
▁backpack	-11799
▁bureaucr	-11800
▁carnegie	-11801
▁delicate	-11802
▁franklin	-11803
▁genomics	-11804
▁incarcer	-11805
▁insisted	-11806
▁notebook	-11807
▁obtained	-11808
▁paradise	-11809
▁pentagon	-11810
▁portable	-11811
▁reactors	-11812
▁scotland	-11813
▁settings	-11814
▁sketches	-11815
▁strictly	-11816
▁survivor	-11817
▁synapses	-11818
▁treasure	-11819
▁ushahidi	-11820
▁volcanic	-11821
▁addressed	-11822
▁affection	-11823
▁ambiguity	-11824
▁campaigns	-11825
▁cognition	-11826
▁criticism	-11827
▁darwinian	-11828
▁decentral	-11829
▁donations	-11830
▁egyptians	-11831
▁eradicate	-11832
▁executive	-11833
▁exquisite	-11834
▁instincts	-11835
▁intersect	-11836
▁launching	-11837
▁marvelous	-11838
▁packaging	-11839
▁pediatric	-11840
▁rejection	-11841
▁routinely	-11842
▁satisfied	-11843
▁scenarios	-11844
▁southwest	-11845
▁stressful	-11846
▁synthesis	-11847
▁triangles	-11848
▁aesthetics	-11849
▁altogether	-11850
▁animations	-11851
▁antibodies	-11852
▁appliances	-11853
▁attachment	-11854
▁cigarettes	-11855
▁coordinate	-11856
▁identities	-11857
▁indication	-11858
▁infinitely	-11859
▁influences	-11860
▁ironically	-11861
▁irrelevant	-11862
▁nonviolent	-11863
▁photosynth	-11864
▁prefrontal	-11865
▁registered	-11866
▁specialist	-11867
▁suspicious	-11868
▁vegetation	-11869
▁accelerated	-11870
▁appreciated	-11871
▁circulation	-11872
▁continually	-11873
▁departments	-11874
▁efficiently	-11875
▁ideological	-11876
▁initiatives	-11877
▁negotiating	-11878
▁operational	-11879
▁projections	-11880
▁requirement	-11881
▁stereotypes	-11882
▁disconnected	-11883
▁interconnect	-11884
▁malnutrition	-11885
▁pennsylvania	-11886
▁tremendously	-11887
▁appropriately	-11888
▁comprehensive	-11889
▁developmental	-11890
▁improvisation	-11891
▁unpredictable	-11892
▁discrimination	-11893
▁nanotechnology	-11894
▁organizational	-11895
hu	-11896
boy	-11897
fur	-11898
nas	-11899
ths	-11900
tic	-11901
uan	-11902
ulu	-11903
▁64	-11904
▁fg	-11905
▁ft	-11906
▁hg	-11907
▁ow	-11908
▁sj	-11909
acre	-11910
bons	-11911
dles	-11912
eren	-11913
eros	-11914
etts	-11915
hill	-11916
imic	-11917
mble	-11918
text	-11919
ucky	-11920
▁18-	-11921
▁186	-11922
▁aur	-11923
▁aus	-11924
▁bou	-11925
▁gur	-11926
▁gym	-11927
▁kam	-11928
▁nai	-11929
▁nie	-11930
▁nud	-11931
▁quo	-11932
▁rou	-11933
▁syd	-11934
▁umb	-11935
▁ups	-11936
▁wax	-11937
▁wiz	-11938
achus	-11939
bands	-11940
borne	-11941
ected	-11942
leans	-11943
lined	-11944
meter	-11945
names	-11946
plete	-11947
stick	-11948
ucose	-11949
▁1940	-11950
▁1993	-11951
▁axes	-11952
▁cann	-11953
▁clap	-11954
▁dash	-11955
▁dave	-11956
▁dude	-11957
▁gira	-11958
▁gord	-11959
▁hers	-11960
▁ipad	-11961
▁jill	-11962
▁merm	-11963
▁nerd	-11964
▁pets	-11965
▁rhet	-11966
▁risd	-11967
▁sher	-11968
▁skys	-11969
▁stap	-11970
▁sums	-11971
▁taxi	-11972
▁tilt	-11973
aching	-11974
astian	-11975
ending	-11976
engers	-11977
inates	-11978
linear	-11979
master	-11980
ounded	-11981
ranean	-11982
verbal	-11983
▁agile	-11984
▁amput	-11985
▁bands	-11986
▁banjo	-11987
▁beeth	-11988
▁bumps	-11989
▁centr	-11990
▁cheet	-11991
▁compr	-11992
▁dealt	-11993
▁delta	-11994
▁desce	-11995
▁dwell	-11996
▁fatty	-11997
▁gifts	-11998
▁handy	-11999
▁icons	-12000
▁intel	-12001
▁libya	-12002
▁linux	-12003
▁marri	-12004
▁merit	-12005
▁monet	-12006
▁neutr	-12007
▁ozone	-12008
▁penis	-12009
▁pools	-12010
▁poses	-12011
▁rooft	-12012
▁scare	-12013
▁shack	-12014
▁susan	-12015
appropr	-12016
culosis	-12017
develop	-12018
fashion	-12019
idental	-12020
ologies	-12021
rations	-12022
sterdam	-12023
umbling	-12024
▁acquis	-12025
▁bookst	-12026
▁carcin	-12027
▁cooked	-12028
▁darfur	-12029
▁edited	-12030
▁indoor	-12031
▁kibera	-12032
▁lenses	-12033
▁loaded	-12034
▁meadow	-12035
▁overse	-12036
▁poorly	-12037
▁quotes	-12038
▁reflex	-12039
▁resort	-12040
▁slogan	-12041
▁sulfur	-12042
▁tennis	-12043
▁thrive	-12044
▁toxins	-12045
▁turbul	-12046
▁underp	-12047
▁underw	-12048
▁venice	-12049
▁wallet	-12050
ithmetic	-12051
▁algebra	-12052
▁athlete	-12053
▁barrels	-12054
▁crowded	-12055
▁deserts	-12056
▁gallons	-12057
▁glucose	-12058
▁lasting	-12059
▁margins	-12060
▁nairobi	-12061
▁nurture	-12062
▁orleans	-12063
▁outdoor	-12064
▁partial	-12065
▁pioneer	-12066
▁rehears	-12067
▁romance	-12068
▁sapiens	-12069
▁satisfy	-12070
▁shallow	-12071
▁thunder	-12072
▁veterin	-12073
▁wasting	-12074
achusetts	-12075
▁approval	-12076
▁balloons	-12077
▁composer	-12078
▁crashing	-12079
▁crawling	-12080
▁distress	-12081
▁donation	-12082
▁drowning	-12083
▁duration	-12084
▁embraced	-12085
▁entitled	-12086
▁explorer	-12087
▁horrific	-12088
▁inconven	-12089
▁interrog	-12090
▁meanings	-12091
▁noticing	-12092
▁threaten	-12093
▁academics	-12094
▁appearing	-12095
▁beethoven	-12096
▁certified	-12097
▁charities	-12098
▁confusion	-12099
▁educating	-12100
▁epidemics	-12101
▁explorers	-12102
▁histories	-12103
▁holocaust	-12104
▁imaginary	-12105
▁inconsist	-12106
▁injustice	-12107
▁intrigued	-12108
▁metaphors	-12109
▁ministers	-12110
▁northwest	-12111
▁norwegian	-12112
▁qualified	-12113
▁streaming	-12114
▁surprises	-12115
▁swallowed	-12116
▁thylacine	-12117
▁triggered	-12118
▁venezuela	-12119
▁waterfall	-12120
▁beginnings	-12121
▁calculator	-12122
▁censorship	-12123
▁contagious	-12124
▁distribute	-12125
▁everglades	-12126
▁excellence	-12127
▁guaranteed	-12128
▁homosexual	-12129
▁innovators	-12130
▁limitation	-12131
▁loneliness	-12132
▁propulsion	-12133
▁protective	-12134
▁repertoire	-12135
▁restricted	-12136
▁satisfying	-12137
▁temptation	-12138
▁worthwhile	-12139
▁citizenship	-12140
▁competitors	-12141
▁hippocampus	-12142
▁inefficient	-12143
▁instability	-12144
▁prototyping	-12145
▁publication	-12146
▁scholarship	-12147
▁suggestions	-12148
▁threatening	-12149
▁variability	-12150
▁achievements	-12151
▁combinations	-12152
▁metropolitan	-12153
▁negotiations	-12154
▁neurological	-12155
▁reproductive	-12156
▁surroundings	-12157
▁tuberculosis	-12158
▁biotechnology	-12159
▁breakthroughs	-12160
▁intrinsically	-12161
▁massachusetts	-12162
▁industrialized	-12163
▁mathematically	-12164
aic	-12165
bes	-12166
dad	-12167
ols	-12168
pot	-12169
▁39	-12170
▁4.	-12171
▁fm	-12172
▁ps	-12173
▁rl	-12174
▁si	-12175
▁sr	-12176
▁tb	-12177
abad	-12178
arer	-12179
aser	-12180
eman	-12181
iflu	-12182
onto	-12183
orth	-12184
pace	-12185
rett	-12186
rina	-12187
stal	-12188
▁160	-12189
▁bac	-12190
▁bak	-12191
▁cue	-12192
▁eag	-12193
▁gru	-12194
▁hug	-12195
▁ike	-12196
▁isa	-12197
▁kim	-12198
▁lag	-12199
▁muh	-12200
▁onc	-12201
▁ove	-12202
▁piv	-12203
▁rab	-12204
▁sri	-12205
▁sug	-12206
▁tad	-12207
▁upl	-12208
acent	-12209
aning	-12210
bucks	-12211
cuses	-12212
erers	-12213
ibati	-12214
icism	-12215
iotic	-12216
olith	-12217
regon	-12218
rians	-12219
ucked	-12220
▁1968	-12221
▁1989	-12222
▁200-	-12223
▁adul	-12224
▁bach	-12225
▁bund	-12226
▁coma	-12227
▁dove	-12228
▁dune	-12229
▁ecst	-12230
▁envy	-12231
▁feas	-12232
▁flop	-12233
▁gram	-12234
▁jury	-12235
▁kitt	-12236
▁lazy	-12237
▁lett	-12238
▁mism	-12239
▁mite	-12240
▁pine	-12241
▁pist	-12242
▁plun	-12243
▁ramp	-12244
▁spra	-12245
▁todd	-12246
▁turb	-12247
▁ucla	-12248
▁unne	-12249
▁uran	-12250
▁yale	-12251
abytes	-12252
asking	-12253
carbon	-12254
igrade	-12255
imicry	-12256
ocated	-12257
strong	-12258
▁agnes	-12259
▁allen	-12260
▁amino	-12261
▁appar	-12262
▁blows	-12263
▁botan	-12264
▁bruce	-12265
▁burns	-12266
▁cubic	-12267
▁darpa	-12268
▁dunes	-12269
▁emily	-12270
▁flown	-12271
▁gecko	-12272
▁germs	-12273
▁goats	-12274
▁homin	-12275
▁lemon	-12276
▁lined	-12277
▁loops	-12278
▁merch	-12279
▁olive	-12280
▁parap	-12281
▁petro	-12282
▁pries	-12283
▁races	-12284
▁rides	-12285
▁secre	-12286
▁sting	-12287
▁tales	-12288
▁trait	-12289
▁trump	-12290
▁tutor	-12291
▁unity	-12292
▁versa	-12293
creatic	-12294
keeping	-12295
nostics	-12296
▁dallas	-12297
▁denied	-12298
▁dining	-12299
▁dumped	-12300
▁humane	-12301
▁impose	-12302
▁inputs	-12303
▁jersey	-12304
▁marcus	-12305
▁murray	-12306
▁oregon	-12307
▁phthal	-12308
▁pirate	-12309
▁poland	-12310
▁poured	-12311
▁reagan	-12312
▁reluct	-12313
▁rooted	-12314
▁sealed	-12315
▁shares	-12316
▁shells	-12317
▁stockp	-12318
▁stocks	-12319
▁stunts	-12320
▁sydney	-12321
▁throws	-12322
▁thrust	-12323
▁varied	-12324
▁waking	-12325
▁weekly	-12326
▁wolves	-12327
▁zipcar	-12328
ensitive	-12329
▁apprent	-12330
▁beloved	-12331
▁boiling	-12332
▁defines	-12333
▁erosion	-12334
▁excerpt	-12335
▁exhilar	-12336
▁expands	-12337
▁favelas	-12338
▁germans	-12339
▁grandma	-12340
▁inmates	-12341
▁kidneys	-12342
▁legally	-12343
▁lithium	-12344
▁mineral	-12345
▁missile	-12346
▁novelty	-12347
▁optimal	-12348
▁overlap	-12349
▁placing	-12350
▁rabbits	-12351
▁railway	-12352
▁replied	-12353
▁siberia	-12354
▁snowden	-12355
▁sterile	-12356
▁suburbs	-12357
▁tagging	-12358
▁tamiflu	-12359
▁titanic	-12360
▁toronto	-12361
▁tropics	-12362
▁tunisia	-12363
▁untouch	-12364
▁whisper	-12365
▁withdra	-12366
efficient	-12367
intuitive	-12368
ographing	-12369
wandering	-12370
▁addicted	-12371
▁adjacent	-12372
▁alliance	-12373
▁assigned	-12374
▁auditory	-12375
▁cambodia	-12376
▁collider	-12377
▁contacts	-12378
▁contexts	-12379
▁creators	-12380
▁crystall	-12381
▁degraded	-12382
▁emergent	-12383
▁employed	-12384
▁employee	-12385
▁epiphany	-12386
▁kiribati	-12387
▁matching	-12388
▁maximize	-12389
▁migraine	-12390
▁occupied	-12391
▁officers	-12392
▁pinpoint	-12393
▁policing	-12394
▁prevents	-12395
▁realizes	-12396
▁resolved	-12397
▁schedule	-12398
▁societal	-12399
▁stimulus	-12400
▁unnecess	-12401
▁weekends	-12402
organizing	-12403
▁amsterdam	-12404
▁confusing	-12405
▁contracts	-12406
▁corridors	-12407
▁cultivate	-12408
▁detectors	-12409
▁execution	-12410
▁exhausted	-12411
▁extensive	-12412
▁fictional	-12413
▁himalayas	-12414
▁historian	-12415
▁imperfect	-12416
▁injection	-12417
▁orphanage	-12418
▁personnel	-12419
▁pneumonia	-12420
▁sebastian	-12421
▁starbucks	-12422
▁whistling	-12423
▁ambassador	-12424
▁australian	-12425
▁automotive	-12426
▁complained	-12427
▁conspiracy	-12428
▁courageous	-12429
▁depressing	-12430
▁evaluation	-12431
▁executives	-12432
▁expressing	-12433
▁fingertips	-12434
▁inadequate	-12435
▁incomplete	-12436
▁intangible	-12437
▁pancreatic	-12438
▁prioritize	-12439
▁reflecting	-12440
▁telephones	-12441
▁trustworth	-12442
▁arrangement	-12443
▁convenience	-12444
▁imaginative	-12445
▁interdepend	-12446
▁medications	-12447
▁preventable	-12448
▁progressive	-12449
▁respiratory	-12450
▁commandments	-12451
▁developments	-12452
▁hypothetical	-12453
▁interviewing	-12454
▁manufacturer	-12455
▁similarities	-12456
▁corresponding	-12457
▁experimenting	-12458
▁investigating	-12459
▁manifestation	-12460
▁bioluminescence	-12461
▁desertification	-12462
▁internationally	-12463
12	-12464
su	-12465
aba	-12466
alt	-12467
bro	-12468
cro	-12469
exp	-12470
fts	-12471
gel	-12472
gus	-12473
sis	-12474
utt	-12475
▁82	-12476
▁bc	-12477
▁cc	-12478
▁iq	-12479
▁jc	-12480
▁mp	-12481
arks	-12482
assy	-12483
card	-12484
coal	-12485
cult	-12486
educ	-12487
enti	-12488
gher	-12489
hran	-12490
olar	-12491
orse	-12492
shot	-12493
ylan	-12494
▁14-	-12495
▁2.0	-12496
▁360	-12497
▁cad	-12498
▁cia	-12499
▁gum	-12500
▁heb	-12501
▁hoo	-12502
▁imf	-12503
▁mcc	-12504
▁nik	-12505
▁viv	-12506
▁wil	-12507
amous	-12508
ashes	-12509
corps	-12510
ieval	-12511
izona	-12512
otent	-12513
shirt	-12514
▁1800	-12515
▁1996	-12516
▁anch	-12517
▁andy	-12518
▁asym	-12519
▁bald	-12520
▁buys	-12521
▁coup	-12522
▁curs	-12523
▁doct	-12524
▁dodo	-12525
▁eman	-12526
▁evan	-12527
▁fuck	-12528
▁heel	-12529
▁ikea	-12530
▁ivan	-12531
▁kite	-12532
▁lent	-12533
▁lied	-12534
▁lure	-12535
▁mang	-12536
▁mola	-12537
▁numb	-12538
▁odys	-12539
▁pope	-12540
▁reli	-12541
▁ruin	-12542
▁swap	-12543
▁sync	-12544
▁unve	-12545
▁veil	-12546
▁wipe	-12547
anting	-12548
atemal	-12549
atical	-12550
giving	-12551
govern	-12552
imagin	-12553
itters	-12554
ologic	-12555
ounced	-12556
▁annoy	-12557
▁biote	-12558
▁chuck	-12559
▁clich	-12560
▁costa	-12561
▁crown	-12562
▁dylan	-12563
▁fraud	-12564
▁geese	-12565
▁grief	-12566
▁grind	-12567
▁hitch	-12568
▁kelly	-12569
▁nests	-12570
▁obliv	-12571
▁overd	-12572
▁paulo	-12573
▁pavil	-12574
▁pepsi	-12575
▁reads	-12576
▁rebel	-12577
▁traff	-12578
▁trunk	-12579
▁urine	-12580
▁valve	-12581
▁vapor	-12582
▁verge	-12583
▁vinci	-12584
▁wages	-12585
▁wreck	-12586
growing	-12587
massive	-12588
product	-12589
respect	-12590
writing	-12591
▁abused	-12592
▁aerial	-12593
▁barack	-12594
▁brakes	-12595
▁cardio	-12596
▁clicks	-12597
▁costly	-12598
▁cruise	-12599
▁curved	-12600
▁drinks	-12601
▁easter	-12602
▁enzyme	-12603
▁epidem	-12604
▁feared	-12605
▁gifted	-12606
▁hitler	-12607
▁hubble	-12608
▁ideals	-12609
▁joyful	-12610
▁lastly	-12611
▁melody	-12612
▁obsess	-12613
▁parked	-12614
▁poorer	-12615
▁popped	-12616
▁potter	-12617
▁praise	-12618
▁redund	-12619
▁refine	-12620
▁retrie	-12621
▁routes	-12622
▁salmon	-12623
▁smiles	-12624
▁spills	-12625
▁strand	-12626
▁syring	-12627
▁turtle	-12628
▁unexpl	-12629
▁vastly	-12630
▁verbal	-12631
lessness	-12632
positive	-12633
▁500,000	-12634
▁abusive	-12635
▁arizona	-12636
▁auction	-12637
▁austria	-12638
▁battles	-12639
▁crashed	-12640
▁critics	-12641
▁curtain	-12642
▁evident	-12643
▁excuses	-12644
▁faculty	-12645
▁fellows	-12646
▁fishery	-12647
▁focuses	-12648
▁founder	-12649
▁humming	-12650
▁invaded	-12651
▁katrina	-12652
▁learner	-12653
▁lesters	-12654
▁mediter	-12655
▁mermaid	-12656
▁payload	-12657
▁prevail	-12658
▁ranging	-12659
▁regimes	-12660
▁relaxed	-12661
▁retired	-12662
▁seroton	-12663
▁shaping	-12664
▁strains	-12665
▁tourism	-12666
▁trailer	-12667
▁virtues	-12668
astically	-12669
fashioned	-12670
resistant	-12671
▁absorbed	-12672
▁avoiding	-12673
▁backward	-12674
▁barefoot	-12675
▁charcoal	-12676
▁clicking	-12677
▁commerce	-12678
▁depended	-12679
▁develops	-12680
▁emphasis	-12681
▁estrogen	-12682
▁flooding	-12683
▁foraging	-12684
▁grounded	-12685
▁guatemal	-12686
▁guidance	-12687
▁highways	-12688
▁implicit	-12689
▁literary	-12690
▁meantime	-12691
▁minimize	-12692
▁needless	-12693
▁offshore	-12694
▁periodic	-12695
▁pristine	-12696
▁quantity	-12697
▁steering	-12698
▁sympathy	-12699
▁underway	-12700
▁unimagin	-12701
▁uploaded	-12702
performing	-12703
▁appealing	-12704
▁balancing	-12705
▁billboard	-12706
▁checklist	-12707
▁developer	-12708
▁followers	-12709
▁generator	-12710
▁inherited	-12711
▁interfere	-12712
▁marriages	-12713
▁preferred	-12714
▁recruited	-12715
▁rendering	-12716
▁revealing	-12717
▁shrinking	-12718
▁slaughter	-12719
▁supernova	-12720
▁switching	-12721
▁adventures	-12722
▁arithmetic	-12723
▁beekeepers	-12724
▁capacities	-12725
▁caregivers	-12726
▁cartoonist	-12727
▁centimeter	-12728
▁developers	-12729
▁eliminated	-12730
▁encryption	-12731
▁foreground	-12732
▁motorcycle	-12733
▁outrageous	-12734
▁settlement	-12735
▁storycorps	-12736
▁ultrasound	-12737
▁backgrounds	-12738
▁commercials	-12739
▁constrained	-12740
▁counterpart	-12741
▁enlightened	-12742
▁illustrates	-12743
▁immortality	-12744
▁implication	-12745
▁measurement	-12746
▁permanently	-12747
▁transferred	-12748
▁transistors	-12749
▁fluctuations	-12750
▁illustration	-12751
▁contributions	-12752
▁mediterranean	-12753
▁presentations	-12754
▁bioluminescent	-12755
▁cardiovascular	-12756
rr	-12757
400	-12758
chs	-12759
lec	-12760
obs	-12761
ods	-12762
otr	-12763
oys	-12764
pit	-12765
squ	-12766
tan	-12767
tha	-12768
uci	-12769
▁83	-12770
▁93	-12771
▁94	-12772
▁dd	-12773
▁rg	-12774
arin	-12775
bell	-12776
chet	-12777
cils	-12778
eard	-12779
ikes	-12780
last	-12781
ller	-12782
omon	-12783
opsy	-12784
otal	-12785
plan	-12786
rust	-12787
▁189	-12788
▁80-	-12789
▁ais	-12790
▁alf	-12791
▁bah	-12792
▁bil	-12793
▁cel	-12794
▁cnn	-12795
▁gib	-12796
▁kap	-12797
▁rus	-12798
▁til	-12799
5,000	-12800
ammad	-12801
eling	-12802
fting	-12803
garet	-12804
igate	-12805
lived	-12806
pable	-12807
rovir	-12808
style	-12809
▁1985	-12810
▁1986	-12811
▁aged	-12812
▁anom	-12813
▁apoc	-12814
▁aust	-12815
▁barn	-12816
▁bass	-12817
▁boil	-12818
▁bono	-12819
▁brow	-12820
▁carn	-12821
▁deer	-12822
▁duke	-12823
▁dwar	-12824
▁epic	-12825
▁hats	-12826
▁ideo	-12827
▁jaws	-12828
▁leds	-12829
▁maid	-12830
▁mald	-12831
▁merc	-12832
▁myst	-12833
▁navy	-12834
▁owns	-12835
▁pads	-12836
▁quar	-12837
▁ripp	-12838
▁sars	-12839
▁tops	-12840
▁watt	-12841
▁whit	-12842
▁yves	-12843
ateral	-12844
charge	-12845
consum	-12846
ellers	-12847
ermore	-12848
esters	-12849
houses	-12850
izable	-12851
liance	-12852
namese	-12853
ospher	-12854
razine	-12855
rendip	-12856
ulates	-12857
ussani	-12858
weeney	-12859
▁alleg	-12860
▁appet	-12861
▁armor	-12862
▁barry	-12863
▁basin	-12864
▁beans	-12865
▁bites	-12866
▁bloom	-12867
▁claws	-12868
▁crawl	-12869
▁erase	-12870
▁excav	-12871
▁fonts	-12872
▁fount	-12873
▁gangs	-12874
▁hindu	-12875
▁humil	-12876
▁ivory	-12877
▁jacqu	-12878
▁jeans	-12879
▁mites	-12880
▁moses	-12881
▁overt	-12882
▁oxide	-12883
▁poles	-12884
▁puppy	-12885
▁roger	-12886
▁ruled	-12887
▁saves	-12888
▁scuba	-12889
▁serge	-12890
▁slate	-12891
▁slipp	-12892
▁sober	-12893
▁stagn	-12894
▁stain	-12895
▁steak	-12896
▁stink	-12897
▁swear	-12898
▁tails	-12899
▁theat	-12900
▁tunas	-12901
▁vents	-12902
▁volat	-12903
amation	-12904
banisha	-12905
comfort	-12906
discipl	-12907
healthy	-12908
rection	-12909
▁80,000	-12910
▁aerody	-12911
▁affirm	-12912
▁artery	-12913
▁ballet	-12914
▁biodeg	-12915
▁bronze	-12916
▁cellul	-12917
▁discou	-12918
▁dissem	-12919
▁expend	-12920
▁fiscal	-12921
▁floods	-12922
▁hadron	-12923
▁insign	-12924
▁junior	-12925
▁kenyan	-12926
▁lakota	-12927
▁norman	-12928
▁novels	-12929
▁pepper	-12930
▁polite	-12931
▁regain	-12932
▁retain	-12933
▁senate	-12934
▁slices	-12935
▁stated	-12936
▁tapest	-12937
▁tehran	-12938
▁traded	-12939
▁tweets	-12940
▁wiring	-12941
▁wounds	-12942
ceptible	-12943
othermal	-12944
▁accused	-12945
▁assault	-12946
▁bonobos	-12947
▁breasts	-12948
▁cafeter	-12949
▁categor	-12950
▁crosses	-12951
▁embassy	-12952
▁fractal	-12953
▁lesbian	-12954
▁miracul	-12955
▁monthly	-12956
▁outward	-12957
▁reclaim	-12958
▁rightly	-12959
▁scholar	-12960
▁shuffle	-12961
▁spirits	-12962
▁textile	-12963
▁turtles	-12964
▁unthink	-12965
▁upwards	-12966
▁vicious	-12967
▁viewers	-12968
▁worries	-12969
▁amateurs	-12970
▁ancestry	-12971
▁aquarium	-12972
▁arranged	-12973
▁atrazine	-12974
▁bleeding	-12975
▁blessing	-12976
▁cochlear	-12977
▁colonial	-12978
▁currents	-12979
▁displace	-12980
▁disposal	-12981
▁doodling	-12982
▁elevated	-12983
▁extremes	-12984
▁frequent	-12985
▁giussani	-12986
▁glorious	-12987
▁ignorant	-12988
▁improves	-12989
▁insecure	-12990
▁invasive	-12991
▁iranians	-12992
▁margaret	-12993
▁medieval	-12994
▁mismatch	-12995
▁monopoly	-12996
▁muhammad	-12997
▁notation	-12998
▁overseas	-12999
▁princess	-13000
▁railroad	-13001
▁reacting	-13002
▁reminder	-13003
▁requests	-13004
▁resemble	-13005
▁respects	-13006
▁richness	-13007
▁rigorous	-13008
▁rotating	-13009
▁scottish	-13010
▁shortage	-13011
▁smartest	-13012
▁sweeping	-13013
▁tortured	-13014
industrial	-13015
resolution	-13016
▁ambulance	-13017
▁armstrong	-13018
▁attempted	-13019
▁augmented	-13020
▁combining	-13021
▁continuum	-13022
▁crowdsour	-13023
▁databases	-13024
▁enjoyable	-13025
▁fertility	-13026
▁guatemala	-13027
▁immensely	-13028
▁ingenuity	-13029
▁intercept	-13030
▁partially	-13031
▁penetrate	-13032
▁prevalent	-13033
▁promotion	-13034
▁rectangle	-13035
▁remembers	-13036
▁serotonin	-13037
▁stretched	-13038
▁superhero	-13039
▁testimony	-13040
▁volcanoes	-13041
appropriate	-13042
munications	-13043
▁accidental	-13044
▁advantages	-13045
▁aspiration	-13046
▁astounding	-13047
▁conducting	-13048
▁cumulative	-13049
▁eradicated	-13050
▁extraction	-13051
▁fulfilling	-13052
▁liberation	-13053
▁overweight	-13054
▁panbanisha	-13055
▁presumably	-13056
▁rediscover	-13057
▁references	-13058
▁retrospect	-13059
▁simplistic	-13060
▁starvation	-13061
▁thoroughly	-13062
▁translates	-13063
▁vietnamese	-13064
▁wastewater	-13065
▁wilderness	-13066
▁anticipated	-13067
▁certificate	-13068
▁distinctive	-13069
▁eliminating	-13070
▁financially	-13071
▁fingerprint	-13072
▁furthermore	-13073
▁incorporate	-13074
▁inexpensive	-13075
▁integrating	-13076
▁intentional	-13077
▁involvement	-13078
▁methodology	-13079
▁neanderthal	-13080
▁synesthesia	-13081
▁visualizing	-13082
▁acknowledged	-13083
▁availability	-13084
▁commissioned	-13085
▁conditioning	-13086
▁desalination	-13087
▁restrictions	-13088
▁standardized	-13089
▁decentralized	-13090
▁differentiate	-13091
▁establishment	-13092
▁photographing	-13093
▁substantially	-13094
▁supercomputer	-13095
▁underestimate	-13096
▁unsustainable	-13097
▁neuroscientists	-13098
▁representatives	-13099
-3	-13100
.9	-13101
fa	-13102
abe	-13103
abs	-13104
aud	-13105
cke	-13106
eur	-13107
fig	-13108
hou	-13109
iry	-13110
mob	-13111
obi	-13112
odd	-13113
oub	-13114
pop	-13115
tun	-13116
uri	-13117
vet	-13118
yer	-13119
▁84	-13120
▁ai	-13121
▁jl	-13122
▁jr	-13123
▁xl	-13124
acci	-13125
adus	-13126
anor	-13127
arse	-13128
bags	-13129
eled	-13130
elve	-13131
emed	-13132
ench	-13133
icus	-13134
ileo	-13135
nels	-13136
olas	-13137
pler	-13138
safe	-13139
type	-13140
ymph	-13141
your	-13142
▁110	-13143
▁ace	-13144
▁bbc	-13145
▁bun	-13146
▁coh	-13147
▁cyc	-13148
▁cyn	-13149
▁hud	-13150
▁lev	-13151
▁nev	-13152
▁nih	-13153
▁rav	-13154
▁rng	-13155
▁sie	-13156
▁tob	-13157
▁tyr	-13158
▁unm	-13159
▁vod	-13160
ambia	-13161
annah	-13162
brain	-13163
cards	-13164
ogene	-13165
stood	-13166
umber	-13167
virus	-13168
▁atro	-13169
▁cane	-13170
▁cern	-13171
▁dual	-13172
▁fees	-13173
▁flap	-13174
▁fled	-13175
▁fuse	-13176
▁gaza	-13177
▁geek	-13178
▁hect	-13179
▁hive	-13180
▁lank	-13181
▁mega	-13182
▁mell	-13183
▁memo	-13184
▁quiz	-13185
▁reed	-13186
▁rift	-13187
▁rode	-13188
▁sony	-13189
▁spam	-13190
▁warn	-13191
▁weep	-13192
agraph	-13193
atized	-13194
imated	-13195
oscope	-13196
oulder	-13197
ulsive	-13198
▁1,100	-13199
▁1,200	-13200
▁andro	-13201
▁beats	-13202
▁cairo	-13203
▁cheer	-13204
▁crabs	-13205
▁denom	-13206
▁encel	-13207
▁euros	-13208
▁exams	-13209
▁gyrus	-13210
▁hives	-13211
▁hunch	-13212
▁hurry	-13213
▁julia	-13214
▁juris	-13215
▁milit	-13216
▁nanot	-13217
▁nickn	-13218
▁nomad	-13219
▁poets	-13220
▁posts	-13221
▁quadr	-13222
▁reply	-13223
▁reuse	-13224
▁rever	-13225
▁scrap	-13226
▁scrib	-13227
▁smugg	-13228
▁spear	-13229
▁spong	-13230
▁stiff	-13231
▁sunny	-13232
▁tense	-13233
▁titus	-13234
alities	-13235
illions	-13236
ocative	-13237
sharing	-13238
versely	-13239
▁antide	-13240
▁arises	-13241
▁backed	-13242
▁banker	-13243
▁basics	-13244
▁boreal	-13245
▁carrot	-13246
▁carved	-13247
▁charts	-13248
▁cliffs	-13249
▁delete	-13250
▁depict	-13251
▁europa	-13252
▁flickr	-13253
▁forens	-13254
▁fungus	-13255
▁gently	-13256
▁gordon	-13257
▁gossip	-13258
▁hijack	-13259
▁intest	-13260
▁kepler	-13261
▁makeup	-13262
▁mantis	-13263
▁mantra	-13264
▁microw	-13265
▁multim	-13266
▁oyster	-13267
▁palace	-13268
▁panthe	-13269
▁plural	-13270
▁precon	-13271
▁proves	-13272
▁racial	-13273
▁refers	-13274
▁sewage	-13275
▁stakes	-13276
▁stereo	-13277
▁suburb	-13278
▁sucked	-13279
▁tigers	-13280
▁toyota	-13281
▁twelve	-13282
▁wander	-13283
▁yields	-13284
aterials	-13285
ospheric	-13286
rability	-13287
▁cameron	-13288
▁cassini	-13289
▁convent	-13290
▁crochet	-13291
▁derived	-13292
▁galileo	-13293
▁hallway	-13294
▁incomes	-13295
▁indoors	-13296
▁legitim	-13297
▁modular	-13298
▁payment	-13299
▁pension	-13300
▁perpetr	-13301
▁popping	-13302
▁prayers	-13303
▁proving	-13304
▁recipes	-13305
▁senator	-13306
▁signing	-13307
▁sponsor	-13308
▁strokes	-13309
▁surfing	-13310
▁tattoos	-13311
▁tiniest	-13312
▁tougher	-13313
▁turkish	-13314
▁uncover	-13315
▁urgency	-13316
▁watches	-13317
effective	-13318
generated	-13319
▁adequate	-13320
▁airports	-13321
▁animated	-13322
▁archives	-13323
▁arteries	-13324
▁aviation	-13325
▁behaving	-13326
▁browsing	-13327
▁colorado	-13328
▁communal	-13329
▁concerts	-13330
▁credible	-13331
▁crystals	-13332
▁deceased	-13333
▁deterior	-13334
▁dictator	-13335
▁fairness	-13336
▁forehead	-13337
▁freedoms	-13338
▁husbands	-13339
▁invasion	-13340
▁landfill	-13341
▁lawrence	-13342
▁learners	-13343
▁lifelong	-13344
▁maldives	-13345
▁marshall	-13346
▁mistaken	-13347
▁monument	-13348
▁mortgage	-13349
▁movember	-13350
▁murdered	-13351
▁mutually	-13352
▁portland	-13353
▁programm	-13354
▁protects	-13355
▁protests	-13356
▁quarters	-13357
▁rendered	-13358
▁responds	-13359
▁resulted	-13360
▁scalable	-13361
▁searches	-13362
▁serendip	-13363
▁stripped	-13364
▁suitable	-13365
▁suppress	-13366
▁troubled	-13367
▁trusting	-13368
▁wetlands	-13369
▁attribute	-13370
▁automated	-13371
▁capturing	-13372
▁circuitry	-13373
▁cosmology	-13374
▁diffusion	-13375
▁enceladus	-13376
▁europeans	-13377
▁firsthand	-13378
▁genuinely	-13379
▁inventors	-13380
▁mentality	-13381
▁messaging	-13382
▁paragraph	-13383
▁performer	-13384
▁photoshop	-13385
▁prejudice	-13386
▁premature	-13387
▁reconnect	-13388
▁strongest	-13389
▁submarine	-13390
▁unhealthy	-13391
▁victorian	-13392
▁viewpoint	-13393
▁analytical	-13394
▁commentary	-13395
▁compatible	-13396
▁confession	-13397
▁containers	-13398
▁continuity	-13399
▁criticized	-13400
▁deliberate	-13401
▁discomfort	-13402
▁filmmakers	-13403
▁footprints	-13404
▁guerrillas	-13405
▁hypotheses	-13406
▁lesterland	-13407
▁linguistic	-13408
▁manuscript	-13409
▁measurable	-13410
▁occupation	-13411
▁perceptual	-13412
▁performers	-13413
▁persistent	-13414
▁protocells	-13415
▁questioned	-13416
▁responsive	-13417
▁supposedly	-13418
▁transistor	-13419
▁vertically	-13420
▁adolescents	-13421
▁antidepress	-13422
▁centralized	-13423
▁collections	-13424
▁exceptional	-13425
▁fertilizers	-13426
▁helicopters	-13427
▁identifying	-13428
▁incremental	-13429
▁inhabitants	-13430
▁lightweight	-13431
▁manipulated	-13432
▁radioactive	-13433
▁submersible	-13434
▁broadcasting	-13435
▁contaminated	-13436
▁descriptions	-13437
▁experimenter	-13438
▁interference	-13439
▁performances	-13440
▁preservation	-13441
▁effectiveness	-13442
▁extracellular	-13443
▁identification	-13444
▁neuroscientist	-13445
▁understandable	-13446
ju	-13447
bas	-13448
deg	-13449
ema	-13450
eor	-13451
fed	-13452
fif	-13453
gol	-13454
hed	-13455
kel	-13456
lan	-13457
lem	-13458
lit	-13459
map	-13460
ogy	-13461
▁91	-13462
▁bp	-13463
▁ks	-13464
▁tm	-13465
amil	-13466
aros	-13467
arts	-13468
asis	-13469
asso	-13470
atin	-13471
atma	-13472
cile	-13473
cock	-13474
enza	-13475
fund	-13476
gath	-13477
home	-13478
hrir	-13479
icer	-13480
icut	-13481
ilia	-13482
iper	-13483
irth	-13484
izzy	-13485
mies	-13486
odox	-13487
olis	-13488
omin	-13489
oter	-13490
pres	-13491
prot	-13492
requ	-13493
rosh	-13494
urge	-13495
week	-13496
▁101	-13497
▁188	-13498
▁bru	-13499
▁doo	-13500
▁hes	-13501
▁hex	-13502
▁lur	-13503
▁mop	-13504
▁mrs	-13505
▁rsw	-13506
abyte	-13507
acted	-13508
adder	-13509
alone	-13510
arity	-13511
arthe	-13512
ascar	-13513
ergio	-13514
giene	-13515
ifted	-13516
isher	-13517
lapse	-13518
marks	-13519
ocate	-13520
occup	-13521
vanna	-13522
▁1982	-13523
▁alle	-13524
▁casc	-13525
▁corp	-13526
▁cran	-13527
▁ethn	-13528
▁flaw	-13529
▁geor	-13530
▁hull	-13531
▁jeal	-13532
▁jenn	-13533
▁joel	-13534
▁khan	-13535
▁mahm	-13536
▁mull	-13537
▁neph	-13538
▁obey	-13539
▁perf	-13540
▁pies	-13541
▁rage	-13542
▁reun	-13543
▁romo	-13544
▁rows	-13545
▁rupe	-13546
▁seiz	-13547
▁teap	-13548
▁temp	-13549
▁tire	-13550
▁unch	-13551
acious	-13552
alling	-13553
awatts	-13554
azeera	-13555
belief	-13556
diving	-13557
energy	-13558
ialect	-13559
ivable	-13560
nessee	-13561
onacci	-13562
places	-13563
screen	-13564
terior	-13565
timore	-13566
writer	-13567
▁2,500	-13568
▁bleed	-13569
▁boils	-13570
▁buddh	-13571
▁cease	-13572
▁crush	-13573
▁decis	-13574
▁deleg	-13575
▁dimin	-13576
▁downs	-13577
▁dried	-13578
▁essay	-13579
▁eyebr	-13580
▁flags	-13581
▁geeks	-13582
▁hosts	-13583
▁indef	-13584
▁indul	-13585
▁irreg	-13586
▁legos	-13587
▁lymph	-13588
▁merge	-13589
▁mitch	-13590
▁modes	-13591
▁mommy	-13592
▁moons	-13593
▁nanos	-13594
▁oiled	-13595
▁penic	-13596
▁rearr	-13597
▁sciss	-13598
▁shook	-13599
▁slick	-13600
▁sniff	-13601
▁soils	-13602
▁squir	-13603
▁stole	-13604
▁swarm	-13605
▁terra	-13606
▁unite	-13607
▁unple	-13608
▁vague	-13609
▁verte	-13610
▁whirl	-13611
amiliar	-13612
artheid	-13613
chester	-13614
hearted	-13615
tically	-13616
ulously	-13617
washing	-13618
▁anesth	-13619
▁bakery	-13620
▁bonobo	-13621
▁closet	-13622
▁condem	-13623
▁courty	-13624
▁crises	-13625
▁devote	-13626
▁elites	-13627
▁enroll	-13628
▁evange	-13629
▁forage	-13630
▁galvan	-13631
▁giants	-13632
▁gloves	-13633
▁heated	-13634
▁hebrew	-13635
▁hudson	-13636
▁innate	-13637
▁invade	-13638
▁kindly	-13639
▁lining	-13640
▁metast	-13641
▁mimics	-13642
▁mister	-13643
▁modify	-13644
▁mutant	-13645
▁nevada	-13646
▁payoff	-13647
▁pissed	-13648
▁primal	-13649
▁prolif	-13650
▁provin	-13651
▁pulses	-13652
▁quoted	-13653
▁reimag	-13654
▁rushed	-13655
▁sergio	-13656
▁starch	-13657
▁tablet	-13658
▁tahrir	-13659
▁taxpay	-13660
▁thesis	-13661
▁throat	-13662
▁walker	-13663
activity	-13664
iologist	-13665
▁assumes	-13666
▁biotech	-13667
▁capsule	-13668
▁chariot	-13669
▁chewing	-13670
▁claimed	-13671
▁cleaner	-13672
▁compose	-13673
▁conform	-13674
▁devised	-13675
▁dumping	-13676
▁enzymes	-13677
▁escaped	-13678
▁fitness	-13679
▁flipped	-13680
▁hygiene	-13681
▁ideally	-13682
▁inherit	-13683
▁intimid	-13684
▁jackson	-13685
▁laparos	-13686
▁madness	-13687
▁magnets	-13688
▁mahatma	-13689
▁oppress	-13690
▁packing	-13691
▁pharmac	-13692
▁polymer	-13693
▁recipro	-13694
▁russell	-13695
▁savanna	-13696
▁seminal	-13697
▁servant	-13698
▁skyscra	-13699
▁springs	-13700
▁sympath	-13701
▁toaster	-13702
▁unaware	-13703
▁upgrade	-13704
▁uranium	-13705
▁vibrant	-13706
roportion	-13707
▁activism	-13708
▁alarming	-13709
▁antennae	-13710
▁catalyst	-13711
▁coherent	-13712
▁colombia	-13713
▁declined	-13714
▁destined	-13715
▁digitize	-13716
▁discrete	-13717
▁dividing	-13718
▁enduring	-13719
▁flipping	-13720
▁foragers	-13721
▁foremost	-13722
▁friedman	-13723
▁handsome	-13724
▁hierarch	-13725
▁mattered	-13726
▁orbiting	-13727
▁overlook	-13728
▁packaged	-13729
▁predicts	-13730
▁profiles	-13731
▁receives	-13732
▁sanitary	-13733
▁severely	-13734
▁speeches	-13735
▁suitcase	-13736
▁switches	-13737
▁tensions	-13738
▁timeline	-13739
▁tolerate	-13740
▁triggers	-13741
▁ambiguous	-13742
▁byproduct	-13743
▁civilians	-13744
▁collapses	-13745
▁communist	-13746
▁competent	-13747
▁contribut	-13748
▁crocodile	-13749
▁defending	-13750
▁displayed	-13751
▁dominance	-13752
▁empirical	-13753
▁extending	-13754
▁extracted	-13755
▁fibonacci	-13756
▁headaches	-13757
▁imbalance	-13758
▁intermedi	-13759
▁inventing	-13760
▁irregular	-13761
▁mammogram	-13762
▁pathogens	-13763
▁populated	-13764
▁predatory	-13765
▁prevented	-13766
▁providers	-13767
▁skeletons	-13768
▁stabilize	-13769
▁tennessee	-13770
▁visionary	-13771
▁warehouse	-13772
▁workshops	-13773
▁biomimicry	-13774
▁centigrade	-13775
▁containing	-13776
▁correlated	-13777
▁devastated	-13778
▁distracted	-13779
▁explosions	-13780
▁fragmented	-13781
▁geological	-13782
▁illiterate	-13783
▁improbable	-13784
▁insignific	-13785
▁obligation	-13786
▁officially	-13787
▁passengers	-13788
▁revelation	-13789
▁unfamiliar	-13790
▁unfinished	-13791
▁unpleasant	-13792
▁accommodate	-13793
▁acquisition	-13794
▁atmospheric	-13795
▁centimeters	-13796
▁cognitively	-13797
▁connecticut	-13798
▁contributes	-13799
▁degradation	-13800
▁determining	-13801
▁diagnostics	-13802
▁enterprises	-13803
▁flourishing	-13804
▁interrupted	-13805
▁pollination	-13806
▁pollinators	-13807
▁professions	-13808
▁residential	-13809
▁technicians	-13810
▁translating	-13811
▁accidentally	-13812
▁announcement	-13813
▁differential	-13814
▁difficulties	-13815
▁enthusiastic	-13816
▁exploitation	-13817
▁grandmothers	-13818
▁mechanically	-13819
▁milliseconds	-13820
▁regenerative	-13821
▁requirements	-13822
▁subconscious	-13823
▁subsequently	-13824
▁characterized	-13825
▁determination	-13826
▁functionality	-13827
▁installations	-13828
▁proliferation	-13829
▁congratulations	-13830
▁experimentation	-13831
▁representations	-13832
-4	-13833
vs	-13834
yo	-13835
zo	-13836
awi	-13837
cur	-13838
eve	-13839
lli	-13840
nie	-13841
oqu	-13842
ppy	-13843
sen	-13844
six	-13845
tar	-13846
uda	-13847
voc	-13848
▁41	-13849
▁uv	-13850
▁yr	-13851
acks	-13852
aids	-13853
airy	-13854
aven	-13855
dire	-13856
gill	-13857
ilst	-13858
inge	-13859
itre	-13860
kill	-13861
know	-13862
lene	-13863
opes	-13864
owed	-13865
peer	-13866
peut	-13867
sook	-13868
stop	-13869
tent	-13870
uces	-13871
uels	-13872
velt	-13873
worm	-13874
▁16-	-13875
▁ank	-13876
▁bog	-13877
▁dye	-13878
▁hoc	-13879
▁ion	-13880
▁kay	-13881
▁nag	-13882
▁nod	-13883
▁pam	-13884
▁pel	-13885
▁ply	-13886
▁roy	-13887
▁rut	-13888
▁xen	-13889
ahren	-13890
ancou	-13891
berto	-13892
conut	-13893
fluid	-13894
great	-13895
imity	-13896
ipper	-13897
isure	-13898
namic	-13899
oking	-13900
onics	-13901
raged	-13902
react	-13903
rists	-13904
ronym	-13905
watch	-13906
▁100-	-13907
▁aura	-13908
▁bion	-13909
▁boot	-13910
▁cant	-13911
▁cone	-13912
▁dads	-13913
▁drip	-13914
▁echo	-13915
▁eden	-13916
▁encl	-13917
▁fond	-13918
▁foxo	-13919
▁hyun	-13920
▁jets	-13921
▁juan	-13922
▁karl	-13923
▁lamb	-13924
▁lava	-13925
▁nash	-13926
▁oral	-13927
▁pave	-13928
▁poop	-13929
▁sank	-13930
▁shru	-13931
▁spoo	-13932
▁sund	-13933
▁tang	-13934
▁tofu	-13935
▁tomb	-13936
▁whip	-13937
aments	-13938
ancies	-13939
atable	-13940
degree	-13941
funded	-13942
itious	-13943
legged	-13944
orable	-13945
rapeut	-13946
rocess	-13947
rogram	-13948
saving	-13949
square	-13950
struct	-13951
uctive	-13952
veling	-13953
▁admir	-13954
▁avian	-13955
▁bever	-13956
▁blobs	-13957
▁booms	-13958
▁carve	-13959
▁clash	-13960
▁cuban	-13961
▁defec	-13962
▁deriv	-13963
▁diana	-13964
▁drums	-13965
▁dubai	-13966
▁files	-13967
▁flush	-13968
▁gears	-13969
▁goose	-13970
▁greed	-13971
▁groom	-13972
▁hears	-13973
▁hover	-13974
▁humid	-13975
▁irish	-13976
▁leaks	-13977
▁livel	-13978
▁lobes	-13979
▁loser	-13980
▁madag	-13981
▁maria	-13982
▁mario	-13983
▁notor	-13984
▁oscar	-13985
▁overf	-13986
▁pains	-13987
▁petri	-13988
▁polls	-13989
▁posit	-13990
▁prest	-13991
▁roose	-13992
▁satan	-13993
▁scram	-13994
▁snail	-13995
▁sneak	-13996
▁souls	-13997
▁swell	-13998
▁teens	-13999
▁therm	-14000
▁tires	-14001
▁venom	-14002
▁verbs	-14003
atively	-14004
imental	-14005
iogenic	-14006
itories	-14007
ometric	-14008
tension	-14009
western	-14010
▁35,000	-14011
▁astrol	-14012
▁awards	-14013
▁backup	-14014
▁ballot	-14015
▁bertie	-14016
▁castle	-14017
▁causal	-14018
▁chapel	-14019
▁chunks	-14020
▁creepy	-14021
▁danish	-14022
▁dealer	-14023
▁edible	-14024
▁fences	-14025
▁flames	-14026
▁forger	-14027
▁galois	-14028
▁hacked	-14029
▁harlem	-14030
▁jacket	-14031
▁joints	-14032
▁latter	-14033
▁laughs	-14034
▁levers	-14035
▁liking	-14036
▁miller	-14037
▁miscon	-14038
▁morgan	-14039
▁oftent	-14040
▁oliver	-14041
▁pillar	-14042
▁poetic	-14043
▁portal	-14044
▁proton	-14045
▁rachel	-14046
▁racism	-14047
▁rebell	-14048
▁refram	-14049
▁rented	-14050
▁ripped	-14051
▁serial	-14052
▁spines	-14053
▁strips	-14054
▁vancou	-14055
▁venter	-14056
▁weaker	-14057
▁whilst	-14058
educated	-14059
▁abalone	-14060
▁acronym	-14061
▁assured	-14062
▁asymmet	-14063
▁bending	-14064
▁bombing	-14065
▁bullets	-14066
▁charism	-14067
▁clarify	-14068
▁coconut	-14069
▁collide	-14070
▁compart	-14071
▁confuse	-14072
▁cookies	-14073
▁craving	-14074
▁dangers	-14075
▁diffuse	-14076
▁encoded	-14077
▁evolves	-14078
▁execute	-14079
▁extends	-14080
▁fifteen	-14081
▁filming	-14082
▁flatten	-14083
▁freeway	-14084
▁funders	-14085
▁gadgets	-14086
▁genital	-14087
▁grounds	-14088
▁imposed	-14089
▁inquiry	-14090
▁jazeera	-14091
▁leisure	-14092
▁locking	-14093
▁loyalty	-14094
▁mahmoud	-14095
▁modeled	-14096
▁motions	-14097
▁mounted	-14098
▁narciss	-14099
▁nursing	-14100
▁oakland	-14101
▁peanuts	-14102
▁phrases	-14103
▁pitches	-14104
▁plotted	-14105
▁prehist	-14106
▁quicker	-14107
▁relying	-14108
▁rosling	-14109
▁solomon	-14110
▁tipping	-14111
▁unequal	-14112
▁vibrate	-14113
▁weighed	-14114
▁achilles	-14115
▁americas	-14116
▁anecdote	-14117
▁archimed	-14118
▁arguably	-14119
▁arriving	-14120
▁atheists	-14121
▁attended	-14122
▁biofuels	-14123
▁bloggers	-14124
▁bothered	-14125
▁captures	-14126
▁conceive	-14127
▁damaging	-14128
▁decipher	-14129
▁defeated	-14130
▁diagrams	-14131
▁divorced	-14132
▁dreadful	-14133
▁exposing	-14134
▁feathers	-14135
▁governed	-14136
▁guessing	-14137
▁handling	-14138
▁holistic	-14139
▁immortal	-14140
▁imperial	-14141
▁implants	-14142
▁inferior	-14143
▁jennifer	-14144
▁maternal	-14145
▁moisture	-14146
▁pantheon	-14147
▁pavilion	-14148
▁puzzling	-14149
▁reconcil	-14150
▁removing	-14151
▁reptiles	-14152
▁rewarded	-14153
▁rhetoric	-14154
▁scarcity	-14155
▁scissors	-14156
▁secretly	-14157
▁shortest	-14158
▁sideways	-14159
▁stirling	-14160
▁stunning	-14161
▁survives	-14162
▁treaties	-14163
▁whistles	-14164
angiogenic	-14165
▁advancing	-14166
▁adversity	-14167
▁apparatus	-14168
▁baltimore	-14169
▁belonging	-14170
▁biography	-14171
▁bookstore	-14172
▁concluded	-14173
▁confirmed	-14174
▁contacted	-14175
▁digitally	-14176
▁disbelief	-14177
▁disparate	-14178
▁districts	-14179
▁embryonic	-14180
▁endlessly	-14181
▁frontiers	-14182
▁heartbeat	-14183
▁hostility	-14184
▁imitation	-14185
▁intricate	-14186
▁lifetimes	-14187
▁motivates	-14188
▁pakistani	-14189
▁periphery	-14190
▁pragmatic	-14191
▁prescribe	-14192
▁publisher	-14193
▁reception	-14194
▁reinforce	-14195
▁reporters	-14196
▁reservoir	-14197
▁resulting	-14198
▁rewarding	-14199
▁riverside	-14200
▁roosevelt	-14201
▁shattered	-14202
▁shoreline	-14203
▁simulator	-14204
▁subsidies	-14205
▁surrounds	-14206
▁therapeut	-14207
▁traumatic	-14208
▁treadmill	-14209
▁underlies	-14210
▁vancouver	-14211
▁astronauts	-14212
▁clinically	-14213
▁creatively	-14214
▁downstairs	-14215
▁expressive	-14216
▁guidelines	-14217
▁indicators	-14218
▁leveraging	-14219
▁liberating	-14220
▁madagascar	-14221
▁oftentimes	-14222
▁perfection	-14223
▁phthalates	-14224
▁presidents	-14225
▁respectful	-14226
▁sandwiches	-14227
▁sensations	-14228
▁separating	-14229
▁specialize	-14230
▁synthesize	-14231
▁toothbrush	-14232
▁transforms	-14233
▁undercover	-14234
▁abstraction	-14235
▁conventions	-14236
▁convergence	-14237
▁definitions	-14238
▁expeditions	-14239
▁philippines	-14240
▁pornography	-14241
▁susceptible	-14242
▁unthinkable	-14243
▁arrangements	-14244
▁artificially	-14245
▁exhilarating	-14246
▁illumination	-14247
▁passionately	-14248
▁prostitution	-14249
▁supermarkets	-14250
▁supermassive	-14251
▁thanksgiving	-14252
▁disproportion	-14253
▁participatory	-14254
▁accomplishment	-14255
▁anthropologists	-14256
▁personalization	-14257
ho	-14258
aki	-14259
alo	-14260
awa	-14261
ggy	-14262
gon	-14263
hel	-14264
hex	-14265
ibo	-14266
ieu	-14267
ikh	-14268
lav	-14269
nov	-14270
oko	-14271
saw	-14272
sim	-14273
urp	-14274
xon	-14275
▁56	-14276
▁68	-14277
▁cs	-14278
▁dg	-14279
▁gn	-14280
▁nm	-14281
acco	-14282
alan	-14283
alin	-14284
bear	-14285
burn	-14286
bury	-14287
corn	-14288
enet	-14289
heit	-14290
hole	-14291
holm	-14292
itic	-14293
link	-14294
math	-14295
nals	-14296
nity	-14297
orig	-14298
rock	-14299
stru	-14300
unky	-14301
vana	-14302
▁1.4	-14303
▁202	-14304
▁aaa	-14305
▁abc	-14306
▁ali	-14307
▁bam	-14308
▁ced	-14309
▁dor	-14310
▁gab	-14311
▁jen	-14312
▁kur	-14313
▁lip	-14314
▁mba	-14315
▁mck	-14316
▁nun	-14317
▁ott	-14318
▁tub	-14319
▁tus	-14320
▁vas	-14321
▁wag	-14322
andan	-14323
atics	-14324
bolic	-14325
catch	-14326
eland	-14327
ibles	-14328
igent	-14329
ihood	-14330
illin	-14331
ingly	-14332
legic	-14333
nacle	-14334
onies	-14335
peech	-14336
space	-14337
unted	-14338
▁1918	-14339
▁1965	-14340
▁1983	-14341
▁2013	-14342
▁abys	-14343
▁bail	-14344
▁barg	-14345
▁bart	-14346
▁beep	-14347
▁chee	-14348
▁clog	-14349
▁dice	-14350
▁gast	-14351
▁iter	-14352
▁jama	-14353
▁kang	-14354
▁kent	-14355
▁magg	-14356
▁mint	-14357
▁mong	-14358
▁muff	-14359
▁nazi	-14360
▁neil	-14361
▁omin	-14362
▁pard	-14363
▁pest	-14364
▁pots	-14365
▁rang	-14366
▁shah	-14367
▁skim	-14368
▁sudh	-14369
▁suey	-14370
▁syll	-14371
▁unic	-14372
▁unra	-14373
▁usda	-14374
▁vien	-14375
▁worn	-14376
growth	-14377
holder	-14378
intend	-14379
ivated	-14380
market	-14381
ursday	-14382
▁admin	-14383
▁afflu	-14384
▁antid	-14385
▁astro	-14386
▁benki	-14387
▁blues	-14388
▁brink	-14389
▁buddy	-14390
▁conve	-14391
▁cough	-14392
[...]
