<pad>	0
<s>	0
</s>	0
<unk>	0
▁,	-2.73254
▁.	-3.02735
▁und	-3.75424
▁die	-3.82433
en	-3.86247
n	-4.17825
▁sie	-4.20537
▁das	-4.25352
▁ich	-4.2867
▁der	-4.29046
s	-4.38419
▁ist	-4.40228
▁wir	-4.43991
▁es	-4.46297
▁in	-4.46816
▁	-4.49357
▁zu	-4.53127
▁ein	-4.82324
▁eine	-4.89822
▁"	-5.00953
▁nicht	-5.01641
▁von	-5.03404
▁dass	-5.07113
▁den	-5.11067
▁mit	-5.18942
▁auf	-5.25366
▁wie	-5.2875
▁diese	-5.41906
▁man	-5.43197
▁so	-5.43951
▁sich	-5.44109
▁:	-5.44584
e	-5.47004
-	-5.47158
▁an	-5.47256
▁sind	-5.47299
▁aber	-5.4876
▁für	-5.51068
▁haben	-5.52053
▁?	-5.52636
▁wenn	-5.52885
▁was	-5.55864
t	-5.55927
▁als	-5.60638
▁war	-5.65238
▁um	-5.69578
▁er	-5.71736
m	-5.71953
▁im	-5.78141
▁dem	-5.86845
▁also	-5.9118
▁aus	-5.93418
▁uns	-5.96315
▁können	-5.99511
▁oder	-6.00281
▁hier	-6.02081
▁werden	-6.04319
▁einen	-6.06185
▁über	-6.06792
▁hat	-6.08411
▁des	-6.10382
▁auch	-6.13649
▁da	-6.1489
▁kann	-6.15095
▁einer	-6.17864
▁einem	-6.22388
▁nur	-6.22621
▁dann	-6.23188
▁sehr	-6.23507
▁etwa	-6.23718
▁wird	-6.26074
er	-6.28796
▁nach	-6.28884
▁sein	-6.30974
▁menschen	-6.31625
▁ihre	-6.33164
▁mich	-6.33877
▁gibt	-6.34328
▁ihnen	-6.34665
r	-6.35036
▁–	-6.3576
▁meine	-6.3724
▁vor	-6.39752
▁--	-6.41643
▁sehen	-6.43313
▁dieser	-6.45207
▁noch	-6.45572
▁habe	-6.48561
▁alle	-6.49853
▁bei	-6.50204
▁mir	-6.5186
▁mehr	-6.59518
▁welt	-6.62048
▁ihr	-6.62991
▁unsere	-6.65434
▁weil	-6.71738
▁leben	-6.72151
▁wurde	-6.72899
▁zum	-6.74082
▁durch	-6.74276
▁keine	-6.75533
▁wirklich	-6.76879
▁machen	-6.77339
▁nun	-6.80618
▁immer	-6.81221
▁viel	-6.81445
▁andere	-6.81523
▁dieses	-6.81589
▁wo	-6.83826
▁wissen	-6.84679
▁am	-6.85761
▁jetzt	-6.88213
▁tun	-6.88393
▁viele	-6.88936
es	-6.89683
▁hatte	-6.91896
▁dinge	-6.92926
▁sagte	-6.9329
▁zeit	-6.94337
▁bis	-6.96461
▁leute	-6.98206
▁einfach	-6.98621
▁-	-6.98754
▁zwei	-6.99284
▁du	-7.01544
.	-7.03615
▁dies	-7.03622
▁müssen	-7.05022
▁sagen	-7.05404
▁selbst	-7.06694
▁alles	-7.09871
▁mein	-7.11007
▁art	-7.11476
▁jahren	-7.12031
▁bin	-7.12737
▁würde	-7.13534
▁waren	-7.13882
▁denn	-7.14183
▁einige	-7.14907
▁damit	-7.14954
▁ganz	-7.15925
▁diesen	-7.16787
▁anderen	-7.17808
▁vielleicht	-7.187
▁gut	-7.21358
▁zur	-7.22178
▁ob	-7.22272
▁sollte	-7.23282
▁wieder	-7.25178
▁mal	-7.25443
▁geht	-7.26259
▁jahre	-7.26506
▁seine	-7.31585
▁muss	-7.32041
▁schon	-7.34866
▁all	-7.35934
▁möchte	-7.36953
▁warum	-7.37037
▁ja	-7.37817
▁konnte	-7.3949
heute	-7.408
▁kleine	-7.40926
▁tatsächlich	-7.41862
st	-7.42188
▁kinder	-7.43551
▁macht	-7.4367
▁ab	-7.43745
▁ge	-7.44126
▁davon	-7.45709
▁welche	-7.47104
▁genau	-7.47532
▁drei	-7.47563
ung	-7.47843
▁dort	-7.48607
▁kein	-7.48803
▁geschichte	-7.49127
▁denken	-7.51111
▁unter	-7.51583
▁könnte	-7.51859
▁paar	-7.53823
▁ihn	-7.53958
▁hatten	-7.55021
▁;	-7.55714
▁werde	-7.56278
▁jahr	-7.56344
▁darüber	-7.57368
▁ganze	-7.57413
▁gehen	-7.57435
▁weiter	-7.57929
dem	-7.58109
▁wollen	-7.58137
▁beispiel	-7.58193
▁weg	-7.58243
▁zurück	-7.59556
▁'	-7.60025
ht	-7.6049
▁je	-7.60761
▁meiner	-7.61177
▁problem	-7.61779
▁teil	-7.62463
▁wollte	-7.63699
▁lassen	-7.64642
▁nie	-7.64781
▁wurden	-7.64829
▁natürlich	-7.65102
▁gab	-7.65402
▁jeder	-7.6649
▁weiß	-7.66736
▁sondern	-7.66814
für	-7.67127
▁große	-7.6752
gar	-7.68327
▁neue	-7.68456
▁dazu	-7.69028
▁wäre	-7.6904
▁doch	-7.69315
▁während	-7.69412
▁unserer	-7.7117
▁unser	-7.71559
▁vielen	-7.72101
▁denke	-7.72217
▁vom	-7.72767
▁frage	-7.72779
▁jemand	-7.73148
▁zwischen	-7.73979
▁gerade	-7.74202
▁erste	-7.74308
▁kommen	-7.75257
▁finden	-7.75481
▁ersten	-7.7572
▁tag	-7.75786
▁glaube	-7.75947
▁zusammen	-7.76485
▁einmal	-7.76553
▁gemacht	-7.77097
▁ohne	-7.77325
▁geben	-7.78842
▁ging	-7.7982
▁kommt	-7.80175
▁ihrer	-7.80957
▁will	-7.81339
▁arbeit	-7.81376
▁zeigen	-7.84781
▁jede	-7.84901
▁sagt	-7.84905
▁würden	-7.85074
▁passiert	-7.85195
▁frauen	-7.85296
▁wasser	-7.85789
▁prozent	-7.86291
▁verstehen	-7.8631
▁meisten	-7.8794
▁besser	-7.89245
▁land	-7.89998
d	-7.90042
▁daran	-7.90274
em	-7.90288
▁eigene	-7.90548
▁stellen	-7.90874
▁millionen	-7.91207
▁dachte	-7.91297
▁wichtig	-7.91395
▁dabei	-7.94392
▁idee	-7.94605
▁fragen	-7.95057
▁bild	-7.95719
▁letzten	-7.96219
▁ziemlich	-7.96551
▁arbeiten	-7.97163
▁sprechen	-7.98572
▁könnten	-7.98879
▁nichts	-7.99317
▁darauf	-7.99888
▁möglich	-8.00179
▁dank	-8.01058
▁geld	-8.01306
▁eigentlich	-8.01454
▁bekommen	-8.01852
▁gehirn	-8.02349
▁kam	-8.02794
▁seit	-8.02854
▁daten	-8.02855
te	-8.04077
▁ende	-8.05128
▁danke	-8.08081
▁vier	-8.09092
▁gegen	-8.09249
▁verschiedene	-8.09331
a	-8.09439
▁ort	-8.09581
▁weniger	-8.10246
▁heraus	-8.103
▁glauben	-8.10374
▁technologie	-8.10967
▁grund	-8.11172
▁dollar	-8.11429
▁20	-8.11509
▁lernen	-8.11703
▁meinen	-8.12329
▁bedeutet	-8.12344
▁sache	-8.12363
▁10	-8.13111
▁begann	-8.13386
▁wahrscheinlich	-8.13896
▁richtig	-8.14433
in	-8.14445
▁raum	-8.15111
▁ihm	-8.15631
▁information	-8.15689
▁gleich	-8.17105
▁bringen	-8.17412
erweise	-8.17437
▁gesehen	-8.17641
▁jedes	-8.18286
▁musste	-8.18564
▁weise	-8.18768
▁möglichkeit	-8.19494
▁s	-8.19727
▁seite	-8.1975
▁brauchen	-8.20199
▁wer	-8.20771
▁großen	-8.20827
▁sicher	-8.21123
▁beide	-8.2114
▁versuchen	-8.215
▁heiß	-8.21823
▁nein	-8.22627
▁ver	-8.22752
▁wenig	-8.22927
▁hin	-8.23072
▁lange	-8.23119
▁frau	-8.23454
▁sei	-8.23573
keit	-8.23869
▁später	-8.24029
▁anders	-8.24198
▁computer	-8.24367
▁...	-8.24375
▁pro	-8.24568
▁beim	-8.2478
▁nutzen	-8.24822
▁jeden	-8.24833
▁menge	-8.25393
▁unseren	-8.2602
▁fast	-8.26788
▁hätte	-8.2688
rum	-8.27344
▁lang	-8.27913
▁gesagt	-8.28146
▁gern	-8.28174
▁fünf	-8.28546
▁gute	-8.28663
y	-8.29304
▁person	-8.29367
nehmen	-8.30045
▁system	-8.30048
schen	-8.30529
▁einzige	-8.30934
▁schnell	-8.30989
▁funktioniert	-8.31092
▁körper	-8.31449
▁zukunft	-8.31571
h	-8.31848
▁oft	-8.32111
mals	-8.32242
▁energie	-8.32256
▁kind	-8.32735
▁fand	-8.33057
▁gesellschaft	-8.33942
▁schaffen	-8.34014
▁erde	-8.35012
wohl	-8.35132
lich	-8.35163
▁zeigt	-8.35421
k	-8.35787
▁moment	-8.3654
▁männer	-8.36747
▁anfang	-8.36809
▁probleme	-8.37539
▁stadt	-8.38276
▁wissenschaft	-8.3868
▁fall	-8.39467
▁schauen	-8.39717
▁erzählen	-8.40739
▁natur	-8.41167
▁ungefähr	-8.41173
▁be	-8.41186
▁sah	-8.41395
▁helfen	-8.42004
▁mutter	-8.42423
▁entwickelt	-8.42546
▁liebe	-8.42594
▁seiner	-8.43083
▁afrika	-8.43685
▁essen	-8.43687
▁mann	-8.43713
zu	-8.43724
▁licht	-8.43951
▁hoch	-8.44114
▁spielen	-8.44326
▁genug	-8.44949
▁nächsten	-8.45793
▁erst	-8.45891
▁buch	-8.46013
▁gleiche	-8.46542
▁klar	-8.47106
chmal	-8.47356
▁überall	-8.48428
▁hand	-8.48824
▁bitte	-8.48961
▁wusste	-8.49479
▁bauen	-8.49708
▁kennen	-8.49785
▁neuen	-8.5007
steht	-8.50072
▁bilder	-8.50241
▁ca	-8.50361
▁euch	-8.50537
▁okay	-8.50776
▁usa	-8.50806
▁bevor	-8.51135
▁liegt	-8.51643
den	-8.51643
sten	-8.51668
▁punkt	-8.51843
▁projekt	-8.52063
▁gehört	-8.52482
▁weit	-8.52601
▁niemand	-8.52837
▁ideen	-8.53141
▁letzte	-8.53276
▁reden	-8.53336
▁solche	-8.53455
▁her	-8.5361
de	-8.53692
▁deshalb	-8.53716
▁nächste	-8.53893
▁besonder	-8.5398
▁internet	-8.54224
▁lebens	-8.54421
▁fähigkeit	-8.54523
▁antwort	-8.54552
▁planeten	-8.54887
▁schule	-8.55028
▁kurz	-8.55279
▁30	-8.55858
▁form	-8.55917
▁erfahrung	-8.56389
▁verändern	-8.56572
▁nennen	-8.57171
▁braucht	-8.57783
us	-8.57835
▁allen	-8.58355
▁hören	-8.58357
▁augen	-8.58668
▁milliarden	-8.58747
▁nehme	-8.58991
▁design	-8.59029
▁50	-8.59167
b	-8.59344
▁recht	-8.59441
▁sechs	-8.59913
o	-8.60118
▁stehen	-8.60625
▁unternehmen	-8.60916
▁finde	-8.60923
▁neu	-8.61182
▁tat	-8.61579
▁musik	-8.6165
▁auto	-8.61679
▁gar	-8.61782
▁mädchen	-8.61852
▁klein	-8.62363
▁bereits	-8.62394
▁erreichen	-8.63327
▁leuten	-8.63412
▁new	-8.63559
▁halten	-8.63646
▁benutzen	-8.63871
▁schwer	-8.64476
▁herum	-8.64614
▁dich	-8.64649
▁soll	-8.64901
▁ok	-8.64906
▁einzelne	-8.65067
▁machte	-8.65597
darin	-8.65637
▁indien	-8.65927
▁hätten	-8.66079
▁erkennen	-8.66113
▁gefühl	-8.66282
▁namens	-8.66365
▁minuten	-8.66407
▁lösung	-8.66448
▁200	-8.66504
▁kopf	-8.67062
▁unglaublich	-8.67387
▁100	-8.67784
▁gebäude	-8.67851
▁familie	-8.68237
▁un	-8.6852
ten	-8.6869
▁ted	-8.68704
▁weitere	-8.68788
▁beginn	-8.69395
▁innerhalb	-8.69597
z	-8.70187
▁versucht	-8.70199
▁spiel	-8.70377
▁oben	-8.7038
▁irgendwie	-8.7047
▁arten	-8.7077
▁groß	-8.70825
▁sprache	-8.70825
▁geschichten	-8.7102
ern	-8.7137
▁gruppe	-8.71521
▁junge	-8.71643
▁b	-8.71913
▁film	-8.72042
▁normal	-8.72104
▁schön	-8.72394
▁wahr	-8.72537
l	-8.73147
heit	-8.73836
▁gott	-8.74117
▁vorstellen	-8.74289
▁interessant	-8.74306
▁nahm	-8.74365
dessen	-8.7439
▁angst	-8.74542
▁teilen	-8.74543
▁besten	-8.74863
▁oh	-8.75277
▁daher	-8.75486
▁statt	-8.75603
▁hause	-8.758
▁haus	-8.75958
▁menschliche	-8.76126
▁verhalten	-8.76171
▁wort	-8.76277
▁kunst	-8.76587
▁krankheit	-8.76624
▁ins	-8.76639
▁verändert	-8.77039
▁hinter	-8.77159
▁freunde	-8.77172
▁regierung	-8.77545
▁entwickeln	-8.77555
▁vater	-8.77924
▁fest	-8.78198
▁los	-8.78353
▁stunden	-8.78377
▁stellt	-8.78393
ämlich	-8.78429
▁erhalten	-8.78474
nach	-8.79177
geben	-8.79318
▁bewegen	-8.79326
▁ändern	-8.7967
g	-8.79702
▁eltern	-8.79841
▁sage	-8.79847
▁treffen	-8.80081
▁falsch	-8.80317
▁damals	-8.80473
▁verbindung	-8.80549
▁z	-8.80692
▁15	-8.80746
▁bewegung	-8.81059
um	-8.81082
▁ziel	-8.81453
▁vorstellung	-8.81496
▁2	-8.81567
▁eher	-8.81672
▁wegen	-8.81765
▁roboter	-8.81964
▁patienten	-8.82082
zustellen	-8.82382
▁video	-8.82515
▁beginnen	-8.82581
▁china	-8.82898
▁manche	-8.83004
▁verwenden	-8.83021
▁wohl	-8.83021
▁alt	-8.83124
▁lage	-8.83151
▁sachen	-8.83162
▁fragte	-8.83214
▁entwicklung	-8.83852
▁außer	-8.84348
▁dir	-8.84426
▁glück	-8.84492
▁sinn	-8.84751
▁unterschiedlich	-8.84853
▁lehrer	-8.84962
▁getan	-8.85078
▁beziehung	-8.85193
▁überhaupt	-8.85251
mal	-8.85637
lässt	-8.85897
einander	-8.86019
▁aller	-8.86061
bringt	-8.86197
▁wert	-8.86539
▁stück	-8.86916
▁länder	-8.87206
▁universum	-8.87273
▁tut	-8.87876
▁schreiben	-8.88032
▁zweite	-8.88099
▁zwa	-8.88102
bringen	-8.8818
▁acht	-8.88761
▁menschlichen	-8.88883
▁gemeinschaft	-8.89108
▁riesige	-8.89359
▁heut	-8.89387
▁luft	-8.89953
▁kindern	-8.90391
▁beste	-8.90623
▁stand	-8.90728
▁mag	-8.90761
doch	-8.90952
▁tiere	-8.91082
▁bestimmt	-8.91258
▁regel	-8.91449
▁a	-8.91572
▁anzu	-8.91743
▁3	-8.91771
▁auszu	-8.9186
▁publikum	-8.92291
gebracht	-8.92555
▁unterschied	-8.92796
▁aufzu	-8.93216
▁völlig	-8.93352
▁führen	-8.93358
▁glücklich	-8.93467
▁herausforderung	-8.93736
▁kultur	-8.93992
▁betrachten	-8.94218
▁führt	-8.94284
▁krebs	-8.94508
▁genauso	-8.94881
▁fühlen	-8.94957
▁zweiten	-8.94968
▁situation	-8.95133
schließlich	-8.95186
▁direkt	-8.95318
▁wissenschaftler	-8.95661
i	-8.95828
▁unten	-8.95875
▁jene	-8.96378
erst	-8.96895
ste	-8.97112
▁plötzlich	-8.9729
▁erinnern	-8.97311
▁bekam	-8.97313
halb	-8.97899
▁deine	-8.98021
▁bekannt	-8.98034
▁sieben	-8.98204
▁bereit	-8.9846
▁lesen	-8.98789
▁nimm	-8.9892
▁hilfe	-8.99042
▁40	-8.99507
▁grunde	-8.99651
▁gedanken	-8.99707
▁größer	-8.99792
▁kamen	-8.9993
▁schlecht	-8.99994
▁worden	-9.00103
▁richtung	-9.00497
▁co	-9.0124
▁york	-9.01391
ie	-9.0187
as	-9.02257
▁tage	-9.02421
▁schwierig	-9.03023
▁lösen	-9.03084
▁thema	-9.03467
▁wochen	-9.03513
el	-9.03672
▁prozess	-9.03792
▁boden	-9.03942
▁technik	-9.04057
▁staaten	-9.04061
▁freund	-9.04326
▁woche	-9.04565
▁suchen	-9.04597
▁sollen	-9.0479
▁wirtschaft	-9.04807
▁größte	-9.05089
▁markt	-9.05151
▁besteht	-9.05329
▁wären	-9.05477
▁krieg	-9.05651
▁jungen	-9.05725
▁frei	-9.05882
▁reihe	-9.05906
▁ent	-9.06157
▁monate	-9.06452
▁zahlen	-9.07124
▁stark	-9.07165
▁mensch	-9.07295
▁bleiben	-9.07342
▁richtige	-9.07377
▁typ	-9.07754
statt	-9.07854
▁sterben	-9.08057
▁hast	-9.08198
▁kosten	-9.08226
▁zuvor	-9.08285
▁schrieb	-9.08435
▁namen	-9.08654
▁kaufen	-9.08861
▁falls	-9.09265
▁benutzt	-9.09273
▁1	-9.0938
2	-9.09411
▁zehn	-9.09546
▁weltweit	-9.09797
▁umwelt	-9.09943
▁gesundheit	-9.09947
▁stelle	-9.1009
▁modell	-9.10202
▁leicht	-9.10409
▁stellte	-9.1076
▁soziale	-9.1085
▁amerika	-9.10977
▁amerikanische	-9.11011
so	-9.11197
▁bewusst	-9.11462
▁gefunden	-9.11537
▁umgebung	-9.11698
▁schritt	-9.12059
▁tages	-9.12288
▁gelernt	-9.12596
▁ländern	-9.1305
▁fliegen	-9.13117
▁meinung	-9.13167
on	-9.13502
▁wahrheit	-9.13686
▁größten	-9.13744
▁draußen	-9.13868
▁darau	-9.14138
▁c	-9.14151
▁aussehen	-9.14281
▁verwendet	-9.14345
▁labor	-9.14397
▁sprach	-9.14398
▁stimme	-9.14463
▁neues	-9.14522
▁gemeinsam	-9.14527
▁einfache	-9.14555
▁scheint	-9.14586
▁funktionieren	-9.14619
▁erschaffen	-9.14642
▁verbunden	-9.14934
▁jahrhundert	-9.14956
▁genannt	-9.15014
▁zellen	-9.15056
durch	-9.15229
selbe	-9.1557
tage	-9.15828
▁egal	-9.15919
▁laufen	-9.15942
▁kleiner	-9.15945
▁sehe	-9.16042
ge	-9.1607
▁passier	-9.16462
▁organisation	-9.16555
c	-9.16565
▁wichtigste	-9.16778
▁zahl	-9.16786
▁anderer	-9.16833
▁gewesen	-9.16855
▁hände	-9.16877
▁entfernt	-9.16996
▁einzu	-9.17
▁mache	-9.17013
▁autos	-9.17019
▁ähnlich	-9.17149
▁herz	-9.17207
▁platz	-9.17296
▁neben	-9.17652
▁erklären	-9.17741
▁gebaut	-9.17814
an	-9.17955
▁na	-9.17957
liche	-9.17958
▁medien	-9.18101
▁früh	-9.18217
▁80	-9.18245
▁absolut	-9.18279
▁bedeutung	-9.18367
▁großartige	-9.18436
f	-9.18633
▁muster	-9.1866
▁tier	-9.18905
▁stimmt	-9.1902
▁tatsache	-9.1906
▁innovation	-9.19219
▁öl	-9.19326
ität	-9.19476
▁nachdenken	-9.19584
▁bessere	-9.19615
▁alter	-9.1998
▁bildung	-9.20053
▁morgen	-9.20153
▁erfolg	-9.20315
▁geworden	-9.20413
p	-9.20417
▁studenten	-9.20506
▁anzahl	-9.20578
gehen	-9.20683
▁foto	-9.20881
▁teile	-9.21012
re	-9.21562
▁möchten	-9.21606
▁bücher	-9.21825
▁gegenüber	-9.21835
▁reise	-9.21908
chen	-9.2202
▁kraft	-9.22088
▁gezeigt	-9.22372
▁bekommt	-9.2262
▁ding	-9.22621
▁globale	-9.22716
▁familien	-9.22784
▁offensichtlich	-9.2313
ig	-9.23139
▁bestimmte	-9.23681
▁komplett	-9.24377
▁rolle	-9.24472
▁technologien	-9.24476
▁aufgabe	-9.24557
▁forschung	-9.24581
▁60	-9.24929
▁folgen	-9.25017
▁meter	-9.25215
▁nacht	-9.25525
▁d	-9.25692
▁rest	-9.2581
▁gewalt	-9.26047
▁zeige	-9.26118
▁allein	-9.26617
▁erreicht	-9.26665
mit	-9.26715
▁veränderung	-9.2685
sch	-9.26977
▁guten	-9.27079
▁bist	-9.27158
setzen	-9.27233
ing	-9.2725
▁mittel	-9.27322
▁fahren	-9.27468
▁versuche	-9.27483
▁hälfte	-9.27664
▁gesamte	-9.27742
▁haupt	-9.27813
▁5	-9.27814
▁größe	-9.27922
▁interessiert	-9.27999
▁nenn	-9.28065
▁mögen	-9.28268
▁m	-9.2842
▁bereich	-9.28602
▁kurze	-9.28662
▁offen	-9.28779
▁vorher	-9.28855
▁mitte	-9.28858
le	-9.2887
▁unseres	-9.29144
▁verloren	-9.29154
▁sonst	-9.29161
.000	-9.29166
▁langsam	-9.29249
▁traf	-9.2935
system	-9.29584
▁preis	-9.29623
▁sofort	-9.29715
▁nehm	-9.29722
▁hoffe	-9.29735
▁ziehen	-9.29749
▁sicherheit	-9.29967
▁arbeitet	-9.30027
▁wahl	-9.30069
▁team	-9.30254
▁eis	-9.30495
▁tausende	-9.31241
▁setzen	-9.31259
▁realität	-9.31321
▁folgende	-9.31399
▁politische	-9.31453
lichen	-9.31735
▁formen	-9.31852
zeit	-9.31874
▁orte	-9.31888
▁früher	-9.31905
▁straße	-9.32016
▁übrigen	-9.32116
▁alten	-9.32155
▁material	-9.32271
5	-9.32497
▁fing	-9.32504
▁brachte	-9.32612
▁europa	-9.32666
▁dna	-9.32745
▁schneller	-9.3276
▁großartig	-9.3282
▁25	-9.32868
▁links	-9.32906
▁wann	-9.32944
▁hoffnung	-9.33212
▁generation	-9.33436
▁maschine	-9.33912
▁länger	-9.34055
▁arm	-9.34159
▁pflanzen	-9.34204
▁wichtige	-9.34358
▁hab	-9.34448
▁theorie	-9.34483
▁arbeitete	-9.34528
▁größere	-9.34545
u	-9.34591
▁genommen	-9.3461
▁versuchte	-9.34738
▁gleichzeitig	-9.3487
▁geboren	-9.35182
▁online	-9.35705
▁geschie	-9.3578
▁struktur	-9.35864
▁google	-9.36267
▁gegeben	-9.36314
▁wichtiger	-9.3633
▁fehler	-9.36449
▁studie	-9.3658
▁bevölkerung	-9.36774
▁e	-9.3678
▁straßen	-9.36797
▁bewegt	-9.36812
▁lebt	-9.36823
▁papier	-9.3683
der	-9.36954
▁englisch	-9.36962
▁städte	-9.37081
▁schüler	-9.37172
▁universität	-9.37284
▁künstler	-9.37307
7	-9.37398
▁tod	-9.37518
▁vergessen	-9.37578
▁toll	-9.37597
▁geschrieben	-9.37865
▁revolution	-9.37973
▁liegen	-9.37986
▁12	-9.38073
▁tragen	-9.38205
ä	-9.38327
▁90	-9.38508
▁alte	-9.38678
führen	-9.38754
▁firma	-9.38829
▁ergebnis	-9.38943
▁raus	-9.39121
▁sonne	-9.39124
▁gesicht	-9.39232
▁öffentliche	-9.39365
▁oberfläche	-9.39554
▁000	-9.39711
▁ihres	-9.39786
▁hinein	-9.39791
▁experiment	-9.39926
▁ständig	-9.40506
▁g	-9.40651
▁lieben	-9.40664
bei	-9.40813
▁vortrag	-9.4087
▁jung	-9.40883
▁mehrere	-9.4118
▁herauszufinden	-9.41183
▁aufmerksamkeit	-9.41186
bald	-9.41254
be	-9.41256
▁karte	-9.41267
▁außerdem	-9.41272
▁entscheidungen	-9.4132
▁demokratie	-9.41505
▁auswirkung	-9.41522
4	-9.41621
▁rechts	-9.41828
▁erzählt	-9.41837
geht	-9.41887
▁hinaus	-9.42164
▁zumindest	-9.42374
▁beobachten	-9.42472
▁rund	-9.42498
▁produkt	-9.4259
▁bald	-9.42951
▁schöne	-9.43095
▁kontrolle	-9.43197
▁extrem	-9.43279
▁interessante	-9.43428
▁überleben	-9.4352
▁näher	-9.4359
▁mitgefühl	-9.43604
▁verlassen	-9.437
▁wachsen	-9.43799
▁konzept	-9.43831
▁gerät	-9.44011
▁gutes	-9.44324
▁großer	-9.44386
▁gruppen	-9.4441
halten	-9.44483
▁hohe	-9.44561
jährige	-9.44674
▁de	-9.44771
▁ebene	-9.44822
6	-9.44852
▁k	-9.44934
▁dritte	-9.44941
▁gearbeitet	-9.44956
▁tolle	-9.45211
▁4	-9.45212
▁job	-9.45352
▁dr	-9.45385
▁nachrichten	-9.45855
▁diejenige	-9.46047
▁gesprochen	-9.4615
▁eben	-9.46151
▁passierte	-9.46423
▁einfluss	-9.46703
▁schulen	-9.46843
▁dein	-9.47177
▁worte	-9.4734
▁sorgen	-9.47437
ver	-9.47586
▁objekt	-9.4767
▁u	-9.47686
▁gebiet	-9.47737
▁reaktion	-9.47744
▁eigen	-9.47753
▁schaut	-9.48135
▁entdeckt	-9.48265
▁region	-9.48389
8	-9.4842
her	-9.48472
▁fertig	-9.48525
▁ergebnisse	-9.48639
▁evolution	-9.4872
habt	-9.48728
▁führte	-9.48994
▁the	-9.4907
▁sitzen	-9.49119
▁echt	-9.49164
▁trotzde	-9.49196
▁18	-9.49493
▁hiv	-9.49523
▁spaß	-9.49533
▁dorf	-9.49925
denkt	-9.50031
▁versuch	-9.50081
▁eigenschaft	-9.50268
▁kau	-9.50731
▁ozean	-9.50831
▁geschehen	-9.50837
▁menschheit	-9.50841
▁unglaubliche	-9.50866
▁sozialen	-9.50872
▁amerikaner	-9.5098
▁medizin	-9.51176
▁rot	-9.51451
▁ansehe	-9.51456
fangen	-9.5149
▁erlaubt	-9.51674
▁zeug	-9.51792
▁software	-9.51859
▁behandlung	-9.51949
▁verlieren	-9.51957
▁rein	-9.51995
▁blick	-9.52058
▁rede	-9.52158
▁aufgrund	-9.52305
satz	-9.52317
bauen	-9.52369
▁verbesser	-9.52415
▁sahen	-9.52558
▁chris	-9.52827
▁bleibt	-9.52843
▁hielt	-9.52886
▁dieselbe	-9.52972
▁re	-9.53088
al	-9.53123
▁gewinnen	-9.53165
▁tür	-9.53277
wegen	-9.53404
▁monaten	-9.5363
▁erinnerung	-9.53819
▁sohn	-9.53842
▁grenzen	-9.53873
▁spezies	-9.53916
zudenken	-9.54001
▁abzu	-9.54085
▁zugang	-9.54241
▁nenne	-9.54437
▁strom	-9.54578
▁hundert	-9.54583
▁ehrlich	-9.54748
▁aussieh	-9.54864
▁h	-9.54916
▁leider	-9.54944
welt	-9.55029
▁unmöglich	-9.55144
▁irgendwo	-9.55153
▁taten	-9.55168
▁national	-9.5525
▁entscheidung	-9.55338
▁nachricht	-9.55463
▁hörte	-9.55788
▁studien	-9.56172
▁vergangenheit	-9.56183
▁politik	-9.56222
▁voll	-9.56246
▁monat	-9.56248
▁hilf	-9.5625
▁echte	-9.56358
▁ärzte	-9.56575
▁betrachtet	-9.56882
▁bakterien	-9.56924
▁schlechte	-9.56985
3	-9.57066
▁vertrauen	-9.57075
▁voller	-9.57093
▁spielt	-9.57326
▁blut	-9.57372
▁produzieren	-9.57377
▁wind	-9.57495
▁vorbei	-9.57571
▁flugzeug	-9.57706
▁wirklichkeit	-9.58005
▁machten	-9.58028
▁hört	-9.58139
▁trotz	-9.58348
▁bäume	-9.5839
▁beispiele	-9.58543
▁erzeugen	-9.58544
▁mathematik	-9.58658
ische	-9.58685
▁zusammenarbeit	-9.58717
▁entscheiden	-9.58723
ation	-9.59187
▁linie	-9.59195
▁befinden	-9.5938
ß	-9.59457
ieren	-9.59588
9	-9.59686
▁ebenso	-9.59695
▁entdecken	-9.59704
▁druck	-9.59773
▁programm	-9.59819
▁moderne	-9.60052
▁sekunden	-9.60063
▁verrückt	-9.6013
▁seiten	-9.60214
w	-9.6046
▁f	-9.60538
land	-9.60569
▁al	-9.60983
▁personen	-9.60988
▁us	-9.61025
▁lag	-9.61323
▁entweder	-9.61487
▁70	-9.61569
▁herausfinde	-9.61604
▁uhr	-9.61614
▁firmen	-9.61678
et	-9.61706
ismus	-9.61747
▁blau	-9.61779
▁erfolgreich	-9.61881
▁erzählte	-9.61906
▁ermöglicht	-9.61971
▁aktivität	-9.61979
▁sammeln	-9.62105
dass	-9.62197
▁haut	-9.62294
▁zeigte	-9.62371
▁läuf	-9.62477
▁bürger	-9.62542
▁armut	-9.62578
▁verbinden	-9.62727
▁ressourcen	-9.62865
▁handeln	-9.62929
▁gesamten	-9.62943
bar	-9.6326
▁gesundheits	-9.6334
▁nummer	-9.63397
▁irgendwa	-9.63407
▁t	-9.63443
▁beweis	-9.63462
▁neun	-9.63624
▁befinde	-9.63625
▁runter	-9.63683
▁hunderte	-9.63689
▁erstaunlich	-9.63706
▁bilden	-9.63871
▁gekommen	-9.63962
▁handelt	-9.64021
▁wörter	-9.64113
▁schwarze	-9.64217
▁wand	-9.64326
▁sprachen	-9.64354
▁prinzip	-9.64522
▁gestellt	-9.64587
▁freiheit	-9.64656
▁sinne	-9.64911
▁tief	-9.6492
▁verstand	-9.64995
ar	-9.65068
▁hart	-9.65097
▁entwicklungs	-9.65526
▁wesentlich	-9.6553
▁gefragt	-9.65577
stellen	-9.65593
▁gene	-9.6561
▁netzwerk	-9.65683
▁ordnung	-9.6581
▁erlaub	-9.65869
▁interesse	-9.65972
iert	-9.66076
▁schluss	-9.66172
▁medizinische	-9.66189
▁kamera	-9.66284
▁leisten	-9.66315
▁saß	-9.66317
▁entschieden	-9.66402
▁fuß	-9.66441
▁untersuchen	-9.66441
▁systeme	-9.66536
▁6	-9.66547
▁himmel	-9.66641
▁name	-9.66776
▁artikel	-9.66827
▁arbeite	-9.66937
▁bewusstsein	-9.66946
▁musst	-9.67004
▁wachstum	-9.67041
▁kollegen	-9.67098
▁antworten	-9.67151
▁hält	-9.67177
▁methode	-9.67277
ü	-9.67419
▁keiner	-9.67426
▁fisch	-9.67449
▁lachen	-9.67489
▁warten	-9.67491
▁bezug	-9.67862
▁architektur	-9.67939
spricht	-9.67947
▁messen	-9.67964
▁leidenschaft	-9.68048
▁verstanden	-9.68085
▁chance	-9.68265
▁vereinigt	-9.68309
▁dritten	-9.68405
▁regierungen	-9.6842
▁landes	-9.68555
▁retten	-9.68627
▁lernte	-9.68698
▁schützen	-9.68699
▁punkte	-9.68825
ter	-9.69071
▁fühlte	-9.69082
▁spiele	-9.69284
▁starb	-9.6947
▁fotos	-9.69554
▁grün	-9.69703
▁wunderbare	-9.6972
▁arzt	-9.69911
▁million	-9.70088
▁erfahren	-9.70179
▁herstellen	-9.70218
▁netz	-9.70241
▁wohin	-9.70298
▁einander	-9.70411
▁projekte	-9.70469
▁gründen	-9.70573
▁funktion	-9.70739
▁nahe	-9.71035
▁gelegenheit	-9.71037
los	-9.7117
▁internationale	-9.71245
▁bienen	-9.71254
▁farbe	-9.714
▁wenige	-9.71458
▁zunächst	-9.71495
▁geschaffen	-9.71548
ungen	-9.71614
▁durchschnitt	-9.71692
▁dar	-9.71726
▁eure	-9.71786
▁finger	-9.71796
▁krankenhaus	-9.71882
▁umzu	-9.72056
falt	-9.72305
▁gründe	-9.72329
▁designer	-9.72338
▁vergleich	-9.72382
▁of	-9.72395
▁bühne	-9.72439
▁nahrung	-9.72648
▁irgendeine	-9.72834
▁fluss	-9.72862
▁suche	-9.72914
▁baby	-9.73058
▁religion	-9.7309
▁getroffen	-9.73428
▁meer	-9.73566
▁wirtschaftliche	-9.73651
treten	-9.7374
▁opfer	-9.73893
▁telefon	-9.73947
▁zeitpunkt	-9.73992
▁auge	-9.74
▁fühlt	-9.74168
▁version	-9.74172
▁kampf	-9.74323
▁ebenfall	-9.74358
▁zufällig	-9.74396
▁mittler	-9.74431
▁klasse	-9.74475
▁wesen	-9.74728
richten	-9.74787
▁bau	-9.74804
▁gesetz	-9.74976
▁büro	-9.75237
▁bisher	-9.75378
▁tagen	-9.75426
▁nannte	-9.75483
▁erinnere	-9.75558
▁leistung	-9.75606
▁verkaufen	-9.75609
noch	-9.75657
▁stunde	-9.75748
▁erleben	-9.75765
▁botschaft	-9.75798
▁geist	-9.75848
▁fällt	-9.75909
▁aktiv	-9.75914
▁schul	-9.76011
man	-9.76042
▁tisch	-9.76128
▁erwarten	-9.76136
▁geschah	-9.76322
▁dunkle	-9.76368
▁höher	-9.7643
zusage	-9.7651
▁mars	-9.76579
▁anschau	-9.767
▁sex	-9.76781
▁verständnis	-9.7681
▁grad	-9.7685
▁kern	-9.77028
hin	-9.77057
aus	-9.77222
industrie	-9.7732
▁14	-9.77532
▁freude	-9.77535
▁risiko	-9.77759
isch	-9.77776
▁arme	-9.77979
▁außergewöhnlich	-9.7802
▁schönheit	-9.78066
▁schafft	-9.78135
▁abend	-9.78184
▁km	-9.78277
▁naja	-9.78453
▁mach	-9.78492
▁geschäft	-9.78777
kt	-9.78832
▁erfunden	-9.7888
▁klima	-9.78915
▁unterstützen	-9.79032
▁endlich	-9.79068
▁feuer	-9.79131
▁müsste	-9.79182
▁liste	-9.79295
▁wege	-9.79315
▁öffnen	-9.79858
▁digitale	-9.79997
▁maschinen	-9.80107
▁stolz	-9.80212
▁institution	-9.80226
▁spitze	-9.80229
▁gil	-9.80239
▁produkte	-9.80337
▁wunder	-9.80343
▁erzeugt	-9.80384
▁werte	-9.80487
▁brauchte	-9.80502
▁schicken	-9.8054
▁behandeln	-9.80623
▁gedacht	-9.8065
▁guter	-9.80817
▁heutigen	-9.80836
▁werkzeuge	-9.80975
▁osten	-9.81095
▁jahrhunderts	-9.81264
▁ernst	-9.81442
▁john	-9.81506
▁san	-9.8151
▁ahnung	-9.8154
skraft	-9.81542
▁tausend	-9.81731
▁armen	-9.81792
▁hinzu	-9.81819
▁wählen	-9.81832
▁gehe	-9.8198
▁stimmen	-9.82005
▁16	-9.82083
▁triff	-9.82094
sweise	-9.82128
▁sommer	-9.82452
▁fragt	-9.82493
▁reich	-9.82499
▁ähnliche	-9.82615
▁verkauft	-9.827
▁500	-9.82735
▁westen	-9.82747
▁global	-9.8276
▁angefangen	-9.8285
▁bezahl	-9.82901
▁traum	-9.82947
▁super	-9.83082
▁persönliche	-9.83147
▁weiss	-9.83306
▁ließ	-9.83308
▁sowie	-9.83331
▁öffentlich	-9.83392
▁nähe	-9.83455
▁existiert	-9.83505
▁ausdruck	-9.83538
▁verantwortung	-9.83589
▁lief	-9.83696
▁glaubt	-9.83707
▁position	-9.8371
▁sicht	-9.83756
▁veränderungen	-9.83851
▁perfekt	-9.84182
▁i	-9.84186
▁komme	-9.84271
▁sch	-9.84283
▁gewisse	-9.84301
▁anwendung	-9.84316
▁spreche	-9.84348
igen	-9.84536
▁normale	-9.8456
▁ruf	-9.84591
▁per	-9.84643
lassen	-9.84645
▁solch	-9.84757
▁ausge	-9.84764
▁biologie	-9.84774
▁leiden	-9.84811
ik	-9.84996
▁nochmal	-9.85075
stern	-9.85105
▁fenster	-9.85246
▁plan	-9.85256
▁produziert	-9.85307
▁partner	-9.85313
▁spät	-9.85387
▁gefängnis	-9.85464
▁test	-9.8556
▁kontrollieren	-9.85597
▁materiali	-9.85611
▁schlüssel	-9.8564
▁genutzt	-9.85644
▁herr	-9.85693
▁halbe	-9.85792
ch	-9.85882
▁starke	-9.86053
▁karriere	-9.86066
▁verfügung	-9.86077
▁veröffentlicht	-9.86412
▁sauerstoff	-9.86441
▁aufgenommen	-9.86488
▁hinsicht	-9.86512
▁zustand	-9.8689
▁bedingung	-9.86891
schaft	-9.86929
▁laut	-9.8696
▁entlang	-9.86977
▁fällen	-9.87062
▁selbe	-9.87065
▁leid	-9.87231
ziehen	-9.87295
▁außen	-9.87463
▁gelang	-9.8752
▁wald	-9.87553
▁sicherlich	-9.87587
sehen	-9.87694
▁gebe	-9.87888
▁begonne	-9.87916
▁landwirtschaft	-9.87949
is	-9.88011
▁ansatz	-9.88248
▁gehirns	-9.88362
▁allerding	-9.88394
ha	-9.88443
▁benötigt	-9.88495
▁verursacht	-9.88545
▁verschieden	-9.88646
▁werkzeug	-9.88701
▁legen	-9.88715
▁gegangen	-9.88738
▁wandel	-9.88754
▁wunderbar	-9.88885
▁infrastruktur	-9.88939
▁beine	-9.89022
▁band	-9.89088
▁täglich	-9.89093
1	-9.89189
▁setzt	-9.89246
▁la	-9.89251
▁ändert	-9.89319
▁geschwindigkeit	-9.89417
▁physik	-9.89527
ur	-9.89579
kommt	-9.89767
▁geschaff	-9.89817
▁letztendlich	-9.89826
ko	-9.89855
▁zelle	-9.89865
▁see	-9.89874
▁polizei	-9.89886
ischen	-9.89919
▁persönlich	-9.89958
ft	-9.89991
▁ecke	-9.89993
▁beeinflusst	-9.90037
▁industrie	-9.90109
▁kämpfen	-9.90195
▁david	-9.90308
▁kommunikation	-9.90309
▁kreativität	-9.90315
▁web	-9.90486
▁afrikanische	-9.90574
▁fühle	-9.9062
▁8	-9.90923
▁l	-9.90925
▁11	-9.90942
wissenschaft	-9.91167
▁nutzt	-9.91275
▁hey	-9.91292
▁cool	-9.91397
▁natürliche	-9.91502
▁dunkel	-9.91507
▁unterschiede	-9.91673
▁elektrische	-9.91757
▁reagier	-9.91772
▁darf	-9.91779
▁dorthin	-9.91837
▁baum	-9.91857
▁kenne	-9.9192
▁london	-9.92032
▁forscher	-9.92049
▁neuronen	-9.92166
▁zog	-9.92169
▁schutz	-9.92227
hält	-9.92273
▁300	-9.92418
▁ansicht	-9.92437
▁worten	-9.92522
▁grundlegende	-9.92776
▁klingt	-9.9279
to	-9.92859
▁qualität	-9.93031
▁gegend	-9.93044
▁westliche	-9.93066
▁entschied	-9.93141
▁lokale	-9.93153
▁farben	-9.93201
▁afghanistan	-9.93257
▁tochter	-9.93281
▁objekte	-9.93344
▁rechten	-9.9335
▁ton	-9.9336
desto	-9.9346
▁herzen	-9.93461
▁rechte	-9.93494
▁konferenz	-9.93508
▁strategie	-9.9352
▁operation	-9.93571
▁kostet	-9.9375
▁komplexität	-9.93765
▁w	-9.9382
▁fort	-9.93831
▁dagegen	-9.93847
▁fuhr	-9.94013
▁medikamente	-9.94074
▁halb	-9.94111
▁drogen	-9.94113
▁temperatur	-9.94138
▁tieren	-9.94144
▁begriff	-9.94161
▁falsche	-9.94173
▁behandelt	-9.94219
▁investieren	-9.94259
▁gewicht	-9.9433
▁kontakt	-9.94341
▁betr	-9.94677
▁weiterhi	-9.94695
▁sogenannte	-9.94777
▁beeinflussen	-9.94895
▁ausbildung	-9.94914
▁gefühle	-9.95164
▁einfacher	-9.95202
▁sozial	-9.95225
▁zusammenhang	-9.95283
▁mond	-9.9544
▁fallen	-9.95527
trägt	-9.95635
▁erklärt	-9.95673
▁ermöglichen	-9.95784
▁r	-9.95892
ige	-9.95999
▁virus	-9.96078
▁mütter	-9.96087
▁rote	-9.96123
▁fernsehen	-9.96205
▁zuhause	-9.96297
▁kilometer	-9.96737
▁überzeugt	-9.96787
▁dreht	-9.96833
▁töten	-9.96902
▁grosse	-9.96945
▁bat	-9.96975
▁geräte	-9.96987
gebaut	-9.97044
▁halte	-9.97144
▁erinnert	-9.97194
▁bloß	-9.97208
▁chinesische	-9.97216
▁praktisch	-9.9724
▁erstellen	-9.97273
▁las	-9.97284
▁zeichen	-9.97303
▁vermutlich	-9.97328
▁17	-9.97386
▁davor	-9.97413
▁lernt	-9.97446
▁hoffent	-9.97633
▁fantastisch	-9.97798
▁benötig	-9.97824
▁erstaunliche	-9.97842
wächst	-9.97844
▁blaue	-9.97851
▁lebensmittel	-9.97872
▁verbreitet	-9.97872
▁blieb	-9.97918
▁entstehen	-9.97961
▁loch	-9.98096
▁ha	-9.98154
▁deutlich	-9.98154
▁198	-9.98167
▁lasst	-9.98176
ia	-9.98242
▁jahrzehnt	-9.98311
▁kunden	-9.98334
▁o	-9.98417
▁identität	-9.98441
▁13	-9.98468
▁beschäftigt	-9.98692
▁besondere	-9.98748
▁grüne	-9.98825
▁park	-9.98879
▁materie	-9.98935
▁unterstützung	-9.98938
▁erforschen	-9.99077
▁satz	-9.99095
▁199	-9.99124
▁wahre	-9.99159
▁gemeinde	-9.99264
▁insekten	-9.99434
▁intelligenz	-9.99444
▁2000	-9.99456
▁großteil	-9.9948
▁böse	-9.99542
▁zentrum	-9.99631
▁waffen	-9.99682
▁großbritannien	-9.99758
▁verantwortlich	-9.99955
zunehmen	-9.99987
▁allgemein	-10.0001
▁atmosphäre	-10.0007
▁sekunde	-10.0011
▁klang	-10.0029
▁gewinn	-10.0035
▁real	-10.0044
▁landschaft	-10.005
▁bestehen	-10.0052
▁gewonnen	-10.0053
▁kontext	-10.0053
▁aufgaben	-10.0059
▁übertragen	-10.0062
▁neuer	-10.0091
▁x	-10.0104
▁durchgeführt	-10.0108
▁wunsch	-10.0122
▁positive	-10.0128
ifft	-10.0138
▁werfen	-10.014
▁br	-10.0144
▁herausgefunden	-10.0158
▁handy	-10.0159
▁null	-10.016
▁höhe	-10.0162
▁kümmer	-10.0163
▁steckt	-10.0172
▁knochen	-10.0174
▁beschreiben	-10.0211
▁facebook	-10.0212
▁kommunizieren	-10.0213
▁notwendig	-10.0215
▁hintergrund	-10.022
▁masse	-10.0224
genommen	-10.0235
▁sterne	-10.0243
▁bett	-10.0244
▁total	-10.0249
▁fortschritt	-10.025
ab	-10.0253
▁berg	-10.0259
▁vollkommen	-10.0267
▁drittel	-10.0269
▁gestalten	-10.0285
▁bildschirm	-10.029
▁drehen	-10.031
▁lieblings	-10.0313
▁vision	-10.0317
▁soldaten	-10.0319
son	-10.0321
▁titel	-10.033
▁verdienen	-10.0341
hilfe	-10.0347
▁verbracht	-10.0356
▁bio	-10.0359
▁lautet	-10.0367
▁phänomen	-10.0375
▁unbedingt	-10.0377
▁ameisen	-10.0388
spiel	-10.0393
▁konflikt	-10.0399
di	-10.0407
▁mo	-10.0415
▁alleine	-10.042
x	-10.0427
▁moralische	-10.0431
▁brot	-10.0432
▁buchstäblich	-10.0432
▁hauptsächlich	-10.0432
▁japan	-10.0436
▁erhielt	-10.0437
▁begeistert	-10.0456
▁kräfte	-10.0463
▁modelle	-10.0487
▁behaupte	-10.0494
▁untersuchung	-10.0502
▁städten	-10.0512
▁selber	-10.0521
▁ka	-10.0523
▁einsatz	-10.0533
zahl	-10.0539
▁vollständig	-10.0542
▁entwerfen	-10.0554
▁gang	-10.0554
▁mögliche	-10.0555
▁diskussion	-10.0555
▁beweise	-10.0563
▁schaute	-10.0569
▁statistik	-10.058
▁stecken	-10.0584
▁feld	-10.0588
▁klimawandel	-10.0589
▁verhinder	-10.0589
▁golf	-10.06
▁gesund	-10.0602
▁universums	-10.0612
punkt	-10.0624
▁baut	-10.0626
sche	-10.0626
▁dahin	-10.0627
▁umgehen	-10.0632
▁laufe	-10.0633
▁faktor	-10.0637
▁erwartet	-10.0641
▁jahres	-10.0643
▁enorme	-10.0644
▁v	-10.065
▁drin	-10.0653
▁schließen	-10.0654
▁aids	-10.0658
▁entsteh	-10.0673
▁irak	-10.0682
▁basis	-10.069
▁plastik	-10.0694
ton	-10.0696
▁häuser	-10.0699
▁geführt	-10.0703
zeichen	-10.0715
machen	-10.0717
▁präsident	-10.0719
▁politiker	-10.0722
▁hervor	-10.0737
▁verfolgen	-10.0742
▁karten	-10.076
▁besitzen	-10.076
▁komplexe	-10.0763
▁p	-10.0768
▁jobs	-10.0774
▁lebte	-10.0784
▁erklärung	-10.0784
▁themen	-10.0785
▁milliarde	-10.0794
▁24	-10.0795
▁j	-10.0796
▁linke	-10.0804
▁hinweg	-10.0806
bild	-10.081
stehen	-10.0821
▁überrascht	-10.0825
▁dürf	-10.0827
▁gefährlich	-10.0831
▁zivilisation	-10.0833
▁einkommen	-10.084
▁selten	-10.0843
▁holz	-10.0848
weder	-10.0852
la	-10.0876
▁staat	-10.0877
▁affen	-10.0885
▁müll	-10.0903
▁wuchs	-10.0908
▁schlimmer	-10.0916
rüber	-10.0932
▁hängt	-10.0956
▁voraus	-10.0985
▁lieber	-10.0986
▁seines	-10.0994
▁reisen	-10.1
▁kürzlich	-10.1005
ed	-10.1009
▁vergleichen	-10.101
▁häufig	-10.1019
▁fiel	-10.1028
▁twitter	-10.1068
▁interagieren	-10.1068
os	-10.1085
▁motor	-10.1088
leben	-10.1093
raum	-10.1093
▁gesetze	-10.1094
▁gegenteil	-10.1107
▁genauer	-10.1108
▁könnt	-10.111
▁regen	-10.1123
▁wahrnehmung	-10.1125
it	-10.1134
▁speziell	-10.1138
▁glas	-10.114
▁seltsam	-10.1152
▁testen	-10.116
▁charakter	-10.1161
▁reichen	-10.1162
▁flug	-10.1163
▁high	-10.1184
▁bestimmen	-10.1184
▁herunter	-10.1185
▁usw	-10.1185
▁hohen	-10.1186
▁20.	-10.1189
▁folgt	-10.1191
ta	-10.1196
▁city	-10.1201
▁frieden	-10.1212
▁verbring	-10.1216
▁gewissen	-10.1249
▁tue	-10.1264
▁fische	-10.1273
▁fabrik	-10.1274
stand	-10.1277
▁komplex	-10.1286
legen	-10.1286
▁entwickelte	-10.1288
▁erkannte	-10.1291
▁kalt	-10.13
▁stammt	-10.1303
▁getötet	-10.1305
▁babys	-10.1308
▁geburt	-10.1313
▁sport	-10.1318
▁konzentrier	-10.132
▁tiefe	-10.1323
▁filme	-10.1327
▁zimmer	-10.1338
▁professor	-10.1345
▁schmerz	-10.1345
▁hund	-10.1348
▁erster	-10.1362
▁museum	-10.1362
▁irgendetw	-10.1366
▁scheinen	-10.1378
▁kulturelle	-10.138
▁ehe	-10.1382
▁fleisch	-10.1385
▁zeitung	-10.1392
▁lustig	-10.1424
ei	-10.1432
innen	-10.1438
steigt	-10.1441
▁traditionelle	-10.1445
▁rahmen	-10.1449
▁mindesten	-10.145
▁haufen	-10.1459
▁verfügbar	-10.1463
und	-10.1472
▁gefahr	-10.1473
▁spezielle	-10.1474
▁moleküle	-10.1479
▁sand	-10.148
ler	-10.1485
▁änderung	-10.1487
▁laden	-10.1494
ul	-10.1495
▁sucht	-10.1499
▁maus	-10.1509
▁zurückzu	-10.1525
▁nötig	-10.1543
▁verwandel	-10.1547
▁gemeinsame	-10.1549
▁interaktion	-10.1551
▁folge	-10.1554
▁kalifornien	-10.1555
▁indische	-10.1555
▁arbeits	-10.1556
▁erzähle	-10.1559
▁ziele	-10.1561
▁einsetzen	-10.1562
▁schwierigkeit	-10.1562
▁netzwerke	-10.1568
▁experimente	-10.1591
▁augenblick	-10.1592
lange	-10.1603
▁genom	-10.1611
ut	-10.1613
▁bemerkt	-10.1613
▁baute	-10.1613
▁gold	-10.1619
▁überzeugen	-10.1634
▁gen	-10.1651
▁gewebe	-10.1654
he	-10.1659
▁steuern	-10.1661
▁unabhängig	-10.1667
▁öffentlichkeit	-10.168
▁untersucht	-10.1683
▁absicht	-10.169
▁stress	-10.1695
▁eingesetzt	-10.1701
▁biologische	-10.1705
ion	-10.1706
▁politisch	-10.1708
▁tot	-10.1717
▁bruder	-10.1721
▁basiert	-10.1729
▁7	-10.1738
▁kohlenstoff	-10.1742
▁stein	-10.1743
▁passt	-10.1744
▁fantastische	-10.1746
▁standard	-10.1747
▁schwarz	-10.1752
organisation	-10.1755
schalten	-10.1758
bewegung	-10.1761
arbeit	-10.177
▁norden	-10.1779
kommen	-10.178
▁entdeckung	-10.1783
▁kreis	-10.1793
▁militär	-10.1796
stadt	-10.18
▁depression	-10.1806
▁krank	-10.1807
▁schrecklich	-10.181
▁kennt	-10.1811
▁kindheit	-10.1813
▁holen	-10.1822
▁tumor	-10.1823
▁schimpansen	-10.1829
▁angesehen	-10.1839
▁individu	-10.1846
▁150	-10.1866
▁hergestellt	-10.1869
▁erlebt	-10.1883
▁kriege	-10.1883
▁verschwinden	-10.1883
▁inhalt	-10.1883
▁bezahlt	-10.1901
▁wirtschafts	-10.1904
▁gedanke	-10.1907
▁anti	-10.1909
▁minute	-10.1911
gegangen	-10.1911
▁dauert	-10.1916
▁nah	-10.192
▁strukturen	-10.193
▁y	-10.1934
▁komm	-10.1934
mus	-10.1936
▁überraschend	-10.194
▁enorm	-10.1947
▁wow	-10.1951
▁erwachsene	-10.1954
▁setzte	-10.1964
feld	-10.199
ic	-10.1994
▁washington	-10.1997
▁experten	-10.1999
▁anfing	-10.1999
▁tradition	-10.2001
▁college	-10.2002
▁england	-10.2004
▁umstände	-10.2006
▁unterscheiden	-10.2008
▁abhängig	-10.2011
▁relativ	-10.2021
▁erkenntnis	-10.2038
▁wes	-10.2041
▁meilen	-10.2043
▁bank	-10.2046
▁lebende	-10.2055
▁investition	-10.2072
▁morgens	-10.2073
▁nützlich	-10.2082
▁vertraut	-10.2082
▁restaurant	-10.2083
▁rätsel	-10.2089
am	-10.2105
▁gas	-10.2117
▁unternehmer	-10.2123
▁galaxien	-10.2124
▁entworfen	-10.2128
▁richard	-10.2128
▁code	-10.213
▁rücken	-10.2138
▁aspekt	-10.2139
▁grenze	-10.214
▁besuch	-10.2143
auf	-10.215
▁mitarbeiter	-10.2157
gen	-10.2158
▁chemische	-10.2164
▁35	-10.2172
▁schwester	-10.2181
zukommen	-10.2182
▁september	-10.2196
▁mund	-10.2196
tag	-10.2213
▁bieten	-10.2218
▁räume	-10.222
▁meiste	-10.2236
il	-10.2243
▁videos	-10.2249
▁beobachtet	-10.2253
▁entdeckte	-10.2256
▁lektion	-10.2261
▁dran	-10.2262
▁gäbe	-10.2263
▁zugänglich	-10.2265
art	-10.2271
▁metapher	-10.2271
▁website	-10.2272
▁beantworten	-10.2273
▁grafik	-10.2278
▁gehirne	-10.2281
▁erfinden	-10.2292
gekommen	-10.2318
ma	-10.2326
▁mission	-10.2326
▁vorteil	-10.2329
seite	-10.233
▁mitten	-10.2331
▁zuschauer	-10.2333
▁einstellung	-10.2336
fall	-10.2338
▁vorhanden	-10.234
▁elemente	-10.2341
▁genetische	-10.2342
▁gaben	-10.2345
▁erhält	-10.2346
▁verbrachte	-10.2354
▁mikro	-10.2356
▁existieren	-10.2359
▁spielte	-10.2361
▁märkte	-10.2363
▁zeitalter	-10.2364
rin	-10.2372
▁schien	-10.2373
▁gehalten	-10.2377
programm	-10.2377
▁unterstützt	-10.2397
▁blog	-10.2401
▁perspektive	-10.2402
▁10.000	-10.2404
▁iran	-10.2406
▁laptop	-10.2407
▁kannte	-10.2427
▁einiger	-10.2433
▁träume	-10.2457
▁nationen	-10.2465
▁lokal	-10.2467
▁dinosaurier	-10.2469
ri	-10.2483
bau	-10.2488
sitzt	-10.2507
▁erwähnt	-10.2509
▁lied	-10.2518
▁brauche	-10.2523
projekt	-10.2526
▁400	-10.2528
gruppe	-10.254
unternehmen	-10.2541
getragen	-10.2546
ce	-10.2549
▁hoffen	-10.2556
▁reicht	-10.2562
▁erstellt	-10.2566
▁verbinde	-10.2573
v	-10.2576
▁bedeuten	-10.2577
▁text	-10.2586
▁gesamt	-10.2587
▁verbreiten	-10.2594
▁brust	-10.2601
▁zerstört	-10.2602
▁rand	-10.2613
▁produktion	-10.2614
▁wenigsten	-10.2617
▁annahme	-10.2618
▁älter	-10.2623
▁volk	-10.263
ien	-10.2632
▁bauern	-10.2637
▁eindruck	-10.2646
theorie	-10.2651
▁ökosystem	-10.2653
▁fäng	-10.266
▁ursprünglich	-10.2662
▁aktuelle	-10.2669
▁entspricht	-10.2673
geschichte	-10.2681
lo	-10.2682
▁kreativ	-10.2683
▁visuelle	-10.2685
▁bill	-10.2691
wegs	-10.2696
▁winzig	-10.2698
▁nation	-10.2707
▁wundervolle	-10.2707
▁kreative	-10.271
wisst	-10.2725
▁gehören	-10.2729
▁steigen	-10.2729
▁einrichtung	-10.2738
▁brasilien	-10.2742
▁definition	-10.2745
▁organismen	-10.2746
▁höhere	-10.2749
at	-10.2749
ende	-10.2756
or	-10.2757
▁wunderschöne	-10.2763
▁bedürfnisse	-10.2764
▁behalten	-10.2764
▁entstanden	-10.2783
ssystem	-10.2786
▁zählen	-10.2787
▁ließen	-10.2789
▁drübe	-10.28
▁anstelle	-10.2801
▁übrig	-10.2809
▁lebewesen	-10.2818
plan	-10.2823
▁gelesen	-10.2827
technologie	-10.2844
ley	-10.2848
▁kontinent	-10.2855
▁inneren	-10.2872
▁massen	-10.2876
▁erscheinen	-10.2876
▁handlung	-10.2881
▁krise	-10.2883
▁21.	-10.2888
▁weiße	-10.291
up	-10.2912
▁abschluss	-10.2913
▁amp	-10.2917
▁zeiten	-10.2922
▁verteilt	-10.2928
▁angenommen	-10.2937
▁teilchen	-10.2937
▁gegenseitig	-10.2947
▁link	-10.2948
▁live	-10.2953
▁innere	-10.2954
laden	-10.2957
▁kompliziert	-10.2957
▁füße	-10.2963
▁britische	-10.297
▁insel	-10.2972
▁19	-10.3008
▁gespräch	-10.3024
fahren	-10.3024
▁geändert	-10.3025
▁berührt	-10.3027
▁aussage	-10.3031
▁europäische	-10.3034
▁viren	-10.3036
▁inspiriert	-10.3038
wissenschaftlich	-10.3043
▁definieren	-10.3047
▁molekül	-10.3074
▁fang	-10.3077
▁studieren	-10.3096
▁half	-10.3098
kopf	-10.3132
▁israel	-10.3134
▁werk	-10.3139
▁interview	-10.3144
▁stärker	-10.3145
▁freundin	-10.3149
▁lager	-10.3153
▁zitat	-10.3163
▁schlagen	-10.3165
▁kerl	-10.3169
▁gestorben	-10.3171
▁fördern	-10.3171
▁kaffee	-10.3171
▁hallo	-10.3173
▁teuer	-10.3173
▁radio	-10.3174
▁fakten	-10.3179
denken	-10.3179
▁hunger	-10.318
▁fähig	-10.3181
▁trug	-10.3182
▁viertel	-10.3185
▁meinte	-10.3186
▁reduzieren	-10.3199
▁forschungs	-10.3199
▁1.	-10.3203
▁auseinander	-10.3203
▁dach	-10.3205
co	-10.3206
▁rat	-10.3217
▁hunde	-10.322
▁glaubte	-10.3227
▁post	-10.3245
▁unglücklich	-10.3249
▁kombination	-10.3251
▁beschloss	-10.3255
bahn	-10.326
▁ausmaß	-10.327
ra	-10.3275
▁9	-10.3278
▁methoden	-10.3282
▁times	-10.3286
▁gemeinden	-10.3291
▁beitrag	-10.3292
▁erschein	-10.3298
▁tanz	-10.3299
▁grundsätzlich	-10.3306
▁elektrizität	-10.3315
▁mut	-10.3315
▁erd	-10.3318
▁zerstören	-10.3328
▁schlechter	-10.3329
▁verbessert	-10.3331
▁sichtbar	-10.3333
▁ersetzen	-10.3339
▁batterie	-10.3341
▁signal	-10.3345
▁künstliche	-10.335
▁geschickt	-10.3351
▁gefangen	-10.3353
▁wirkung	-10.3355
▁starten	-10.3368
▁sparen	-10.3377
▁zweck	-10.3378
problem	-10.3379
▁boot	-10.338
▁vermeid	-10.3389
▁mexiko	-10.3393
▁süd	-10.3395
▁beinahe	-10.3396
▁gefällt	-10.3397
gezogen	-10.3409
▁werbung	-10.341
▁anruf	-10.3414
weise	-10.3421
▁ball	-10.3425
▁aufbauen	-10.343
▁bar	-10.343
▁brachten	-10.3445
▁arbeiter	-10.3456
▁beschlossen	-10.3457
▁gefahren	-10.3459
▁heimat	-10.3467
weg	-10.3468
▁innen	-10.3468
▁feststell	-10.3468
▁maßstab	-10.3475
▁meist	-10.3483
▁details	-10.3484
▁aufregend	-10.3487
▁gras	-10.3492
▁kohle	-10.3494
▁schwarzen	-10.3502
▁zukünftige	-10.3505
▁spieler	-10.3505
gesundheitswesen	-10.3506
▁to	-10.351
▁technische	-10.3513
▁liefer	-10.3515
li	-10.3519
▁generationen	-10.3522
▁linien	-10.3523
bereich	-10.3527
▁zusätzlich	-10.3531
▁erwachsenen	-10.3539
▁weißt	-10.3541
▁45	-10.3542
▁helden	-10.3545
▁deutschland	-10.3549
▁berechnung	-10.3551
▁momentan	-10.3553
▁darstellung	-10.3553
gibt	-10.3554
▁wagen	-10.3558
▁blind	-10.3565
▁lauf	-10.3567
▁international	-10.3572
▁emotionen	-10.3594
▁vogel	-10.3594
00	-10.3596
▁heb	-10.36
▁gross	-10.3603
▁jahrzehnte	-10.3611
mail	-10.3616
▁emotionale	-10.3618
▁malaria	-10.3621
▁positiv	-10.3622
▁gewählt	-10.3627
▁äußerst	-10.3628
▁school	-10.3632
▁west	-10.3645
▁ereignisse	-10.365
des	-10.3653
▁vorfahr	-10.3655
ck	-10.3656
▁zucker	-10.3661
▁virtuelle	-10.3665
▁ange	-10.3669
▁physische	-10.3677
▁weltraum	-10.3691
▁stufe	-10.3696
▁jedenfall	-10.3697
▁quasi	-10.3697
▁konsequenz	-10.3697
▁versteckt	-10.3698
▁chemie	-10.3704
▁industrielle	-10.3707
▁kochen	-10.372
▁heim	-10.3721
▁digital	-10.3722
▁perfekte	-10.3722
▁willst	-10.3726
gesehen	-10.3727
▁kurs	-10.3727
▁vorne	-10.3731
▁effektiv	-10.3733
ländern	-10.3739
▁merk	-10.3743
▁medikament	-10.3758
▁zeichnen	-10.3764
▁falt	-10.3764
weile	-10.377
▁lass	-10.377
▁sitz	-10.3773
▁derselbe	-10.3775
go	-10.3779
▁ober	-10.3787
▁seltsame	-10.379
▁köpfe	-10.3793
gestellt	-10.3802
▁neuro	-10.3807
▁garten	-10.3821
maßen	-10.3823
▁nett	-10.3824
▁aufhör	-10.3825
▁lehren	-10.3834
▁nachbarn	-10.3839
▁fälle	-10.3841
▁bereiche	-10.3843
▁schatten	-10.3851
▁erkennt	-10.3852
▁vermitteln	-10.3853
risiken	-10.3853
▁löcher	-10.3871
▁and	-10.3871
tra	-10.3873
▁effekt	-10.3874
▁nachts	-10.3878
▁offene	-10.3893
▁entscheidend	-10.3895
form	-10.3898
▁bestand	-10.3902
▁derzeit	-10.3906
▁geräusch	-10.3908
▁soviel	-10.3909
band	-10.3913
▁instrument	-10.3917
▁kriegen	-10.3921
▁schrift	-10.3925
▁meeres	-10.3926
▁umfeld	-10.3931
▁muskel	-10.3931
▁irgendjemand	-10.3931
▁korruption	-10.3931
ö	-10.3939
▁vögel	-10.3946
▁winzige	-10.395
▁seid	-10.3964
ro	-10.3974
▁körpers	-10.3975
▁quelle	-10.3982
▁haar	-10.3983
2-	-10.3998
j	-10.4001
▁nigeria	-10.4004
▁zentrale	-10.4006
ein	-10.4008
modell	-10.4009
▁großmutter	-10.4011
▁angesicht	-10.4015
▁überwind	-10.4017
▁heran	-10.4017
▁satelliten	-10.402
fi	-10.4031
▁gelöst	-10.4032
▁rief	-10.4047
▁klassische	-10.4051
▁gebrauch	-10.4056
wissenschaftler	-10.406
▁gesunde	-10.4061
▁trink	-10.4062
▁hi	-10.4083
erkennung	-10.4088
▁beinhaltet	-10.409
▁existenz	-10.4094
▁theater	-10.4099
▁erkannt	-10.4109
▁finanz	-10.411
▁schnitt	-10.4111
▁nord	-10.4112
▁schwimmen	-10.4115
▁gesichter	-10.4117
▁passen	-10.4119
▁konzentriert	-10.4121
▁ausstellung	-10.4128
▁stopp	-10.4135
▁legt	-10.4137
▁überlegen	-10.414
platz	-10.4142
buch	-10.4148
▁ma	-10.4152
▁kapital	-10.417
▁stuhl	-10.4189
▁entfern	-10.4191
▁gelb	-10.4193
▁schaden	-10.4195
▁patient	-10.4197
nis	-10.4197
▁buchstaben	-10.4199
▁schwieriger	-10.4205
▁entstand	-10.4205
zentrum	-10.4206
▁wild	-10.4212
▁eindeutig	-10.4215
▁verlust	-10.4219
▁vorhersagen	-10.4229
com	-10.4231
▁cent	-10.4237
▁anteil	-10.424
▁unterhaltung	-10.4249
▁george	-10.4253
▁winter	-10.4253
▁atem	-10.4254
▁stärke	-10.4255
▁musiker	-10.4256
▁diagramm	-10.4257
enden	-10.4259
▁präsentation	-10.4263
▁teilweise	-10.4264
▁potential	-10.4267
▁schlafen	-10.427
sie	-10.4272
mann	-10.4276
ies	-10.4277
▁gespielt	-10.4284
▁verhältnis	-10.429
▁beteiligt	-10.4298
immt	-10.4302
▁darwin	-10.4311
▁solcher	-10.4314
▁hierher	-10.4316
▁ernsthaft	-10.4318
test	-10.4319
▁einge	-10.4331
▁erwartung	-10.4334
▁australien	-10.4336
▁biete	-10.4341
▁entfernung	-10.4343
▁verglich	-10.4345
▁leer	-10.4349
▁geschäfts	-10.4374
arten	-10.4376
▁bedenken	-10.4376
▁geheimnis	-10.4381
▁toten	-10.4384
▁verlauf	-10.4385
▁zieht	-10.4392
▁automatisch	-10.4399
▁antwortete	-10.4402
▁wetter	-10.441
▁kenia	-10.4412
▁einstein	-10.4417
▁ledig	-10.4418
▁uni	-10.4419
▁heisst	-10.4421
▁allgemeine	-10.4424
▁rück	-10.4432
kraft	-10.4433
▁nationale	-10.4439
▁architekten	-10.4441
▁do	-10.4453
▁ergibt	-10.4454
▁grundlegend	-10.4459
▁gebraucht	-10.4465
▁besagt	-10.4467
▁mehrheit	-10.4493
▁dankbar	-10.4494
▁harvard	-10.4501
▁besessen	-10.4501
▁gelebt	-10.4501
▁99	-10.4501
▁anschaut	-10.452
▁hinten	-10.4523
▁übung	-10.4529
▁hirn	-10.4532
▁ideal	-10.4533
▁aktion	-10.4534
▁schuld	-10.4546
probieren	-10.4558
▁gefallen	-10.4562
▁ko	-10.4565
wo	-10.4572
▁wohlstand	-10.4575
ke	-10.4577
▁darstellen	-10.458
daten	-10.4583
▁teenager	-10.4585
▁kreieren	-10.4585
▁worauf	-10.4585
▁etc	-10.4585
▁seht	-10.4586
▁bedrohung	-10.4595
▁erhöh	-10.4602
igkeit	-10.4606
▁anwend	-10.4614
▁vereint	-10.4614
▁wein	-10.4616
▁verwandelt	-10.4619
▁veränderte	-10.4625
▁faszinierend	-10.4627
mittel	-10.4636
au	-10.4643
haus	-10.4643
verhalten	-10.4644
▁verrückte	-10.4651
▁schätzen	-10.4653
▁open	-10.4656
▁weiteren	-10.466
▁prozesse	-10.4661
▁südafrika	-10.4662
▁schwere	-10.4669
▁extra	-10.4669
▁197	-10.4669
▁dahinter	-10.467
▁schulter	-10.4674
▁gemälde	-10.4677
▁kongress	-10.4677
ging	-10.4677
▁galaxie	-10.4696
▁ta	-10.47
▁klinik	-10.4702
▁unterrichten	-10.4711
▁blatt	-10.4717
▁verbesserung	-10.4719
mehr	-10.4726
▁verstehe	-10.4727
durchschnittlich	-10.4728
▁aufnehmen	-10.4729
▁eng	-10.4735
gleich	-10.4748
▁youtube	-10.4755
▁darunter	-10.4755
▁verlangen	-10.4755
▁echtzeit	-10.4757
▁schau	-10.476
▁bereichen	-10.4764
▁sag	-10.4773
▁grundlage	-10.4785
▁fett	-10.4787
▁ba	-10.4794
▁tonnen	-10.4798
▁sicherheits	-10.4806
▁spiegel	-10.4808
▁wora	-10.4812
▁planet	-10.4812
▁fährt	-10.4813
▁blumen	-10.4814
versorgung	-10.4814
endlich	-10.4824
ierte	-10.4832
▁aufnahme	-10.4836
▁schicksal	-10.4841
▁überraschung	-10.4841
▁charles	-10.4841
▁handel	-10.4849
▁abge	-10.4852
▁verlier	-10.4852
op	-10.4855
▁anführer	-10.4861
▁menschlicher	-10.4863
▁wurzel	-10.4865
▁bemerken	-10.4869
▁ozeane	-10.4871
▁wettbewerb	-10.4875
▁besorgt	-10.4876
▁organisiert	-10.488
▁belohnung	-10.4881
▁erfindung	-10.4893
▁schwierige	-10.4895
▁drauf	-10.4896
haft	-10.4899
▁tiefer	-10.4904
▁iphone	-10.4928
▁pfund	-10.4928
▁2008	-10.4933
▁sowas	-10.4935
▁fern	-10.4937
verständlich	-10.495
▁zuhören	-10.4951
▁plattform	-10.4958
▁privat	-10.4959
▁höre	-10.496
▁kulturen	-10.4966
▁individuelle	-10.4967
▁jugendliche	-10.4968
▁brücke	-10.4971
▁herren	-10.4981
stellung	-10.4985
▁alternative	-10.4995
▁süden	-10.4997
▁fasziniert	-10.4998
▁chirurg	-10.5002
▁beschrieben	-10.5014
▁nasa	-10.5014
▁scheinbar	-10.5016
▁ursache	-10.5016
▁james	-10.5017
▁gegründet	-10.5019
▁gegenwart	-10.5022
gang	-10.5027
gruppen	-10.5027
▁reduziert	-10.5032
▁tests	-10.5034
▁start	-10.5035
▁bedarf	-10.5036
▁weile	-10.5038
▁unsichtbar	-10.5041
▁unfall	-10.5059
▁schritte	-10.507
politik	-10.5078
markt	-10.5085
▁einheit	-10.5086
▁erhöht	-10.5099
▁insbesonder	-10.5104
▁kanada	-10.5104
▁versteh	-10.5111
▁11.	-10.512
rseit	-10.5122
weite	-10.5124
▁zähne	-10.5126
▁weltkrieg	-10.5138
▁persönlichkeit	-10.5138
struktur	-10.5138
▁folie	-10.5141
pf	-10.5144
▁einzigartig	-10.5148
da	-10.5159
▁übernehmen	-10.516
▁singen	-10.5165
▁geräusche	-10.5168
▁kontrolliert	-10.5169
▁zer	-10.5171
▁nutzung	-10.5175
▁paul	-10.5176
▁23	-10.5182
▁schreckliche	-10.5194
▁bezieh	-10.52
▁stahl	-10.5201
▁weibliche	-10.5202
▁zweifel	-10.5208
▁mangel	-10.5208
▁ach	-10.5209
▁akzeptieren	-10.521
▁zunehmend	-10.521
▁respekt	-10.5213
▁chemikalien	-10.5215
▁kirche	-10.5221
▁wieviel	-10.5221
▁besitzt	-10.5233
▁ah	-10.5235
▁lächeln	-10.5247
▁therapie	-10.5254
▁pakistan	-10.5257
wenden	-10.526
▁lebe	-10.5261
gesamt	-10.5262
▁hai	-10.5262
▁gebet	-10.5262
▁wen	-10.5275
▁begreif	-10.5275
lose	-10.5276
▁riesen	-10.5284
▁stieg	-10.5284
▁196	-10.5284
▁gebiete	-10.5285
▁signale	-10.5291
systeme	-10.5292
▁teilnehmer	-10.5292
▁debatte	-10.5302
▁bemerkenswert	-10.5302
▁zeichnung	-10.5306
▁lebendig	-10.5314
▁verbrauch	-10.5315
▁berichten	-10.5327
ka	-10.5331
▁führung	-10.5333
bildung	-10.5334
licher	-10.5338
▁momente	-10.5346
▁küste	-10.5348
▁kostenlos	-10.5357
▁symbol	-10.5369
holfen	-10.5374
▁investiert	-10.5375
▁froh	-10.5375
▁francisco	-10.5375
▁verließ	-10.5376
▁selb	-10.5378
▁interessiere	-10.5378
▁kapitel	-10.5378
▁bildet	-10.5385
▁kabel	-10.5386
▁wälder	-10.5396
▁flog	-10.5399
▁leichter	-10.5406
▁austausch	-10.5408
▁organ	-10.5413
▁stehe	-10.5413
▁berühmt	-10.5413
▁wüste	-10.5416
▁still	-10.5423
är	-10.5431
voll	-10.5437
ine	-10.545
▁doppelt	-10.5453
▁damen	-10.5459
▁wolken	-10.5462
▁erweitern	-10.5466
▁klassenzimmer	-10.5466
schaftliche	-10.5467
▁fortschritte	-10.5469
▁protein	-10.5476
▁top	-10.5477
▁basierend	-10.5478
▁umgeben	-10.548
ger	-10.5484
▁fach	-10.5495
▁steve	-10.5495
▁funktionierte	-10.5498
▁stammzellen	-10.5498
vi	-10.5511
▁wunderschön	-10.5529
▁begrenzt	-10.5541
▁po	-10.5541
▁vereinigte	-10.5542
ol	-10.5545
▁interessen	-10.5558
▁überzeugung	-10.5559
▁terrorismus	-10.5559
▁wellen	-10.5562
▁kaufte	-10.5562
▁marketing	-10.5564
▁knie	-10.5566
▁vorbereitet	-10.5567
▁nachbarschaft	-10.557
▁streit	-10.5576
▁betroffen	-10.5576
▁wovo	-10.5578
un	-10.5578
▁typisch	-10.558
▁ansieh	-10.5582
▁drücken	-10.5597
▁21	-10.5597
gesellschaft	-10.5604
▁maß	-10.561
▁interessanter	-10.5627
▁reale	-10.5629
kultur	-10.5632
▁phase	-10.5638
▁sh	-10.564
▁beend	-10.5641
▁üblich	-10.5649
▁russland	-10.5653
holen	-10.5657
ken	-10.5658
▁gedächtnis	-10.5659
▁gerechtigkeit	-10.566
▁verbrechen	-10.5661
▁gleichung	-10.5662
▁19.	-10.5664
▁literatur	-10.5666
▁ruhe	-10.567
▁pflege	-10.5674
▁sonnen	-10.5675
▁beizu	-10.5681
▁element	-10.5683
▁schiff	-10.5684
▁atmen	-10.5687
io	-10.569
id	-10.5693
▁anschaue	-10.5695
▁webseite	-10.5698
po	-10.5702
rlei	-10.5704
▁resultat	-10.5706
▁geschenk	-10.5714
▁fahrrad	-10.5714
▁vorteile	-10.5719
▁heißen	-10.5721
▁verhaltens	-10.5734
▁interessantes	-10.5734
▁schickte	-10.5741
▁dauerte	-10.5746
▁gekauft	-10.5753
▁mathematische	-10.5756
▁aufgewachsen	-10.5756
▁elektronische	-10.5758
▁app	-10.5764
ierung	-10.577
rgestellt	-10.5773
▁armee	-10.5781
▁nase	-10.5782
sprache	-10.5788
ti	-10.5794
ere	-10.5794
▁bekomme	-10.5795
▁samen	-10.5803
rei	-10.5806
▁show	-10.5807
▁islam	-10.5813
▁elefanten	-10.5818
▁langsamer	-10.5822
dollar	-10.5826
▁zufall	-10.5835
▁gründete	-10.5839
▁world	-10.5842
▁wüsste	-10.5842
▁durfte	-10.5842
▁erneut	-10.5842
▁technisch	-10.5842
▁bemerkte	-10.5843
▁organisieren	-10.5844
▁symmetrie	-10.5845
▁adam	-10.5846
▁sms	-10.5849
maschine	-10.5854
emissionen	-10.5855
▁75	-10.586
▁proteine	-10.586
▁eier	-10.5863
▁geburtstag	-10.5867
greifen	-10.5868
lage	-10.5873
▁infiziert	-10.5879
▁vermute	-10.588
▁erkrankung	-10.5902
▁arabisch	-10.5914
▁verdient	-10.5923
▁erlebnis	-10.5926
▁2010	-10.5938
▁darstellt	-10.5941
▁bus	-10.5941
▁hinauf	-10.5942
sonst	-10.5952
▁akt	-10.5954
▁abfall	-10.5971
▁störung	-10.5972
▁ingenieur	-10.598
▁filter	-10.5986
▁definiert	-10.5991
▁vorzu	-10.5993
▁ingenieure	-10.5994
▁st	-10.5998
geschwindigkeit	-10.5999
ebene	-10.6001
▁ereignis	-10.6004
▁ökonom	-10.6022
▁genetisch	-10.6023
▁grippe	-10.603
▁chicago	-10.6035
▁getrennt	-10.6035
▁inspiration	-10.6035
▁michael	-10.6035
▁wirkliche	-10.6038
▁jo	-10.6045
hören	-10.6048
▁wände	-10.6052
▁rennen	-10.6063
schrift	-10.6065
fach	-10.6069
▁langweilig	-10.607
ho	-10.6089
▁knapp	-10.6092
▁wirtschaftlich	-10.6095
▁billionen	-10.6097
▁gt	-10.6098
ly	-10.61
krise	-10.6101
▁schlaf	-10.6101
▁nerven	-10.6101
▁ar	-10.6117
▁chines	-10.6118
▁spielzeug	-10.6119
▁traurig	-10.612
▁wal	-10.6129
▁besucht	-10.6129
▁beruf	-10.6131
▁nieder	-10.6132
▁gewann	-10.6133
genügend	-10.6135
▁afrikaner	-10.614
▁hieß	-10.6146
▁billig	-10.6148
grund	-10.6153
forschung	-10.6154
▁verfolgt	-10.6159
▁ausgesetzt	-10.6164
▁private	-10.6178
▁seele	-10.618
▁fehlt	-10.6183
▁sexuelle	-10.619
▁ohren	-10.6197
th	-10.6198
▁führer	-10.6202
▁gottes	-10.6203
ff	-10.6208
▁harte	-10.621
▁600	-10.6211
pa	-10.6216
wirtschaft	-10.6226
▁schuhe	-10.6228
▁magie	-10.6232
▁verwendung	-10.6232
▁wikipedia	-10.6232
▁verschwunden	-10.6232
▁strand	-10.6233
▁robert	-10.6234
bezüglich	-10.6235
▁sichtweise	-10.6236
▁enthalten	-10.6236
ära	-10.6237
▁mai	-10.6237
▁beobachtung	-10.6241
▁städtische	-10.6242
▁gewaltige	-10.6244
▁betrieben	-10.6244
▁asien	-10.6247
▁dumm	-10.625
▁prinzipien	-10.6254
▁dicht	-10.6259
▁vergangen	-10.6259
▁wohnung	-10.6263
▁lt	-10.6264
▁durchführen	-10.6273
▁bezeichnet	-10.6278
5.000	-10.6279
▁ki	-10.6282
▁metall	-10.6283
▁zusammenzu	-10.6292
▁zug	-10.6297
ist	-10.6298
▁könig	-10.6298
▁rad	-10.6301
▁si	-10.6302
▁betreiben	-10.6308
▁wechseln	-10.6312
▁geistes	-10.6328
▁schweden	-10.6332
▁nervös	-10.6332
▁nachgedacht	-10.6333
fressen	-10.6336
▁weiterer	-10.634
▁verbreitung	-10.6349
ac	-10.6349
▁moral	-10.6349
▁schlug	-10.6355
▁wartet	-10.6364
▁genießen	-10.6369
effekt	-10.637
ll	-10.6371
▁instrumente	-10.6371
▁korallen	-10.6391
▁mächtig	-10.6395
▁auswahl	-10.6402
ät	-10.641
▁heilen	-10.6412
▁komponente	-10.6414
▁rollen	-10.6418
▁geh	-10.6423
▁1000	-10.6431
▁stern	-10.6431
▁hinunter	-10.6435
▁tu	-10.6435
scheinend	-10.6437
gemacht	-10.6438
ir	-10.6454
▁höchst	-10.6457
▁kleidung	-10.646
▁lese	-10.6462
▁transport	-10.6466
▁wachsende	-10.6471
▁population	-10.6472
▁negative	-10.6473
▁irgendein	-10.6477
▁liebte	-10.6483
▁wider	-10.6485
▁stücke	-10.6487
▁nachhaltige	-10.6507
▁detail	-10.6513
▁aspekte	-10.6532
▁kampagne	-10.6534
▁aufgeregt	-10.6535
▁irgendwelche	-10.6535
▁chaos	-10.6535
technik	-10.6537
▁folgenden	-10.6538
▁zwang	-10.6538
▁gemüse	-10.6538
▁älteste	-10.654
▁gedicht	-10.6541
▁option	-10.6542
▁le	-10.6543
▁dns	-10.6543
▁bezeichnen	-10.6548
▁zusätzliche	-10.6552
gabe	-10.6554
▁milch	-10.656
▁enden	-10.6562
▁schreibt	-10.6562
▁versagen	-10.6564
▁schlag	-10.6569
ba	-10.6572
▁spenden	-10.6572
▁ernähr	-10.6573
▁flügel	-10.6574
▁wundervoll	-10.6585
▁hass	-10.6585
▁wünschte	-10.6585
▁aufnahmen	-10.6599
▁quellen	-10.6612
▁konflikte	-10.6614
▁kurve	-10.6614
tragen	-10.6619
zellen	-10.6625
▁go	-10.6629
▁tee	-10.6629
▁solar	-10.6633
▁blätter	-10.6633
▁el	-10.6635
▁zufrieden	-10.6635
▁ruhig	-10.6638
▁boston	-10.6638
▁inzwischen	-10.6638
▁lebenserwartung	-10.6638
▁geruch	-10.6638
▁gps	-10.6639
▁fokus	-10.6642
▁kreatur	-10.6642
▁mitglieder	-10.6643
▁doktor	-10.6645
▁scheitern	-10.6646
▁religiöse	-10.6648
▁konsum	-10.6654
▁bibliothek	-10.6658
▁neuigkeit	-10.6658
▁kognitive	-10.6666
▁lern	-10.6667
▁herstellung	-10.6669
▁studio	-10.6671
macht	-10.6672
▁gesichts	-10.6672
wert	-10.6677
▁wiederholen	-10.668
▁intelligente	-10.6686
▁feind	-10.6698
▁programme	-10.67
▁weltweite	-10.6707
▁teure	-10.6717
▁unterricht	-10.6717
▁me	-10.6719
▁suchte	-10.6725
▁besuchte	-10.673
▁zauber	-10.6734
▁lügen	-10.6739
▁nadel	-10.674
▁wütend	-10.6743
▁versorgen	-10.6743
▁pollen	-10.6743
▁mikroben	-10.6743
▁paris	-10.6743
▁mama	-10.6744
▁tom	-10.6745
▁1.000	-10.6747
▁mäuse	-10.6748
▁letzter	-10.6748
▁gewisser	-10.6749
▁öffnet	-10.6749
▁gelehrt	-10.6749
▁eingeladen	-10.6751
▁finanzielle	-10.6751
▁gesammelt	-10.6751
▁tätigkeit	-10.6752
▁100.000	-10.6752
▁heirat	-10.6753
▁halt	-10.6757
▁dichter	-10.6757
▁fläche	-10.6759
▁chef	-10.6761
▁kleinere	-10.6762
▁status	-10.6765
▁budget	-10.6766
▁ed	-10.6778
▁serie	-10.6782
muster	-10.6788
▁bemerkenswerte	-10.6789
ja	-10.679
ich	-10.6796
▁jugend	-10.68
▁fahrzeug	-10.6809
▁treib	-10.6819
▁sorge	-10.6832
▁wärme	-10.6839
▁hotel	-10.6842
▁higgs	-10.6848
▁obama	-10.6848
▁veröffentlichen	-10.6848
▁sonnenlicht	-10.6848
▁wirkt	-10.6851
bricht	-10.6854
▁kindes	-10.6855
▁dörfer	-10.6856
its	-10.6857
▁männliche	-10.6858
▁psychologie	-10.6858
▁chancen	-10.6863
▁verbringe	-10.6871
▁heutige	-10.6873
▁fange	-10.6876
▁denk	-10.688
▁dichte	-10.6885
raten	-10.689
▁erforscht	-10.6892
licht	-10.6892
▁studiert	-10.6895
▁streben	-10.6895
▁programmieren	-10.6909
▁geteilt	-10.6909
▁wahrnehm	-10.6911
▁analyse	-10.6911
▁durchzu	-10.6913
▁schicht	-10.6927
▁mengen	-10.6936
▁lo	-10.6937
▁kreuz	-10.6937
▁vierte	-10.6951
ca	-10.6959
▁mathematiker	-10.6959
▁hinzufügen	-10.696
▁vorsichtig	-10.6961
▁reagiert	-10.6962
▁zerstörung	-10.6963
▁wem	-10.6974
▁student	-10.6986
▁gericht	-10.6988
▁herein	-10.6988
▁noten	-10.6993
▁ernährung	-10.7003
▁mauer	-10.7003
▁einzig	-10.701
▁fremde	-10.7012
▁27	-10.7014
▁schlimm	-10.7019
▁zell	-10.7027
▁springen	-10.7038
ry	-10.7046
▁fu	-10.7047
▁brustkrebs	-10.7048
▁negativ	-10.7052
▁physiker	-10.7054
▁university	-10.7062
▁bewirken	-10.7063
▁frankreich	-10.7064
▁modern	-10.7065
▁leere	-10.7072
▁gipfel	-10.7072
▁potenzial	-10.7075
▁animation	-10.7076
▁neugierig	-10.7077
schule	-10.7077
▁erzählung	-10.7079
▁bi	-10.7079
▁general	-10.7086
▁sektor	-10.709
▁geschäfte	-10.7091
do	-10.7091
zuhören	-10.7099
▁di	-10.71
end	-10.7106
ort	-10.7109
▁feiern	-10.711
oberfläche	-10.7121
▁dimensionen	-10.7124
▁beschreib	-10.7128
▁deiner	-10.7131
▁haie	-10.7144
▁wesentliche	-10.7156
▁brief	-10.7165
▁kongo	-10.7165
arm	-10.7166
▁erdbeben	-10.717
▁kaputt	-10.717
▁ghana	-10.717
▁island	-10.7171
▁mu	-10.7173
▁entscheidende	-10.7175
▁bibel	-10.7179
▁hinterlassen	-10.718
teilen	-10.718
▁stämme	-10.7183
▁hängen	-10.7184
▁berge	-10.7188
all	-10.7189
▁vorträge	-10.7193
▁witz	-10.7196
▁griff	-10.7197
leistung	-10.7199
▁verfahren	-10.72
▁dienstleistung	-10.7201
zug	-10.7207
▁freie	-10.721
▁tanzen	-10.7221
▁algorithmen	-10.7222
▁wirken	-10.7225
▁stock	-10.7236
▁bedeutete	-10.7237
▁schlau	-10.7239
▁steuer	-10.7258
▁nachhaltig	-10.7267
▁planen	-10.7268
größe	-10.7278
▁konfrontiert	-10.728
▁original	-10.728
▁bedroht	-10.728
▁bekämpfen	-10.7281
▁beachten	-10.7281
▁schuf	-10.7281
▁anfäng	-10.7284
▁angeles	-10.7284
▁sonnensystem	-10.7285
▁begegnen	-10.7286
▁illusion	-10.7291
film	-10.7292
spieler	-10.7294
▁thom	-10.7295
▁traditionell	-10.7297
▁niveau	-10.7297
▁ergeben	-10.7298
▁regelmäßig	-10.7298
▁schätzung	-10.7299
▁willen	-10.7301
▁mittels	-10.7304
▁kategorie	-10.7305
▁zentral	-10.7306
▁informations	-10.7306
▁anzusehen	-10.7307
▁entdeckungen	-10.7315
▁trick	-10.7317
▁dauern	-10.7318
mi	-10.732
▁eigentliche	-10.7325
▁frühe	-10.7326
▁stiftung	-10.733
▁aufbau	-10.7336
▁gezogen	-10.7338
▁box	-10.7339
drücken	-10.7339
▁eingeführt	-10.7342
hand	-10.7369
▁flach	-10.737
▁voneinander	-10.7372
ker	-10.7374
▁decke	-10.738
▁hör	-10.7382
▁kollektive	-10.7382
schutz	-10.7383
iger	-10.7384
▁letztlich	-10.7392
▁schnee	-10.7395
▁funk	-10.7397
▁street	-10.74
berg	-10.7402
▁bericht	-10.7404
iv	-10.7406
▁tiefen	-10.7409
▁epidemie	-10.741
▁riesig	-10.7411
▁physisch	-10.7422
▁müsst	-10.7425
▁fremden	-10.7429
▁anpassen	-10.7429
▁schwach	-10.7432
▁nachhaltigkeit	-10.7436
arbeiten	-10.7437
▁dreidimensional	-10.744
▁unge	-10.7441
▁klug	-10.7442
▁videospiele	-10.7445
▁einzigartige	-10.745
linie	-10.7462
▁ursprung	-10.7466
▁neugier	-10.7488
▁presse	-10.7489
▁legte	-10.7496
▁befand	-10.7504
▁verursachen	-10.7504
▁einst	-10.7505
▁kuh	-10.7505
▁jährlich	-10.7507
▁dh	-10.7514
▁vorschlag	-10.7515
geschäft	-10.7518
▁biologisch	-10.7522
▁berühren	-10.7524
▁vorhin	-10.7527
▁lungen	-10.7528
▁erklärte	-10.7531
▁männchen	-10.7536
▁handys	-10.7538
▁verletzung	-10.7541
▁geschlossen	-10.7543
▁level	-10.7557
▁bier	-10.756
▁schweine	-10.7563
▁gelassen	-10.7569
▁umher	-10.7571
0.000	-10.7573
▁stoff	-10.7576
▁goldene	-10.7583
produktion	-10.7587
▁humor	-10.7602
▁technologische	-10.7603
gerät	-10.7604
▁se	-10.7605
▁motivation	-10.7608
▁herauszu	-10.7612
▁krankenhäuser	-10.7617
▁jegliche	-10.7618
▁achse	-10.7618
▁bedeckt	-10.7619
▁denkweise	-10.7619
ak	-10.7619
kosten	-10.7625
▁haiti	-10.7626
▁medium	-10.7626
▁entgegen	-10.7626
▁trend	-10.7629
▁erfassen	-10.7629
▁nordamerika	-10.7631
▁kritische	-10.7646
▁neigen	-10.7647
▁kleinste	-10.7648
▁träumen	-10.7656
▁älteren	-10.7662
station	-10.7663
▁he	-10.7664
▁pa	-10.7667
▁typische	-10.7671
▁wollt	-10.7673
mo	-10.7678
▁intelligent	-10.7684
▁mi	-10.7694
▁polio	-10.7696
▁trat	-10.7702
▁ältere	-10.7706
gewiesen	-10.7713
▁eröffnet	-10.7714
▁sequenz	-10.7724
tisch	-10.7725
▁male	-10.7728
organismus	-10.7728
fällt	-10.773
▁ägypten	-10.7732
▁stirb	-10.7732
funktion	-10.7733
▁su	-10.7737
▁gleichgewicht	-10.7739
▁weisheit	-10.774
▁diagnose	-10.7742
steigen	-10.7747
▁identifiziere	-10.7747
▁angelegenheit	-10.7748
▁futter	-10.7749
firma	-10.775
▁widerstand	-10.775
material	-10.7755
▁mr	-10.7759
▁wiederholt	-10.7762
▁zurückgehen	-10.7764
▁22	-10.7766
▁terroristen	-10.7768
▁klick	-10.7777
▁höchste	-10.778
▁höchsten	-10.778
▁center	-10.7794
▁teams	-10.781
▁leiten	-10.7815
▁fülle	-10.7818
▁for	-10.7823
▁pr	-10.7836
▁dutzend	-10.7842
▁stille	-10.7843
▁dazwischen	-10.7849
ier	-10.7851
srate	-10.7853
▁farb	-10.7853
12	-10.7853
▁2009	-10.7854
▁science	-10.7855
▁ignorieren	-10.7859
▁schlacht	-10.7864
▁spannung	-10.7867
▁exakt	-10.7867
vor	-10.7872
▁rum	-10.7874
▁voran	-10.7893
unwahrscheinlich	-10.7894
▁ausgebildet	-10.7894
▁miss	-10.7895
▁wachstums	-10.7897
▁no	-10.7898
▁aufge	-10.7902
gegen	-10.7905
wesen	-10.7907
▁unbekannte	-10.7913
▁interessier	-10.7915
▁saal	-10.7922
▁verkehr	-10.796
▁sternen	-10.7962
▁dame	-10.7966
▁gerettet	-10.7966
▁berechnen	-10.7968
▁apple	-10.7968
▁mio	-10.797
ang	-10.797
▁bewahre	-10.7972
wand	-10.7972
▁vers	-10.7973
▁spektrum	-10.7979
▁erfuhr	-10.7984
▁schauspieler	-10.7984
▁moralisch	-10.7987
▁argument	-10.7989
▁kriegs	-10.8
50	-10.8012
▁figur	-10.8021
▁ausmachen	-10.8022
▁nano	-10.8022
lichkeit	-10.8023
▁pferd	-10.8023
▁schaue	-10.8027
▁cm	-10.8028
▁benutze	-10.8031
res	-10.8032
entwicklung	-10.8043
▁vergnügen	-10.8048
▁wichtiges	-10.8054
▁fernseh	-10.8055
▁schlimmste	-10.8056
▁zählt	-10.8059
eck	-10.8061
wasser	-10.8078
▁demokratische	-10.8085
▁transparenz	-10.8085
▁ärmste	-10.8085
▁organe	-10.8085
▁1960	-10.8086
▁optimistisch	-10.8091
▁gesetzt	-10.8092
▁geschützt	-10.8093
▁verletzt	-10.8097
▁atom	-10.8098
▁pinguine	-10.8099
▁teufel	-10.81
▁anstieg	-10.8102
▁brach	-10.8106
breite	-10.8109
▁250	-10.8112
▁schneide	-10.8114
▁wut	-10.8114
▁bip	-10.8118
geschaut	-10.8124
team	-10.8135
▁philosophie	-10.8137
schreiben	-10.8144
▁staats	-10.8147
▁preise	-10.8151
soweit	-10.8151
▁einzel	-10.8154
▁nachfrage	-10.8159
▁stift	-10.8165
▁trenn	-10.8165
▁könne	-10.8173
▁flächen	-10.8175
fallen	-10.8175
▁haare	-10.819
▁angebot	-10.819
▁flieg	-10.8195
▁gestartet	-10.8206
▁microsoft	-10.8206
recht	-10.8206
▁1990	-10.8206
▁einwohner	-10.8209
▁peter	-10.8214
▁ersetzt	-10.8216
▁flüssigkeit	-10.8217
zi	-10.8218
▁ungleichheit	-10.8221
▁brüder	-10.8223
▁gespräche	-10.8225
▁beschäftige	-10.823
▁marke	-10.8249
folge	-10.8249
▁erfüllen	-10.8251
ell	-10.8254
▁bekannte	-10.8257
▁ex	-10.8262
▁glücklicher	-10.8264
bücher	-10.8265
▁verteilung	-10.8276
▁my	-10.8276
▁bg	-10.8277
▁kameras	-10.8277
lösung	-10.828
▁einfachheit	-10.8281
▁mitzu	-10.8281
▁repräsentiert	-10.8282
▁weh	-10.8288
▁abhäng	-10.829
▁wünsche	-10.8295
▁startete	-10.8298
▁nahen	-10.8299
bare	-10.83
tun	-10.8309
▁analysier	-10.8318
▁fantasie	-10.8328
▁slum	-10.8328
▁angriff	-10.8333
▁drehte	-10.8334
▁yorker	-10.8334
▁übersetzt	-10.8335
▁willkommen	-10.8336
flogen	-10.8338
▁gletscher	-10.8338
▁mode	-10.8339
▁gewöhnt	-10.8347
zelle	-10.8355
▁stärken	-10.8356
▁meister	-10.8363
▁tauchen	-10.8364
▁versorgung	-10.8364
▁erwähnen	-10.8371
▁klinische	-10.8372
▁erstmal	-10.838
▁physikalische	-10.8381
▁vorgang	-10.8383
▁aufrecht	-10.8399
▁vorwärts	-10.8401
▁wach	-10.8403
▁coole	-10.8404
▁dramatisch	-10.8406
▁symptome	-10.8412
druck	-10.8416
▁stil	-10.8418
▁empfinden	-10.8422
▁fa	-10.8423
▁küche	-10.8427
▁auftrag	-10.8429
▁geschlechts	-10.8433
ster	-10.8434
▁ne	-10.8434
▁stamm	-10.8437
▁ausnahme	-10.8439
▁bord	-10.8448
▁szene	-10.8452
▁star	-10.8453
▁ben	-10.8453
▁dialog	-10.8455
▁höhepunkt	-10.8455
▁marken	-10.8456
▁erfand	-10.8458
▁bedien	-10.8465
▁ursprüngliche	-10.8466
zustand	-10.8468
▁air	-10.8478
▁dienst	-10.8479
▁joe	-10.8483
▁kauft	-10.8484
500	-10.8484
▁ausrüstung	-10.8486
▁islamische	-10.8489
zeitraum	-10.8492
▁faszinierende	-10.8495
▁ur	-10.8505
▁schlechtes	-10.8505
passen	-10.8506
▁gebrochen	-10.8508
▁proben	-10.8509
▁inspirieren	-10.8509
▁120	-10.852
ari	-10.852
▁schließ	-10.8522
▁ungewöhnlich	-10.8523
ment	-10.8528
▁jüngste	-10.8539
wa	-10.8539
▁gemein	-10.854
▁führungs	-10.8544
▁lehre	-10.8548
▁relevant	-10.8548
▁tote	-10.8553
rad	-10.8553
richtung	-10.8558
▁benutzte	-10.8561
▁gelangt	-10.8563
▁übersetzen	-10.8563
über	-10.857
sprozess	-10.8571
▁einschränkung	-10.8576
▁hinblick	-10.8577
▁komisch	-10.8577
▁bush	-10.858
▁daumen	-10.858
▁aussah	-10.8585
▁täuschung	-10.8587
▁jim	-10.8597
▁quadrat	-10.86
▁effizienz	-10.8601
ki	-10.8604
na	-10.8605
▁anzeige	-10.8606
unterricht	-10.8608
▁ausmacht	-10.8608
treffen	-10.8618
▁speicher	-10.8621
▁saubere	-10.8624
▁treiben	-10.8626
▁umso	-10.8636
▁reparier	-10.8644
▁fahrer	-10.8651
▁resultate	-10.8652
▁sp	-10.8655
▁reform	-10.8656
▁entschlossen	-10.8668
▁ehre	-10.8675
▁intellektuelle	-10.8679
ya	-10.8679
▁verdammt	-10.8686
tja	-10.8687
▁schmerzen	-10.8687
bt	-10.869
▁frank	-10.8698
▁geheim	-10.8699
▁anstrengung	-10.8703
▁autismus	-10.8703
▁öfter	-10.8703
▁größenordnung	-10.8703
▁verschwand	-10.8703
▁musikalische	-10.8703
▁globalisierung	-10.8704
▁aufstieg	-10.8708
▁logik	-10.8708
▁zurückkehren	-10.8708
▁änderte	-10.871
▁nahrungsmittel	-10.8711
▁standpunkt	-10.8719
▁hu	-10.8722
rie	-10.8723
rat	-10.8724
▁niedrig	-10.8726
ale	-10.8729
▁verstecken	-10.8736
▁homo	-10.8739
▁pause	-10.874
▁life	-10.8742
▁beschäftig	-10.875
flu	-10.8751
▁löst	-10.8761
▁fliege	-10.8772
▁überlebt	-10.8778
▁bildungs	-10.8782
▁verschiedener	-10.8783
▁hell	-10.8784
▁ch	-10.8787
▁circ	-10.8791
▁schnelle	-10.8791
▁computern	-10.8797
▁reicher	-10.8805
▁jeweil	-10.8808
▁lichter	-10.8809
▁sinnvoll	-10.8809
▁liebt	-10.8813
▁katastrophe	-10.8822
▁hitze	-10.8823
0	-10.8828
▁verbraucht	-10.8829
▁pflanze	-10.883
▁tränen	-10.8831
▁vagina	-10.8831
▁entschuldigung	-10.8831
▁vorder	-10.8832
▁fehl	-10.8832
handel	-10.8832
▁jense	-10.8833
▁katze	-10.8834
▁meeting	-10.8838
▁abenteuer	-10.8841
▁beton	-10.8841
▁disziplin	-10.8843
wagen	-10.8845
zen	-10.886
▁arabische	-10.8863
▁berühmte	-10.8866
gegeben	-10.8866
,000	-10.8873
▁rock	-10.8874
▁redet	-10.8874
▁fließ	-10.8876
▁brechen	-10.8879
▁partei	-10.8879
▁mark	-10.8881
▁kilo	-10.8888
▁ring	-10.8889
▁mächtige	-10.8891
stoff	-10.8895
▁diskutier	-10.8902
▁2.	-10.8902
▁tor	-10.8905
einhalb	-10.8907
ill	-10.8908
▁sätze	-10.8908
▁big	-10.8919
▁präsidenten	-10.8921
än	-10.8932
▁fahrzeuge	-10.8938
▁ohr	-10.8939
karte	-10.8941
▁massive	-10.8942
erlangen	-10.8945
▁landete	-10.8946
lauf	-10.8947
▁ph	-10.8955
▁gestaltet	-10.8959
▁januar	-10.8961
▁texas	-10.8961
▁tragödie	-10.8961
▁valley	-10.8961
▁zwölf	-10.8961
▁stanford	-10.8961
▁gezwungen	-10.8961
▁scham	-10.8962
▁sam	-10.8963
▁gemessen	-10.8963
gleichen	-10.8963
▁weltbevölkerung	-10.8967
▁tr	-10.8967
▁wette	-10.8968
schneiden	-10.897
letzt	-10.8971
▁kreiert	-10.8973
▁geeignet	-10.8974
alt	-10.8974
▁weltall	-10.8977
▁verteidigung	-10.8977
anhand	-10.8984
▁englische	-10.8984
▁wertvoll	-10.8992
▁wale	-10.8992
▁psychologe	-10.8995
▁stoß	-10.9007
ete	-10.901
▁eu	-10.9018
▁offenbar	-10.9019
ze	-10.9028
isten	-10.9029
▁südlich	-10.9032
▁nachzu	-10.9036
▁oberflächen	-10.9037
▁angestellte	-10.904
▁illegal	-10.9049
▁durchschnitts	-10.905
▁end	-10.906
▁verschwinde	-10.906
▁staatliche	-10.9062
▁hinweis	-10.9064
▁mochte	-10.9068
▁gelbe	-10.9071
▁erfinder	-10.9086
▁befass	-10.9087
▁polizist	-10.9092
▁uganda	-10.9092
▁kooperation	-10.9093
ana	-10.9095
▁korrekt	-10.9098
▁bauch	-10.9102
weisen	-10.9109
▁todes	-10.911
▁verurteilt	-10.9111
▁reiste	-10.9112
tin	-10.9114
hen	-10.9122
▁32	-10.9124
▁leiter	-10.9132
stück	-10.9145
▁umfrage	-10.9158
▁historische	-10.9158
▁konsumenten	-10.9166
▁frequenz	-10.9167
▁antrieb	-10.9168
▁hingehe	-10.9172
▁erfüllt	-10.9174
▁maßnahmen	-10.9174
▁unsichtbare	-10.9184
▁gewaltig	-10.9186
uch	-10.9186
▁altern	-10.9188
▁echtes	-10.9189
▁klavier	-10.9194
ad	-10.9195
▁nahezu	-10.9201
▁kopie	-10.9207
▁wi	-10.9222
▁cartoon	-10.9224
▁beeindruckend	-10.9225
▁geöffnet	-10.9226
▁papa	-10.9226
▁onkel	-10.9226
▁blickwinkel	-10.9226
▁1980	-10.9226
▁schweigen	-10.9226
▁weibchen	-10.923
▁king	-10.923
▁waffe	-10.9231
▁käfer	-10.9231
▁schreibe	-10.9234
laufen	-10.9237
▁quer	-10.9239
▁hindurch	-10.924
▁lud	-10.9245
amerikanische	-10.9246
▁löwen	-10.9248
▁kugel	-10.9254
▁mathe	-10.9254
energie	-10.9256
▁training	-10.9261
▁kümmert	-10.9273
version	-10.9273
▁verb	-10.9274
▁sendung	-10.928
spüren	-10.9282
▁chinesisch	-10.9282
▁anbieten	-10.9283
▁leber	-10.9293
▁überquer	-10.9299
▁laser	-10.9301
lie	-10.9312
▁schwerer	-10.9317
drückt	-10.932
▁versprechen	-10.9328
▁sensoren	-10.9338
▁stet	-10.9343
▁staub	-10.9344
▁bob	-10.9346
▁wasserstoff	-10.9348
▁bedeutende	-10.9349
▁spezifische	-10.9353
▁ausgaben	-10.9354
▁wahlen	-10.9357
▁tötet	-10.9358
▁ra	-10.9358
zahlen	-10.9359
▁juni	-10.9361
▁herausfand	-10.9362
▁treibstoff	-10.9362
▁überprüf	-10.9363
▁vermittelt	-10.9366
▁hilfreich	-10.9368
▁geraten	-10.9369
▁diabetes	-10.9369
▁erfordert	-10.937
▁lärm	-10.9373
▁psychische	-10.9373
▁spring	-10.9374
▁angehen	-10.9375
▁entstehung	-10.9376
▁hügel	-10.9377
▁verlangt	-10.9378
▁taschen	-10.9378
▁initiative	-10.938
▁skelett	-10.938
▁schief	-10.9381
▁simulation	-10.9382
▁dynamik	-10.9389
▁erziehung	-10.9394
▁party	-10.9398
rb	-10.9399
essen	-10.9404
▁felder	-10.9405
▁not	-10.941
▁liefert	-10.9415
▁gebildet	-10.9417
▁vi	-10.9417
▁anweisung	-10.9417
▁ausschließlich	-10.942
▁schöner	-10.9428
nde	-10.9429
▁ausdrücken	-10.944
▁landen	-10.9447
reise	-10.9451
▁entsprechend	-10.9452
ant	-10.9457
rate	-10.9457
▁probe	-10.9463
bilder	-10.9473
prozess	-10.9473
▁beliebt	-10.9474
▁ratten	-10.9486
▁ausgewählt	-10.949
▁toilette	-10.9497
▁stammen	-10.9497
▁außerordentlich	-10.9498
▁intuition	-10.9498
▁privatsphäre	-10.9498
▁erfasst	-10.9498
▁anonym	-10.9498
▁festgestellt	-10.9501
▁reichtum	-10.9501
▁abhängigkeit	-10.9517
sterblichkeit	-10.9522
▁ad	-10.9523
regierung	-10.9524
bedingung	-10.9524
heim	-10.9527
▁beschreibung	-10.953
▁65	-10.9531
▁gestaltung	-10.9532
▁explosion	-10.9533
▁übergang	-10.9534
▁sammlung	-10.9537
▁schlimmsten	-10.9542
▁gefährliche	-10.9542
▁bab	-10.955
▁umgang	-10.955
▁befreien	-10.9556
▁bescheid	-10.956
▁fe	-10.9568
▁gering	-10.9569
11	-10.9578
▁greifen	-10.9579
▁inhalte	-10.9581
ga	-10.9581
▁dinger	-10.9586
▁fürchte	-10.9588
▁gewöhnlich	-10.9604
▁seil	-10.9611
▁rauch	-10.9618
▁lächerlich	-10.9624
▁abends	-10.9625
züge	-10.9628
▁dick	-10.9632
teil	-10.9634
▁ökonomische	-10.9634
▁getestet	-10.9637
▁urknall	-10.9637
▁martin	-10.9637
▁1950	-10.9637
▁plus	-10.9637
▁komplizierte	-10.9638
bo	-10.9639
schein	-10.9642
▁rate	-10.9643
▁kg	-10.9644
▁tempo	-10.9647
▁fehlende	-10.9648
sfähigkeit	-10.9649
▁präsentiere	-10.9649
▁flugzeuge	-10.9653
fälle	-10.9653
ng	-10.9657
▁unmittelbar	-10.9659
▁kommunikations	-10.9665
▁tasche	-10.9666
schlag	-10.9667
lager	-10.9669
▁hinweise	-10.967
hu	-10.9673
▁logisch	-10.9675
▁blase	-10.9677
kam	-10.9679
sein	-10.9679
▁prototypen	-10.968
▁aufzeichnung	-10.9681
▁fundamentale	-10.9682
design	-10.9683
▁schwestern	-10.9684
▁obere	-10.9684
▁beschränkt	-10.9691
▁üben	-10.9691
mails	-10.9692
▁unterhalten	-10.9699
▁bo	-10.9701
kreis	-10.9701
▁intensiv	-10.9705
▁konzepte	-10.9723
▁spur	-10.9726
▁erledig	-10.9727
▁warf	-10.9735
tech	-10.9748
▁wa	-10.9755
▁ausgehen	-10.9756
▁gebieten	-10.9764
▁aufregende	-10.9772
ve	-10.9773
nutzung	-10.9774
▁send	-10.9777
▁tendenz	-10.9778
basierte	-10.9778
▁ruanda	-10.9778
▁inklusive	-10.9778
rufen	-10.9779
▁gerede	-10.978
▁variation	-10.9782
▁2001	-10.9783
▁beträgt	-10.9784
▁erkunden	-10.9785
▁friedens	-10.9785
ding	-10.9785
▁praxis	-10.9788
▁schwanz	-10.9799
▁angepasst	-10.9801
▁mitglied	-10.9802
▁verteilen	-10.9803
▁vorgestellt	-10.9808
▁berichtet	-10.9809
▁ausgegeben	-10.9811
▁beibring	-10.9815
▁länge	-10.9816
du	-10.9819
▁abstrakte	-10.9824
fragen	-10.9825
ug	-10.9834
▁kb	-10.9836
▁klingen	-10.9842
▁nervenzellen	-10.9851
ph	-10.9862
▁dient	-10.9875
▁komplette	-10.9886
▁professionelle	-10.9889
▁95	-10.9894
▁unternehmens	-10.9895
▁werbe	-10.9898
▁194	-10.99
▁raketen	-10.9911
▁trage	-10.9915
gemeinschaft	-10.9916
alität	-10.9919
▁oxford	-10.992
▁oxytocin	-10.992
▁sorgfältig	-10.992
▁wohlbefinden	-10.992
▁herstellt	-10.992
▁1970	-10.9921
▁ehemann	-10.9921
▁rechner	-10.9927
▁betreten	-10.9929
▁verarbeiten	-10.993
▁schädel	-10.993
▁trends	-10.9934
▁hindernisse	-10.9936
▁salz	-10.9938
gerufen	-10.9939
▁höhle	-10.9941
▁aß	-10.9941
▁schießen	-10.9947
leute	-10.9947
▁zurückkommen	-10.9956
geführt	-10.9957
▁nutzer	-10.9959
▁planung	-10.9965
▁breite	-10.9966
▁teleskop	-10.9971
▁geworfen	-10.9975
▁winkel	-10.9976
pflanzen	-10.9981
▁senk	-10.9981
▁katastrophen	-10.9983
artige	-10.9986
▁profitier	-10.9999
▁verlor	-10.9999
▁lieder	-11.0006
▁fehlen	-11.001
isierung	-11.0011
▁zurecht	-11.0018
▁meere	-11.0023
org	-11.0023
▁effizient	-11.0026
▁fair	-11.0028
▁talent	-11.0029
▁mais	-11.003
app	-11.0031
▁besitz	-11.0032
▁psychologische	-11.0032
▁zehntausende	-11.0036
▁erfolgreiche	-11.004
▁auftreten	-11.0046
flug	-11.0047
▁widm	-11.005
▁entwurf	-11.005
▁geistige	-11.0058
▁unterscheide	-11.0064
▁alkohol	-11.0065
▁entwarf	-11.0066
▁frühling	-11.0066
▁geliebt	-11.0066
bf	-11.0067
▁ehemalige	-11.0069
▁schmerzhaft	-11.0071
energieverbrauch	-11.0073
▁seh	-11.0073
menge	-11.0073
▁verzweifelt	-11.0074
▁lebensraum	-11.0076
▁käme	-11.0076
▁höhlen	-11.0077
▁hasse	-11.0077
▁business	-11.0081
▁zahn	-11.0084
▁deutsche	-11.0089
heben	-11.0091
kunst	-11.01
▁wünschen	-11.0104
▁kombinier	-11.0106
▁erinnerte	-11.0109
▁poster	-11.0126
▁gebete	-11.0128
▁niedriger	-11.0129
▁sammelt	-11.0137
▁werke	-11.0139
▁blasen	-11.0143
▁ungeheuer	-11.0146
▁verbrennen	-11.0147
temperatur	-11.0153
▁richter	-11.0155
▁konzentriere	-11.0158
▁umgekehrt	-11.0165
▁gewöhnliche	-11.0168
▁li	-11.017
▁fischer	-11.0171
wellen	-11.0173
nd	-11.0173
▁herzlich	-11.0181
treiben	-11.0182
boot	-11.0202
▁komplexer	-11.0203
werk	-11.0208
ku	-11.0212
▁besaß	-11.0212
▁beschützen	-11.0212
▁33	-11.0212
▁bürgermeister	-11.0213
▁stabil	-11.0215
▁oel	-11.0216
▁teilt	-11.0217
▁schaffte	-11.0218
▁florida	-11.0218
▁gegenstand	-11.0221
▁verdoppelt	-11.0221
▁verleih	-11.0222
▁euro	-11.0222
▁schreibtisch	-11.0229
▁akzeptiert	-11.0229
▁behinderung	-11.0231
bank	-11.0231
tz	-11.0232
▁süß	-11.0239
▁sozialer	-11.024
▁fernseher	-11.0241
▁unabhängige	-11.0246
▁verringern	-11.0249
▁rational	-11.026
▁mechanismus	-11.0267
▁studium	-11.0271
▁gegenstände	-11.0271
▁finanziert	-11.028
▁roman	-11.0286
ob	-11.029
▁lies	-11.0305
▁erneuerbare	-11.0306
▁wohn	-11.0311
▁trocken	-11.0316
▁au	-11.0317
▁kombiniert	-11.032
gelegt	-11.0327
▁summe	-11.0333
▁bewusstseins	-11.0342
▁langfristige	-11.0342
▁unendlich	-11.0351
▁norm	-11.0355
▁mikroskop	-11.0355
▁hölle	-11.0357
▁pocken	-11.0362
▁abgeschlossen	-11.0363
▁rauchen	-11.0364
▁mary	-11.0365
▁menschlichkeit	-11.0365
▁geling	-11.0367
▁yea	-11.0367
▁präzise	-11.0368
▁apfel	-11.0369
▁regenwald	-11.0371
▁knopf	-11.0375
▁hacker	-11.0376
▁bewert	-11.0379
▁völker	-11.038
▁anhänger	-11.0386
▁faser	-11.0397
gebiet	-11.0399
▁kreise	-11.0399
▁konstruktion	-11.0399
▁tv	-11.04
▁schriftsteller	-11.04
häuser	-11.0401
▁örtliche	-11.0403
krankheiten	-11.0406
▁ladung	-11.0409
▁led	-11.0413
▁bewohner	-11.0414
▁strahlung	-11.0419
▁güter	-11.042
geräte	-11.0425
▁sicherer	-11.0428
▁verliebt	-11.0431
▁ag	-11.0431
schicht	-11.0433
▁asteroiden	-11.0439
▁lasse	-11.044
▁mac	-11.0441
▁körperliche	-11.0443
▁magische	-11.0451
▁teilnehmen	-11.0462
▁gib	-11.0476
▁erweitert	-11.0477
▁26	-11.0479
▁bedürfnis	-11.0479
▁gehör	-11.0502
▁rüber	-11.0502
▁schock	-11.0503
▁autor	-11.0508
▁last	-11.0509
räumen	-11.0509
▁radikal	-11.051
▁benzin	-11.051
▁sende	-11.0511
ischer	-11.0512
▁stoffwechsel	-11.0513
gegriffen	-11.0514
▁glühbirne	-11.0516
▁französische	-11.0518
▁betrachtung	-11.0519
bekommen	-11.052
▁derek	-11.0522
▁aussterben	-11.0524
unter	-11.0532
▁20.000	-11.0533
▁euer	-11.0535
▁orchester	-11.0537
gedreht	-11.0542
▁geschlecht	-11.0546
▁gefüllt	-11.0547
▁angetrieben	-11.0548
▁erwärmung	-11.0549
▁ausser	-11.0552
▁mannes	-11.0552
▁auftritt	-11.0552
▁geschmack	-11.0555
▁einkommens	-11.0556
wort	-11.0557
▁kapazität	-11.0558
▁gleichheit	-11.0564
▁vieler	-11.0565
▁jh	-11.0567
▁sprung	-11.0569
▁195	-11.0569
▁eingehen	-11.0573
▁eingebaut	-11.0576
▁sub	-11.0587
ring	-11.0587
▁bahn	-11.0593
▁erschien	-11.0608
▁leser	-11.0609
▁erkenntnisse	-11.0609
▁terror	-11.0612
▁weisen	-11.0612
▁fotografie	-11.0618
▁elektronen	-11.062
▁durcheinander	-11.062
▁patent	-11.0626
▁feedback	-11.0632
schließen	-11.0633
▁steine	-11.0633
▁kar	-11.0643
▁juli	-11.0654
▁aufeinander	-11.0658
▁hollywood	-11.0661
getreten	-11.0661
▁definitiv	-11.0667
▁kohlendioxid	-11.0667
▁verknüpft	-11.0667
▁balance	-11.0667
▁bewirkt	-11.0667
▁koran	-11.0668
▁schall	-11.0668
▁arbeitsplatz	-11.0668
▁besonderen	-11.0668
▁amazonas	-11.0668
▁schlange	-11.0668
▁analogie	-11.067
▁individuum	-11.0671
▁gegessen	-11.0672
▁flughafen	-11.0673
▁berechnet	-11.0675
▁car	-11.0678
produkt	-11.068
▁produktivität	-11.0681
▁übersetzung	-11.0683
▁tal	-11.0683
bi	-11.0684
tro	-11.0685
kehren	-11.0688
▁gewissermaß	-11.0689
weist	-11.0691
▁verschwend	-11.0692
ließ	-11.0694
▁sauber	-11.0696
fa	-11.0699
▁grob	-11.0704
▁verhindert	-11.0704
▁pu	-11.0711
▁verrate	-11.0712
boden	-11.0713
▁sicherstell	-11.0714
▁kuchen	-11.0717
▁spannend	-11.0718
▁alters	-11.0718
▁beendet	-11.0721
▁katzen	-11.0728
schlagen	-11.0732
▁billiger	-11.0732
see	-11.0733
▁institute	-11.0741
▁magazin	-11.0747
▁maße	-11.0747
▁organische	-11.075
zuwenden	-11.075
▁tritt	-11.0752
fe	-11.0762
▁ausführen	-11.0763
▁pläne	-11.0765
stelle	-11.0775
▁lkw	-11.0776
mitten	-11.078
▁jünger	-11.0785
cht	-11.0794
fahrt	-11.0794
che	-11.0794
▁reis	-11.0795
pi	-11.0795
krieg	-11.0797
▁it	-11.0801
▁wieviele	-11.0802
▁such	-11.0804
schauen	-11.0806
▁dienen	-11.0817
▁väter	-11.0818
▁hilfs	-11.082
▁multi	-11.0822
▁finanzier	-11.0822
▁titan	-11.0823
▁cambridge	-11.0823
▁substanz	-11.0823
▁verheiratet	-11.0823
▁geplant	-11.0823
▁arbeitsplätze	-11.0824
▁autorität	-11.0824
▁abendessen	-11.0825
▁schwerkraft	-11.0827
▁block	-11.083
▁muslimische	-11.0831
▁elektronik	-11.0841
▁muslime	-11.0842
▁fotografiert	-11.0843
▁gates	-11.0846
▁geblieben	-11.0853
▁beobachtete	-11.0858
si	-11.0858
eln	-11.0862
▁kiste	-11.0866
▁green	-11.0866
▁meme	-11.0868
lesen	-11.0869
verkehr	-11.0869
▁weitermache	-11.087
netz	-11.087
▁leuchten	-11.087
▁welle	-11.0873
▁vergrößer	-11.0875
▁dreimal	-11.0876
▁manager	-11.0878
▁verhandlung	-11.0879
▁flasche	-11.0883
ach	-11.0884
▁visuell	-11.0889
▁gemeinnützige	-11.089
▁repräsentier	-11.0892
▁verwandten	-11.0892
ber	-11.0892
▁har	-11.0898
▁emotional	-11.0901
ville	-11.0905
erin	-11.0923
weit	-11.0932
▁lenken	-11.0933
▁rechnen	-11.0934
▁auseinandersetz	-11.0937
qui	-11.0937
▁skulptur	-11.0945
▁mc	-11.0951
▁spitzen	-11.0956
▁85	-11.0957
▁weinen	-11.0961
artig	-11.0961
▁spuren	-11.0962
▁merkwürdig	-11.0964
▁media	-11.0967
mitglieder	-11.0968
▁personal	-11.0977
▁komische	-11.0981
▁manhattan	-11.0982
▁nördlich	-11.0982
▁oktober	-11.0982
▁nirgendwo	-11.0982
▁baseball	-11.0982
behörde	-11.0984
▁autoren	-11.0986
▁engagement	-11.0987
▁trainiert	-11.0987
▁anpassung	-11.0992
▁zweieinhalb	-11.0993
▁involviert	-11.0994
▁geschäftsmodell	-11.0995
▁50.000	-11.0995
▁stieß	-11.0997
▁weltbank	-11.0997
▁trainieren	-11.0998
▁tricks	-11.1003
▁anzuschauen	-11.1005
▁designs	-11.1006
▁kapitalismus	-11.1006
▁ballon	-11.1009
ok	-11.1009
▁auftauchen	-11.1009
▁tour	-11.1015
▁stattfinden	-11.1017
▁bindung	-11.1019
▁jack	-11.1022
▁nick	-11.1027
körper	-11.1027
▁programmierer	-11.1027
gewebe	-11.103
▁verbraucher	-11.1033
▁unteren	-11.1035
▁erledigt	-11.1039
räume	-11.1049
▁ausreichend	-11.105
▁sa	-11.1051
▁militärische	-11.1057
del	-11.1063
▁stapel	-11.1063
▁nährstoffe	-11.1067
▁integriert	-11.107
▁furchtbar	-11.107
▁pm	-11.1079
bett	-11.108
▁800	-11.1082
▁folgender	-11.1094
▁haltung	-11.11
▁geringe	-11.1103
▁verkauf	-11.1108
▁enkel	-11.1112
ember	-11.1114
▁kontroll	-11.1124
▁einheiten	-11.1128
▁privileg	-11.113
sgeschichte	-11.1131
▁anreize	-11.1138
▁bedauern	-11.1143
▁empathie	-11.1143
▁versagt	-11.1143
▁wende	-11.1145
▁dez	-11.1146
▁farm	-11.1147
sprechen	-11.1147
▁blicken	-11.1148
▁bell	-11.1148
▁gerecht	-11.1151
▁ameise	-11.1152
▁töchter	-11.1154
▁aufwuchs	-11.1155
▁institut	-11.1155
▁mt	-11.1159
ina	-11.1159
▁voraussetzung	-11.116
▁hyper	-11.1162
▁blitz	-11.1163
nden	-11.1165
▁mutation	-11.1166
▁anhalten	-11.1168
▁vertrag	-11.118
twicklungsländer	-11.1182
▁kopieren	-11.1188
▁kolonie	-11.1188
stunden	-11.1189
▁einfachste	-11.1192
▁tafel	-11.1193
▁fokussier	-11.1193
gi	-11.1194
computer	-11.1194
▁erziel	-11.1197
▁erforschung	-11.1198
therapie	-11.1199
▁bur	-11.12
▁italien	-11.1201
▁vermögen	-11.1202
stein	-11.1203
▁glückliche	-11.1208
▁mühe	-11.1209
▁impfstoff	-11.121
▁ärger	-11.1219
gefallen	-11.1223
▁ewig	-11.1227
▁straf	-11.1232
▁allzu	-11.1237
netzwerk	-11.1245
▁pferde	-11.1246
▁schläg	-11.1248
▁filmen	-11.1252
▁komplizierter	-11.1256
nahme	-11.1256
▁hunderttausende	-11.1262
▁existierende	-11.1267
▁gebäudes	-11.1269
▁architekt	-11.1274
achtet	-11.1277
▁herrscht	-11.1278
▁restliche	-11.1292
▁güte	-11.1294
▁journalisten	-11.13
▁litt	-11.13
▁aufmerksam	-11.1305
▁landet	-11.1305
▁schild	-11.1306
▁unterrichtet	-11.1307
▁alzheimer	-11.1307
▁getreide	-11.1307
▁phosphor	-11.1307
▁hut	-11.1307
▁optimismus	-11.1307
▁saturn	-11.1307
▁mittagessen	-11.1307
▁widerspruch	-11.1307
▁materielle	-11.1308
▁1,5	-11.1308
▁züchte	-11.1308
▁brit	-11.1309
▁verfügen	-11.1309
▁körperlich	-11.1314
rand	-11.1315
▁volle	-11.1316
▁lücke	-11.1317
▁fahrt	-11.1319
▁kluft	-11.1322
▁anreiz	-11.1324
▁pazifik	-11.1325
▁mischung	-11.1327
▁merkte	-11.1327
▁erbe	-11.1328
▁sw	-11.133
▁infektion	-11.1332
▁günstig	-11.1336
▁molekulare	-11.134
▁liter	-11.1342
▁tropfen	-11.1348
▁fahr	-11.1354
▁exponentiell	-11.1367
▁schichten	-11.1369
▁geschlagen	-11.1379
alter	-11.1381
▁einig	-11.1387
▁fischerei	-11.1389
geheimnisse	-11.1389
▁historisch	-11.1394
▁mittlere	-11.1396
▁regierungs	-11.14
▁studierte	-11.1401
▁kreislauf	-11.1402
smöglichkeit	-11.1408
▁van	-11.1413
▁gefolg	-11.1415
▁sendet	-11.1419
landschaft	-11.142
▁pass	-11.1426
▁algorithm	-11.143
▁säugetiere	-11.1432
reicht	-11.1437
last	-11.1443
▁ei	-11.1448
od	-11.1451
▁erstaunt	-11.1474
▁konstruiert	-11.1474
▁schizophren	-11.1474
▁verzweiflung	-11.1474
▁bestätigt	-11.1474
▁fortgeschritten	-11.1474
führung	-11.1477
▁draus	-11.1478
▁bomben	-11.148
dienst	-11.148
▁figuren	-11.1482
ian	-11.1482
▁problems	-11.1482
▁gewässer	-11.1484
▁wörterbuch	-11.1484
▁echter	-11.149
▁ethnische	-11.1491
▁abstand	-11.1491
▁toiletten	-11.1495
▁langfristig	-11.1495
▁veranstaltung	-11.1496
strom	-11.1496
▁neueste	-11.1497
▁konzentration	-11.15
▁gift	-11.1506
▁töne	-11.1509
▁schickt	-11.151
▁ruder	-11.1511
preis	-11.1516
▁speichern	-11.1521
▁geleitet	-11.153
▁häufiger	-11.1535
roboter	-11.1536
▁rezept	-11.1537
▁ernte	-11.1545
▁fließen	-11.155
▁quanten	-11.1552
▁gewinner	-11.1553
▁messer	-11.1556
▁mitteilen	-11.1563
achtung	-11.1569
▁schw	-11.157
▁sprecher	-11.1572
▁verkaufte	-11.1584
▁besitzer	-11.1586
▁kranken	-11.1589
▁reiche	-11.1594
▁streiten	-11.1597
▁prototyp	-11.1601
▁inseln	-11.1603
▁ankommen	-11.1605
▁stattfinde	-11.1606
▁distanz	-11.1609
▁ungewöhnliche	-11.1611
▁hall	-11.1614
tier	-11.1614
▁dimension	-11.162
park	-11.1627
▁gerüst	-11.1631
▁prüfung	-11.1635
▁partnerschaft	-11.1638
hi	-11.1639
▁isoliert	-11.1639
▁unsicher	-11.1643
fisch	-11.1644
▁versorgt	-11.1645
▁zelt	-11.1645
▁rio	-11.1647
▁gore	-11.1647
▁seife	-11.1649
▁großvater	-11.1652
▁felsen	-11.1655
▁olympische	-11.1658
▁rückwärts	-11.1658
▁gelähmt	-11.1664
sucht	-11.1668
▁profit	-11.1669
▁28	-11.1673
▁bedeutsam	-11.1673
hst	-11.1675
cken	-11.1681
▁schloss	-11.1683
zieht	-11.1685
möglich	-11.169
▁schuldig	-11.1691
▁management	-11.1695
▁watt	-11.1698
val	-11.1703
ard	-11.1703
▁einschließlich	-11.1703
▁parallel	-11.171
▁aktivier	-11.1716
▁plätze	-11.1718
▁formel	-11.1719
▁bl	-11.1726
▁weite	-11.1733
▁verbreitete	-11.1747
▁lehrt	-11.1748
▁breit	-11.1763
▁eröffne	-11.1766
▁aktuell	-11.1766
ci	-11.1768
▁fo	-11.1768
fluss	-11.1773
▁wertvolle	-11.1777
▁medikamenten	-11.1783
▁schlimme	-11.1789
▁gra	-11.18
▁finanziell	-11.1802
▁beschleunigen	-11.1816
▁hilfsmittel	-11.1816
▁herkunft	-11.1817
▁supermarkt	-11.1817
▁beantwortet	-11.1817
▁königin	-11.1818
▁meint	-11.1818
▁700	-11.1818
krankenschwester	-11.1819
▁sang	-11.182
▁horizont	-11.182
ebru	-11.1821
▁fliegende	-11.1822
▁verhält	-11.1825
▁niedrige	-11.1832
▁auffassung	-11.1834
▁unfälle	-11.1835
▁vergewaltigt	-11.1836
ordnung	-11.1838
▁misst	-11.1839
▁hypothese	-11.184
▁geo	-11.1846
squalität	-11.1847
▁stärkste	-11.1848
▁erscheinung	-11.1852
fliegen	-11.1867
▁kühl	-11.1868
programme	-11.187
▁heilige	-11.1871
▁einsicht	-11.1875
▁jahrelang	-11.1876
source	-11.1877
fabrik	-11.1879
▁effizienter	-11.1881
klang	-11.1881
▁falle	-11.1882
by	-11.1884
▁handels	-11.1885
▁hob	-11.1886
▁biolog	-11.1891
▁poe	-11.1892
fläche	-11.1893
▁zwanzig	-11.1894
▁bären	-11.1897
ball	-11.1897
raus	-11.1901
kette	-11.1901
▁effektiver	-11.1901
ex	-11.1904
▁überwach	-11.1908
gie	-11.1911
▁verblüffend	-11.1913
▁bewertung	-11.1917
▁pat	-11.1917
▁freiwillige	-11.1924
▁verboten	-11.1924
▁wohnen	-11.1927
lu	-11.1928
▁kriminelle	-11.193
▁besuche	-11.1932
sta	-11.1941
▁fußball	-11.1944
▁konzentrierte	-11.1945
aufgabe	-11.1946
haltung	-11.1947
▁ro	-11.1956
▁anzugeh	-11.1956
▁benötigte	-11.1961
menschen	-11.1962
sam	-11.1965
▁beginne	-11.1973
▁auswähl	-11.1974
▁beliebige	-11.198
▁suchten	-11.198
▁freiwilligen	-11.1981
ack	-11.1982
▁front	-11.1984
gehört	-11.199
▁bakterium	-11.1991
▁bräuchte	-11.1991
▁gewohnt	-11.1991
▁äthiopien	-11.1991
▁dopamin	-11.1991
▁brown	-11.1991
▁smith	-11.1991
▁verwirrt	-11.1991
▁taliban	-11.1991
▁führungskräfte	-11.1991
▁trinkwasser	-11.1992
▁unterwasser	-11.1992
▁unsicherheit	-11.1994
▁selbstmord	-11.1995
▁graben	-11.1996
▁experimentieren	-11.1996
▁öffnete	-11.1998
schluss	-11.1998
zentr	-11.1999
▁unabhängigkeit	-11.1999
▁zuhörer	-11.2003
▁analysiert	-11.2005
▁befolg	-11.2005
▁lab	-11.2006
▁kunststoff	-11.2007
▁menschenrechte	-11.2008
▁autobahn	-11.2009
▁trauer	-11.2009
▁zentimeter	-11.201
win	-11.2011
▁installation	-11.2013
▁regal	-11.2015
▁schienen	-11.2018
▁japanisch	-11.2022
▁gewohnheit	-11.2025
faktor	-11.203
▁einzeln	-11.2033
▁dünne	-11.2037
▁benutzer	-11.2039
▁inter	-11.2041
▁zwingen	-11.2042
▁bergen	-11.2043
▁aktive	-11.2045
erung	-11.2045
▁bla	-11.2047
▁ru	-11.2052
▁bewegte	-11.2052
pläne	-11.2058
▁alltag	-11.206
▁quot	-11.2063
▁ökologische	-11.2064
▁wartete	-11.2066
verbindung	-11.2067
ney	-11.2068
▁unerwartete	-11.2069
cher	-11.2093
▁theoretisch	-11.2094
sort	-11.2104
▁ferne	-11.2105
▁radikale	-11.2108
teils	-11.2111
▁religiös	-11.2114
▁begriffen	-11.2116
▁ländlich	-11.2119
show	-11.212
▁praktische	-11.212
▁zahlreiche	-11.2124
▁human	-11.2126
▁dia	-11.2128
▁kritisch	-11.2131
if	-11.2133
äre	-11.2137
▁effekte	-11.2139
▁eisen	-11.2148
wir	-11.2152
▁irgend	-11.2159
▁dauer	-11.2159
▁rechen	-11.2162
▁tödlich	-11.2163
isiert	-11.2168
▁vorkommen	-11.217
▁beeindruckt	-11.217
▁wörtlich	-11.217
▁kühe	-11.217
▁nahrungs	-11.217
▁immunsystem	-11.2171
▁steigern	-11.2171
▁beschaffen	-11.2171
▁tedtalk	-11.2171
▁ironisch	-11.2172
▁uralte	-11.2179
▁dutzende	-11.2179
zone	-11.218
▁interpretation	-11.2181
▁transportiert	-11.2182
lte	-11.2183
▁photo	-11.2184
▁rhythmus	-11.2186
teile	-11.2187
▁selektion	-11.2187
gelaufen	-11.2189
transportieren	-11.2189
▁flüsse	-11.219
▁entscheide	-11.2191
▁10-	-11.2199
▁norwegen	-11.22
▁schokolade	-11.22
kind	-11.2201
▁tipp	-11.2202
▁voraussagen	-11.2206
ue	-11.221
▁ehren	-11.2211
▁marine	-11.2212
▁herauskomm	-11.2212
▁vortrags	-11.2213
▁wahrhaftig	-11.2215
geschrieben	-11.2216
▁jagen	-11.2217
ure	-11.222
▁ländliche	-11.2221
▁kurzer	-11.2224
regel	-11.2225
que	-11.2228
ive	-11.2228
▁erwähnte	-11.2231
▁programmiert	-11.2234
▁zuzu	-11.2238
situation	-11.2239
revolution	-11.2242
▁bombe	-11.2244
▁häufigste	-11.2246
kurs	-11.2247
▁auflösung	-11.225
▁aktiviert	-11.2251
▁schreib	-11.2255
▁ankam	-11.2263
herrschaft	-11.2265
saal	-11.2267
▁roh	-11.2267
▁geringer	-11.2268
▁lauter	-11.2276
▁weich	-11.2284
ai	-11.2288
studie	-11.2305
▁derzeitige	-11.2305
▁endet	-11.2309
▁dünn	-11.231
▁rose	-11.2311
▁brücken	-11.2313
▁brenn	-11.2321
▁schieb	-11.2321
reich	-11.2327
▁basieren	-11.2329
▁sowjet	-11.2335
▁amerikanisch	-11.2336
▁angewandt	-11.2352
▁bewältigen	-11.2352
▁chaotisch	-11.2352
▁ignoranz	-11.2352
▁kalorien	-11.2352
▁luxus	-11.2352
▁howard	-11.2352
kortex	-11.2352
▁simple	-11.2352
▁königreich	-11.2352
▁solarenergie	-11.2352
▁daneben	-11.2352
▁sexual	-11.2352
▁panik	-11.2352
▁fbi	-11.2352
▁stabilität	-11.2353
▁south	-11.2353
▁wiegt	-11.2355
▁gleicher	-11.2355
fache	-11.2356
▁großzügig	-11.2357
▁eingestellt	-11.2358
▁anwälte	-11.2359
▁kr	-11.2361
▁vorbild	-11.2361
▁alternativen	-11.2364
▁taucht	-11.2368
ax	-11.237
ling	-11.2372
▁eingeschlossen	-11.2372
▁wechsel	-11.2376
▁evolutionäre	-11.2385
▁bildungssystem	-11.2393
▁origami	-11.2395
▁gewachsen	-11.2396
spiegel	-11.2403
▁illegale	-11.2413
▁hersteller	-11.2414
▁ju	-11.2417
fährt	-11.2418
▁diskutiert	-11.2421
▁prüfen	-11.2422
gebäude	-11.2423
kl	-11.2425
teilchen	-11.2425
▁stimm	-11.2428
▁erfindungen	-11.2433
▁klare	-11.2434
▁chip	-11.2434
▁künstlerische	-11.2438
▁sorte	-11.2439
▁cola	-11.2439
gereist	-11.244
fiel	-11.2443
▁wall	-11.2448
▁tägliche	-11.2448
▁lehrerin	-11.2459
▁versetzt	-11.2463
▁individuell	-11.2466
▁unklar	-11.2468
eil	-11.2475
gründe	-11.2475
▁lehr	-11.2478
szeit	-11.2478
▁außerirdische	-11.2479
▁heiligen	-11.248
▁betonen	-11.2485
▁wandern	-11.2488
▁sorgt	-11.2493
▁berücksichtig	-11.2496
▁transparent	-11.2501
▁deutsch	-11.2506
führer	-11.2507
▁generell	-11.2511
forscher	-11.2516
▁42	-11.2518
▁heilung	-11.2521
▁folgte	-11.2522
▁ego	-11.2524
▁mentale	-11.2532
▁motiviert	-11.2532
▁tiger	-11.2535
▁flut	-11.2536
▁atlant	-11.2536
▁cyber	-11.2537
▁ausgestorben	-11.2537
▁bzw	-11.2537
▁entschuldige	-11.2537
▁hungrig	-11.2537
▁vieh	-11.2537
▁zutiefst	-11.2537
▁ipod	-11.2537
▁klänge	-11.2537
▁symbole	-11.2538
▁abgelegen	-11.2538
▁kino	-11.2538
▁nest	-11.2539
▁innovativ	-11.254
▁sturm	-11.254
▁internets	-11.2541
▁geprägt	-11.2545
▁konsumieren	-11.2545
▁notwendigkeit	-11.2546
▁götter	-11.2546
herangehensweise	-11.2547
▁garage	-11.2547
▁korea	-11.2547
▁aufgezeichnet	-11.2547
▁markiert	-11.255
▁benannt	-11.2551
▁demonstration	-11.2551
▁tinte	-11.2551
▁würfel	-11.2551
▁expedition	-11.2553
▁hervorruf	-11.2554
▁wahnsinnig	-11.2554
▁galerie	-11.2555
probleme	-11.2556
▁herab	-11.2556
▁freue	-11.2561
▁redner	-11.2562
▁vielfältig	-11.2563
▁spontan	-11.2566
▁17.	-11.2569
analyse	-11.257
▁gesucht	-11.257
▁anfangs	-11.2571
labor	-11.2571
▁is	-11.2571
found	-11.2574
▁merkt	-11.2576
▁tode	-11.2577
▁platten	-11.2579
▁direktor	-11.2583
▁tim	-11.2585
▁verstärkt	-11.2585
▁anliegen	-11.2587
▁genial	-11.259
brechen	-11.2591
nischen	-11.2592
formen	-11.2595
ah	-11.2596
we	-11.2598
▁sal	-11.2599
dimensionale	-11.2602
scha	-11.2607
▁dokument	-11.2609
▁beteilig	-11.2614
▁merkmale	-11.2616
förmige	-11.2617
▁unbekannt	-11.2621
▁fundament	-11.2622
liches	-11.2626
▁beschleunigt	-11.2628
▁hals	-11.2629
▁fakt	-11.2629
q	-11.2631
▁gesch	-11.2632
▁atome	-11.2633
▁dringend	-11.2637
▁gu	-11.2646
hang	-11.2647
pt	-11.2648
▁pan	-11.265
sätze	-11.2664
spruch	-11.2678
▁angeboten	-11.2678
erlei	-11.2679
▁ni	-11.2679
▁menschlich	-11.2679
▁nachbar	-11.268
▁vierten	-11.2681
▁koch	-11.2681
dichte	-11.2689
liste	-11.2695
stock	-11.2696
ica	-11.2702
eben	-11.2704
▁gegner	-11.2707
▁mischen	-11.2709
▁bedeutend	-11.271
▁rom	-11.271
▁geburts	-11.2716
▁knoten	-11.2717
▁tätig	-11.2718
▁französisch	-11.272
▁peinlich	-11.2723
▁phantom	-11.2725
▁surf	-11.2725
▁universal	-11.2726
▁ausgestattet	-11.2726
▁nelson	-11.2726
▁silicon	-11.2726
▁spanien	-11.2726
▁tsunami	-11.2726
▁ähnelt	-11.2726
▁garantiert	-11.2726
▁völkermord	-11.2726
▁tiefsee	-11.2726
▁zehen	-11.2726
▁entropie	-11.2728
▁berührung	-11.2728
▁vorlesung	-11.2731
▁verpflichtung	-11.2733
▁bislang	-11.2734
▁paradox	-11.2735
▁gefährdet	-11.2736
▁denkst	-11.2738
▁chor	-11.2742
▁währung	-11.2743
▁clever	-11.2743
▁pc	-11.2744
ud	-11.2744
cy	-11.2745
achse	-11.2748
▁jäger	-11.2751
▁richtlinie	-11.2751
dy	-11.2752
▁schenken	-11.2753
▁ford	-11.2753
▁fotografieren	-11.2754
▁sterbe	-11.2755
▁ausprobieren	-11.2756
▁ga	-11.276
▁urlaub	-11.2761
▁kritiker	-11.2762
▁schätze	-11.2762
▁behörden	-11.2764
▁bewiesen	-11.2765
▁av	-11.2766
durchmesser	-11.2772
▁formt	-11.2772
▁banken	-11.2774
▁drüber	-11.2778
▁wochenende	-11.2785
▁teilte	-11.2786
meister	-11.2789
▁erwachsen	-11.2792
akt	-11.2794
nder	-11.2801
erkrankung	-11.2803
▁wählt	-11.2806
▁3.	-11.2809
▁wilde	-11.2814
ay	-11.2815
tschaftswachstum	-11.2816
▁fan	-11.2819
gestoßen	-11.2822
▁fassen	-11.2825
▁rechnung	-11.2827
▁betrieb	-11.2829
▁greif	-11.2837
uf	-11.2838
kel	-11.2843
▁vergrößert	-11.2845
▁verschmutz	-11.2846
▁55	-11.2847
schau	-11.2856
▁äußere	-11.2859
inseln	-11.2864
▁song	-11.2864
▁funktionierende	-11.2865
▁fi	-11.2868
▁heiße	-11.2873
▁geformt	-11.2873
▁riech	-11.2878
▁grundlagen	-11.288
abdruck	-11.2881
iere	-11.2882
▁kon	-11.2883
▁leise	-11.2883
▁impuls	-11.2886
▁küchen	-11.2886
ran	-11.2888
freie	-11.2889
▁ultimative	-11.2892
werte	-11.2893
▁sitze	-11.2898
▁attraktiv	-11.2899
▁fossil	-11.2901
▁kommentare	-11.2902
▁extreme	-11.2902
▁stau	-11.2904
virus	-11.2905
▁ski	-11.2907
▁vernunft	-11.2918
▁glamour	-11.2918
▁lincoln	-11.2918
▁alexander	-11.2918
▁republikaner	-11.2918
▁methan	-11.2918
▁gelegentlich	-11.2918
▁transformation	-11.2918
▁mandela	-11.2918
▁identifiziert	-11.2918
▁brian	-11.2918
▁investoren	-11.2919
▁fettleibigkeit	-11.2919
▁verpflichtet	-11.2921
▁lego	-11.2921
▁ausländische	-11.2922
▁überlegt	-11.2922
▁konkurrenz	-11.2925
▁direkte	-11.2927
▁festhalten	-11.2928
▁rollstuhl	-11.2928
▁jedermann	-11.2929
▁antarktis	-11.293
▁jesus	-11.293
▁fossile	-11.2935
▁who	-11.2936
▁gesünder	-11.2937
▁betrug	-11.2938
▁diät	-11.2942
▁gelände	-11.2945
▁leder	-11.2947
zeug	-11.2954
▁brand	-11.2955
▁partikel	-11.2955
▁anfällig	-11.2959
▁gehalt	-11.2959
▁umkehr	-11.2959
▁klappt	-11.2961
▁gebunden	-11.2961
▁hässlich	-11.2964
▁kostenlose	-11.2964
▁primaten	-11.2965
▁ermutigen	-11.2967
▁schlagzeilen	-11.2968
▁blinde	-11.297
▁bürgerkrieg	-11.2974
trieb	-11.2977
fern	-11.2978
▁schafe	-11.2978
▁mitleid	-11.2978
per	-11.2983
▁lebensform	-11.2984
anlagen	-11.2992
▁messung	-11.2998
kreislauf	-11.3001
▁wolke	-11.3002
▁werten	-11.3012
▁schiffe	-11.3019
▁innovative	-11.302
▁reine	-11.3026
ub	-11.303
rechnen	-11.303
▁redete	-11.3031
▁durchlaufen	-11.3039
teilung	-11.3041
▁abschließen	-11.3042
▁erlaubte	-11.3042
einkommen	-11.3043
maschinen	-11.3046
läuf	-11.3049
▁zweiter	-11.305
▁externe	-11.3051
▁gemeint	-11.3055
zusehen	-11.3059
geld	-11.3065
▁strecke	-11.3066
▁bot	-11.3066
▁unbe	-11.3068
ami	-11.3076
▁beschäftigte	-11.308
▁brennstoff	-11.309
tische	-11.3092
isst	-11.3101
eten	-11.3103
▁umfasst	-11.3104
▁identisch	-11.3106
▁genaue	-11.311
▁zugrunde	-11.311
▁verstorben	-11.3114
▁behauptung	-11.3114
▁beschädigt	-11.3114
▁dschihad	-11.3114
▁intervention	-11.3114
▁second	-11.3114
▁shanghai	-11.3114
▁woanders	-11.3114
▁angeblich	-11.3114
▁cousin	-11.3114
▁audio	-11.3114
▁kosmische	-11.3114
▁wohnzimmer	-11.3114
▁dankeschön	-11.3114
▁beherrschen	-11.3115
▁long	-11.3115
▁nervensystem	-11.3116
▁regime	-11.3116
▁nutzte	-11.3117
burg	-11.3118
▁synthetische	-11.3118
▁warte	-11.3119
▁rente	-11.3119
wachsen	-11.312
▁hervorzu	-11.3121
▁käse	-11.3122
▁ufer	-11.3122
▁durchbruch	-11.3123
▁hinterher	-11.3124
▁datenbank	-11.3124
▁3.000	-11.3124
▁ethik	-11.3127
▁rasch	-11.3134
▁stimmung	-11.3136
tum	-11.3138
medizin	-11.3146
▁kommentar	-11.3152
▁fels	-11.3154
▁bringe	-11.3155
▁klimawandels	-11.3156
▁kollege	-11.3159
▁einladung	-11.3159
▁teurer	-11.3163
▁fein	-11.3164
ble	-11.3165
▁alpha	-11.3169
▁graph	-11.317
▁gigantische	-11.317
▁rakete	-11.317
anda	-11.3174
information	-11.3175
▁bogen	-11.3176
code	-11.3176
▁empfangen	-11.3178
▁mar	-11.3179
ick	-11.3179
▁interpretier	-11.318
▁rauschen	-11.3187
▁zerbrechlich	-11.3189
▁bevölkerungs	-11.3195
stücke	-11.3195
institut	-11.3198
▁sexuell	-11.3198
▁betrag	-11.32
branche	-11.3201
frequenz	-11.3201
blatt	-11.3201
spitze	-11.3202
▁freiwillig	-11.3202
abteilung	-11.3203
musik	-11.3204
ähnliche	-11.3205
karten	-11.3206
ral	-11.3213
▁dynamisch	-11.3214
▁kalte	-11.3216
stell	-11.3225
▁ratte	-11.3225
verteilung	-11.3226
▁künstlich	-11.3227
▁einblick	-11.323
nfolge	-11.3233
haut	-11.3244
▁derjenige	-11.3244
▁wüsten	-11.3246
▁studierenden	-11.3246
▁hinweisen	-11.3261
▁rettung	-11.3262
▁dis	-11.3265
▁sir	-11.3268
▁erzähl	-11.3269
fäde	-11.3269
union	-11.3269
▁klassen	-11.3271
wei	-11.3273
▁runde	-11.3281
▁einerseit	-11.3284
lin	-11.3286
gesetzt	-11.3288
▁gro	-11.3292
▁rituale	-11.3298
leitung	-11.3302
▁frisch	-11.3303
▁bohr	-11.3306
▁magnet	-11.3309
namen	-11.331
▁mentor	-11.3311
▁angemessen	-11.3313
▁beruht	-11.3314
▁eingeschränkt	-11.3314
▁fledermäuse	-11.3314
▁gandhi	-11.3314
▁pizza	-11.3314
▁verletzen	-11.3314
▁atomenergie	-11.3314
▁stattfand	-11.3314
▁tempel	-11.3315
▁standort	-11.3316
qualität	-11.3318
füllung	-11.3318
▁elf	-11.3321
▁kulturell	-11.3324
▁anwalt	-11.3327
▁orbit	-11.3329
▁motivieren	-11.3331
▁ueber	-11.3331
▁anlage	-11.3333
▁elend	-11.3335
▁rannte	-11.3337
▁ray	-11.3344
▁2002	-11.3349
▁kürzer	-11.335
▁begleitet	-11.335
firmen	-11.3352
▁lösch	-11.3353
▁18.	-11.3354
▁flüchtlinge	-11.3358
▁anspruch	-11.3359
▁briefe	-11.3361
▁neigung	-11.3362
▁ignoriert	-11.3365
▁hervorbring	-11.3368
▁aussicht	-11.3371
▁universelle	-11.3374
▁kredit	-11.3374
▁zustimmen	-11.3374
▁kanal	-11.3375
risiko	-11.3379
▁süchtig	-11.3382
lang	-11.3386
▁verwandt	-11.3387
▁befehl	-11.3387
▁mess	-11.3389
ehe	-11.3392
▁genen	-11.3393
ierten	-11.3393
kräfte	-11.3394
▁37	-11.3397
eres	-11.3401
▁frische	-11.3401
ür	-11.3405
deckt	-11.3406
▁spezifisch	-11.3409
▁rettet	-11.3412
▁ideale	-11.3414
▁36	-11.3418
frei	-11.3421
tal	-11.3434
▁zunge	-11.3436
▁fischen	-11.3437
▁steuert	-11.3443
merkt	-11.3447
▁läd	-11.3448
▁wär	-11.3452
▁aufhört	-11.3453
▁kämpft	-11.3455
▁fundamental	-11.3457
▁drohnen	-11.3458
▁schulden	-11.3459
▁route	-11.3462
15	-11.3468
▁haushalt	-11.347
▁gelegt	-11.347
▁loszu	-11.347
▁branche	-11.3474
▁gestalt	-11.3481
▁weiterzu	-11.3485
▁höhen	-11.3491
▁alltägliche	-11.3508
ator	-11.3511
▁trainings	-11.3514
▁schlicht	-11.3517
▁verdeutlich	-11.3518
▁beängstigend	-11.3518
▁gestohlen	-11.3518
▁henry	-11.3518
▁weizen	-11.3518
▁2,5	-11.3519
▁rick	-11.3519
▁abraham	-11.352
▁minus	-11.352
▁verletzlichkeit	-11.352
▁stehl	-11.3524
jo	-11.3524
arbeiter	-11.3525
▁tony	-11.3527
▁melodie	-11.3529
▁versehen	-11.353
zität	-11.3532
ani	-11.3533
▁verdoppeln	-11.3534
▁ost	-11.3535
▁teppich	-11.3536
▁grab	-11.3537
▁portrait	-11.3538
▁pre	-11.3539
▁hingeg	-11.3542
▁nebel	-11.3543
gänge	-11.3543
▁algen	-11.3543
▁archiv	-11.3545
▁schöpfung	-11.3546
▁matrix	-11.355
▁schütteln	-11.3552
▁state	-11.3553
▁grau	-11.3556
eb	-11.3557
▁reaktor	-11.3557
▁inder	-11.3557
▁veröffentlichte	-11.356
▁pop	-11.3563
▁japanische	-11.3563
▁oma	-11.3564
▁fr	-11.3564
▁nette	-11.3566
▁treppe	-11.3566
▁hans	-11.3569
▁getrieben	-11.3574
▁natürlicher	-11.3583
losigkeit	-11.3584
ep	-11.3586
tritt	-11.3587
▁absolute	-11.359
verbrauch	-11.3598
▁pumpe	-11.3599
▁bestandteil	-11.3599
▁feinde	-11.3601
▁mechanische	-11.3603
region	-11.3603
▁texte	-11.3605
gefunden	-11.3611
zimmer	-11.3612
fügen	-11.3612
kampagne	-11.3613
▁kauf	-11.3619
generation	-11.3625
▁saudi	-11.363
eit	-11.3638
▁sterblichkeit	-11.3643
methode	-11.3647
▁ii	-11.3656
▁generier	-11.3664
▁held	-11.367
experiment	-11.3672
▁fund	-11.3676
▁te	-11.3676
streifen	-11.3684
▁produktions	-11.3685
▁raub	-11.3686
▁amy	-11.3687
▁türke	-11.3698
kamera	-11.3699
▁gewinne	-11.3701
▁missbrauch	-11.3701
▁glücks	-11.3708
rennen	-11.3715
▁bausteine	-11.3716
▁zeichnete	-11.3717
▁kolonien	-11.3717
igung	-11.3718
▁eric	-11.372
kontrolle	-11.372
▁unver	-11.3721
möglichkeit	-11.3723
studien	-11.3726
▁mist	-11.3726
▁allgegenwärtig	-11.3726
▁feynman	-11.3726
▁konversation	-11.3726
▁drastisch	-11.3726
▁applau	-11.3726
▁stickstoff	-11.3726
veröffentlichung	-11.3726
▁verbrannt	-11.3726
▁hafen	-11.3726
▁quadratmeter	-11.3727
▁vorgehensweise	-11.3727
▁antibiotika	-11.3727
▁teller	-11.3727
▁notfall	-11.3727
▁lebensstil	-11.3728
▁freuen	-11.3728
▁persönlicher	-11.3729
sauce	-11.373
▁sklaverei	-11.373
▁holte	-11.373
▁ernten	-11.373
pu	-11.3731
▁vorherige	-11.3734
▁umgewandelt	-11.3735
▁scott	-11.3736
designer	-11.3736
fer	-11.3737
▁agieren	-11.3738
▁übernommen	-11.374
▁variable	-11.374
▁versteckte	-11.374
▁angestellt	-11.374
▁verkehrs	-11.3744
▁logo	-11.3744
▁brillante	-11.3746
▁ansah	-11.375
phase	-11.3751
▁ausland	-11.3751
▁beleuchtung	-11.3752
▁vertreten	-11.3753
ind	-11.3753
▁betrachte	-11.3755
▁tunnel	-11.3759
og	-11.3761
▁pilot	-11.3763
▁finanzierung	-11.3763
▁bay	-11.3766
▁ausschnitt	-11.3767
geholt	-11.3769
▁sklaven	-11.3775
▁kunstwerk	-11.3776
▁jüngere	-11.3778
▁schalter	-11.3779
▁betreffen	-11.378
▁automobil	-11.3784
din	-11.3784
▁sink	-11.3786
▁braun	-11.3787
▁ökosysteme	-11.3788
▁tiefste	-11.3792
▁anbau	-11.3793
▁kluge	-11.3795
▁dauerhaft	-11.3797
▁mobile	-11.3798
▁interaktiv	-11.3811
strategie	-11.3812
▁gerichtet	-11.3814
▁spezialisiert	-11.3815
halle	-11.3817
▁autonome	-11.3819
▁schwache	-11.3821
▁cd	-11.3821
rechnung	-11.3821
haufen	-11.3826
box	-11.3827
künstler	-11.3827
jenige	-11.3836
istische	-11.3839
füllen	-11.384
▁existierte	-11.384
▁einführung	-11.3842
▁affe	-11.3842
▁hervorragend	-11.3842
▁versetz	-11.3843
gh	-11.3845
ty	-11.3853
▁edi	-11.3857
▁akademische	-11.3866
quelle	-11.3871
▁schreien	-11.3874
▁gehst	-11.3876
▁delfine	-11.3878
▁nützliche	-11.388
▁geb	-11.3882
zeichnen	-11.3887
▁organisierte	-11.3889
▁pilz	-11.389
▁tri	-11.389
▁ökologisch	-11.3897
▁packen	-11.3899
ip	-11.3899
falls	-11.39
reichen	-11.3904
▁bu	-11.3904
▁erreichte	-11.3906
▁demokrat	-11.391
▁vernetzt	-11.391
▁drucken	-11.3917
▁august	-11.3921
▁station	-11.3927
▁hof	-11.3927
taste	-11.3928
produkte	-11.3932
▁verständlich	-11.3937
▁county	-11.3939
▁dvd	-11.3939
▁geometrie	-11.3939
▁indonesi	-11.3939
▁premierminister	-11.3939
▁herbst	-11.3939
▁biosphäre	-11.3939
▁meeresspiegel	-11.3939
▁earth	-11.394
▁integrieren	-11.394
▁söhne	-11.394
▁chile	-11.3941
drehen	-11.3941
▁zusammenbruch	-11.3943
▁hühner	-11.3943
▁rosa	-11.3944
▁insekt	-11.3944
▁artenvielf	-11.3944
▁beschrieb	-11.3944
slosigkeit	-11.3945
▁astronom	-11.3945
▁hektar	-11.3945
▁0	-11.3947
▁kev	-11.3947
▁ausgelöst	-11.3953
▁streich	-11.3953
▁verwende	-11.3953
▁verläuf	-11.3955
▁wirksam	-11.3959
▁mitgebracht	-11.3959
▁forschen	-11.3962
▁treibhausgase	-11.3963
▁spirituelle	-11.3965
▁kleider	-11.3966
▁hinab	-11.3968
▁brennstoffe	-11.3969
▁grand	-11.3974
▁ber	-11.3974
▁hausaufgaben	-11.3975
▁kurse	-11.3976
▁master	-11.3978
▁standards	-11.3982
▁genome	-11.3989
▁behälter	-11.3992
jahr	-11.3993
▁erwischt	-11.3993
▁kandidaten	-11.3998
▁liebste	-11.4
technologien	-11.4002
▁tödliche	-11.4006
campus	-11.4012
▁nieren	-11.4015
▁grösser	-11.4017
▁unangenehm	-11.4017
▁übertragung	-11.4017
▁rande	-11.4019
▁service	-11.4019
▁red	-11.4029
beziehung	-11.4032
shirt	-11.4033
▁newton	-11.4034
lehnen	-11.4034
masse	-11.4036
▁beseitig	-11.4039
krebs	-11.4043
märkte	-11.4044
lai	-11.4044
fehler	-11.4045
▁unmögliche	-11.4046
▁camp	-11.4051
tischen	-11.4053
elle	-11.4056
hal	-11.4061
spielen	-11.4062
eg	-11.4065
▁or	-11.4067
▁krebszelle	-11.407
barkeit	-11.4074
▁zustände	-11.4076
▁riff	-11.4078
grad	-11.4079
sprochen	-11.4083
▁kälte	-11.4084
kinder	-11.4093
typ	-11.41
▁aufruf	-11.4102
▁erlebte	-11.4104
▁schwanger	-11.4113
▁erzähler	-11.4115
▁komplexes	-11.4115
▁unbewusst	-11.4115
▁faul	-11.4118
triff	-11.4118
liefert	-11.412
zuarbeiten	-11.4125
▁freizeit	-11.4129
dra	-11.413
▁kommerzielle	-11.4131
▁riechen	-11.4137
▁unendliche	-11.4138
▁guck	-11.4139
▁betracht	-11.4142
▁erheblich	-11.4149
▁pinguin	-11.4152
▁amazon	-11.4155
▁detroit	-11.4156
▁eventuell	-11.4156
▁gesunken	-11.4156
▁zuverlässig	-11.4156
▁hardware	-11.4156
regen	-11.4157
▁gespeichert	-11.4157
▁berlin	-11.4157
▁probanden	-11.4157
▁north	-11.4157
▁mike	-11.4157
▁verwirklichen	-11.4157
▁johnson	-11.4159
▁wahrgenommen	-11.4163
▁möglichst	-11.4164
▁vollständige	-11.4165
bewusstsein	-11.4165
ltern	-11.4165
▁unheimlich	-11.4167
▁giftige	-11.4168
▁gummi	-11.4168
▁wähler	-11.417
▁trans	-11.4171
▁seide	-11.4172
▁erschafft	-11.4173
my	-11.4173
▁kollektiv	-11.4174
▁pandemie	-11.4175
▁30.000	-11.4175
▁anschließend	-11.4176
▁gitter	-11.4176
▁auslösen	-11.4177
▁anwesenheit	-11.4179
▁balk	-11.4179
▁hmm	-11.4182
▁beschäftigung	-11.4183
▁umgesetzt	-11.4193
▁betrachter	-11.4194
▁mobiltelefon	-11.42
▁atheist	-11.4201
ity	-11.4201
▁eigentum	-11.4204
▁elektroden	-11.4208
gerechnet	-11.4214
bezogen	-11.4216
▁stufen	-11.4216
▁bevorzug	-11.4224
dauert	-11.4224
fordern	-11.4229
one	-11.4229
staat	-11.4232
fuhr	-11.4233
▁vorhersage	-11.4234
▁zueinander	-11.4235
schläg	-11.4237
▁möbel	-11.4238
▁nutze	-11.4242
▁mutig	-11.4245
▁verschieben	-11.4246
▁sinken	-11.4253
tig	-11.4254
bot	-11.4255
erfahrung	-11.4264
konferenz	-11.4264
▁spinnen	-11.4265
gearbeitet	-11.4267
▁pyramide	-11.427
▁beten	-11.4273
▁schl	-11.4273
▁decken	-11.4274
▁abschließend	-11.4274
▁nachmittag	-11.4278
▁steigende	-11.4281
meter	-11.4281
▁blinden	-11.4283
▁freundlich	-11.4292
port	-11.4293
▁ri	-11.4294
lö	-11.4296
▁schwierigste	-11.4298
▁act	-11.4299
▁überschreite	-11.4302
▁journalist	-11.4303
▁aufgestellt	-11.4306
▁nuklear	-11.4314
▁äußer	-11.4321
▁ausgabe	-11.4324
bel	-11.4326
▁röntgen	-11.4331
▁lustige	-11.4334
▁vergleichbar	-11.4339
öl	-11.4341
▁teilnahme	-11.4345
▁zusammenfassen	-11.4349
▁absichtlich	-11.4351
▁männlich	-11.4355
ial	-11.4356
▁grösse	-11.4361
▁spür	-11.4366
▁glamourös	-11.4373
▁gesetzen	-11.4373
stöß	-11.4375
▁ekel	-11.4376
▁quad	-11.4378
▁bemühen	-11.4379
▁benjamin	-11.4379
▁dilemma	-11.4379
▁dürre	-11.4379
▁leinwand	-11.4379
▁schützt	-11.4379
▁ängste	-11.4379
▁dächer	-11.4379
▁jazz	-11.4379
▁charlie	-11.4379
▁robotik	-11.4379
▁schlangen	-11.4379
▁hong	-11.4379
▁fördert	-11.438
▁rückseite	-11.438
▁coca	-11.4381
▁liebst	-11.4382
▁atlantik	-11.4384
▁angewendet	-11.4385
dose	-11.4385
▁geschwister	-11.4385
sinn	-11.4385
▁sahara	-11.4389
▁schönste	-11.4391
▁größen	-11.4391
▁priester	-11.4393
▁cricket	-11.4393
tests	-11.4395
▁trommel	-11.4403
menschliche	-11.4404
▁erwerb	-11.4409
▁7.	-11.4411
▁diagnostiziert	-11.4411
▁hierarchie	-11.4411
lan	-11.4413
ide	-11.4413
▁begeben	-11.4419
▁langzeit	-11.4423
▁schale	-11.4423
▁vorschlagen	-11.4424
▁minen	-11.4424
▁volks	-11.4428
▁naiv	-11.443
af	-11.4435
▁pflicht	-11.4444
▁gestiegen	-11.4452
frage	-11.4456
▁ethische	-11.4457
▁oberste	-11.446
▁48	-11.446
▁email	-11.4462
wahl	-11.4462
▁stammes	-11.4464
age	-11.4465
▁erfolge	-11.4466
▁blume	-11.4475
turm	-11.4478
▁manipulier	-11.4482
▁penn	-11.4484
▁energien	-11.4489
luft	-11.4492
becken	-11.4493
glaubt	-11.4493
▁konservative	-11.4493
software	-11.4494
filter	-11.4494
▁systematisch	-11.4495
▁sank	-11.4497
▁raumschiff	-11.45
▁streifen	-11.4502
▁freundschaft	-11.4504
▁strassen	-11.4506
▁angezogen	-11.4507
▁täte	-11.451
▁eurer	-11.4511
▁handelte	-11.4517
▁sender	-11.452
▁platziert	-11.4523
▁parteien	-11.4525
▁mächtigste	-11.4525
position	-11.4525
wege	-11.4527
▁pilze	-11.4528
▁kreativer	-11.4536
▁optische	-11.4537
▁geringste	-11.4541
studenten	-11.4541
▁potentielle	-11.4544
▁kram	-11.4547
▁ak	-11.4556
▁züge	-11.4557
les	-11.4564
rechte	-11.4565
▁scharf	-11.4565
▁regionale	-11.4567
▁anrufe	-11.457
▁verschiedenste	-11.4572
▁pe	-11.4576
▁netze	-11.4578
pol	-11.458
▁romantische	-11.4581
▁wahnsinn	-11.4585
▁lateinamerika	-11.4585
▁350	-11.4589
ow	-11.459
▁techniker	-11.4591
▁binde	-11.4592
▁billige	-11.4593
▁durchgehen	-11.4598
▁wunde	-11.46
▁fallschirm	-11.4601
▁richtet	-11.4602
▁beleg	-11.4605
▁ersatz	-11.4605
▁ho	-11.4606
▁frustriert	-11.4606
▁singapur	-11.4606
▁bestätigen	-11.4606
▁elektromagnet	-11.4606
▁arzneimittel	-11.4606
▁carolina	-11.4606
▁watson	-11.4606
▁ibm	-11.4606
▁befreit	-11.4606
▁ironie	-11.4606
▁interessierte	-11.4606
▁schätzt	-11.4607
gu	-11.4607
gas	-11.4607
▁zusammengefasst	-11.4608
▁rauf	-11.4611
träge	-11.4611
▁müde	-11.4613
▁errichtet	-11.4613
ium	-11.4614
▁erweiterung	-11.4615
▁provinz	-11.4615
▁panzer	-11.4617
▁jeff	-11.4617
▁schockiert	-11.4619
▁frosch	-11.462
▁schachtel	-11.4621
▁fortsetz	-11.4622
männer	-11.4624
▁bemühung	-11.4626
▁clip	-11.4626
▁hebel	-11.463
zyklus	-11.4634
▁fremd	-11.4636
lagert	-11.4638
▁mytho	-11.4638
werfen	-11.4638
sammeln	-11.4638
▁bereitet	-11.464
▁überholt	-11.4642
▁verhaltensweise	-11.4645
▁comics	-11.4647
▁ausgezeichnet	-11.4649
▁berücksichtigt	-11.4656
▁führende	-11.4657
▁sche	-11.466
▁ermutigt	-11.4663
▁empfänger	-11.4666
▁schwelle	-11.4667
▁übermittel	-11.4669
▁gelenk	-11.4671
▁skala	-11.4671
▁dumme	-11.4675
▁flagge	-11.4678
▁berufs	-11.468
▁empfinde	-11.4683
wechsel	-11.4685
▁grenz	-11.4685
▁zeichnet	-11.4686
▁dicke	-11.4692
▁denker	-11.4697
▁farmer	-11.4699
▁schuh	-11.4699
▁pink	-11.4703
▁para	-11.4704
▁normaler	-11.4705
▁darm	-11.4711
par	-11.4712
▁durchfall	-11.4713
schiff	-11.472
motor	-11.4723
läd	-11.4726
gehirn	-11.4727
▁passiv	-11.4728
▁christen	-11.4728
▁vermischt	-11.4735
▁herausstellt	-11.4737
▁juden	-11.4745
▁enge	-11.4746
▁videospiel	-11.4753
egel	-11.4754
gab	-11.4755
▁ermöglichte	-11.4757
▁begeister	-11.4761
▁besucher	-11.4761
▁küsten	-11.4769
cker	-11.4784
▁kamel	-11.4784
▁offensichtliche	-11.4784
wandeln	-11.4789
▁dienste	-11.4793
▁offiziell	-11.4795
▁spiels	-11.48
▁genetik	-11.4801
▁versicherung	-11.4804
▁zoo	-11.4805
▁schnapp	-11.4805
▁leitet	-11.4806
▁korallenriffe	-11.4806
▁schach	-11.4811
alen	-11.4811
▁schwamm	-11.4813
▁strafe	-11.4818
isches	-11.4819
▁untersuchte	-11.4819
▁trete	-11.482
▁iq	-11.4821
▁jüdische	-11.4823
bus	-11.4826
▁hang	-11.4832
▁diplomat	-11.4837
gelöscht	-11.4839
▁beunruhigend	-11.4839
▁clinton	-11.4839
▁lebensunterhalt	-11.4839
▁november	-11.4839
▁redwood	-11.4839
▁fußgänger	-11.4839
▁übel	-11.4839
▁geschäftsführer	-11.4839
▁fox	-11.4839
▁geographic	-11.4839
▁leih	-11.484
▁2030	-11.484
▁seti	-11.484
▁verschaffen	-11.484
▁hill	-11.484
▁2020	-11.4841
▁gedichte	-11.4841
▁vorbereitung	-11.4843
▁jones	-11.4843
▁cloud	-11.4845
▁herkomm	-11.4847
▁künste	-11.4848
▁square	-11.4848
▁project	-11.4851
▁tastatur	-11.4851
▁agenda	-11.4851
▁jahreszeit	-11.4852
▁raster	-11.4852
▁leidet	-11.4853
▁heftig	-11.4854
▁note	-11.4858
▁schweizer	-11.4859
▁übliche	-11.4859
▁hemd	-11.4859
ap	-11.486
▁bundesstaat	-11.4865
▁abweichung	-11.4867
▁lust	-11.4868
▁gezeichnet	-11.4869
▁lama	-11.4871
▁lohnt	-11.4873
▁massiv	-11.4873
ette	-11.4874
▁bananen	-11.4874
▁szenario	-11.4876
▁profil	-11.4876
schaffung	-11.4878
schieben	-11.4879
▁umfang	-11.4885
▁hülle	-11.4886
träger	-11.489
▁peer	-11.4894
▁überein	-11.4894
▁zugriff	-11.4896
▁strecken	-11.4896
▁freitag	-11.4896
▁detektor	-11.4896
▁sing	-11.4906
▁himmels	-11.4907
▁treffe	-11.4909
▁versch	-11.4909
▁jahrhunderte	-11.491
▁herumzu	-11.4911
▁rohstoffe	-11.4912
▁ressource	-11.4922
▁einfallen	-11.4923
▁ansprechen	-11.4924
▁data	-11.4925
the	-11.4928
▁gefängnisse	-11.4929
▁experte	-11.4934
▁präsentiert	-11.4934
ologie	-11.4936
uel	-11.494
▁probiert	-11.4941
▁fordert	-11.495
▁impf	-11.495
kanal	-11.4951
▁binden	-11.4952
amerikaner	-11.4958
▁interne	-11.4958
▁machbar	-11.4962
▁fordern	-11.4962
gerissen	-11.4963
lehrer	-11.4972
▁brett	-11.4973
zeitalter	-11.4974
methoden	-11.4976
level	-11.4978
▁engagier	-11.4979
ßt	-11.4981
brüche	-11.4981
▁spart	-11.4987
▁treu	-11.4992
▁belastung	-11.4998
▁bescheiden	-11.5
geschaltet	-11.5006
▁william	-11.5011
▁begeh	-11.5015
loch	-11.5017
▁min	-11.502
▁abbau	-11.5022
▁erlern	-11.5024
▁comic	-11.5036
▁rechtliche	-11.5036
▁29	-11.5037
▁ku	-11.5038
▁stich	-11.5047
▁vereinen	-11.5049
▁zusehen	-11.5051
▁empfindlich	-11.5053
▁allererste	-11.5059
▁lücken	-11.5062
▁eintreten	-11.5069
▁albert	-11.5076
▁vietnam	-11.5076
▁1,2	-11.5077
▁beurteilen	-11.5077
▁demonstrieren	-11.5077
▁depressiv	-11.5077
▁mcdonald	-11.5077
▁rezession	-11.5077
▁smartphone	-11.5077
▁transistor	-11.5077
▁tweet	-11.5077
▁zitiere	-11.5077
▁kooperieren	-11.5077
▁keim	-11.5077
▁nordpol	-11.5077
▁erdgas	-11.5077
▁erdöl	-11.5077
▁leonardo	-11.5077
▁harry	-11.5077
▁gelungen	-11.5077
▁nebenwirkung	-11.5078
▁markieren	-11.5078
▁verhaftet	-11.5078
▁alex	-11.5078
▁stirn	-11.5079
▁silber	-11.5079
▁harmonie	-11.508
▁anwesend	-11.508
▁wiederaufbau	-11.5081
▁pla	-11.5083
▁halluzination	-11.5084
▁lg	-11.5084
▁visualisierung	-11.5089
▁argumentier	-11.5091
ergebnisse	-11.5091
▁nebeneinander	-11.5091
▁gefühlt	-11.5095
stände	-11.5101
▁zufriedenheit	-11.5102
▁umfassende	-11.5102
▁verbündete	-11.5103
▁vorlesen	-11.5103
▁ähnlichkeit	-11.5104
▁trennung	-11.5105
▁krähen	-11.5105
▁tauschen	-11.5106
▁these	-11.5108
▁überfluss	-11.5109
▁erschaffung	-11.5111
weitaus	-11.5116
▁interface	-11.5117
▁verringert	-11.512
▁brille	-11.512
▁q	-11.5121
▁abkommen	-11.5125
▁naturschutz	-11.513
haben	-11.5131
▁suppe	-11.5133
▁geschlechter	-11.5134
▁festzu	-11.5135
werden	-11.5137
▁hütte	-11.5139
▁befragt	-11.5139
▁72	-11.5141
▁wärmer	-11.5142
▁platzier	-11.5146
punkte	-11.5149
stro	-11.5151
▁nachweis	-11.5152
rollen	-11.5155
▁aktivisten	-11.5156
▁gravitation	-11.5156
rich	-11.516
▁port	-11.5161
▁berater	-11.5165
▁cl	-11.5174
▁gramm	-11.5186
▁oper	-11.5186
▁mathematisch	-11.5187
▁wegwerf	-11.5191
▁rasse	-11.5192
▁ertrag	-11.5193
gefordert	-11.5195
▁sichere	-11.5195
▁matt	-11.5195
▁trennt	-11.5197
▁parlament	-11.5198
▁übersehen	-11.5198
▁zukünftig	-11.5199
volle	-11.5202
syndrom	-11.5205
▁orange	-11.5205
▁sc	-11.5206
let	-11.5206
▁time	-11.5207
▁prioritäten	-11.5208
operation	-11.5208
bühne	-11.5208
unfall	-11.521
▁unerwartet	-11.5214
ps	-11.5223
▁schliess	-11.523
sicht	-11.5232
▁ve	-11.5233
▁intuitiv	-11.5238
trick	-11.524
▁studierende	-11.5242
▁mechanisch	-11.5242
▁44	-11.5247
patienten	-11.5248
▁alltags	-11.5248
▁spüre	-11.5254
▁intim	-11.5254
▁merkmal	-11.5254
▁eingriff	-11.5255
regung	-11.5255
▁solle	-11.5263
▁belegt	-11.5267
▁intelligenter	-11.5269
▁mobiltelefone	-11.5272
dom	-11.5278
▁weiterentwickel	-11.5281
▁chi	-11.5282
mäßig	-11.5284
▁wissenschafts	-11.5285
▁verarbeitet	-11.5287
▁dunkler	-11.5293
▁aristotel	-11.5296
▁drückt	-11.5297
leistungen	-11.5298
▁schweiz	-11.5299
▁erheben	-11.5304
uck	-11.5305
▁tanzt	-11.5306
▁feder	-11.5306
▁hol	-11.5307
▁pi	-11.5309
▁simulier	-11.5311
▁dokumentier	-11.5311
swert	-11.5313
topf	-11.5314
▁schieß	-11.5314
▁einnehmen	-11.5318
autor	-11.5319
▁begrabe	-11.5321
▁herzinfarkt	-11.5321
▁kokain	-11.5321
▁neuseeland	-11.5321
▁reflektieren	-11.5321
▁shakespeare	-11.5321
▁tomaten	-11.5321
▁brooklyn	-11.5321
▁stephen	-11.5321
▁regulierung	-11.5321
▁leistet	-11.5321
▁innenstadt	-11.5322
▁biomasse	-11.5322
▁verteidig	-11.5322
▁mikrofon	-11.5323
▁umweltschutz	-11.5323
▁nachdachte	-11.5324
▁sea	-11.5324
förder	-11.5324
▁kühlschrank	-11.5325
▁entkommen	-11.5325
▁andrew	-11.5325
▁zeitspanne	-11.5326
▁indus	-11.5326
▁jungfrau	-11.5326
▁schmeckt	-11.5328
▁recycling	-11.5328
▁boy	-11.5329
▁frühstück	-11.533
▁malte	-11.5333
rückkehr	-11.5335
▁vergewaltigung	-11.5336
▁früchte	-11.5336
▁verfassung	-11.5338
reißen	-11.5339
hängen	-11.5339
▁filmemacher	-11.5341
tu	-11.5343
▁fügt	-11.5343
▁200.000	-11.5344
▁elternteil	-11.5344
▁verwendete	-11.535
lt	-11.5353
za	-11.5355
▁notiz	-11.5356
▁charaktere	-11.5359
tausend	-11.5359
▁stört	-11.536
▁model	-11.536
▁geheime	-11.5362
▁galt	-11.5362
agen	-11.5366
▁stetig	-11.5366
▁antreib	-11.5367
▁bronx	-11.5367
schw	-11.5367
atur	-11.5372
streben	-11.5373
▁führend	-11.5374
▁gegenwärtige	-11.5375
mpel	-11.5376
▁spezialist	-11.5378
hafte	-11.5378
▁zuständig	-11.5379
▁kämpfe	-11.5383
▁american	-11.5385
▁angelegt	-11.5391
▁herzkrankheit	-11.5394
▁schnittstelle	-11.5397
▁holt	-11.5404
wirken	-11.5408
and	-11.5413
▁ausprobier	-11.5413
ziel	-11.542
▁übernahm	-11.5422
ec	-11.5423
bb	-11.5425
▁verarbeitung	-11.5427
▁schläf	-11.5427
▁aussuch	-11.5427
▁doppel	-11.5428
▁truppen	-11.5432
▁lunge	-11.5433
▁überprüft	-11.5439
▁verletzlich	-11.5441
spiele	-11.5441
▁grausam	-11.5443
▁informiert	-11.5443
▁abschnitt	-11.5445
▁scheibe	-11.5451
kapital	-11.5453
▁dauernd	-11.5455
▁grundschul	-11.5455
allererst	-11.5456
zettel	-11.5456
händler	-11.5456
mutter	-11.5457
▁erfolgs	-11.5457
gelassen	-11.5463
▁spanisch	-11.5465
büro	-11.5467
▁dokumente	-11.5467
▁urbane	-11.5469
▁sammelte	-11.5473
▁inspirierend	-11.5477
gramm	-11.548
▁befestigt	-11.5484
bauer	-11.5485
▁schoss	-11.5486
eis	-11.5487
▁klettern	-11.5491
▁spinne	-11.5497
▁verborgen	-11.5498
▁win	-11.5503
gehalten	-11.5505
gesprochen	-11.5509
▁poly	-11.5509
▁respektier	-11.5511
vo	-11.5511
▁one	-11.5513
▁laufende	-11.5522
▁trieb	-11.5524
brachte	-11.5529
▁ökologi	-11.5533
ellen	-11.5544
strukturen	-11.555
▁psychisch	-11.555
▁alphabet	-11.5554
gefühl	-11.5555
▁hing	-11.5556
▁wasch	-11.5558
▁regulieren	-11.5559
▁fütter	-11.5561
nullsummen	-11.5563
platten	-11.5566
▁mitmachen	-11.5567
▁bad	-11.5568
▁hoffnungslos	-11.5569
▁steckte	-11.5569
▁bequem	-11.557
iges	-11.557
▁anderthalb	-11.5571
▁errungenschaft	-11.5571
▁tansania	-11.5571
▁tendieren	-11.5571
▁arthur	-11.5571
▁bonobo	-11.5571
▁gründlich	-11.5571
▁virginia	-11.5571
▁ideologie	-11.5571
▁minderheit	-11.5571
▁arbeitskräfte	-11.5571
▁entschlüssel	-11.5571
▁wildnis	-11.5572
▁ausbreiten	-11.5572
▁überlasse	-11.5572
▁1900	-11.5572
▁gefroren	-11.5573
zufügen	-11.5574
▁keller	-11.5574
▁raumfahrt	-11.5575
▁republik	-11.5576
▁statistisch	-11.558
▁gesteuert	-11.558
uk	-11.5582
▁bewertet	-11.5582
▁aufklärung	-11.5582
▁berat	-11.5582
▁engel	-11.5582
▁alltäglich	-11.5583
▁bündel	-11.5586
▁tötete	-11.5587
▁tauch	-11.5587
▁betrüg	-11.5589
▁lebendige	-11.5592
▁sprang	-11.5592
▁millimeter	-11.5592
▁ankunft	-11.5593
▁monster	-11.5594
▁verschmelzen	-11.5595
ake	-11.5597
▁ansammlung	-11.5597
▁geschätzt	-11.5598
▁merkwürdige	-11.56
▁gemeinsamkeit	-11.56
gefügt	-11.5602
▁einladen	-11.5606
▁milo	-11.5607
▁abschneide	-11.5609
line	-11.561
▁rover	-11.5611
▁neutral	-11.5611
▁130	-11.5612
▁drahtlose	-11.5616
▁kreuzung	-11.5622
▁ergab	-11.5623
bruch	-11.5624
▁produktiv	-11.5625
▁dynamische	-11.5627
tauschen	-11.5628
▁produzent	-11.563
▁datenmenge	-11.5636
▁ausnahmen	-11.5637
▁mall	-11.5638
▁herkömmliche	-11.5641
▁flaschen	-11.5643
▁anfühlt	-11.565
▁kämpfer	-11.5652
bänder	-11.5654
▁globales	-11.5658
▁angebracht	-11.5659
▁190	-11.5661
▁doppelte	-11.5662
▁startet	-11.5666
ör	-11.5667
▁elite	-11.5668
▁tatsächliche	-11.5669
▁meile	-11.5672
rus	-11.5673
len	-11.5673
▁erschwinglich	-11.5675
▁schwimm	-11.568
zählt	-11.568
kal	-11.5682
▁solarzellen	-11.5682
▁robotern	-11.5684
▁musikstück	-11.5686
zeitig	-11.5686
▁cha	-11.5687
▁immun	-11.5695
von	-11.5698
off	-11.5703
▁traurige	-11.5704
▁scheiße	-11.5708
klären	-11.5713
plätze	-11.5713
kampf	-11.5714
kugel	-11.5714
▁genie	-11.5714
moment	-11.5715
reaktion	-11.5715
▁bildes	-11.5716
▁fotograf	-11.5718
▁hochzeit	-11.5719
▁gewöhnlichen	-11.572
▁endete	-11.5721
om	-11.5722
ansatz	-11.5725
▁zutaten	-11.5729
orientierte	-11.573
brett	-11.5731
▁abnehmen	-11.5733
▁ran	-11.5733
▁syri	-11.5735
nahm	-11.5739
▁phasen	-11.5744
▁steven	-11.5745
▁südamerika	-11.5746
▁geister	-11.5748
▁zivil	-11.575
▁linsen	-11.5751
▁sprich	-11.5753
▁bestandteile	-11.5753
▁passend	-11.5759
bieten	-11.576
▁erhöhte	-11.5764
▁vulkan	-11.5765
▁tänzer	-11.5772
pass	-11.5776
▁weihnachts	-11.5776
willig	-11.5781
▁brutal	-11.5782
▁magazine	-11.5783
▁34	-11.5783
▁ozeans	-11.5785
▁versicher	-11.579
▁konzert	-11.5793
▁erzielt	-11.5794
svermögen	-11.5797
mon	-11.5798
▁reifen	-11.5803
▁schott	-11.5805
fo	-11.5806
▁russ	-11.5808
▁liebling	-11.5814
▁konkrete	-11.5815
▁hübsch	-11.5816
stil	-11.5817
▁strich	-11.582
▁fiktion	-11.582
▁schwein	-11.5823
▁vakuum	-11.5824
▁100-	-11.5826
ästhetik	-11.5827
▁angiogenese	-11.5827
▁belohnt	-11.5827
▁cholera	-11.5827
▁dummydummy	-11.5827
▁parkinson	-11.5827
▁reflektiert	-11.5827
▁vermächtnis	-11.5827
▁vitamin	-11.5827
▁östlich	-11.5827
▁connectome	-11.5827
▁mumbai	-11.5827
▁joseph	-11.5827
▁kontrast	-11.5827
▁auslöst	-11.5827
▁daniel	-11.5827
▁blue	-11.5827
▁schwangerschaft	-11.5828
▁louis	-11.5828
▁meerwasser	-11.5828
nerzähler	-11.5829
vis	-11.5829
▁becher	-11.583
▁begegnung	-11.5831
▁konstruieren	-11.5831
▁bearbeiten	-11.5832
lei	-11.5833
▁recherche	-11.5834
▁chemotherapie	-11.5834
▁gefiel	-11.5835
▁dramatische	-11.5837
▁angeschlossen	-11.5842
anlage	-11.5843
▁nationalpark	-11.5844
▁bieg	-11.5845
▁verpackung	-11.5845
▁verschwendet	-11.5845
▁kopiert	-11.5846
▁fusion	-11.5849
▁che	-11.585
ron	-11.5851
▁dampf	-11.5852
▁ausgesprochen	-11.5855
▁bälle	-11.5856
imb	-11.5856
▁baumkronen	-11.5858
▁kan	-11.5858
▁on	-11.5861
▁hormon	-11.5865
▁verlässt	-11.5868
▁auszusehen	-11.587
▁vernünftig	-11.587
▁gel	-11.587
▁schwul	-11.5871
▁vergeben	-11.5872
ven	-11.5876
▁schi	-11.5877
▁zigaretten	-11.5879
▁space	-11.5882
▁akteur	-11.5883
▁fröhlich	-11.5884
▁interaktive	-11.5887
▁flucht	-11.5891
way	-11.5891
▁fleck	-11.5893
▁protest	-11.5899
▁43	-11.5901
▁lebensjahr	-11.591
schaut	-11.5915
▁mrt	-11.5916
sprogramm	-11.5918
▁uh	-11.5919
▁museums	-11.5921
▁parks	-11.5924
▁grauen	-11.593
erei	-11.5932
▁linse	-11.5934
▁koralle	-11.5934
▁wolle	-11.5935
▁virtuell	-11.5935
▁säulen	-11.5937
verarbeitung	-11.5943
▁stoffe	-11.5947
lla	-11.5948
▁reist	-11.595
bro	-11.5954
▁quantenmechani	-11.5963
▁parasiten	-11.5972
▁niedrigen	-11.5973
▁zwecke	-11.5974
▁192	-11.5975
▁verstärken	-11.5976
▁dp	-11.5977
küste	-11.5978
▁31	-11.5981
▁op	-11.5982
▁argumente	-11.5984
▁rufe	-11.5984
▁beeindruckende	-11.5994
▁sauer	-11.5995
▁gespür	-11.5999
▁biologe	-11.6004
▁hinterfrag	-11.602
▁verpass	-11.6021
▁bezirk	-11.6027
pp	-11.6034
▁schlage	-11.6038
▁kehrte	-11.6042
▁vernünftige	-11.6046
▁nackt	-11.605
▁philosoph	-11.6053
▁anzug	-11.6054
▁heilig	-11.6056
ett	-11.6063
▁unfähig	-11.6065
▁abwasser	-11.6068
▁unsinn	-11.6068
▁vaters	-11.6071
▁überwältigend	-11.6072
▁pri	-11.6073
cola	-11.6075
▁witze	-11.6076
▁ernährungs	-11.6076
▁referenz	-11.6082
▁technolog	-11.6083
zogen	-11.6084
▁fortschrittlich	-11.6084
▁hal	-11.6087
▁hawaii	-11.6089
erfolg	-11.6089
▁bewegungs	-11.609
▁bemüht	-11.609
▁beunruhigt	-11.609
▁erschuf	-11.609
▁mozart	-11.609
▁seattle	-11.609
▁veranschaulich	-11.609
▁veraltet	-11.609
▁killer	-11.609
▁rückmeldung	-11.609
aufnahme	-11.609
▁griechenland	-11.6091
▁bruno	-11.6091
▁alice	-11.6091
▁weitgehend	-11.6091
▁primzahl	-11.6092
▁193	-11.6093
▁paradi	-11.6093
▁klatschen	-11.6093
▁zeitgenössische	-11.6093
▁unrecht	-11.6094
▁frösche	-11.6095
▁sähe	-11.6096
▁ngo	-11.6097
▁verdächtig	-11.6097
▁hühnchen	-11.6098
▁3000	-11.6098
▁mitteln	-11.6099
▁ausgerichtet	-11.61
▁unterdrückt	-11.6101
▁hübsche	-11.6101
▁april	-11.6104
▁40.000	-11.6105
▁spannende	-11.6107
▁umsetzung	-11.6109
▁universen	-11.6109
▁philosophische	-11.611
▁unschuldig	-11.611
▁kriteri	-11.6113
▁engagiert	-11.6117
▁membran	-11.6119
pr	-11.6122
▁behauptet	-11.6124
führt	-11.6127
▁reiz	-11.6128
▁jagd	-11.6128
▁beliebig	-11.6128
▁stundenlang	-11.6132
▁auftaucht	-11.6134
▁räder	-11.6135
▁lizenz	-11.6141
▁tank	-11.6143
▁verfügt	-11.6145
▁angriffe	-11.615
celsi	-11.6151
▁ökonomie	-11.6152
▁bestimmtes	-11.6154
▁haft	-11.6155
▁minister	-11.6157
▁würdig	-11.616
▁bach	-11.6162
▁spender	-11.6166
▁nachkommen	-11.6169
▁einnahmen	-11.6169
lf	-11.617
schlussfolgerung	-11.6171
▁zentr	-11.6174
▁breiten	-11.6176
▁beinhalte	-11.618
▁ausgehend	-11.6181
▁skulpturen	-11.6182
pl	-11.6183
▁erholen	-11.6185
osphäre	-11.6186
▁caf	-11.6188
▁erschienen	-11.6193
▁46	-11.6196
otto	-11.6198
shop	-11.6199
geteilt	-11.6202
▁schilder	-11.6202
▁blockiert	-11.6203
▁erkläre	-11.6206
typen	-11.6212
▁furchtbare	-11.6213
▁kondome	-11.6216
wirkung	-11.6221
▁erlebnisse	-11.6221
▁kürze	-11.6222
länder	-11.6224
▁erleichter	-11.6226
▁installiert	-11.6235
▁sonder	-11.6238
leiter	-11.6239
▁string	-11.624
ströme	-11.6242
geschnitten	-11.6244
helfen	-11.6248
schild	-11.6249
▁union	-11.6254
block	-11.6256
▁voranzu	-11.6256
▁untere	-11.6259
▁antwortet	-11.6271
▁pol	-11.6277
länge	-11.6278
▁fokussiert	-11.6279
▁kompromiss	-11.628
▁verluste	-11.6283
▁macher	-11.6284
bert	-11.6297
smodell	-11.63
ou	-11.6301
▁gegenwärtig	-11.6301
▁han	-11.6302
▁wegzu	-11.6302
sprozesse	-11.6306
felder	-11.6312
▁apparat	-11.6317
sministerium	-11.6328
▁streng	-11.6334
▁hüfte	-11.6338
gesetz	-11.6338
▁stachel	-11.6345
▁lege	-11.6346
ord	-11.6351
▁geduld	-11.6352
▁evere	-11.6353
▁zusammenge	-11.6354
▁infrarot	-11.636
▁enttäuscht	-11.636
▁kopenhagen	-11.636
▁ungeheure	-11.636
▁geleistet	-11.636
▁annähernd	-11.636
▁humanitäre	-11.636
▁gespannt	-11.6361
▁gattung	-11.6361
▁koennen	-11.6361
▁hürde	-11.6361
▁story	-11.6361
▁antikörper	-11.6361
▁mobilität	-11.6361
▁waschmaschine	-11.6363
▁kilometern	-11.6365
▁1995	-11.6365
▁kindergarten	-11.6366
▁empfindung	-11.6368
▁karo	-11.6369
lampe	-11.6369
▁benenn	-11.637
▁paradigma	-11.6371
▁bearbeitet	-11.6371
garten	-11.6372
▁prognose	-11.6375
▁ausüben	-11.6376
tion	-11.6377
▁rasen	-11.6378
▁rückgang	-11.6379
▁längere	-11.6381
▁drucker	-11.6382
▁beute	-11.6382
▁gemalt	-11.6385
ilität	-11.6386
sitzen	-11.6387
▁institutionelle	-11.6387
maßnahmen	-11.6389
▁effektive	-11.639
▁vertikal	-11.639
▁aggressiv	-11.6393
▁free	-11.6393
▁zustande	-11.6394
▁neurologische	-11.6394
swachstum	-11.6395
▁nötige	-11.6396
▁kult	-11.6396
blasen	-11.6398
video	-11.6398
▁pf	-11.6398
▁vertreter	-11.6398
▁termin	-11.6399
▁zero	-11.6399
▁bestimmung	-11.64
▁essenz	-11.6407
▁künstlerin	-11.6407
▁weihnacht	-11.641
▁patientin	-11.641
▁zusammenspiel	-11.6411
▁jeweilige	-11.6412
▁landkarte	-11.6412
▁aha	-11.6413
entlassen	-11.6415
springen	-11.6419
dex	-11.6419
schritt	-11.642
▁projekts	-11.6422
▁freut	-11.6424
ade	-11.6425
▁leuchtet	-11.6425
▁soldat	-11.6425
▁montag	-11.6425
▁pik	-11.6426
▁steuerung	-11.6426
▁tugend	-11.6428
▁pfad	-11.643
post	-11.6432
▁kath	-11.6433
weiß	-11.6434
▁spe	-11.6434
▁anziehen	-11.6435
▁aufwachsen	-11.6438
landet	-11.6438
▁delfin	-11.6439
skosten	-11.6448
feuer	-11.6453
▁zoom	-11.6457
▁sitzung	-11.646
▁anlagen	-11.6461
▁konstant	-11.6463
ania	-11.6467
opfer	-11.6469
papier	-11.647
▁gay	-11.6474
▁tabu	-11.6475
▁schaltkreise	-11.6476
mission	-11.6489
▁konservativ	-11.6496
▁begegnet	-11.65
▁überlebende	-11.6502
▁manipuliert	-11.651
ös	-11.6511
▁flüssige	-11.6517
tod	-11.652
▁wachte	-11.6522
abschluss	-11.6526
mädchen	-11.6526
▁strasse	-11.6528
oren	-11.6537
▁klinisch	-11.6538
▁produkten	-11.6543
verständnis	-11.6546
▁angenehm	-11.6547
▁kunde	-11.6548
▁ethisch	-11.6549
lzt	-11.655
locken	-11.6551
grenzen	-11.6553
▁warme	-11.6557
▁bevorzugt	-11.6558
▁vergangene	-11.6558
▁zusammensetz	-11.656
▁schmi	-11.6562
tri	-11.6562
lösen	-11.6563
▁liberale	-11.6565
millionen	-11.6572
▁verpasst	-11.6572
▁universitäts	-11.6573
▁konventionelle	-11.658
▁philosophen	-11.6582
▁gal	-11.6582
▁elementar	-11.659
bereiten	-11.6594
klapp	-11.6595
ate	-11.6601
▁dreh	-11.6605
einheiten	-11.6606
quellen	-11.6607
▁siebte	-11.6609
tor	-11.661
▁bring	-11.661
▁bedient	-11.6611
leiden	-11.6612
▁30-	-11.6613
▁zweig	-11.6614
▁sun	-11.6622
▁thunfisch	-11.6631
gestimmt	-11.6633
▁par	-11.6635
▁honig	-11.6636
▁kuba	-11.6637
▁dreieck	-11.6637
▁moskito	-11.6638
gräb	-11.6638
▁allmählich	-11.6638
▁asthma	-11.6638
▁brasilianische	-11.6638
▁buddha	-11.6638
▁favorit	-11.6638
▁frustration	-11.6638
▁gänse	-11.6638
▁gänzlich	-11.6638
▁kyros	-11.6638
▁libanon	-11.6638
▁ähneln	-11.6638
▁bewaffnet	-11.6638
▁informieren	-11.6638
▁monterey	-11.6638
search	-11.6638
▁luther	-11.6638
▁gefilmt	-11.6638
▁verhandeln	-11.6638
qaida	-11.6638
▁sehvermögen	-11.6638
▁pubert	-11.6638
▁trank	-11.6638
▁nächte	-11.6638
▁larry	-11.6638
▁irland	-11.6639
▁meeresboden	-11.6639
▁realisieren	-11.6639
▁jetzige	-11.6639
▁fluoreszierende	-11.664
▁dominiert	-11.664
▁instinktiv	-11.6641
▁tageslicht	-11.6641
▁funktionsweise	-11.6642
▁kartoffel	-11.6643
auto	-11.6646
dach	-11.6646
▁asiatische	-11.6646
▁4.000	-11.6647
▁anpassungsfähig	-11.6648
bruchteil	-11.6648
▁kollision	-11.665
▁unterdrücken	-11.6652
▁lautsprecher	-11.6653
▁vorliebe	-11.6655
blase	-11.6655
▁freier	-11.6655
▁übernimm	-11.6661
▁teilzunehmen	-11.6664
▁schweiß	-11.6665
▁ampel	-11.6665
▁pharma	-11.6667
▁server	-11.6671
▁hy	-11.6671
▁schatz	-11.6672
ini	-11.6674
▁zahlt	-11.6679
▁förderung	-11.6679
▁binär	-11.6679
▁erwartete	-11.6686
▁98	-11.6691
▁spin	-11.6693
▁kriminalität	-11.6695
tiere	-11.6695
▁regnet	-11.6696
geschlagen	-11.6697
▁kap	-11.6699
▁fertigkeit	-11.6699
▁vorurteile	-11.6703
press	-11.6703
▁endes	-11.6707
▁geschossen	-11.6714
▁kanäle	-11.6718
▁überblick	-11.672
▁nagel	-11.6725
▁12.	-11.6726
unterbrochen	-11.673
logen	-11.674
▁elefant	-11.6741
▁talente	-11.6742
▁baue	-11.6745
▁pet	-11.6746
▁kid	-11.6748
▁ansätze	-11.6749
▁loswerde	-11.6751
▁lieb	-11.6755
▁fünfte	-11.6755
▁banker	-11.677
partner	-11.6773
▁formuliert	-11.6774
liebe	-11.6783
▁ordentlich	-11.6785
hauen	-11.6786
▁38	-11.6797
bevölkerung	-11.6798
▁drohne	-11.6799
▁russische	-11.68
ham	-11.6804
holz	-11.6805
widmet	-11.6806
▁diplomati	-11.6807
kü	-11.6807
▁nachher	-11.6807
scan	-11.6809
oh	-11.681
studium	-11.6811
epidemie	-11.6811
objekt	-11.6812
▁wählte	-11.6812
aktion	-11.6813
▁abläuf	-11.6822
▁kehr	-11.6823
flügel	-11.6823
▁schnellsten	-11.6824
scher	-11.6828
tanz	-11.6829
stoßen	-11.683
▁besorg	-11.6831
▁vorgehen	-11.6839
▁zeitschriften	-11.684
zugeh	-11.6849
▁folien	-11.6852
baren	-11.686
▁mem	-11.6861
▁effiziente	-11.6863
thema	-11.6865
▁kal	-11.6868
▁verwaltung	-11.687
▁magen	-11.6872
▁auftauchte	-11.6876
▁strategische	-11.6878
▁zufällige	-11.6878
▁abspiel	-11.688
▁füge	-11.688
konzern	-11.6881
▁impfstoffe	-11.6881
tta	-11.6884
▁gebilde	-11.6886
▁ernste	-11.6888
▁zusammenkomm	-11.6889
▁wandert	-11.6896
▁welch	-11.6898
decken	-11.6905
bu	-11.6905
▁roll	-11.6906
▁längst	-11.691
▁glob	-11.6912
▁carl	-11.6916
rinde	-11.6921
▁vögeln	-11.6921
▁feuerwehr	-11.6923
▁apollo	-11.6924
▁berkeley	-11.6924
▁chemiker	-11.6924
▁jerusalem	-11.6924
▁mammographie	-11.6924
▁phoenix	-11.6924
▁unzählige	-11.6924
▁bestechung	-11.6924
▁mount	-11.6924
▁schleimpilz	-11.6924
▁joshua	-11.6924
▁schlamm	-11.6924
▁begründet	-11.6924
▁tesla	-11.6924
▁todesfälle	-11.6924
▁hefe	-11.6924
▁südpol	-11.6924
▁kennedy	-11.6925
▁damalige	-11.6925
▁jährliche	-11.6925
dung	-11.6925
▁solide	-11.6925
▁bedecken	-11.6926
gesetze	-11.6926
▁luftfahrt	-11.6926
▁lewi	-11.6927
▁unternommen	-11.6928
▁1994	-11.6929
▁helikopter	-11.6929
▁vernetzung	-11.693
▁büros	-11.6931
▁weinte	-11.6931
▁zoll	-11.6932
▁canyon	-11.6932
▁signifikant	-11.6933
isieren	-11.6934
▁dürfte	-11.6935
▁lehm	-11.6935
▁dreieinhalb	-11.6937
▁legal	-11.6937
▁abfolge	-11.6938
▁parameter	-11.6939
▁teufels	-11.694
▁vorgeschlagen	-11.6941
▁tele	-11.6941
▁vorbereiten	-11.6942
▁lehrplan	-11.6943
▁scherz	-11.6943
beziehen	-11.6945
▁überraschende	-11.6947
▁verwirrend	-11.6948
day	-11.6951
▁beratung	-11.6953
stechnologie	-11.6955
anne	-11.6955
▁stühle	-11.6955
▁marathon	-11.6955
▁etikett	-11.6956
▁beschränkung	-11.6957
▁zack	-11.6958
▁power	-11.6959
▁abbildung	-11.6959
▁hä	-11.6965
▁inne	-11.6966
▁leichte	-11.6966
▁anziehung	-11.6967
▁patente	-11.6967
▁genauigkeit	-11.6968
▁witzig	-11.6974
schub	-11.6976
▁orientierung	-11.6978
▁boom	-11.698
▁generiert	-11.6986
▁wurm	-11.6987
▁miete	-11.6989
äch	-11.6991
▁bloße	-11.6991
die	-11.6996
▁abbild	-11.6997
gebrochen	-11.7002
▁entschloss	-11.7004
▁säugetier	-11.7005
▁mücken	-11.7005
▁reporter	-11.7007
▁4.	-11.7009
▁wahlmöglichkeit	-11.7016
▁behindert	-11.7024
▁club	-11.7029
perspektive	-11.703
▁geschenkt	-11.703
▁antreiben	-11.7035
▁einsam	-11.7036
▁kontroverse	-11.7042
▁verlangsamt	-11.7042
▁hinschau	-11.7051
▁geistig	-11.7054
ssysteme	-11.7054
▁leistungs	-11.7058
abwe	-11.706
▁pille	-11.706
▁weiblich	-11.7061
▁spritze	-11.7078
sek	-11.708
sproblem	-11.7085
▁bestehende	-11.7093
ics	-11.7098
geworfen	-11.71
▁bal	-11.71
ov	-11.7102
ernährung	-11.7102
winkel	-11.7105
infektion	-11.7105
population	-11.7105
klinik	-11.7105
angriff	-11.7107
▁palm	-11.7107
leh	-11.7108
▁chr	-11.7109
einsatz	-11.7111
▁geste	-11.7115
▁telefone	-11.7118
▁verursachte	-11.7121
▁optimier	-11.7122
experten	-11.7127
geist	-11.7128
suche	-11.7131
sey	-11.7131
▁versammelt	-11.7132
▁geniale	-11.7135
▁lehrte	-11.714
text	-11.7142
▁black	-11.7143
▁mott	-11.7144
gewinnung	-11.7147
▁seiden	-11.7147
▁akteure	-11.7154
▁schmutzige	-11.716
modelle	-11.7162
quote	-11.7164
▁winde	-11.7164
▁evolutionär	-11.7167
medien	-11.7168
▁tumore	-11.7169
▁unmittelbare	-11.7171
gefahren	-11.7173
▁motorrad	-11.7177
▁ts	-11.7178
▁berichte	-11.7185
▁taxi	-11.7186
▁anatomi	-11.7187
▁nähert	-11.7187
▁versuchs	-11.7189
bericht	-11.7191
▁hm	-11.7192
▁myzel	-11.7197
▁hindernis	-11.7198
▁stimmte	-11.7198
viel	-11.7198
▁verkaufs	-11.7199
grenze	-11.72
ase	-11.72
boote	-11.7201
▁ausbild	-11.7201
▁pur	-11.7202
▁tierische	-11.7203
slos	-11.7208
▁analog	-11.7212
▁friedlich	-11.7214
▁synchron	-11.7216
▁draht	-11.7217
▁astronaut	-11.7218
▁höflich	-11.7218
▁spaghetti	-11.7218
▁akademiker	-11.7218
▁bewerkstelligen	-11.7218
▁eingebettet	-11.7218
▁grönland	-11.7218
▁korrigieren	-11.7218
▁performance	-11.7218
▁symphonie	-11.7218
▁tropische	-11.7218
▁wortwörtlich	-11.7218
▁wright	-11.7218
▁rabbi	-11.7218
▁klischee	-11.7218
▁stewart	-11.7218
▁drachen	-11.7218
▁erläuter	-11.7218
▁verbergen	-11.7218
wefelwasserstoff	-11.7218
▁berichtete	-11.7218
▁kosov	-11.7218
▁nahrungskette	-11.7218
▁skeptisch	-11.7218
▁älterwerden	-11.7218
▁lippen	-11.7218
▁social	-11.7218
▁nike	-11.7219
▁einheimische	-11.7219
▁mörder	-11.7219
▁hinzugefügt	-11.7219
gepackt	-11.7219
▁notaufnahme	-11.7219
▁sierra	-11.7219
▁moschee	-11.7219
▁verknüpfen	-11.722
▁betrunken	-11.722
▁fortpflanzung	-11.7221
oll	-11.7222
▁schockierend	-11.7223
▁ablauf	-11.7223
▁garantiere	-11.7224
▁mord	-11.7225
▁schüchtern	-11.7225
▁dschungel	-11.7227
▁reduktion	-11.7227
▁vereinbarung	-11.7227
▁hormone	-11.7227
krankheit	-11.7228
▁verband	-11.7228
▁brad	-11.7229
▁afghanische	-11.7229
▁auslöser	-11.723
gestützt	-11.7233
▁fortzu	-11.7234
▁letzt	-11.7235
▁you	-11.7235
▁minimal	-11.7236
▁besiegen	-11.7236
▁schrittweise	-11.7236
blick	-11.7237
▁parkplatz	-11.7239
▁einverstande	-11.7242
▁verträge	-11.7244
▁zone	-11.7247
▁delhi	-11.7247
▁überwachung	-11.725
▁festival	-11.7254
▁entnehmen	-11.7256
▁assoziiert	-11.7261
▁arbeitslos	-11.7265
▁gründer	-11.7266
▁tippen	-11.7268
▁tauchte	-11.7269
▁sammler	-11.727
▁überwachungs	-11.7274
och	-11.7275
▁ritual	-11.7275
▁teig	-11.7275
▁würmer	-11.7278
tauch	-11.7278
▁frontal	-11.7278
▁experimentelle	-11.7281
▁betrachtete	-11.7281
rzeit	-11.7282
▁registriert	-11.7292
▁riskier	-11.7296
▁serviert	-11.7299
▁ris	-11.7299
▁prozessor	-11.73
▁vorstand	-11.7301
▁ram	-11.7302
▁einbeziehen	-11.7302
▁schlauer	-11.7305
ose	-11.7307
tür	-11.7313
ef	-11.7314
▁süße	-11.7315
▁beständig	-11.7315
▁grossartige	-11.7316
▁andauernd	-11.732
▁plant	-11.7321
▁ausgestellt	-11.7321
pro	-11.7323
▁brennen	-11.7324
20	-11.7325
▁kasten	-11.7327
▁erfolgreichste	-11.7329
▁führe	-11.7329
▁drängen	-11.733
strahlung	-11.733
▁tierart	-11.7335
iff	-11.7338
gebildet	-11.7342
va	-11.7342
▁nerv	-11.7344
▁aufgegeben	-11.7344
▁schaf	-11.7348
▁renn	-11.7349
▁händler	-11.7354
▁installier	-11.7356
▁20-	-11.7356
▁zeitschrift	-11.7361
▁konkurrieren	-11.7364
lig	-11.7365
▁nervenzelle	-11.7366
verhältnis	-11.7367
▁varianten	-11.7368
of	-11.7371
stadium	-11.7373
höhe	-11.7384
▁tragisch	-11.7384
▁widersteh	-11.7393
▁sonntag	-11.7394
▁verlangsam	-11.7397
▁hacken	-11.7401
▁aufwand	-11.7403
ative	-11.7406
service	-11.7407
stamm	-11.7408
kammer	-11.7408
▁kristall	-11.7408
neu	-11.7414
gespielt	-11.7415
▁riefen	-11.7421
wald	-11.7424
▁grossartig	-11.7426
▁misch	-11.7426
▁beruhigen	-11.7428
kra	-11.7429
▁anlegen	-11.7431
eur	-11.7432
erzählen	-11.7437
atmen	-11.7439
wissen	-11.7439
gehoben	-11.7443
▁kl	-11.7445
ehm	-11.7447
▁aufweis	-11.7448
▁entsprechen	-11.7449
rück	-11.7449
▁entsprechende	-11.7453
▁dokumentiert	-11.7457
▁überraschen	-11.746
lappen	-11.7461
▁irgendw	-11.7464
▁fla	-11.7464
wind	-11.7465
talk	-11.7468
▁fotografen	-11.747
rotten	-11.7475
rl	-11.7476
▁platte	-11.7476
spuren	-11.7477
▁bühnen	-11.7478
▁pfeil	-11.7478
ize	-11.7482
▁vorgänge	-11.7483
werten	-11.7483
▁verwalt	-11.7485
▁überlebens	-11.7488
pflanzt	-11.7489
▁mustern	-11.7491
▁fehlte	-11.7492
sprung	-11.7493
▁gewiss	-11.7496
zusammengestellt	-11.7501
▁5000	-11.7505
▁news	-11.7506
ivilgesellschaft	-11.7506
▁verabschied	-11.7507
▁gewalttätig	-11.7507
▁law	-11.7509
schichten	-11.7515
linien	-11.7517
▁öko	-11.7517
lyn	-11.7519
▁agrar	-11.752
▁alaska	-11.7521
▁aluminium	-11.7521
▁empfand	-11.7521
▁jupiter	-11.7521
▁psychiater	-11.7521
▁resonanz	-11.7521
▁ägypter	-11.7521
▁ruhm	-11.7521
▁ärztin	-11.7521
▁wußte	-11.7521
▁harmlos	-11.7521
▁wuerde	-11.7521
▁walmart	-11.7521
▁knall	-11.7521
▁wechselwirkung	-11.7521
▁remix	-11.7521
▁schlafzimmer	-11.7521
ros	-11.7521
▁philip	-11.7521
▁begangen	-11.7522
▁helium	-11.7522
▁beherrscht	-11.7522
▁enthielt	-11.7522
▁rechenschaft	-11.7522
▁klient	-11.7522
▁bangladesch	-11.7522
schnitt	-11.7523
▁verschafft	-11.7523
▁herzschlag	-11.7523
▁atombombe	-11.7523
▁abholzung	-11.7524
▁vorhersehbar	-11.7524
▁ausrede	-11.7524
▁betrat	-11.7524
▁ehefrau	-11.7524
▁hinterließ	-11.7524
▁bergsteiger	-11.7524
▁rezeptor	-11.7525
▁maßstäbe	-11.7525
▁tante	-11.7526
▁verzerrung	-11.7526
▁kritik	-11.7527
▁spass	-11.7527
▁teilhaben	-11.7527
▁flexibel	-11.7527
▁dj	-11.7528
▁dreißig	-11.753
isation	-11.7531
▁packt	-11.7531
schuss	-11.7532
▁ahnen	-11.7532
wachstum	-11.7533
▁nachahmen	-11.7533
▁angefertigt	-11.7534
utan	-11.7534
▁schlachtfeld	-11.7537
▁neuartige	-11.7537
▁gi	-11.7538
▁gesten	-11.7539
▁sexy	-11.7539
▁verärgert	-11.7544
▁dünger	-11.7544
▁öffnung	-11.7544
lock	-11.7545
▁album	-11.7545
▁10.	-11.7547
▁kompetenz	-11.7548
▁stu	-11.7549
▁verricht	-11.755
▁assistent	-11.7551
▁zylinder	-11.7552
▁ingenieurs	-11.7557
▁beobachter	-11.7559
familie	-11.756
▁beteiligung	-11.756
▁mas	-11.7561
flasche	-11.7561
journalismus	-11.7564
▁schwimmt	-11.7567
▁phänomene	-11.7568
▁sänger	-11.7569
binden	-11.7569
▁impfung	-11.7573
▁absatz	-11.7576
▁pen	-11.7577
sache	-11.7579
strahl	-11.7586
▁landung	-11.7589
▁nass	-11.7589
▁ausbruch	-11.7591
▁beiseite	-11.7591
▁weiche	-11.7593
▁puppen	-11.7593
▁molekular	-11.7596
▁orangen	-11.7596
▁offizielle	-11.7599
▁jane	-11.76
▁ken	-11.7603
▁mikroskopisch	-11.7603
▁beauftragt	-11.7603
▁bezogen	-11.7604
dämm	-11.7604
▁vermehren	-11.7607
▁primär	-11.7607
▁farbige	-11.7611
▁leg	-11.7614
▁intensive	-11.7615
▁technologisch	-11.7616
ausrottung	-11.7616
merk	-11.7621
▁populär	-11.7621
old	-11.7622
▁sil	-11.7622
▁erwarte	-11.7626
las	-11.7626
klasse	-11.7629
▁herunterlade	-11.7629
▁spezial	-11.763
▁haushalte	-11.7632
are	-11.7633
don	-11.7633
▁absurd	-11.7638
ffekt	-11.7638
▁kürzeste	-11.764
▁perspektiven	-11.764
▁ginge	-11.764
▁lacht	-11.7643
▁kammer	-11.7644
▁staatlich	-11.7656
▁ausschau	-11.7661
▁hervorragende	-11.7661
▁essens	-11.767
sicherheit	-11.767
fertig	-11.767
▁offener	-11.7677
▁ross	-11.7677
▁greifbar	-11.7678
ola	-11.7678
kar	-11.768
▁klo	-11.768
ington	-11.768
▁tausch	-11.7691
▁ziehe	-11.7691
sse	-11.7692
übertragung	-11.7696
▁krisen	-11.7698
▁israelische	-11.7698
▁tatsachen	-11.7699
▁variante	-11.77
▁linear	-11.77
ähnlich	-11.7709
fuß	-11.7709
▁ernährt	-11.7709
kuchen	-11.7715
titel	-11.7716
▁kleben	-11.7719
club	-11.772
behandlung	-11.772
▁begriffe	-11.7721
feier	-11.7721
profil	-11.7721
universität	-11.7721
bäume	-11.7721
imitieren	-11.7721
bürger	-11.7722
mechanismus	-11.7722
messer	-11.7722
rahmen	-11.7724
▁47	-11.7734
ika	-11.7736
▁wirbel	-11.7742
▁wohnt	-11.7742
▁ele	-11.7744
▁450	-11.7744
▁boote	-11.7744
▁bestanden	-11.7744
prozentige	-11.7745
▁erfolgreicher	-11.7748
assen	-11.7748
antrieb	-11.7749
witz	-11.7756
beugen	-11.7758
▁polen	-11.7762
▁zuge	-11.7769
waffen	-11.777
▁moderner	-11.7785
▁inspirierte	-11.7788
▁journal	-11.7789
▁vorstellt	-11.7794
chten	-11.7795
▁rhyth	-11.7799
abend	-11.78
▁aufwach	-11.7804
projekte	-11.7805
▁freisetz	-11.7815
lein	-11.7822
▁athlet	-11.7823
rey	-11.7824
▁dreck	-11.7825
▁tibet	-11.7832
▁we	-11.7832
▁griechen	-11.7833
▁akzent	-11.7834
▁ausgerottet	-11.7834
▁doodle	-11.7834
▁hartnäckig	-11.7834
▁himalaya	-11.7834
▁indirekt	-11.7834
▁intensität	-11.7834
▁jordan	-11.7834
▁schwingung	-11.7834
▁sylvia	-11.7834
▁überwältigt	-11.7834
▁nordost	-11.7834
▁geriet	-11.7834
▁skelettmuskel	-11.7834
▁highschool	-11.7834
▁franzose	-11.7834
▁venus	-11.7834
▁craig	-11.7834
bati	-11.7834
▁schlief	-11.7834
▁hochgeladen	-11.7834
▁input	-11.7834
▁unterscheidung	-11.7834
▁1,3	-11.7834
▁zehntel	-11.7835
▁nutzlos	-11.7835
▁blogger	-11.7835
▁ernsthafte	-11.7835
stündige	-11.7835
▁tragbare	-11.7836
▁zusammenfassung	-11.7836
▁busch	-11.7837
▁wendepunkt	-11.7837
▁koffer	-11.7838
▁grundsätze	-11.7839
▁gouverneur	-11.7839
▁folglich	-11.784
▁abgestimmt	-11.784
▁gelder	-11.7841
nobelpreisträger	-11.7841
▁ger	-11.7841
▁integr	-11.7841
▁realistisch	-11.7844
▁steh	-11.7845
▁simuliert	-11.7846
▁sensorische	-11.7848
▁messbar	-11.7849
▁bit	-11.7849
▁96	-11.785
▁kosmo	-11.7851
▁kleid	-11.7851
▁erschreckend	-11.7851
▁fixiert	-11.7851
▁schmelzen	-11.7855
▁vorhaben	-11.7856
▁nigerianische	-11.7857
▁nsa	-11.7858
cha	-11.786
▁herauskam	-11.7862
▁fürsorge	-11.7866
▁uniform	-11.7866
▁beruflich	-11.7867
▁helm	-11.7871
▁leichen	-11.7872
▁besonderheit	-11.7875
erfassung	-11.7879
▁umwandel	-11.7884
▁verkörpert	-11.7884
▁mega	-11.7884
▁haken	-11.7885
▁160	-11.7886
▁steigerung	-11.7886
▁trainer	-11.7886
▁food	-11.7887
▁brilliant	-11.7888
▁antike	-11.7889
▁bereitschaft	-11.7889
▁verehr	-11.7889
▁pin	-11.7891
▁günstiger	-11.7891
▁wiederherstell	-11.7892
▁hierzu	-11.7896
▁robust	-11.7897
▁set	-11.7897
▁wunderbarer	-11.79
▁besetzt	-11.7902
▁steil	-11.7902
▁deuten	-11.7902
oi	-11.7904
stheorie	-11.7905
out	-11.7905
släufig	-11.7906
▁weitergehen	-11.7907
▁testet	-11.7908
zuschauen	-11.7908
▁angreifen	-11.7909
▁putz	-11.7911
car	-11.7916
▁mechanism	-11.7918
ui	-11.7918
▁bart	-11.792
▁jami	-11.7923
▁angerufen	-11.7929
lief	-11.793
▁krieger	-11.793
field	-11.7931
▁kontinente	-11.7934
▁baumwolle	-11.7934
baum	-11.7935
▁stab	-11.7937
▁entwickler	-11.7938
▁emotion	-11.794
▁ziegen	-11.7942
▁kontrollierte	-11.7943
▁schwächen	-11.7947
▁schulsystem	-11.7948
▁jahrtausende	-11.7951
▁beschleunigung	-11.7958
▁seltene	-11.796
▁iranische	-11.7967
▁peru	-11.7969
▁pfeifen	-11.7973
ez	-11.7973
stiftung	-11.7974
sraum	-11.7975
▁spektakulär	-11.7977
▁leitete	-11.7978
▁mächtiger	-11.7984
▁ke	-11.7985
▁enger	-11.7986
▁herausstellte	-11.799
▁verspreche	-11.7992
▁turm	-11.7992
▁beseitigt	-11.7994
tauchen	-11.7997
▁lade	-11.7998
▁zeile	-11.7999
▁helle	-11.8
ise	-11.8
▁aufnimm	-11.8
▁setze	-11.8003
sequenzierung	-11.8004
ärz	-11.8006
▁za	-11.8007
▁schalt	-11.801
▁at	-11.8014
▁leitung	-11.8025
einheit	-11.8026
▁stabile	-11.8027
ag	-11.8032
smuster	-11.8034
▁zugegeben	-11.8036
▁blutgefäße	-11.8039
▁fahre	-11.804
▁source	-11.8041
▁mahlzeiten	-11.8041
artikel	-11.8041
magazin	-11.8043
zucht	-11.8043
wettbewerb	-11.8043
komplex	-11.8044
basis	-11.8044
▁jay	-11.8044
gesagt	-11.8045
▁webseiten	-11.8045
▁uv	-11.8046
ausbildung	-11.8046
▁15-	-11.8047
▁herde	-11.8048
▁kans	-11.805
▁starr	-11.8053
▁respektiert	-11.8055
▁modellier	-11.8056
gebiete	-11.8056
▁studentin	-11.806
schläge	-11.8061
pest	-11.8062
speicher	-11.8063
▁geringere	-11.8064
orientiert	-11.8073
packen	-11.8073
▁schaltkreis	-11.8073
agt	-11.8074
herum	-11.8074
ua	-11.8077
kauf	-11.8079
vermögen	-11.8082
graph	-11.8082
ßen	-11.8082
▁image	-11.8083
▁braune	-11.8083
bereiche	-11.809
rwärmung	-11.8093
▁primitiv	-11.8094
freund	-11.8096
▁verg	-11.8096
▁gescheitert	-11.81
▁liebend	-11.8101
▁monats	-11.8101
▁ausgangs	-11.8105
▁beach	-11.8112
▁pflegen	-11.8113
aktivität	-11.8117
gel	-11.8117
▁kriegt	-11.8119
back	-11.812
▁vertikale	-11.812
▁flexible	-11.8121
war	-11.8123
ji	-11.8124
▁dosi	-11.8128
▁flecken	-11.8131
▁fer	-11.8138
▁lichts	-11.8149
▁insulin	-11.8155
zeigen	-11.8156
▁action	-11.8156
bombenzielgerät	-11.8156
▁comedy	-11.8156
▁erwecken	-11.8156
▁football	-11.8156
▁frustrierend	-11.8156
▁health	-11.8156
▁horror	-11.8156
▁hubschrauber	-11.8156
▁jefferson	-11.8156
▁kommuniziert	-11.8156
▁köder	-11.8156
▁migration	-11.8156
▁portugal	-11.8156
▁renaissance	-11.8156
▁reputation	-11.8156
▁unvermeidbar	-11.8156
▁wiederholung	-11.8156
▁zeitraffer	-11.8156
▁essentiell	-11.8156
▁vermisst	-11.8156
▁häusliche	-11.8156
▁spazieren	-11.8156
▁verfasst	-11.8156
▁diverse	-11.8156
▁hüte	-11.8156
▁nepal	-11.8156
▁ostküste	-11.8156
▁trost	-11.8156
▁ausgangspunkt	-11.8158
▁einkaufen	-11.8158
▁east	-11.8158
▁milchstraße	-11.8158
▁niederlande	-11.8158
▁geometrische	-11.8158
▁smart	-11.8158
▁180	-11.8158
▁selbstvertrauen	-11.8159
▁geldgeber	-11.8159
▁festgelegt	-11.816
▁ausgedacht	-11.816
▁fünftel	-11.8161
▁86	-11.8162
▁entlegen	-11.8162
▁abgeschnitten	-11.8163
▁mental	-11.8164
▁eigenartig	-11.8164
▁dirigent	-11.8166
▁zweifellos	-11.8166
▁tedx	-11.8166
▁grundstück	-11.8169
▁bemerkten	-11.8169
▁erachten	-11.817
▁60.000	-11.817
▁überlegte	-11.8171
▁alarm	-11.8172
,5	-11.8173
▁fakultät	-11.8173
▁spreng	-11.8173
▁untergrund	-11.8174
▁umstritten	-11.8176
▁regelrecht	-11.8176
▁hammer	-11.8177
▁integration	-11.8178
▁indianer	-11.8182
sport	-11.8185
▁gelegen	-11.8187
▁taucher	-11.819
▁werkstatt	-11.8193
fahrer	-11.8194
▁vermisch	-11.8194
▁elektro	-11.8195
▁hervorheb	-11.8195
▁bekomm	-11.8196
▁einsetzt	-11.8198
▁140	-11.8199
▁anblick	-11.8203
▁mitgefühls	-11.8203
▁lebenszeit	-11.8203
mrd	-11.8205
▁versammlung	-11.8205
▁vorort	-11.8206
streu	-11.8207
▁weck	-11.8211
▁friss	-11.8213
ino	-11.8214
▁intakt	-11.8214
▁heu	-11.8215
sform	-11.8217
süber	-11.8217
▁ausgeführt	-11.8218
▁16.	-11.8222
▁skizzen	-11.8232
▁schirm	-11.8233
▁problematisch	-11.8235
▁qu	-11.8237
▁gefangenen	-11.8237
▁neuron	-11.8241
ice	-11.8242
▁energiequelle	-11.8243
▁potentiell	-11.8245
▁white	-11.8245
▁albern	-11.8246
▁genossen	-11.8246
ata	-11.8248
jc	-11.8254
▁lautete	-11.826
▁kostete	-11.826
▁anerkennen	-11.8263
scheidungsträger	-11.8264
▁heiz	-11.8265
▁befestig	-11.8269
▁vorbilder	-11.8274
▁interessanteste	-11.8277
▁stadium	-11.828
▁psycho	-11.8282
paar	-11.8287
▁veranlasst	-11.8292
▁geschnitten	-11.8293
▁bestehend	-11.8297
▁up	-11.8303
mmer	-11.8314
▁bauer	-11.8314
▁visueller	-11.8316
▁hinausgehen	-11.8316
▁älterer	-11.8326
▁kurven	-11.8327
▁strahlen	-11.8327
▁mahlzeit	-11.8328
▁träger	-11.8328
geber	-11.833
gger	-11.8336
▁verbiete	-11.8336
▁biene	-11.8337
▁mini	-11.8339
▁15.	-11.8339
übergreifende	-11.8339
leidenschaftlich	-11.8342
▁wechselt	-11.8345
fassen	-11.8347
▁ci	-11.835
▁totale	-11.8353
▁leit	-11.8354
decke	-11.8354
▁abteilung	-11.8354
reden	-11.8354
▁fin	-11.8355
start	-11.8355
▁befasst	-11.8358
bon	-11.8361
wich	-11.8361
▁gewehr	-11.8361
▁mobil	-11.8365
rd	-11.837
einrichtung	-11.837
▁objektive	-11.8371
▁bewege	-11.8372
entzündung	-11.8373
apparat	-11.8374
übung	-11.8375
verkauf	-11.8376
hersteller	-11.8377
plattform	-11.8377
wunsch	-11.8377
▁vo	-11.8378
mauer	-11.8378
verlauf	-11.838
uhr	-11.8381
bekämpfung	-11.8381
bal	-11.8382
▁feine	-11.8383
▁stützen	-11.8383
▁fasst	-11.8383
glied	-11.8388
▁interpretiert	-11.8388
▁befehle	-11.8396
▁cu	-11.84
▁kognitiv	-11.8401
▁glaub	-11.8409
elemente	-11.8409
▁explodieren	-11.8417
▁magnetische	-11.8417
verhältnisse	-11.842
net	-11.843
▁klebe	-11.843
▁paare	-11.8432
▁stop	-11.8432
drucker	-11.8435
▁chips	-11.8437
▁schließe	-11.844
▁positiver	-11.8444
▁beheb	-11.8445
aufnahmen	-11.8446
▁rassis	-11.8447
▁liess	-11.8448
▁spirituell	-11.8449
▁gehörte	-11.8449
anstalt	-11.8452
▁schöpfer	-11.8456
▁begeistern	-11.8459
▁comp	-11.8463
serie	-11.8463
konzept	-11.847
im	-11.8472
mensch	-11.8472
▁angel	-11.8475
▁fingern	-11.8475
▁mad	-11.8476
▁rollt	-11.8478
folgsgeschichte	-11.8478
▁kur	-11.8482
proben	-11.8484
▁spürt	-11.8487
trunken	-11.8487
▁blockier	-11.8487
▁instabil	-11.8488
▁fuss	-11.8489
▁prinz	-11.8489
▁anthropologe	-11.8489
▁bangalore	-11.8489
▁diktator	-11.8489
▁eingesperrt	-11.8489
▁kapitän	-11.8489
▁klüger	-11.8489
▁komponist	-11.8489
▁namibia	-11.8489
▁oberflächlich	-11.8489
▁verzeih	-11.8489
▁überflüssig	-11.8489
▁cyberkriminelle	-11.8489
▁ermordet	-11.8489
▁pixel	-11.8489
▁ursprünge	-11.8489
▁vermutung	-11.8489
▁übt	-11.8489
▁beschweren	-11.8489
▁avatar	-11.8489
▁grammatik	-11.849
▁belastbar	-11.849
▁ethanol	-11.849
▁montana	-11.849
▁selbständig	-11.849
▁thailand	-11.849
▁1930	-11.849
▁nachthimmel	-11.849
▁hummel	-11.849
▁schifffahrt	-11.849
▁palästina	-11.849
barrel	-11.849
▁mittelklasse	-11.849
▁regenwasser	-11.8491
▁river	-11.8491
▁windenergie	-11.8491
▁astronomie	-11.8491
▁chop	-11.8491
▁riskant	-11.8492
▁abschied	-11.8492
▁verlegt	-11.8492
▁lila	-11.8492
zusamm	-11.8492
▁moma	-11.8492
▁einsamkeit	-11.8493
▁akte	-11.8493
▁abkürzung	-11.8493
▁hamburger	-11.8493
▁prä	-11.8494
▁versammel	-11.8495
▁operiert	-11.8495
▁ausbreitung	-11.8495
▁piloten	-11.8496
▁beachtet	-11.8496
▁überwiegend	-11.8497
▁eröffnung	-11.8497
▁gieß	-11.8498
▁knöpfe	-11.8499
▁lähmung	-11.8499
▁reparatur	-11.8499
▁konsumiert	-11.8502
bürste	-11.8502
▁schadstoffe	-11.8502
▁vega	-11.8502
▁ausgesucht	-11.8502
▁einzelteile	-11.8502
13	-11.8503
▁tasse	-11.8505
▁verabschiedet	-11.8505
▁anforderung	-11.8505
▁kündigte	-11.8505
▁konkret	-11.8505
▁ausbreitet	-11.8506
legt	-11.8507
▁lh	-11.8508
▁eisberg	-11.851
▁sechsjährige	-11.8511
▁entwürfe	-11.8511
sstrategie	-11.8512
▁danny	-11.8516
▁libellen	-11.8519
▁gegenseitige	-11.852
▁passende	-11.852
▁dor	-11.852
▁maria	-11.8521
▁zusammenbring	-11.8522
▁lä	-11.8522
▁projektion	-11.8524
▁kiefer	-11.8527
▁tool	-11.8529
▁lebensräume	-11.8533
▁umsatz	-11.8535
▁arktische	-11.8537
▁veteranen	-11.8538
▁auffällig	-11.8538
▁erträge	-11.8538
▁museen	-11.854
▁leib	-11.8541
▁puls	-11.8541
▁sperr	-11.8541
▁toleranz	-11.8542
▁ast	-11.8544
▁aufzeigen	-11.8545
reform	-11.8545
dis	-11.8546
gan	-11.8547
▁erfreut	-11.855
▁einhundert	-11.855
▁mochten	-11.8552
▁8.	-11.8553
blätter	-11.8557
▁best	-11.8564
▁ablaufen	-11.8566
▁prothesen	-11.8568
▁strat	-11.8569
▁erweiterte	-11.8569
▁periode	-11.857
▁sandwich	-11.857
▁6.	-11.857
▁rau	-11.8572
▁reichte	-11.8577
▁ökonomisch	-11.8577
▁vertrauens	-11.8579
▁kocht	-11.8583
▁kerzen	-11.8585
▁reichlich	-11.8586
staaten	-11.8587
zog	-11.8587
macher	-11.8596
▁passte	-11.8598
▁schwerpunkt	-11.8599
▁zivile	-11.8602
▁reichste	-11.8602
gesundheit	-11.8607
any	-11.8607
▁5.	-11.8608
süchtig	-11.8609
▁derartige	-11.861
▁spielzeuge	-11.8615
▁warnung	-11.8615
lag	-11.8617
▁zusammenarbeite	-11.862
▁verwandelte	-11.8622
▁verbot	-11.8624
▁va	-11.8628
sequenz	-11.8628
▁cal	-11.863
eder	-11.8639
▁ansteckend	-11.8639
▁salat	-11.8639
▁vertrieben	-11.8641
▁frühere	-11.8644
isse	-11.8645
▁inner	-11.8651
▁gerissen	-11.8652
▁hei	-11.8655
▁zeilen	-11.8655
dimensionen	-11.8661
▁glatt	-11.8661
säure	-11.8664
able	-11.8675
format	-11.8675
stecken	-11.8678
▁mehrfach	-11.8684
ante	-11.8687
▁sensor	-11.869
▁formulier	-11.869
▁freizu	-11.8691
▁schaffe	-11.8693
filme	-11.8693
▁et	-11.8696
kasten	-11.8701
eltern	-11.8702
▁konstante	-11.8705
▁rückenmark	-11.8706
ögen	-11.871
▁elektron	-11.8712
▁organisch	-11.8712
listen	-11.8714
▁900	-11.8717
bestand	-11.8717
▁abstrakt	-11.8719
gestiegen	-11.8721
bewohner	-11.8721
fleisch	-11.8721
persönlichkeit	-11.8722
restaurant	-11.8722
▁scan	-11.8723
ausdruck	-11.8723
farm	-11.8724
stab	-11.8729
▁universell	-11.8731
geleitet	-11.8731
▁gri	-11.874
▁urban	-11.8749
▁hässliche	-11.8752
eter	-11.8757
▁robuste	-11.8765
▁fünften	-11.8767
chu	-11.8768
sgrad	-11.877
▁betrüger	-11.877
▁pure	-11.8773
xi	-11.8774
gelernt	-11.8775
▁paarung	-11.8776
ingenieur	-11.8782
▁rod	-11.8783
▁yu	-11.8784
▁arktis	-11.8785
▁brut	-11.8786
▁verkünde	-11.8786
zähler	-11.8786
▁sieg	-11.879
▁rekonstruier	-11.8798
rücken	-11.8799
zuschlagen	-11.88
▁amateur	-11.8803
▁griechische	-11.8805
archie	-11.881
py	-11.8813
▁infolge	-11.8816
▁home	-11.8817
störung	-11.882
▁lampe	-11.8823
▁berufe	-11.8824
▁empor	-11.8829
▁gew	-11.883
klatsch	-11.8831
▁disney	-11.8834
▁ultra	-11.8834
▁beschützt	-11.8834
▁ebay	-11.8834
▁neanderthaler	-11.8834
▁philadelphia	-11.8834
▁savanne	-11.8834
▁sputnik	-11.8834
▁unfair	-11.8834
▁unterirdisch	-11.8834
▁zuhört	-11.8834
▁äquator	-11.8834
▁äquivalent	-11.8834
▁übereinstimmt	-11.8834
▁liberia	-11.8834
▁wohlergehen	-11.8834
▁stimuliert	-11.8834
▁vogelgrippe	-11.8834
▁gefördert	-11.8834
▁nordkorea	-11.8834
▁übereinstimmen	-11.8834
view	-11.8834
▁edward	-11.8834
▁huhn	-11.8834
▁kumpel	-11.8834
▁great	-11.8834
▁michigan	-11.8834
▁vorsitzende	-11.8835
▁johnny	-11.8835
▁eindrucksvoll	-11.8835
▁eisenbahn	-11.8835
▁übertrieben	-11.8835
▁handgelenk	-11.8836
▁indigene	-11.8836
▁ceo	-11.8836
▁entspannt	-11.8838
▁1991	-11.8838
▁gelten	-11.8838
▁geschlafen	-11.8839
▁katholische	-11.8839
sky	-11.884
▁fledermaus	-11.884
▁staunen	-11.8841
▁hybrid	-11.8841
▁faden	-11.8842
▁handschrift	-11.8842
▁gast	-11.8842
schmuggel	-11.8843
▁kanadische	-11.8843
▁expansion	-11.8844
▁propaganda	-11.8844
▁manipulation	-11.8844
▁unterbrechen	-11.8845
sharing	-11.8845
materiali	-11.8846
▁verlegen	-11.8848
straße	-11.885
▁fügte	-11.885
▁terra	-11.8853
▁elegant	-11.8854
▁alan	-11.8855
▁bekannter	-11.8856
▁gesendet	-11.8856
▁verein	-11.8857
▁vorschläge	-11.8859
▁improvisieren	-11.886
▁stillstand	-11.8861
▁elegante	-11.8862
100	-11.8863
▁scannen	-11.8866
▁locker	-11.8867
▁sichtbare	-11.8868
▁verblüffende	-11.887
▁erstaunlichste	-11.8871
▁vermehrt	-11.8871
▁eingerichtet	-11.8874
ock	-11.8875
▁erzogen	-11.8878
▁korallenriff	-11.8882
▁jemen	-11.8884
▁vorführung	-11.8886
▁füllt	-11.889
eurowissenschaft	-11.8893
▁unmenge	-11.8895
▁gedeihen	-11.8896
▁stränge	-11.8898
▁primitive	-11.8901
▁anschließen	-11.8901
sani	-11.8901
stunde	-11.8903
▁intellektuell	-11.8903
▁gemäß	-11.8904
▁reiß	-11.8908
▁glocke	-11.8909
▁nobelpreis	-11.8909
▁wäsche	-11.891
ruf	-11.8914
▁heil	-11.8914
▁orang	-11.8915
insel	-11.892
▁tedster	-11.8923
▁busse	-11.8924
▁rettungs	-11.8925
▁kraftwerk	-11.8925
massen	-11.8926
link	-11.8931
▁anleitung	-11.8932
signale	-11.8939
▁sach	-11.8939
▁gedruckt	-11.8942
reisen	-11.8945
ager	-11.8946
▁transformieren	-11.8949
▁bö	-11.8955
▁beschließ	-11.8958
▁lob	-11.8963
▁adresse	-11.8969
▁bedeutendste	-11.897
▁architektonisch	-11.8971
▁blüten	-11.8972
nutzen	-11.8972
▁schweben	-11.8977
▁willkürlich	-11.8978
▁billion	-11.898
fähig	-11.8986
▁sher	-11.8986
▁irre	-11.8987
chi	-11.8991
▁moore	-11.8995
▁format	-11.8998
▁schiffs	-11.8999
▁ewige	-11.9002
ladung	-11.9004
▁tragische	-11.9005
▁verschickt	-11.9007
▁kambodscha	-11.9008
tasche	-11.9011
zählen	-11.9012
▁verbesserte	-11.9013
▁alien	-11.9015
betrieb	-11.9017
▁gleichberechtig	-11.9018
gebung	-11.9027
oni	-11.9028
▁aufstand	-11.9029
▁fra	-11.903
▁raubtier	-11.9032
▁rohr	-11.9034
▁solarzelle	-11.9035
▁münze	-11.904
wartet	-11.9045
▁beck	-11.9046
▁börse	-11.9047
reg	-11.9049
ierende	-11.905
▁kämpfte	-11.9051
▁bizarre	-11.9051
geschichten	-11.9054
kreuz	-11.9064
sicher	-11.9067
▁feier	-11.9068
▁interviewer	-11.9071
schäd	-11.9072
▁ig	-11.9072
▁nu	-11.9073
▁entsetzlich	-11.9078
studio	-11.9078
batterie	-11.9079
rezept	-11.9079
▁rohstoff	-11.9079
knochen	-11.9079
▁schnellste	-11.9083
fass	-11.9086
mangel	-11.9086
▁erziehen	-11.9087
türme	-11.9089
▁zunahme	-11.9092
dan	-11.9092
▁wohltätigkeit	-11.9093
ori	-11.9094
▁verspür	-11.9096
▁verschreib	-11.9106
▁teleskope	-11.9107
▁noa	-11.9108
schöpfen	-11.9109
▁kunstwerke	-11.9112
▁irren	-11.9114
▁erstreckt	-11.9116
keln	-11.9116
▁52	-11.9116
▁vernetz	-11.9117
idee	-11.9117
schulen	-11.9121
▁ineinander	-11.9123
▁relation	-11.9123
▁dauerhafte	-11.9127
▁interviewt	-11.9136
tel	-11.9138
▁realisiert	-11.9149
▁les	-11.9153
▁betriebs	-11.9159
linge	-11.9168
schrei	-11.9168
▁giftig	-11.9169
▁far	-11.9169
▁authentisch	-11.9169
▁blickt	-11.917
▁plankton	-11.9174
untergang	-11.9176
schwer	-11.9176
▁brillant	-11.9177
sendung	-11.918
fische	-11.9183
▁zerstörte	-11.9184
▁sy	-11.9185
▁heimlich	-11.919
oxid	-11.9191
▁reinigen	-11.9191
cortex	-11.9191
sylv	-11.9191
▁embryo	-11.9191
▁auswendig	-11.9191
▁bildhauer	-11.9191
▁deprimiert	-11.9191
▁eliminier	-11.9191
▁gekennzeichnet	-11.9191
▁gestört	-11.9191
▁graffiti	-11.9191
▁gruselig	-11.9191
▁marihuana	-11.9191
▁michelangelo	-11.9191
▁mohammed	-11.9191
▁nicole	-11.9191
▁phantasie	-11.9191
▁präfrontale	-11.9191
▁schleuder	-11.9191
▁temporäre	-11.9191
▁unausweichlich	-11.9191
▁unvermeidlich	-11.9191
▁finnland	-11.9191
▁undeutlich	-11.9191
▁befreiung	-11.9191
▁improvisation	-11.9191
▁powerpoint	-11.9191
▁wolfram	-11.9191
▁columbia	-11.9191
▁mythologie	-11.9192
▁klebte	-11.9192
▁wellenlänge	-11.9192
▁ipad	-11.9192
▁love	-11.9192
▁gründet	-11.9192
▁leone	-11.9192
▁barmherzigkeit	-11.9192
ram	-11.9193
▁abhandlung	-11.9193
▁reproduzieren	-11.9193
▁freigesetzt	-11.9194
▁langlebigkeit	-11.9194
▁angemessene	-11.9194
▁jura	-11.9194
▁honigbiene	-11.9194
▁fortfahren	-11.9194
▁geehrt	-11.9194
▁makro	-11.9194
▁vinci	-11.9194
▁stürme	-11.9196
▁97	-11.9196
▁susan	-11.9197
▁äste	-11.9197
▁ewigkeit	-11.9197
▁carol	-11.9198
▁heiratete	-11.9198
ju	-11.9199
▁hindu	-11.9199
▁zusammengesetzt	-11.9199
▁lol	-11.9199
▁53	-11.9201
kor	-11.9201
▁verrückter	-11.9201
▁thunfische	-11.9201
▁185	-11.9201
▁umwandlung	-11.9202
▁aufrichtig	-11.9202
▁gewaltlose	-11.9203
▁zusammensetzung	-11.9203
▁egoistisch	-11.9203
▁vorsicht	-11.9204
▁loslassen	-11.9204
▁klimaanlage	-11.9207
▁vergiss	-11.9207
▁gecko	-11.921
▁rob	-11.9211
flüge	-11.9211
▁niedlich	-11.9215
▁offenbarung	-11.9216
presse	-11.9216
▁stockwerke	-11.9216
▁spektrums	-11.9216
▁käfig	-11.9219
▁sudan	-11.9219
setzt	-11.9225
▁anerkannt	-11.9226
▁datensatz	-11.9228
▁wörterbücher	-11.9233
wahlmöglichkeit	-11.9234
stel	-11.9235
▁malerei	-11.9239
▁strang	-11.9239
▁minerali	-11.924
▁lehnte	-11.924
▁kommerziell	-11.924
▁larven	-11.9241
▁lee	-11.9242
▁produktive	-11.9244
▁begrüßen	-11.9244
▁meld	-11.9247
▁flow	-11.9247
drehung	-11.9249
▁besprechung	-11.9254
zy	-11.9257
▁ron	-11.9261
▁muschel	-11.9261
▁kong	-11.9262
▁schmale	-11.9262
▁begrenzte	-11.9262
▁aufgeteilt	-11.9262
▁verschlüsselt	-11.9263
▁beliebteste	-11.9264
▁treffer	-11.9265
spezifische	-11.9265
▁kette	-11.9268
▁psyche	-11.9273
fällig	-11.9275
wood	-11.9276
samt	-11.9278
▁ausbeut	-11.9279
▁hoffte	-11.9279
täter	-11.9282
verlust	-11.9285
▁transplantation	-11.9286
well	-11.9286
▁gesteckt	-11.9288
platte	-11.9291
aktiv	-11.9291
▁empfehlen	-11.9293
norm	-11.9293
chus	-11.9293
▁spann	-11.9295
▁italienische	-11.9305
gehängt	-11.9306
bin	-11.9311
sender	-11.9314
▁weiten	-11.9314
▁spürte	-11.9316
▁ham	-11.9316
museum	-11.9322
träumt	-11.9325
▁objektiv	-11.9325
ira	-11.9326
▁sequenzier	-11.9328
icht	-11.9328
▁lebensweise	-11.9329
▁seltener	-11.933
▁trau	-11.9331
mitglied	-11.9333
▁talk	-11.9333
▁gl	-11.9337
▁verlierer	-11.9337
füll	-11.934
▁laute	-11.9342
▁detailliert	-11.9343
▁befrag	-11.9343
▁angenehme	-11.9347
▁computers	-11.9349
▁börsen	-11.9352
▁zugelassen	-11.9352
▁furcht	-11.9354
▁sonde	-11.9356
▁biologischer	-11.9357
▁integrierte	-11.936
▁homosexuelle	-11.9362
arah	-11.9364
▁arbeitende	-11.9368
professor	-11.9368
▁59	-11.937
▁herrlich	-11.9372
▁sequenziert	-11.9372
▁aneinander	-11.9373
▁barrieren	-11.9376
▁irrational	-11.9378
▁brauch	-11.9379
ionen	-11.9384
▁flossen	-11.9384
▁nr	-11.9388
gene	-11.9389
▁designt	-11.9391
▁spar	-11.9396
▁profi	-11.9403
▁zeuge	-11.9407
▁wiederher	-11.9408
mala	-11.9414
▁pillen	-11.9415
preise	-11.9416
ssinn	-11.9419
gewicht	-11.9419
▁zunehmende	-11.9422
▁liegende	-11.9422
▁stärkere	-11.9425
sterben	-11.943
wi	-11.943
index	-11.9431
▁uno	-11.9433
ory	-11.9434
tafel	-11.9435
phy	-11.9435
nommen	-11.9436
kante	-11.9438
bai	-11.9439
anzug	-11.944
▁isa	-11.9441
▁bezahlte	-11.9444
kämpft	-11.9446
ziele	-11.9447
management	-11.9449
gemeinde	-11.9449
gelangt	-11.945
kostet	-11.945
eigenschaft	-11.945
▁trockene	-11.9453
▁wertschätz	-11.9453
▁säule	-11.9458
▁freundes	-11.9461
▁hunt	-11.9461
▁mediziner	-11.9462
▁informelle	-11.9464
▁logische	-11.9464
sdaten	-11.9465
ita	-11.9472
flugzeug	-11.9472
nachrichten	-11.9474
▁zufälle	-11.9476
▁starren	-11.9477
▁unvorstellbar	-11.9482
trag	-11.9482
▁endgültige	-11.9484
▁speise	-11.9487
▁geschlossene	-11.9488
▁schleife	-11.949
▁sk	-11.9492
▁base	-11.9497
flaschen	-11.9498
nutzer	-11.9498
▁zäh	-11.9498
▁stoppt	-11.9501
grube	-11.9501
geschickt	-11.9506
▁derart	-11.9506
▁berühmteste	-11.9507
▁zeig	-11.9508
▁notizen	-11.9508
▁lecker	-11.9514
▁eingang	-11.9514
▁pestizide	-11.9517
▁ir	-11.952
▁senioren	-11.952
fordere	-11.9533
▁mor	-11.9534
fest	-11.9535
▁österreich	-11.954
sstörung	-11.9541
▁barbar	-11.9542
▁lachte	-11.9544
sex	-11.9545
▁hofft	-11.9548
aka	-11.9554
▁delphin	-11.9554
▁enthusias	-11.9556
▁feuern	-11.9559
▁obst	-11.9559
seiten	-11.9559
▁feucht	-11.956
▁stigma	-11.9561
▁altruism	-11.9562
▁anekdote	-11.9562
▁argentinien	-11.9562
▁babbage	-11.9562
▁brokkoli	-11.9562
▁edinburgh	-11.9562
▁ehrfurcht	-11.9562
▁favela	-11.9562
▁fazit	-11.9562
▁gespendet	-11.9562
▁goliath	-11.9562
▁immobilien	-11.9562
▁interagiert	-11.9562
▁mikrobielle	-11.9562
▁natasha	-11.9562
▁nektar	-11.9562
▁oecd	-11.9562
▁pittsburgh	-11.9562
▁rehabilitation	-11.9562
▁schoß	-11.9562
▁sediment	-11.9562
▁triumph	-11.9562
▁unterdrückung	-11.9562
▁verzicht	-11.9562
▁inflation	-11.9562
▁isolation	-11.9562
▁ultraschall	-11.9562
▁glaubwürdig	-11.9562
▁kästchen	-11.9562
▁tropen	-11.9562
▁übereinstimmung	-11.9562
▁mobilfunk	-11.9562
▁gäste	-11.9562
▁multinationale	-11.9562
▁gefeiert	-11.9562
▁rechtfertigen	-11.9562
▁gefaltet	-11.9562
▁irrtum	-11.9562
▁neurogenese	-11.9562
▁ergänzen	-11.9562
▁knochenmark	-11.9562
▁gratis	-11.9562
kennenlernen	-11.9562
▁grill	-11.9562
▁wilson	-11.9562
▁nerd	-11.9562
▁verlässlich	-11.9562
▁westküste	-11.9562
▁simon	-11.9562
▁unbedeutend	-11.9562
▁barack	-11.9563
▁hoffnungsvoll	-11.9563
▁force	-11.9563
▁listen	-11.9563
▁doug	-11.9563
▁royal	-11.9563
maxim	-11.9564
▁gewissheit	-11.9564
▁emil	-11.9565
▁fda	-11.9565
tipp	-11.9565
▁santa	-11.9565
▁1975	-11.9566
▁koreanisch	-11.9566
▁karikaturist	-11.9567
▁titelseite	-11.9567
▁betriebssystem	-11.9568
quadratkilometer	-11.9569
▁verbleibende	-11.9569
▁delphine	-11.9569
▁herumlaufen	-11.957
▁fluktuation	-11.9573
▁kathedrale	-11.9573
▁selektiv	-11.9573
▁schleim	-11.9577
▁aquarium	-11.9577
▁saurier	-11.9577
▁deutet	-11.9578
▁lichtjahre	-11.9578
▁gallone	-11.958
▁kupfer	-11.9581
▁spermien	-11.9583
▁spule	-11.9583
▁jet	-11.9583
▁abgrund	-11.9585
▁erfolgt	-11.9587
jing	-11.9588
▁verblüfft	-11.9593
▁angeordnet	-11.9594
▁gezielt	-11.9594
▁belege	-11.9595
▁gesang	-11.9595
▁synthese	-11.9595
sprojekt	-11.9596
▁bemerkung	-11.9596
▁resistent	-11.9598
▁kle	-11.9599
▁personalisierte	-11.9602
▁gängige	-11.9602
▁fell	-11.9603
▁programmier	-11.9605
▁regelwerk	-11.9605
▁th	-11.9608
▁chirurgie	-11.9608
▁massa	-11.9608
▁filmte	-11.9611
▁schreit	-11.9619
▁volumen	-11.9625
▁wei	-11.963
▁kenntnisse	-11.963
▁bestraft	-11.9632
▁angehalten	-11.9632
▁pfleger	-11.9632
▁gesprächs	-11.9632
▁nachforschung	-11.9634
kameras	-11.9635
▁hosen	-11.9636
▁mur	-11.9637
▁kenn	-11.9637
▁flammen	-11.9637
▁ungleich	-11.9639
▁flo	-11.964
▁14.	-11.9641
▁zig	-11.9645
▁diagramme	-11.9651
▁wendet	-11.9651
▁glücklichste	-11.9654
▁impulse	-11.9661
▁szenen	-11.9663
städte	-11.9672
▁schaltet	-11.9675
▁aufführung	-11.9676
▁50-	-11.9677
probe	-11.9677
▁mär	-11.9681
▁rekord	-11.9683
▁missbraucht	-11.9684
▁ever	-11.9687
▁hilflos	-11.9687
entscheidungen	-11.969
▁eimer	-11.9693
▁com	-11.9694
stau	-11.9695
▁os	-11.9698
▁andern	-11.9699
▁lokalisier	-11.9703
▁verfügbare	-11.9703
▁kapier	-11.9704
▁maler	-11.9705
▁ansteigen	-11.9706
etts	-11.9706
▁bizarr	-11.9709
▁ps	-11.9711
▁erhältlich	-11.9715
fühlen	-11.9719
tieren	-11.9722
▁umkreisen	-11.9724
vertrauenswürdig	-11.9726
freiheit	-11.9727
▁instinkt	-11.9727
▁reihen	-11.9728
▁idiot	-11.9729
▁wohlhabend	-11.9731
▁chromosomen	-11.9741
▁trinkt	-11.9744
▁karikatur	-11.9744
ritt	-11.9746
▁word	-11.9749
▁gesetzes	-11.9754
tzen	-11.9755
pie	-11.9755
▁sta	-11.9755
▁erstellte	-11.9755
▁erfinde	-11.9757
▁pflanzt	-11.9762
▁enthüll	-11.9764
▁japaner	-11.9768
-2	-11.977
▁löste	-11.9771
▁bisherige	-11.9772
flo	-11.9773
▁technischer	-11.9776
▁spiegelt	-11.9781
▁kontinuierlich	-11.9783
▁besprech	-11.9784
▁leugn	-11.9785
▁leuchtende	-11.9786
▁schimpanse	-11.9791
▁beginnend	-11.9794
steuern	-11.9795
▁atomen	-11.9795
▁barriere	-11.9796
▁auslands	-11.98
▁sl	-11.98
▁entfernte	-11.9806
▁herzens	-11.9807
ult	-11.9813
▁räumliche	-11.9813
▁digitalisier	-11.9816
gericht	-11.9817
prüfung	-11.9818
▁autistische	-11.9819
atom	-11.982
issen	-11.9821
▁beschränk	-11.9822
schüler	-11.9826
▁kanten	-11.9829
wende	-11.983
jagt	-11.9831
kapsel	-11.9831
veranstaltung	-11.9831
antwortet	-11.9831
pflicht	-11.9832
sah	-11.9832
verwaltung	-11.9833
kabel	-11.9833
blut	-11.9833
kapazität	-11.9833
▁weitest	-11.9833
männchen	-11.9834
messung	-11.9834
diagramm	-11.9834
vortrag	-11.9834
basiert	-11.9836
gestanden	-11.9838
pause	-11.9839
stürzen	-11.984
▁niedrigste	-11.9841
▁jahrhunderten	-11.9841
▁überzeugend	-11.9842
pflege	-11.9844
center	-11.9845
▁wiederholte	-11.9848
läufer	-11.985
▁kommend	-11.9857
▁diego	-11.9858
▁taub	-11.9866
suchen	-11.987
▁ostafrika	-11.9872
kern	-11.9874
▁bestraf	-11.9875
bund	-11.9877
▁bedeutsame	-11.9879
automat	-11.9883
▁anguck	-11.9886
mat	-11.9886
▁unglaublicher	-11.9887
▁bewerb	-11.9894
▁fotografierte	-11.99
▁ze	-11.99
weil	-11.9901
▁präsent	-11.9909
wunden	-11.9909
▁hochzu	-11.9911
zehn	-11.9915
▁bundes	-11.9915
sprech	-11.9918
▁penis	-11.9918
▁zorn	-11.9919
▁nukleare	-11.992
▁wahrhaft	-11.9921
▁experimentell	-11.9923
▁atemberaubend	-11.9924
schi	-11.9925
▁play	-11.9927
zapf	-11.9927
▁authenti	-11.9928
▁gange	-11.993
▁herbei	-11.9937
▁flexib	-11.994
sorge	-11.994
▁dusche	-11.9942
,3	-11.9944
▁lohn	-11.9946
▁bosnien	-11.9946
▁demonstriert	-11.9946
▁dänemark	-11.9946
▁erforderlich	-11.9946
▁europäer	-11.9946
▁migräne	-11.9946
▁multiversum	-11.9946
▁osteuropa	-11.9946
▁räuber	-11.9946
▁testosteron	-11.9946
▁todesursache	-11.9946
▁ushahidi	-11.9946
stream	-11.9946
▁banjo	-11.9946
▁bhutan	-11.9946
▁industrialisier	-11.9946
▁schwedische	-11.9946
▁basketball	-11.9946
▁windows	-11.9946
geheiratet	-11.9946
▁begrenzung	-11.9946
▁skype	-11.9946
palästinensische	-11.9946
▁bmw	-11.9946
▁fahrräder	-11.9946
▁imitiert	-11.9947
▁mountain	-11.9947
flüchtlingslager	-11.9947
▁sprichwort	-11.9947
▁nordwest	-11.9947
▁gezahlt	-11.9947
▁bewahrt	-11.9947
▁kilogramm	-11.9947
▁piep	-11.9947
▁mysterium	-11.9947
▁lastwagen	-11.9947
▁ferien	-11.9947
▁ratschläge	-11.9947
▁entsprach	-11.9947
▁stereotyp	-11.9947
▁lord	-11.9948
▁erleuchtung	-11.9948
▁lebensdauer	-11.9948
▁zweitgrößte	-11.9948
▁maschinelle	-11.9948
▁aktien	-11.9948
zulerne	-11.9948
▁erbaut	-11.9949
▁blutdruck	-11.9949
▁privatleben	-11.9949
▁mittelschicht	-11.9949
▁festgehalten	-11.9949
höfe	-11.9949
▁mont	-11.9949
▁genoms	-11.995
▁rna	-11.995
▁biotechnologie	-11.9951
▁kahl	-11.9951
▁ideologisch	-11.9951
▁einzelheit	-11.9952
▁tuch	-11.9952
▁rechenmaschine	-11.9952
▁kartier	-11.9953
▁präsenz	-11.9953
▁prävention	-11.9953
▁testperson	-11.9954
▁abgebildet	-11.9954
▁gefäß	-11.9956
▁zehntausend	-11.9956
▁vollzeit	-11.9957
▁schäme	-11.9958
gehalt	-11.9959
▁erworben	-11.996
▁unternahm	-11.996
▁sumpf	-11.9961
▁urin	-11.9961
▁nationalstaat	-11.9961
▁bekäme	-11.9963
gesessen	-11.9964
▁enthüllung	-11.9964
eans	-11.9966
▁dominierende	-11.9967
tifikation	-11.9968
▁berufung	-11.9969
▁angezeigt	-11.9969
▁magnetfeld	-11.997
▁gespart	-11.9971
▁durchbrechen	-11.9971
▁schwächer	-11.9972
▁improvisiert	-11.9972
▁schwarm	-11.9972
atik	-11.9972
▁zustimmung	-11.9975
▁klippe	-11.9976
▁erreichten	-11.9978
▁cocktail	-11.998
▁schüssel	-11.998
▁feuchtigkeit	-11.9981
▁überraschte	-11.9981
▁landwirte	-11.9983
▁ergreifen	-11.9985
▁kollaps	-11.9985
400	-11.9986
▁weide	-11.9987
netze	-11.9987
▁vorzug	-11.9989
▁cluster	-11.9989
sitz	-11.9992
tust	-11.9993
▁pionier	-11.9993
▁marsch	-11.9994
▁verschiebung	-11.9994
central	-11.9995
pack	-12.0003
▁einsame	-12.0005
▁entführt	-12.0005
▁erfordern	-12.0006
▁community	-12.0008
▁versende	-12.001
kappen	-12.0013
▁längste	-12.0014
groß	-12.0019
wirtschaftskrise	-12.0021
sprachige	-12.0022
▁evolutions	-12.0022
moleküle	-12.0023
▁netter	-12.0023
▁gärt	-12.0024
▁hotels	-12.0024
▁schlaue	-12.0027
▁bud	-12.0028
▁verdeckt	-12.0034
▁bewundern	-12.0034
▁verkürz	-12.0035
▁kompromisse	-12.0035
▁anhaltende	-12.0035
▁aufbaut	-12.0036
▁kla	-12.0037
menschenverstand	-12.0037
▁infektions	-12.0038
seitige	-12.0038
▁lu	-12.0039
▁spielern	-12.004
▁erhoben	-12.0041
▁saison	-12.0041
▁flache	-12.0046
▁kaninchen	-12.0049
▁deck	-12.0055
▁verwandte	-12.0056
▁wiegen	-12.0057
▁schrecken	-12.0059
▁orl	-12.006
hielt	-12.0065
▁wohltätigkeits	-12.0065
▁lenk	-12.0065
▁medica	-12.0066
▁unternehmerisch	-12.0067
tüte	-12.007
ups	-12.0071
▁eintausend	-12.0076
▁wanderte	-12.0078
wahrscheinlich	-12.0079
hy	-12.0079
▁neo	-12.0082
▁wehr	-12.0084
▁kritisiert	-12.0087
▁protozellen	-12.0088
▁umdreh	-12.009
▁einschlag	-12.0093
änderungen	-12.0095
▁wandeln	-12.0101
kurve	-12.0101
▁eintritt	-12.0102
▁bereitstell	-12.0104
ary	-12.0106
▁ofen	-12.0106
▁stürzt	-12.011
row	-12.0113
wasch	-12.0114
▁flüssig	-12.0115
versicherung	-12.0116
▁besch	-12.0116
▁packte	-12.0119
ala	-12.0121
▁chemisch	-12.0126
lacht	-12.0126
▁schlechtesten	-12.0127
▁exemplar	-12.013
▁mm	-12.013
▁cap	-12.0131
▁wiederzu	-12.0133
skala	-12.0133
erbe	-12.0135
kamen	-12.0141
▁legitim	-12.0143
dna	-12.0143
▁hochzeits	-12.0144
▁ao	-12.0146
alisiert	-12.0149
▁tm	-12.0149
▁russisch	-12.0151
stande	-12.0151
▁versicherungs	-12.0152
▁wandelt	-12.0152
▁reg	-12.0154
▁neuerung	-12.0158
▁bedingt	-12.0159
▁programmen	-12.0162
▁spektakuläre	-12.0164
sbereich	-12.0167
▁karikaturen	-12.0168
▁vergleiche	-12.017
sammlung	-12.0177
▁drücke	-12.0185
▁durchdringen	-12.0185
▁tabelle	-12.0187
▁trag	-12.0189
abi	-12.019
▁autonomi	-12.019
▁nachdenke	-12.0191
▁chronische	-12.0194
▁iraner	-12.0196
meisterschaft	-12.0198
sprobleme	-12.0201
▁rassen	-12.0202
gesch	-12.0203
▁differenz	-12.0204
▁grösste	-12.0204
kanäle	-12.0207
haupt	-12.0208
▁qualitativ	-12.021
▁ringe	-12.0211
bc	-12.0213
▁verkündete	-12.0214
augen	-12.0215
▁profitiert	-12.0217
▁trauma	-12.0218
kollegen	-12.0219
▁exponentielle	-12.0221
▁lüge	-12.0221
▁tra	-12.0223
arzt	-12.0227
hirn	-12.0228
▁explodiert	-12.0229
antwort	-12.023
▁gier	-12.0231
adresse	-12.0232
vorstellung	-12.0234
versagen	-12.0234
wurzel	-12.0234
fenster	-12.0234
tödliche	-12.0235
güter	-12.0235
▁bursche	-12.0236
einnahmen	-12.0241
how	-12.0242
reiche	-12.0243
brücke	-12.0245
schwimm	-12.0247
▁125	-12.0248
▁stell	-12.0248
▁regenerieren	-12.0249
besitzer	-12.0253
▁don	-12.0256
vorteil	-12.0259
▁blüte	-12.0259
▁verschick	-12.0259
▁lampen	-12.0259
▁bestmögliche	-12.026
▁schwerste	-12.0261
▁bekannteste	-12.0261
angst	-12.0264
stufen	-12.0264
▁tit	-12.0264
verletzungen	-12.0268
stoppt	-12.027
▁informatik	-12.0272
▁mitfühlend	-12.0274
▁schauspiel	-12.0274
▁vollen	-12.0275
▁göttliche	-12.0275
▁endlos	-12.0277
▁operations	-12.0277
ford	-12.0281
▁vielfältige	-12.0289
▁back	-12.0292
▁myth	-12.0294
▁fraktale	-12.0296
beine	-12.0297
ith	-12.0297
▁kreisen	-12.0298
▁betreu	-12.0301
▁zweier	-12.0302
▁kompliziertes	-12.0302
▁bel	-12.0303
▁mittag	-12.0304
▁hypothesen	-12.0306
nny	-12.031
▁notwendige	-12.0311
signal	-12.0313
▁stan	-12.0317
lar	-12.0318
▁gebrochene	-12.0319
▁medizinisch	-12.0325
ux	-12.0325
ther	-12.0328
▁polar	-12.0334
▁hochwertige	-12.0337
▁schar	-12.0339
▁szenari	-12.034
eryl	-12.034
dienste	-12.0343
▁fettleibig	-12.0344
▁schwefel	-12.0346
minütige	-12.0346
▁abstammung	-12.0346
▁asphalt	-12.0346
▁blutgefässe	-12.0346
▁bruttoinlands	-12.0346
▁crispr	-12.0346
▁fortwährend	-12.0346
▁hawking	-12.0346
▁immaterielle	-12.0346
▁komplikation	-12.0346
▁kyoto	-12.0346
▁kühn	-12.0346
▁neandertaler	-12.0346
▁prozedur	-12.0346
▁präzision	-12.0346
▁schmecken	-12.0346
▁sämtliche	-12.0346
▁tasmanische	-12.0346
▁vegetation	-12.0346
▁venezuela	-12.0346
▁verwickelt	-12.0346
▁zensur	-12.0346
▁princeton	-12.0346
▁verallgemeiner	-12.0346
▁beruhen	-12.0346
▁kollaborative	-12.0346
▁neigt	-12.0346
▁belohnen	-12.0346
▁verstreut	-12.0346
▁verwurzelt	-12.0346
▁scheidung	-12.0346
▁somalia	-12.0346
▁rasant	-12.0346
▁beschissen	-12.0346
▁prostatakrebs	-12.0346
▁seriös	-12.0346
▁kalkstein	-12.0346
▁druckerpresse	-12.0347
▁komfort	-12.0347
▁südwest	-12.0347
▁fitness	-12.0347
▁heilmittel	-12.0347
▁franklin	-12.0347
▁dienstag	-12.0347
▁wohnwagen	-12.0347
▁süßwasser	-12.0347
▁roger	-12.0347
▁highway	-12.0347
▁ungerechtigkeit	-12.0347
▁genesung	-12.0347
▁unterbrechung	-12.0347
▁ablenkung	-12.0347
▁nanotechnologie	-12.0348
▁finanzkrise	-12.0348
▁heroin	-12.0348
▁überreste	-12.0348
▁abstraktion	-12.0348
ibera	-12.0349
▁wiki	-12.0349
▁lichtstrahl	-12.0349
▁versklav	-12.035
ctus	-12.035
▁hoden	-12.035
▁fertiggestellt	-12.035
▁einzelperson	-12.0351
herstellung	-12.0351
▁grundidee	-12.0351
▁genuss	-12.0351
videos	-12.0352
▁romantik	-12.0352
▁ausgeglichen	-12.0352
▁sonderlich	-12.0353
▁gegenüberstehen	-12.0353
▁philanthropie	-12.0354
▁seg	-12.0354
▁demütig	-12.0354
▁gitarre	-12.0355
▁margar	-12.0356
▁187	-12.0357
▁enzyklopädie	-12.0358
▁zahllose	-12.0358
▁crash	-12.0358
▁teilchenphysik	-12.0359
▁überlegung	-12.036
▁herauf	-12.0361
▁ausgeschlossen	-12.0361
▁zweidimensional	-12.0362
▁ränder	-12.0362
▁proportional	-12.0363
▁physiologie	-12.0364
▁fossilien	-12.0364
▁elektrisch	-12.0365
▁rinder	-12.0366
van	-12.0366
▁25.000	-12.0367
alo	-12.0367
▁waisen	-12.0367
▁aufrechterhalt	-12.0369
schaffen	-12.0375
city	-12.0376
▁verbundenheit	-12.0376
▁brauchbar	-12.0377
▁übergewichtig	-12.0379
▁unterhaltungs	-12.038
▁stimulation	-12.0382
▁maya	-12.0382
▁schema	-12.0382
monatige	-12.0386
mut	-12.0386
▁handfläche	-12.0387
▁anklick	-12.0388
▁verbrecher	-12.0389
▁strahlt	-12.0389
▁becken	-12.039
▁beschwerde	-12.0391
▁mechanik	-12.0396
▁speer	-12.0396
▁stipendium	-12.0396
lly	-12.0397
▁begrüßt	-12.04
▁kopfschmerz	-12.0402
▁mutige	-12.0403
▁drängt	-12.0404
▁eingangs	-12.0406
szene	-12.0406
▁innerlich	-12.0406
▁wille	-12.0406
▁konzerne	-12.0408
▁schrank	-12.041
▁strömt	-12.041
▁schwa	-12.041
▁verlieh	-12.0413
▁char	-12.0414
nutz	-12.0414
▁zeremonie	-12.0415
▁atmet	-12.0422
▁wil	-12.0423
▁gleichmäßig	-12.0423
▁sinnvolle	-12.0424
▁halbiert	-12.0425
▁med	-12.0427
▁mittelalter	-12.0428
▁verhältnisse	-12.0432
prinzip	-12.0435
▁aufstände	-12.0436
▁drang	-12.0436
gurt	-12.044
▁erwiesen	-12.0441
▁protokoll	-12.0441
▁pool	-12.0442
▁scanner	-12.0448
operieren	-12.0449
olo	-12.0449
▁professionell	-12.0453
▁betreib	-12.0453
▁mancher	-12.0454
▁systematische	-12.0455
▁mangelnde	-12.0458
▁betont	-12.0463
irrt	-12.0464
sorgt	-12.0468
▁aufregendste	-12.0469
▁schäd	-12.047
äge	-12.0474
▁urteil	-12.0476
▁koordinier	-12.0479
leuchten	-12.0479
▁umge	-12.0481
▁abruf	-12.0481
▁isolieren	-12.0481
▁wettbewerbs	-12.0485
vielversprechend	-12.0487
▁fließend	-12.0488
▁fünfzig	-12.049
bombe	-12.0495
▁info	-12.0495
▁kontakte	-12.0495
▁motorische	-12.0497
▁zuviel	-12.0498
▁schuss	-12.0501
▁bleib	-12.0504
▁mü	-12.0504
getrieben	-12.0504
afrika	-12.0505
▁grüner	-12.0508
▁3-	-12.0509
ety	-12.0511
▁vereinfachen	-12.0511
▁pfeile	-12.0514
▁hack	-12.0515
llas	-12.0516
▁erholt	-12.0518
▁eingriffe	-12.053
▁evan	-12.0531
▁54	-12.0531
freude	-12.0539
▁leistungsfähig	-12.0539
taten	-12.0545
▁mari	-12.0547
▁priorität	-12.0548
▁asteroid	-12.0549
ib	-12.0551
▁verwaltungs	-12.0551
▁64	-12.0552
▁ros	-12.0554
▁begegnete	-12.0558
▁absolutes	-12.0559
▁etabliert	-12.0559
▁wandte	-12.0561
▁wähle	-12.0566
gelöst	-12.0569
▁wertschätzen	-12.0576
▁versu	-12.0576
▁tiefgründige	-12.0577
netzwerke	-12.0578
▁segel	-12.0583
▁gewähr	-12.0588
▁durchführt	-12.0591
ivan	-12.0592
▁moskitonetze	-12.0593
▁pl	-12.0599
pla	-12.0599
▁allererst	-12.06
mlich	-12.0601
mach	-12.0604
▁demokratisch	-12.0606
▁scheiben	-12.0607
klick	-12.0611
▁zusammenhänge	-12.0616
▁materials	-12.0619
▁bahnbrechende	-12.0619
nächst	-12.062
smittel	-12.0624
▁sprech	-12.0628
gefasst	-12.0631
▁schlechteste	-12.0634
▁zerleg	-12.0635
rot	-12.0636
▁raums	-12.0636
▁sanft	-12.0637
ringt	-12.0639
rolle	-12.064
genoss	-12.0641
meist	-12.0644
blättern	-12.0644
▁zufalls	-12.0644
▁sound	-12.0645
mechanism	-12.0647
grafik	-12.0648
agentur	-12.0649
▁julia	-12.0649
bewertung	-12.065
party	-12.065
personal	-12.065
müll	-12.065
psycholog	-12.0656
job	-12.0656
▁spül	-12.066
▁dung	-12.0664
▁kommun	-12.0666
▁child	-12.0667
▁weggehen	-12.067
fähigkeit	-12.0676
▁dominante	-12.0677
rochen	-12.0677
strecken	-12.0683
▁knack	-12.0702
▁fließende	-12.0703
sektor	-12.071
▁multiplizier	-12.0717
▁ente	-12.072
▁sha	-12.0724
wesenheit	-12.0726
▁rechteck	-12.073
äugige	-12.0732
▁umfassen	-12.0732
▁date	-12.074
hai	-12.0747
▁statistische	-12.0747
▁lauten	-12.0751
▁geläch	-12.0756
▁autoritäre	-12.0758
fühlst	-12.076
▁erhalte	-12.0762
▁beerdigung	-12.0763
▁untergrab	-12.0763
▁analysis	-12.0763
▁ausschlaggebend	-12.0763
▁bambus	-12.0763
▁beethoven	-12.0763
▁happy	-12.0763
▁hurrikan	-12.0763
▁hygiene	-12.0763
▁katrina	-12.0763
▁mitternacht	-12.0763
▁nairobi	-12.0763
▁pepsi	-12.0763
▁praktizieren	-12.0763
▁schleier	-12.0763
▁sebastian	-12.0763
▁tuberkulose	-12.0763
▁vergaß	-12.0763
▁ägyptische	-12.0763
▁extrahieren	-12.0763
▁mexic	-12.0763
▁bleistift	-12.0763
▁verlockend	-12.0763
▁todesstrafe	-12.0763
▁unterhaltsam	-12.0763
▁biolumineszenz	-12.0763
▁kurator	-12.0763
▁transaktion	-12.0763
▁transition	-12.0763
▁tennis	-12.0763
▁verhandelt	-12.0763
▁atomwaffen	-12.0763
▁linux	-12.0763
▁nutzbar	-12.0763
▁besiegt	-12.0764
▁schwellenländer	-12.0764
foot	-12.0764
▁telefonnummer	-12.0764
▁zement	-12.0764
▁hobby	-12.0764
▁neugeborene	-12.0764
▁falken	-12.0764
opard	-12.0764
▁wandertaube	-12.0764
atraz	-12.0764
▁jill	-12.0764
▁bedanke	-12.0765
wick	-12.0765
▁bekämpft	-12.0766
▁textur	-12.0766
▁verzeichnet	-12.0767
▁ideo	-12.0767
▁supraleiter	-12.0768
▁märchen	-12.0769
▁ausgedehnt	-12.0769
▁akzeptanz	-12.0771
▁pek	-12.0771
▁süßigkeit	-12.0771
▁gyr	-12.0771
▁lester	-12.0771
▁spielplatz	-12.0772
▁puzzle	-12.0772
▁zurückgelassen	-12.0772
bedingte	-12.0773
spalt	-12.0774
▁hochhaus	-12.0774
▁meisterwerk	-12.0774
▁brigade	-12.0775
▁akkord	-12.0775
▁kompetent	-12.0775
▁supercomputer	-12.0777
zo	-12.0777
▁lebensstandard	-12.0779
▁identische	-12.0779
▁monsun	-12.078
messen	-12.0782
▁verfügbarkeit	-12.0782
▁mammut	-12.0783
▁rennt	-12.0786
▁verbrennung	-12.0787
▁bedenk	-12.0787
▁tankstelle	-12.0789
▁pier	-12.0791
mühle	-12.0791
▁durchsucht	-12.0793
▁vereinigung	-12.0795
▁volt	-12.0795
misch	-12.0795
▁ticket	-12.0796
▁sin	-12.0796
▁einflüsse	-12.0797
motiv	-12.0798
▁vorgesetzt	-12.0799
▁vorspielen	-12.08
▁krater	-12.08
▁droht	-12.08
▁geografische	-12.0801
▁grundsatz	-12.0802
alisch	-12.0806
▁horizontal	-12.081
▁vorzüge	-12.0814
▁laune	-12.0814
▁absolvent	-12.0815
▁bunker	-12.0815
▁blicke	-12.0821
▁einkaufszentr	-12.0821
▁marc	-12.0823
▁hunderttausend	-12.0823
▁freud	-12.0827
▁historiker	-12.0829
sichtsausdrücke	-12.0829
figuren	-12.0831
▁unwohl	-12.0834
▁ölpreis	-12.0839
trüb	-12.0841
▁erheb	-12.0842
itis	-12.0845
▁inwie	-12.0853
trogen	-12.0853
▁ausrichtung	-12.0854
▁aufsicht	-12.0855
▁datei	-12.0857
▁stick	-12.0857
knüpfen	-12.0858
ong	-12.0859
flächen	-12.0859
▁hebe	-12.086
▁psychologisch	-12.0862
▁bildete	-12.0868
▁58	-12.0872
▁radiolog	-12.0875
▁spiegeln	-12.0876
▁wanderung	-12.088
gewinnen	-12.0882
▁hippocamp	-12.0882
ima	-12.0886
▁bunt	-12.0888
apien	-12.0889
▁quallen	-12.089
sarbeit	-12.0897
▁entzieh	-12.0897
▁kamerad	-12.0898
▁leucht	-12.09
▁geografi	-12.0903
▁paket	-12.0904
kriegen	-12.0906
ano	-12.091
tis	-12.091
▁plünder	-12.0912
stechnik	-12.0916
sphase	-12.0917
▁augenblicklich	-12.0918
▁marker	-12.0919
▁hochschul	-12.0923
▁ästhetische	-12.0925
▁überwacht	-12.0926
▁imker	-12.0927
▁out	-12.0927
▁haustier	-12.0928
reihe	-12.0929
▁ali	-12.0934
awa	-12.0934
▁anordnung	-12.0936
▁aufzug	-12.0938
▁kehrt	-12.0939
▁menschenmenge	-12.0941
▁lenkt	-12.0942
▁unterteil	-12.0943
sack	-12.0944
ständig	-12.0947
▁sauberer	-12.0951
bad	-12.0953
▁besagte	-12.0958
▁durchführte	-12.0958
▁kommende	-12.0965
übergreifend	-12.0967
▁schein	-12.0967
▁bol	-12.0968
▁fried	-12.0968
ito	-12.0968
farben	-12.097
▁reif	-12.097
tklässler	-12.0971
▁lin	-12.0975
pel	-12.0978
gesteuerte	-12.0979
mont	-12.0981
ologe	-12.0981
▁gefährdete	-12.0986
sparen	-12.0991
▁kondom	-12.0992
▁sä	-12.0998
▁sorgte	-12.0999
▁reservat	-12.1
▁kostengünstig	-12.1
▁nachmittags	-12.1009
▁röhren	-12.101
▁iss	-12.101
300	-12.1012
▁shir	-12.1015
umweltfreundlich	-12.1016
eins	-12.1018
computerprogramm	-12.102
▁veranstalte	-12.1023
ria	-12.1028
▁aufnahm	-12.1029
▁verbundene	-12.1032
▁experti	-12.1035
▁hinbekomm	-12.1036
▁graue	-12.1037
eignen	-12.1039
▁protozelle	-12.104
▁zitiert	-12.1041
▁erwähne	-12.1042
element	-12.1043
▁unterschätz	-12.1044
▁müsse	-12.1044
waren	-12.1048
▁tonne	-12.1048
▁haustiere	-12.1049
kiste	-12.1052
▁konn	-12.1055
schande	-12.1055
ibu	-12.1057
verhaltensmuster	-12.1059
▁hip	-12.1063
▁unsterblich	-12.1065
erlebnis	-12.1065
▁sb	-12.1067
▁großartigste	-12.1076
▁verdau	-12.1078
▁kümmerte	-12.108
▁riskiert	-12.1082
round	-12.1082
transplantation	-12.1084
impfstoff	-12.1085
explosion	-12.1085
kritik	-12.1085
ausrüstung	-12.1085
rohr	-12.1085
ameisen	-12.1086
vorgang	-12.1086
leiten	-12.1087
dorf	-12.1087
▁kor	-12.1088
▁bestell	-12.1091
▁leck	-12.1091
schicken	-12.1092
inhalt	-12.1094
▁mind	-12.1094
dienstleistung	-12.1096
▁maske	-12.1097
▁quo	-12.1097
▁verantwortungs	-12.1098
marke	-12.1102
▁mei	-12.1106
▁interessantere	-12.1107
▁flüchtig	-12.1112
▁britis	-12.1113
▁gek	-12.1113
ati	-12.1115
kei	-12.1115
▁statisch	-12.1124
yo	-12.1126
▁jean	-12.1128
▁erstaunlicher	-12.1129
ringen	-12.113
gesteckt	-12.1136
▁kirchen	-12.1138
▁eigentums	-12.1142
▁verlangte	-12.1144
wah	-12.1145
▁gewöhn	-12.1147
drüse	-12.1147
▁ordn	-12.1148
▁weckt	-12.1148
nest	-12.115
▁steril	-12.1151
flüster	-12.1152
anti	-12.1152
▁urheberrecht	-12.1154
▁abspielt	-12.1154
▁reformier	-12.1154
▁bundesstaaten	-12.1159
▁flor	-12.1162
bil	-12.1166
tank	-12.117
14	-12.117
ronto	-12.1171
▁empfäng	-12.1172
rex	-12.1174
▁verpflicht	-12.1176
▁abu	-12.1177
▁mon	-12.1178
▁expo	-12.1178
▁sofortige	-12.1182
▁zeiträume	-12.1184
▁hineinzu	-12.1184
öhn	-12.1186
▁blei	-12.1186
▁gefährlichste	-12.1186
fotos	-12.1186
wählen	-12.1187
▁110	-12.1192
▁bewegliche	-12.1193
▁langlebig	-12.1195
▁widersprüchlich	-12.1195
▁bruc	-12.1196
▁hindern	-12.1197
▁guerilla	-12.1198
gürtel	-12.1198
▁ansässig	-12.1198
▁beutelwolf	-12.1198
▁carnegie	-12.1198
▁demografische	-12.1198
▁elfenbein	-12.1198
▁fassade	-12.1198
▁gefrier	-12.1198
▁hungersnot	-12.1198
▁hypothek	-12.1198
▁illustrier	-12.1198
▁intellekt	-12.1198
▁linkshänder	-12.1198
▁lithium	-12.1198
▁meditation	-12.1198
▁nirgends	-12.1198
▁nonverbale	-12.1198
▁praktiziert	-12.1198
▁schnurrbart	-12.1198
▁schrumpfen	-12.1198
▁skalierbar	-12.1198
▁strände	-12.1198
▁unvorhersehbar	-12.1198
▁venedig	-12.1198
▁verleger	-12.1198
▁östrogen	-12.1198
▁amsterdam	-12.1198
▁entdecker	-12.1198
▁monument	-12.1198
guinea	-12.1198
murray	-12.1198
▁francis	-12.1198
▁zipcar	-12.1198
▁einfallsreich	-12.1198
▁sydney	-12.1198
selbstwertgefühl	-12.1198
▁aims	-12.1198
▁entwirf	-12.1198
▁vorstellbar	-12.1198
▁adoption	-12.1198
▁verschlossen	-12.1198
▁neocortex	-12.1198
▁komposition	-12.1198
▁kelly	-12.1198
▁projiziert	-12.1198
▁korrelation	-12.1198
▁südasien	-12.1198
▁dekade	-12.1198
▁lakota	-12.1198
▁ärmer	-12.1198
▁bloss	-12.1198
▁eifer	-12.1198
▁erreichbar	-12.1198
▁verrät	-12.1198
▁piraten	-12.1198
▁oktopus	-12.1198
▁geschichts	-12.1198
▁stadion	-12.1198
▁weihnachtsmann	-12.1198
▁ozon	-12.1199
▁entspannen	-12.1199
▁schwebt	-12.1199
▁lieferkette	-12.1199
▁erregt	-12.1199
▁sonnenschein	-12.1199
▁vielschichtig	-12.1199
▁grace	-12.1199
▁geschäftsleute	-12.1199
▁lady	-12.1199
▁abgelehnt	-12.1199
▁insulinresisten	-12.1199
▁tami	-12.1199
▁snowden	-12.1199
screen	-12.1199
▁bonus	-12.12
▁senf	-12.12
▁3,5	-12.12
▁titanic	-12.12
▁frühjahr	-12.12
▁verdanke	-12.12
▁herzerkrankung	-12.12
▁darpa	-12.1201
▁folter	-12.1201
▁neurale	-12.1201
▁neuronale	-12.1202
▁ermitteln	-12.1202
▁risse	-12.1202
▁betritt	-12.1203
▁jerry	-12.1203
▁mat	-12.1203
▁teich	-12.1203
▁kiri	-12.1204
▁uran	-12.1204
▁brother	-12.1204
▁coop	-12.1204
▁kerle	-12.1205
▁over	-12.1205
spaltung	-12.1205
▁gesegnet	-12.1206
▁labyrinth	-12.1206
▁koma	-12.1206
▁viereinhalb	-12.1209
▁400.000	-12.1209
▁netto	-12.1209
▁sehnen	-12.1209
▁bestäuber	-12.1209
▁ablehnen	-12.121
▁härter	-12.121
mah	-12.121
▁desaster	-12.1211
▁fil	-12.1212
▁bewegend	-12.1213
▁57	-12.1213
▁atomar	-12.1213
schublade	-12.1215
rauch	-12.1215
fähigkeiten	-12.1215
▁knorpel	-12.1216
▁pipeline	-12.1216
▁angreif	-12.1216
▁implantat	-12.1216
▁buddhistische	-12.1216
zeichnung	-12.1216
affen	-12.1217
▁verankert	-12.1217
▁dean	-12.1218
▁koordination	-12.1221
▁kuppel	-12.1221
▁sri	-12.1225
training	-12.1225
▁ap	-12.1227
▁überwältigende	-12.1227
▁browser	-12.1228
▁lobby	-12.1229
▁peng	-12.1231
▁übersetzer	-12.1231
▁spazierg	-12.1231
▁kalender	-12.1231
timor	-12.1231
▁stammbaum	-12.1232
▁zuversichtlich	-12.1233
▁etage	-12.1234
schafft	-12.1236
▁globalisierte	-12.1236
▁lateinisch	-12.1236
▁ungleichgewicht	-12.1237
▁vorhang	-12.1238
▁abstimmung	-12.1239
▁sensible	-12.124
▁signatur	-12.1241
▁aufwärts	-12.1242
▁cia	-12.1244
▁überschritt	-12.1247
▁christliche	-12.1248
▁stechen	-12.1248
werkzeug	-12.125
▁fruchtfliegen	-12.1251
▁realisierte	-12.1252
▁event	-12.1253
▁glänzende	-12.1253
umweltverschmutz	-12.1254
▁zurückblicken	-12.1255
▁aufgelöst	-12.1255
griff	-12.1255
▁abwehr	-12.1255
▁bettel	-12.126
iell	-12.1263
▁narben	-12.1266
▁angenehmer	-12.1268
▁drum	-12.1269
▁verdiente	-12.1269
▁takt	-12.1269
▁aufsteigen	-12.1269
▁synapsen	-12.1273
▁brunnen	-12.1273
hütte	-12.1273
moor	-12.1274
▁kugeln	-12.1274
▁check	-12.1274
▁bucht	-12.1276
▁gruben	-12.1276
▁ablegen	-12.1277
▁herrschte	-12.1278
siedeln	-12.128
▁blöcke	-12.1282
spunkte	-12.1282
▁fehlerhaft	-12.1283
fg	-12.1285
▁tiefgreifende	-12.1291
nah	-12.1294
maß	-12.1295
▁spezialisier	-12.1296
pin	-12.1296
▁bond	-12.1297
▁kreditkarten	-12.1299
cho	-12.1302
▁regional	-12.1305
▁monatlich	-12.1307
▁widerspiegelt	-12.1307
▁bor	-12.1314
▁unterlieg	-12.1314
figur	-12.132
▁dosen	-12.1325
span	-12.1326
▁absorbier	-12.1326
▁immense	-12.1328
sensor	-12.133
lampen	-12.1331
▁taube	-12.1331
▁verfall	-12.1331
schüttet	-12.1332
▁73	-12.1332
omi	-12.1336
▁jagt	-12.1337
matik	-12.1346
chef	-12.1347
▁haushalts	-12.1348
▁detaillierte	-12.1351
▁pack	-12.1351
▁kamele	-12.1355
▁rechtssystem	-12.1355
fra	-12.1356
▁spritz	-12.1358
▁weltwirtschaft	-12.136
täuschen	-12.1361
pumpen	-12.1362
▁intel	-12.1363
fu	-12.1364
▁mass	-12.1364
bio	-12.1365
▁einheitliche	-12.1366
▁chronisch	-12.1367
▁anschluss	-12.137
▁grössten	-12.1373
illt	-12.1373
▁hochschule	-12.1375
wachs	-12.1376
steuer	-12.1377
läufe	-12.1382
imi	-12.1385
▁grübel	-12.1385
▁rührt	-12.1391
ausgaben	-12.1393
▁riss	-12.14
▁einflussreich	-12.1402
hochdruck	-12.1405
▁vorfall	-12.1405
kleidung	-12.1407
mord	-12.1409
▁londoner	-12.1409
zieren	-12.1409
▁exotische	-12.1415
▁hirns	-12.1428
▁durchläuf	-12.1429
▁verzerrt	-12.143
hundert	-12.143
mitte	-12.1431
gy	-12.1435
▁lüg	-12.1436
sänderung	-12.1436
▁zwing	-12.1437
▁perfektes	-12.1439
▁langweil	-12.1439
rede	-12.144
▁ausgang	-12.1442
iti	-12.1443
▁kindersitz	-12.1447
▁begleiten	-12.1447
▁bär	-12.1448
▁idioten	-12.145
berichte	-12.1451
▁satellit	-12.1452
▁offenbart	-12.1455
▁seelen	-12.1457
▁schwimmende	-12.1461
▁lau	-12.1463
▁heimisch	-12.1466
▁symmetrische	-12.1468
▁künftige	-12.1468
▁schere	-12.1475
▁kindersitze	-12.1476
▁abbreche	-12.1476
▁anwender	-12.1484
▁gerichts	-12.1492
▁ziege	-12.1493
▁songs	-12.1497
▁verlasse	-12.1497
▁oliv	-12.1497
▁beendete	-12.1498
▁anlass	-12.1498
▁träg	-12.15
▁zwillinge	-12.1502
gleichung	-12.1505
▁sinnlos	-12.1506
rry	-12.1507
tete	-12.1511
▁hättest	-12.1514
▁make	-12.1515
dl	-12.1516
▁stressig	-12.1518
▁neuste	-12.1519
▁verdiene	-12.1519
▁staate	-12.1523
▁schluck	-12.1523
gut	-12.1525
ester	-12.153
▁speichert	-12.1531
▁chromosom	-12.1533
getaucht	-12.1536
prothese	-12.1537
bezirk	-12.1538
saison	-12.1538
konzert	-12.1538
detektor	-12.1539
konsum	-12.1539
milch	-12.1539
untersuchung	-12.154
klima	-12.154
konstruktion	-12.154
kredit	-12.154
▁gegenstück	-12.1544
▁forderte	-12.1545
▁vermarkt	-12.1547
▁röhre	-12.1551
▁verkleiner	-12.1563
beutel	-12.1564
gehend	-12.1564
▁sünde	-12.1566
▁rauszu	-12.1566
entwickelt	-12.1567
▁italienisch	-12.157
minuten	-12.1574
scanner	-12.1575
▁gründung	-12.1578
helfer	-12.1579
reserv	-12.158
▁samstag	-12.1582
▁vorherrschende	-12.1584
▁mine	-12.1584
▁geschick	-12.1585
▁etablier	-12.159
▁cc	-12.159
wusst	-12.1592
▁kühlt	-12.1593
▁diagnostizier	-12.1594
▁bauchspeichel	-12.1598
▁korn	-12.1599
▁einkaufs	-12.1601
morph	-12.1604
▁luc	-12.1605
rollt	-12.1607
▁wachs	-12.1609
▁verlieb	-12.161
▁supernova	-12.161
jahre	-12.1611
unterschiede	-12.1611
▁effektivste	-12.1619
▁feste	-12.1619
▁stören	-12.1619
oc	-12.1624
▁mysteriöse	-12.1624
tropfen	-12.1627
▁brennende	-12.1629
igkeiten	-12.163
ness	-12.1631
▁realistische	-12.1639
▁geschaut	-12.1639
ura	-12.1642
▁vermögens	-12.1645
▁dreiecke	-12.1646
▁kisten	-12.1646
▁therapeut	-12.1648
▁kraftvolle	-12.1649
▁verwundbar	-12.165
▁rückzug	-12.1652
▁ausgrab	-12.1652
▁investment	-12.1652
▁taiwan	-12.1652
glades	-12.1652
▁silikon	-12.1652
stöckige	-12.1652
▁1,8	-12.1652
▁angeregt	-12.1652
▁anhört	-12.1652
▁annäherung	-12.1652
▁apotheke	-12.1652
▁dylan	-12.1652
▁erholung	-12.1652
▁explizit	-12.1652
▁gefecht	-12.1652
▁genozid	-12.1652
▁gestresst	-12.1652
▁guardian	-12.1652
▁ikea	-12.1652
▁metaphorisch	-12.1652
▁mexikanische	-12.1652
▁moslem	-12.1652
▁odysse	-12.1652
▁pentagon	-12.1652
▁resultiert	-12.1652
▁schlaganfall	-12.1652
▁serotonin	-12.1652
▁storycorps	-12.1652
▁tagtäglich	-12.1652
▁teszler	-12.1652
▁unbehagen	-12.1652
▁unbequem	-12.1652
▁unwichtig	-12.1652
▁verdrahtet	-12.1652
▁bakterielle	-12.1652
▁mächte	-12.1652
▁unzureichend	-12.1652
▁assoziation	-12.1652
▁jersey	-12.1652
▁verpackt	-12.1652
▁schräg	-12.1652
▁rhythm	-12.1652
▁furchterregend	-12.1652
▁verschrieben	-12.1652
▁tunesien	-12.1652
▁ungemein	-12.1652
▁kreide	-12.1652
▁toyota	-12.1652
▁googel	-12.1653
▁ersparnisse	-12.1653
▁orgasmus	-12.1653
▁querschnitt	-12.1653
▁umlaufbahn	-12.1653
▁stimulieren	-12.1653
▁enkelkinder	-12.1653
▁kopfhörer	-12.1653
▁enttäuschung	-12.1653
geschoben	-12.1653
▁begehren	-12.1653
▁hirnregion	-12.1653
▁tierärzte	-12.1653
▁good	-12.1653
▁regieren	-12.1653
▁parkplätze	-12.1653
▁markierung	-12.1653
▁erlangt	-12.1653
▁niederschlag	-12.1654
boson	-12.1654
yves	-12.1654
▁dokumentation	-12.1654
▁bedacht	-12.1654
geweckt	-12.1655
schweige	-12.1655
web	-12.1655
▁flugbahn	-12.1655
▁behielt	-12.1655
▁stumm	-12.1655
▁versuchsperson	-12.1655
▁robbe	-12.1655
▁portion	-12.1656
▁sterberate	-12.1656
▁juan	-12.1657
▁lebenszyklus	-12.1657
▁passage	-12.1657
▁walter	-12.1657
▁lebensmitteln	-12.1657
▁beleuchtet	-12.1658
▁begrenzen	-12.1658
▁umweltprobleme	-12.1658
▁arbeitgeber	-12.1658
selig	-12.1658
▁führungsperson	-12.1658
▁zugute	-12.1659
▁aufgeklärt	-12.1659
▁boss	-12.1659
▁83	-12.1659
feuert	-12.1659
haltige	-12.166
▁feuert	-12.166
▁floh	-12.1661
▁rotation	-12.1662
▁kraftvoll	-12.1663
▁muttersprache	-12.1663
▁robot	-12.1664
▁anfänge	-12.1665
▁unterrichte	-12.1666
▁anästhesie	-12.1666
▁häuptling	-12.1666
▁superstar	-12.1666
▁intensivstation	-12.1667
nullsummenspiel	-12.1667
▁durchsuchen	-12.1667
▁aura	-12.1668
▁unbeabsichtigte	-12.1669
▁rucksack	-12.1671
▁schwingen	-12.1671
▁problemlösung	-12.1672
▁satt	-12.1672
▁sporen	-12.1672
▁verrichtet	-12.1672
▁grundgedanke	-12.1674
▁ermächtig	-12.1675
▁misserfolg	-12.1675
▁auszubilden	-12.1676
▁bestreite	-12.1676
▁schmuck	-12.1676
▁sponsor	-12.1677
▁gegebenheit	-12.168
▁auszeichnung	-12.1681
▁mix	-12.1682
stoffe	-12.1682
▁zaun	-12.1683
biologie	-12.1683
▁erdacht	-12.1685
▁richtiger	-12.1687
▁eigentümer	-12.1687
▁think	-12.1687
▁butter	-12.1688
▁finster	-12.1688
▁kraftstoff	-12.169
▁bereichern	-12.169
▁bergbau	-12.169
▁ruiniert	-12.1691
▁charakteristik	-12.1693
▁tb	-12.1693
▁überzogen	-12.1693
spray	-12.1695
▁arbeitskraft	-12.1698
▁water	-12.1701
▁handlungs	-12.1701
uten	-12.1703
▁härteste	-12.1705
▁glass	-12.1707
▁erschossen	-12.1708
▁medic	-12.1709
▁forderung	-12.1709
▁ertrinken	-12.1711
▁rap	-12.1712
▁stückchen	-12.1715
▁transfer	-12.1716
▁erregung	-12.1717
▁praktik	-12.1718
mengen	-12.1718
player	-12.1723
▁dave	-12.1724
agnes	-12.1725
▁enzym	-12.1726
▁verdreht	-12.1727
▁eingebunden	-12.1728
▁schriftart	-12.1729
▁unterzeichnet	-12.173
▁sturz	-12.1731
▁maximal	-12.1735
▁wache	-12.1737
▁ausgelegt	-12.1737
fordert	-12.1739
nne	-12.1739
▁gau	-12.1739
▁geladen	-12.1742
stossen	-12.1746
▁fächer	-12.1746
▁vergleichbare	-12.1747
▁christ	-12.1748
▁frühesten	-12.1748
moses	-12.1749
▁khan	-12.1751
30	-12.1752
chester	-12.1753
▁siedlung	-12.1753
▁dicken	-12.1754
▁tai	-12.1754
liegende	-12.1755
zonen	-12.1756
weiterentwickelt	-12.1757
▁klappen	-12.1758
▁bestäuben	-12.1759
schmied	-12.176
▁zerfallen	-12.1761
▁widerleg	-12.1765
▁repräsentative	-12.1771
lung	-12.1771
▁reißen	-12.1771
▁soci	-12.1773
▁getränk	-12.1775
▁beamten	-12.1776
▁zauberer	-12.1779
bru	-12.1781
stempel	-12.1781
▁williams	-12.1781
▁unruhe	-12.1783
pad	-12.1783
▁akustische	-12.1783
▁intelligentes	-12.1784
▁produktiver	-12.1784
▁antennen	-12.1785
sfreiheit	-12.1785
▁vernachlässigt	-12.1789
person	-12.1789
▁mobilisier	-12.179
▁festleg	-12.1793
▁befürchten	-12.1793
▁einmalige	-12.1797
gestürzt	-12.18
▁zugehörigkeit	-12.1802
komponenten	-12.1805
▁lineare	-12.1805
▁rückgäng	-12.1813
▁jeans	-12.1813
guate	-12.1819
prall	-12.1819
▁kletter	-12.1819
▁erleide	-12.182
▁subvention	-12.182
ark	-12.1822
▁wegge	-12.1823
▁eh	-12.1825
▁bitter	-12.1827
bleiben	-12.1829
fahrzeug	-12.1831
▁ausweiten	-12.1835
molekül	-12.1836
▁2.0	-12.1839
▁eigenständig	-12.184
lux	-12.184
▁treibende	-12.1843
▁erneuer	-12.1844
▁gh	-12.1847
▁zurückleg	-12.1854
imitation	-12.1855
▁symmetrisch	-12.1856
▁abgeb	-12.1858
tzt	-12.1861
▁geduldige	-12.1863
telefon	-12.1865
▁hinkrieg	-12.1866
▁zettel	-12.1866
▁drama	-12.1871
▁gefangene	-12.1874
schöpft	-12.1877
rain	-12.188
stie	-12.1881
▁aufregender	-12.1884
▁bag	-12.1888
haar	-12.1888
▁spam	-12.1888
▁informierte	-12.1891
▁quadrate	-12.1892
▁ash	-12.1893
▁wahrer	-12.1894
▁rettete	-12.1896
▁12-	-12.1896
▁spendet	-12.1901
▁prim	-12.1903
▁kooperative	-12.1905
▁39	-12.1906
▁yo	-12.1908
▁spielerisch	-12.191
▁tech	-12.191
▁unzufrieden	-12.191
▁ständige	-12.1911
▁parasit	-12.1913
▁stunt	-12.1915
üben	-12.1918
▁leite	-12.1919
una	-12.1928
rine	-12.193
▁produzierte	-12.193
▁metalle	-12.1937
▁richte	-12.1937
alismus	-12.1938
architektonische	-12.1941
kunft	-12.1942
▁relative	-12.1943
asse	-12.1949
lied	-12.1951
▁enc	-12.1954
▁day	-12.1955
▁steig	-12.1961
▁hypothetische	-12.1963
▁erschaffe	-12.1966
kle	-12.1971
▁kim	-12.1973
▁cooler	-12.1974
kurse	-12.1975
phil	-12.1976
▁vernichten	-12.1979
▁urheberrechts	-12.1981
▁ausdrücke	-12.1984
▁ableit	-12.1988
▁boots	-12.199
strecke	-12.1991
damm	-12.1992
▁lerne	-12.1993
▁handwerk	-12.1994
▁urbanisier	-12.1995
▁angabe	-12.1996
deckung	-12.1996
▁komplexere	-12.1997
schutzgebiet	-12.1998
▁zerbrech	-12.1999
schlug	-12.1999
▁radi	-12.2002
▁anstoß	-12.2002
▁grade	-12.2004
▁predig	-12.2005
schloss	-12.2006
schrieb	-12.2006
ome	-12.2006
▁tattoo	-12.2008
8.000	-12.2008
▁truppe	-12.2009
schirm	-12.2009
neigung	-12.201
minister	-12.2011
amerika	-12.2012
verfahren	-12.2013
watt	-12.2013
produzent	-12.2013
generator	-12.2013
bedarf	-12.2013
werbung	-12.2014
fremd	-12.2014
marsch	-12.2014
protokoll	-12.2014
nobelpreis	-12.2014
▁beeinträchtig	-12.2014
▁betreffend	-12.2014
periode	-12.2014
sandwich	-12.2014
pilot	-12.2015
kolonie	-12.2015
origami	-12.2015
pyramide	-12.2015
gelände	-12.2015
abschnitt	-12.2016
held	-12.2016
wälder	-12.2016
nummer	-12.2016
partei	-12.2016
architektur	-12.2016
vogel	-12.2016
löcher	-12.2016
▁revolutionäre	-12.2017
▁bleibe	-12.2018
▁gesetzlich	-12.2019
▁anfänglich	-12.202
aktivist	-12.2021
ppel	-12.2022
suppe	-12.2022
wüste	-12.2025
▁flüchtling	-12.2036
▁blöd	-12.2041
fernseh	-12.2048
▁mischt	-12.205
tour	-12.2057
▁sinnes	-12.207
▁fri	-12.207
▁verabreich	-12.2071
▁muslim	-12.2072
shi	-12.2078
▁press	-12.2084
runde	-12.2085
sprüh	-12.2086
▁mel	-12.2087
16	-12.209
setzung	-12.2092
trotz	-12.2092
▁reagierte	-12.2093
▁ausweg	-12.2093
▁muß	-12.2095
▁weiger	-12.2095
▁bereitete	-12.2096
▁network	-12.2096
katastrophen	-12.2096
hlen	-12.2096
▁vertrieb	-12.2097
schwei	-12.2099
bit	-12.21
hop	-12.2102
west	-12.2106
▁ehrgeiz	-12.2106
▁pra	-12.2106
▁umgebende	-12.2108
erwärmung	-12.2109
▁spa	-12.2111
üsse	-12.2111
ektivität	-12.2113
gewinn	-12.2113
▁verteidigt	-12.2114
▁erkrank	-12.2114
▁verlorene	-12.2121
life	-12.2126
▁schrie	-12.2128
▁faust	-12.2128
▁virtual	-12.2129
erschütterung	-12.2129
mordattentäter	-12.2129
▁1,6	-12.2129
▁algebra	-12.2129
▁arizona	-12.2129
▁ausdehnt	-12.2129
▁bienenstöcke	-12.2129
▁bronze	-12.2129
▁buckelwal	-12.2129
▁cameron	-12.2129
▁erschüttert	-12.2129
▁fernbedienung	-12.2129
▁holocaust	-12.2129
▁hubble	-12.2129
▁karibik	-12.2129
▁malediv	-12.2129
▁nutzpflanzen	-12.2129
▁oregon	-12.2129
▁pfeffer	-12.2129
▁psychiatrie	-12.2129
▁pünktlich	-12.2129
▁reguliert	-12.2129
▁replikator	-12.2129
▁verschluck	-12.2129
▁westeuropa	-12.2129
▁wöchentlich	-12.2129
▁wölfe	-12.2129
▁ängstlich	-12.2129
ermittlung	-12.2129
händig	-12.2129
▁bedauerlich	-12.2129
▁erbgut	-12.2129
▁erobert	-12.2129
▁gezüchtet	-12.2129
▁lebzeiten	-12.2129
▁libyen	-12.2129
▁verschwörung	-12.2129
▁vorübergehend	-12.2129
▁einfließ	-12.2129
▁kulisse	-12.2129
▁vernichtet	-12.2129
▁befördern	-12.2129
▁leistungsstark	-12.2129
▁ostasien	-12.2129
▁hosentasche	-12.2129
▁konsens	-12.2129
kommission	-12.2129
peace	-12.2129
▁nahtlos	-12.2129
drüsenkrebs	-12.2129
▁virale	-12.2129
▁hitler	-12.2129
▁gaza	-12.2129
▁ballast	-12.2129
▁schwör	-12.2129
▁verschob	-12.2129
▁mittelmeer	-12.2129
▁fischfang	-12.2129
▁hochentwickelte	-12.2129
▁familienplanung	-12.2129
▁dorfbewohner	-12.213
▁bäckerei	-12.213
▁umwerfend	-12.213
▁portland	-12.213
▁sars	-12.213
▁jackson	-12.213
▁wirkstoff	-12.213
▁risikofaktor	-12.213
▁yale	-12.213
▁barry	-12.213
▁bbc	-12.2131
▁philippin	-12.2131
▁helligkeit	-12.2131
▁berufsleben	-12.2131
▁ziegel	-12.2131
schnell	-12.2132
▁radar	-12.2132
bertie	-12.2132
▁waage	-12.2132
▁auswertung	-12.2132
▁verfassen	-12.2133
▁norman	-12.2133
▁gewaltsam	-12.2133
▁junk	-12.2133
▁kran	-12.2133
▁bono	-12.2133
▁verwaltet	-12.2133
▁abheb	-12.2135
▁gehirnaktivität	-12.2135
▁lebensspanne	-12.2136
▁empfehlung	-12.2137
wandern	-12.2138
kul	-12.2138
▁nordafrika	-12.2139
▁hinüber	-12.2139
▁freundlichkeit	-12.2139
▁ausdehnung	-12.2141
▁extremer	-12.2142
▁traurigkeit	-12.2142
gebrannt	-12.2143
riegel	-12.2143
▁murmel	-12.2143
▁gefährt	-12.2144
▁artefakte	-12.2145
handschuh	-12.2145
▁deal	-12.2145
▁clark	-12.2146
▁regiert	-12.2146
▁lehrbücher	-12.2146
▁anfühl	-12.2147
▁rg	-12.2148
▁church	-12.2148
▁käufer	-12.2148
▁applikation	-12.2148
▁erwärmt	-12.2149
▁klingelt	-12.2149
▁menschenaffen	-12.2149
armstrong	-12.2149
gebieten	-12.2152
sverfahren	-12.2153
▁gremium	-12.2154
▁pistole	-12.2154
wanderung	-12.2155
▁mau	-12.2155
▁suchmaschine	-12.2156
▁dreifache	-12.2157
bul	-12.2159
▁dritt	-12.216
▁verbannt	-12.216
▁injizieren	-12.2164
▁vereinbar	-12.2164
▁angewohnheit	-12.2166
▁sony	-12.2166
▁ausnutzen	-12.2168
▁walk	-12.2168
▁regisseur	-12.2171
wechseln	-12.2172
▁verdreifacht	-12.2173
▁nichtsdesto	-12.2173
▁strenge	-12.2176
▁mil	-12.2177
▁surfer	-12.2177
hamas	-12.2177
▁flöten	-12.2177
▁eva	-12.2178
fahr	-12.2179
▁bearbeitung	-12.2182
erziehung	-12.2185
▁kunstform	-12.2185
▁rausgehe	-12.2187
▁verabreicht	-12.2187
▁blutige	-12.2187
▁trivial	-12.219
▁dating	-12.2195
▁rang	-12.2197
▁wander	-12.2198
▁82	-12.2199
▁einsparung	-12.22
schlafen	-12.2203
▁senkt	-12.2203
▁kre	-12.2203
▁nackte	-12.2203
▁ausführung	-12.2204
tv	-12.2204
▁strömung	-12.2205
▁fluggerät	-12.2208
▁propheten	-12.221
▁relativitäts	-12.2211
erhöhung	-12.2211
▁verdrängt	-12.2212
▁weigerte	-12.2213
▁perfekter	-12.2215
positiv	-12.2217
▁blöde	-12.2217
▁scharfe	-12.2218
zahlung	-12.2221
▁gläsern	-12.2222
▁papiere	-12.2225
▁frag	-12.223
ahmen	-12.2231
▁arabien	-12.2233
▁beliebte	-12.2235
▁erhitzt	-12.2238
▁automatische	-12.2238
▁andy	-12.225
▁subjektiv	-12.2254
▁duft	-12.2255
▁replizieren	-12.2256
▁einbinden	-12.2257
▁außenseiter	-12.2258
▁schädlich	-12.2259
▁verschlechtert	-12.2259
▁78	-12.226
▁werben	-12.2263
inhaber	-12.2266
▁separate	-12.2269
▁darwins	-12.2269
▁mak	-12.227
▁ass	-12.2271
▁sofa	-12.2271
röhren	-12.2274
▁jud	-12.2274
prof	-12.2279
glas	-12.228
▁zweijährige	-12.2282
▁entnahm	-12.2282
▁abhol	-12.2285
▁obdachlos	-12.2287
unterschied	-12.2288
▁anspruchsvolle	-12.229
▁säure	-12.2291
▁bedeutender	-12.2295
▁vereinfachte	-12.2297
▁ausgleich	-12.2298
▁erwarteten	-12.2301
▁zeichne	-12.2304
▁banal	-12.2305
▁nuklearen	-12.2305
▁berges	-12.2306
▁modul	-12.2306
▁großbritanniens	-12.2317
▁symptom	-12.2326
▁eintrag	-12.2326
▁rohe	-12.233
▁auflös	-12.2331
▁fit	-12.2332
▁deutlicher	-12.2334
▁poet	-12.2334
▁verbrenn	-12.2335
▁lungenkrebs	-12.2337
▁soviele	-12.2337
bewässerung	-12.2341
▁baustelle	-12.2343
moral	-12.2351
▁naheleg	-12.2352
▁user	-12.2353
wolke	-12.2353
farbe	-12.2354
▁bohrer	-12.2356
▁vorfinde	-12.2356
▁grenzenlos	-12.2356
▁faszinierender	-12.2356
▁repariert	-12.2356
mine	-12.2357
▁beobachte	-12.2357
▁sara	-12.2358
▁verkündet	-12.2358
▁passive	-12.2363
▁herkomme	-12.2363
▁drogenabhängig	-12.2366
▁krebse	-12.2368
▁klicks	-12.2368
splan	-12.2371
unternehmer	-12.2376
▁gebot	-12.2382
rührt	-12.2385
▁vergess	-12.2387
welle	-12.2389
foto	-12.239
▁unglück	-12.2391
▁360	-12.2391
fassung	-12.2393
▁hasste	-12.2393
▁gerichte	-12.2397
hatte	-12.2406
▁programms	-12.2407
▁lea	-12.2408
▁umstand	-12.2409
▁geologische	-12.2412
name	-12.2413
▁leitende	-12.2415
ison	-12.2416
▁fehlern	-12.2418
▁eindringen	-12.242
banis	-12.2423
straßen	-12.2427
60	-12.2434
▁gebühren	-12.2435
ridge	-12.2436
▁geheil	-12.2437
gebunden	-12.2439
zufinden	-12.2442
wertet	-12.2443
will	-12.2449
red	-12.2452
pont	-12.2452
▁optimale	-12.2452
▁finanzen	-12.2457
▁zittern	-12.2461
brach	-12.2462
▁afro	-12.2464
flugzeuge	-12.247
▁5-	-12.247
▁erkenne	-12.2472
▁ausgebildete	-12.2474
▁untersuche	-12.2475
▁geheimdienst	-12.2476
▁obdachlosen	-12.2481
fragmente	-12.2483
gestaltung	-12.2484
geordnet	-12.2486
▁studiere	-12.2488
40	-12.2489
for	-12.249
kleber	-12.249
paket	-12.2491
▁aminosäure	-12.2492
▁verfolgte	-12.2493
werbe	-12.2494
kali	-12.2497
lisa	-12.2498
▁klage	-12.2502
▁hor	-12.2505
höhle	-12.2506
fähige	-12.2507
schüsse	-12.251
pri	-12.2511
abhängig	-12.2512
▁nasen	-12.2513
fiction	-12.2513
store	-12.2513
▁sit	-12.2513
abgeordnete	-12.2514
protein	-12.2515
stuhl	-12.2516
stift	-12.2516
pool	-12.2516
kategorie	-12.2516
transport	-12.2516
budget	-12.2516
mikroskop	-12.2516
krankenhaus	-12.2516
betracht	-12.2517
gefüllt	-12.2517
faser	-12.2519
teams	-12.2521
nerv	-12.2521
aid	-12.2526
finger	-12.2527
▁drehe	-12.2528
▁bp	-12.253
▁düstere	-12.2532
[...]
