<pad>	0
<s>	0
</s>	0
<unk>	0
▁,	-2.99059
▁.	-3.14884
▁the	-3.19017
s	-3.24528
▁and	-3.69092
▁to	-3.81216
▁'	-3.87284
▁a	-3.88035
▁of	-3.94704
▁that	-4.14902
▁i	-4.21303
▁it	-4.31493
▁in	-4.32291
▁you	-4.39927
y	-4.46044
▁we	-4.4614
▁is	-4.54894
ing	-4.55463
ed	-4.65247
▁	-4.76204
▁this	-4.76838
ly	-5.03998
▁so	-5.04291
▁"	-5.15369
▁was	-5.25179
t	-5.28811
▁for	-5.30149
▁what	-5.37207
▁have	-5.37352
▁are	-5.37354
▁with	-5.38172
d	-5.40194
▁but	-5.42341
▁on	-5.42897
▁--	-5.44752
▁can	-5.50239
▁be	-5.56568
▁?	-5.57082
-	-5.63578
▁about	-5.63736
▁there	-5.6596
re	-5.71836
▁all	-5.73742
▁do	-5.74367
▁at	-5.76295
▁not	-5.77042
▁one	-5.77268
▁an	-5.77686
n	-5.85915
▁my	-5.85958
▁like	-5.8722
▁people	-5.89182
▁if	-5.92277
▁from	-5.95956
▁as	-5.98353
▁now	-5.98749
▁he	-5.99125
▁these	-6.04021
▁just	-6.06301
▁or	-6.0725
▁our	-6.09228
▁:	-6.10076
▁when	-6.12223
▁because	-6.13758
▁think	-6.16663
▁know	-6.17487
very	-6.18391
▁me	-6.19593
▁out	-6.20037
▁how	-6.20616
▁by	-6.22792
▁up	-6.23214
m	-6.24066
▁going	-6.24762
▁see	-6.25726
▁them	-6.28465
▁more	-6.31731
▁had	-6.32899
ve	-6.32923
▁get	-6.32979
▁us	-6.34291
▁your	-6.34823
▁who	-6.34895
▁here	-6.349
▁which	-6.35138
▁would	-6.36806
▁some	-6.37734
▁were	-6.39947
▁their	-6.40846
▁want	-6.41579
▁look	-6.45705
▁time	-6.5041
▁world	-6.51475
▁go	-6.52171
▁actual	-6.53092
▁then	-6.539
▁has	-6.54866
▁other	-6.56802
▁don	-6.59157
▁every	-6.59309
▁no	-6.59825
▁way	-6.59835
▁into	-6.61138
▁could	-6.62117
▁where	-6.63434
▁will	-6.65402
▁did	-6.66056
▁things	-6.67762
▁years	-6.68826
▁well	-6.68989
e	-6.69065
▁make	-6.74187
ies	-6.74799
▁right	-6.74862
▁say	-6.77746
▁been	-6.77995
▁said	-6.82027
▁start	-6.82806
▁reall	-6.82988
▁something	-6.84263
▁she	-6.85374
▁first	-6.86266
▁two	-6.8659
▁those	-6.89542
▁kind	-6.91924
▁much	-6.92096
▁thing	-6.92902
▁call	-6.93002
▁real	-6.93092
▁new	-6.93708
▁than	-6.93926
▁got	-6.94199
▁little	-6.94463
▁need	-6.94575
▁over	-6.94798
lso	-6.95288
▁come	-6.95383
es	-6.96734
▁back	-6.97798
▁lot	-6.98589
▁most	-6.98635
▁work	-6.99293
▁talk	-7.0245
▁life	-7.0562
▁his	-7.06903
▁even	-7.07244
▁take	-7.07478
▁only	-7.08591
ll	-7.11313
▁good	-7.11803
▁many	-7.11878
▁any	-7.12559
.	-7.12713
▁does	-7.15909
▁different	-7.16453
▁why	-7.19548
▁through	-7.20407
▁change	-7.22148
▁let	-7.22632
▁down	-7.23674
▁use	-7.285
▁show	-7.29612
day	-7.30078
▁same	-7.30285
▁great	-7.30453
▁give	-7.30717
▁her	-7.32045
▁try	-7.32389
▁put	-7.32978
▁;	-7.33325
▁being	-7.33674
▁three	-7.3443
▁tell	-7.40321
▁day	-7.40495
▁doing	-7.41191
▁part	-7.43502
▁place	-7.44761
▁ask	-7.4573
▁human	-7.46246
er	-7.47561
▁percent	-7.48491
ity	-7.49254
▁made	-7.51281
▁thank	-7.51478
▁after	-7.51707
▁fact	-7.52919
▁find	-7.53251
▁year	-7.53756
▁question	-7.53844
▁happen	-7.55324
▁idea	-7.57024
▁should	-7.57399
▁own	-7.58516
▁last	-7.5921
other	-7.59643
▁big	-7.60205
▁thought	-7.6161
▁important	-7.6373
▁him	-7.65336
▁before	-7.65369
▁course	-7.66321
▁end	-7.67235
▁again	-7.67959
▁problem	-7.68654
▁never	-7.69333
▁point	-7.70414
▁bit	-7.71606
▁might	-7.71946
▁better	-7.72199
▁love	-7.73073
a	-7.73117
▁off	-7.7333
▁live	-7.73404
▁system	-7.74427
▁brain	-7.7453
▁school	-7.75107
▁design	-7.75243
▁sort	-7.75464
▁mean	-7.75485
ally	-7.75735
▁help	-7.75751
body	-7.75931
▁next	-7.76131
▁create	-7.76222
▁million	-7.76509
▁story	-7.7711
▁few	-7.77286
▁long	-7.77408
▁still	-7.77711
▁able	-7.77759
▁ago	-7.78225
▁water	-7.78615
▁each	-7.78719
▁play	-7.79204
around	-7.79228
▁together	-7.7986
▁number	-7.81266
in	-7.81957
▁came	-7.82766
▁technology	-7.82818
r	-7.8354
▁second	-7.84971
▁ever	-7.85078
▁learn	-7.85173
▁example	-7.87342
▁between	-7.88254
▁found	-7.88482
▁maybe	-7.8949
▁women	-7.90401
▁believe	-7.90911
▁done	-7.91119
▁used	-7.91552
able	-7.91598
▁become	-7.91897
▁too	-7.92492
▁data	-7.92583
▁understand	-7.93875
▁feel	-7.94104
thing	-7.94678
al	-7.94973
out	-7.95041
▁whole	-7.95871
▁four	-7.96597
▁light	-7.96708
▁hear	-7.96957
▁turn	-7.97395
▁al	-7.97601
round	-7.99406
▁children	-8.00175
▁may	-8.00917
▁person	-8.01205
▁always	-8.01375
▁man	-8.02531
▁building	-8.02561
▁working	-8.02568
l	-8.02917
▁10	-8.04437
ce	-8.04564
▁five	-8.04956
▁reason	-8.05129
▁away	-8.05973
▁old	-8.07092
▁country	-8.07304
▁small	-8.07334
▁power	-8.07354
▁space	-8.07821
▁basic	-8.07988
▁picture	-8.08033
ok	-8.08158
on	-8.08554
▁health	-8.08914
▁computer	-8.09569
▁information	-8.10211
▁kids	-8.10306
▁project	-8.10567
▁20	-8.10852
▁high	-8.10944
▁sense	-8.11789
▁experience	-8.12006
▁move	-8.12205
▁home	-8.12827
self	-8.13545
nt	-8.13796
▁money	-8.14168
▁food	-8.1488
ves	-8.15356
▁b	-8.15637
▁interesting	-8.1663
▁left	-8.16643
quite	-8.16878
▁open	-8.17015
▁means	-8.1725
▁moment	-8.17735
h	-8.18597
▁form	-8.18832
▁case	-8.18903
▁enough	-8.19575
▁probabl	-8.20545
▁best	-8.21061
▁bring	-8.21187
▁walk	-8.21384
▁future	-8.22513
▁hard	-8.23098
▁develop	-8.23315
ever	-8.23482
▁large	-8.23664
o	-8.23752
▁mak	-8.23822
▁car	-8.23955
▁science	-8.24021
▁energy	-8.24382
▁stuff	-8.25201
▁half	-8.25535
ness	-8.25612
ld	-8.25758
ion	-8.26306
▁social	-8.26371
▁group	-8.26647
▁less	-8.27085
▁hand	-8.27162
▁business	-8.27445
▁imagine	-8.28255
▁room	-8.28593
▁pretty	-8.28754
▁under	-8.28943
▁job	-8.29245
▁else	-8.29641
▁keep	-8.30202
▁coming	-8.3068
▁africa	-8.30701
▁build	-8.30965
▁simple	-8.30992
▁side	-8.31712
▁dollars	-8.31789
▁such	-8.31985
▁piece	-8.31999
▁gett	-8.32136
▁game	-8.32855
▁student	-8.32898
▁earth	-8.33357
▁body	-8.33575
▁planet	-8.33592
▁allow	-8.33867
▁city	-8.34255
▁un	-8.34666
▁grow	-8.34699
▁countr	-8.34989
▁times	-8.35115
▁set	-8.35123
▁line	-8.35508
▁government	-8.35905
▁once	-8.36091
▁oka	-8.36179
▁across	-8.36267
▁billion	-8.36472
▁matter	-8.37032
▁week	-8.37097
▁bad	-8.37512
▁saw	-8.37626
▁hav	-8.37744
▁process	-8.3776
▁face	-8.38132
▁seem	-8.38521
▁t	-8.38578
▁far	-8.3874
▁later	-8.38885
▁particular	-8.39158
▁living	-8.39483
▁war	-8.39518
▁answer	-8.3962
▁yet	-8.3964
▁close	-8.39647
▁u	-8.39723
▁am	-8.39745
one	-8.4062
▁remember	-8.40639
▁book	-8.41224
▁six	-8.4182
▁care	-8.41922
▁seen	-8.41996
ything	-8.4247
▁while	-8.42725
▁mind	-8.43086
▁lives	-8.43174
▁language	-8.43259
▁men	-8.43872
ther	-8.43876
▁top	-8.44212
▁sure	-8.44818
▁young	-8.44923
▁single	-8.45109
▁family	-8.45109
▁almost	-8.45733
▁interest	-8.45909
▁thousand	-8.45961
est	-8.46014
▁guy	-8.46125
▁certain	-8.46256
▁watch	-8.46257
▁inside	-8.46476
▁age	-8.46943
w	-8.46988
▁nothing	-8.47235
▁level	-8.47485
▁market	-8.47628
▁both	-8.48288
▁happens	-8.48643
▁discover	-8.4892
▁art	-8.4918
▁child	-8.49485
▁study	-8.50124
ready	-8.5032
▁states	-8.50417
▁hope	-8.5049
▁american	-8.50963
▁exact	-8.51101
▁global	-8.51111
▁video	-8.51127
▁possible	-8.51465
▁figure	-8.51781
▁history	-8.51988
▁final	-8.52313
▁cancer	-8.52326
▁wrong	-8.53046
went	-8.53755
▁true	-8.53807
▁realize	-8.53921
▁amazing	-8.53939
▁unit	-8.53968
▁problems	-8.54344
▁control	-8.54402
▁order	-8.54714
ic	-8.54831
▁run	-8.55001
▁someone	-8.55014
▁disease	-8.55268
▁read	-8.55357
▁beautiful	-8.55384
▁couple	-8.55748
▁often	-8.55966
▁saying	-8.56053
th	-8.56157
▁music	-8.56632
▁days	-8.57003
▁self	-8.57154
▁makes	-8.57184
▁girl	-8.57369
▁yes	-8.58087
▁head	-8.58099
▁oh	-8.58212
▁test	-8.58333
▁patient	-8.58453
▁myself	-8.5945
▁public	-8.59685
▁ideas	-8.59717
▁since	-8.59756
▁stop	-8.59906
▁universe	-8.60219
▁sometimes	-8.60535
▁ok	-8.60735
▁force	-8.60739
▁house	-8.6079
nstead	-8.60947
▁mov	-8.61033
▁word	-8.61407
▁nature	-8.61686
▁environment	-8.61828
st	-8.62114
▁hundred	-8.62154
▁difference	-8.6218
us	-8.62192
▁built	-8.62203
▁issue	-8.62275
▁looked	-8.62507
▁community	-8.62591
▁research	-8.62917
▁species	-8.62933
▁woman	-8.633
▁state	-8.63636
▁model	-8.64121
▁middle	-8.64546
▁months	-8.64575
▁education	-8.64675
▁cells	-8.64766
▁entire	-8.64794
▁term	-8.64824
▁words	-8.65091
ation	-8.6561
▁god	-8.65775
▁follow	-8.65777
▁individual	-8.66502
▁name	-8.6657
▁30	-8.66999
▁natural	-8.67384
▁completely	-8.67464
▁internet	-8.68276
▁mother	-8.68762
▁quick	-8.68795
▁pe	-8.68981
▁goe	-8.69146
▁50	-8.69289
▁decided	-8.69408
▁unti	-8.6959
▁ocean	-8.69612
▁india	-8.69726
▁heart	-8.69885
▁huge	-8.70259
▁though	-8.70359
▁ways	-8.70404
▁speak	-8.70767
▁america	-8.70775
▁sound	-8.7088
came	-8.70964
▁share	-8.71438
▁yea	-8.7176
▁third	-8.71953
▁friends	-8.72452
▁society	-8.72655
▁clear	-8.72762
▁leave	-8.73187
▁spend	-8.73299
▁rather	-8.73651
▁night	-8.73741
▁animals	-8.73863
▁must	-8.74105
▁stand	-8.74183
▁company	-8.74623
▁machine	-8.74887
▁oursel	-8.74909
▁culture	-8.74941
▁200	-8.75038
▁happening	-8.75224
▁per	-8.75402
▁along	-8.7579
▁front	-8.75887
▁re	-8.76137
▁air	-8.76449
▁program	-8.76512
▁pay	-8.76791
msel	-8.77215
▁economic	-8.77332
▁past	-8.77691
▁minutes	-8.7815
▁...	-8.78192
▁ted	-8.78439
▁fly	-8.78667
rhaps	-8.79338
▁bigge	-8.79387
▁free	-8.79391
▁won	-8.80576
▁audience	-8.80963
▁act	-8.8101
▁hours	-8.81259
▁creat	-8.81272
▁turns	-8.81513
▁100	-8.81674
▁buy	-8.81717
▁die	-8.82057
taking	-8.8212
▁teacher	-8.82283
▁seven	-8.82292
ability	-8.82295
▁plant	-8.8232
▁paper	-8.82469
▁center	-8.82676
▁guys	-8.82684
▁focus	-8.82716
▁simpl	-8.82744
▁cause	-8.82802
▁difficult	-8.83216
▁happy	-8.83218
▁least	-8.83827
▁oil	-8.83845
▁early	-8.83932
▁network	-8.8414
▁color	-8.84573
▁obvious	-8.846
▁poor	-8.84603
▁field	-8.84786
▁structure	-8.84922
▁cell	-8.85072
▁local	-8.85177
▁listen	-8.85224
▁gave	-8.85376
where	-8.85637
▁learning	-8.85691
▁land	-8.85762
▁object	-8.85806
▁worked	-8.86039
▁step	-8.86256
▁full	-8.86689
▁robot	-8.86777
▁amount	-8.868
▁experiment	-8.8703
▁green	-8.87057
▁death	-8.87114
▁wonderful	-8.87257
▁black	-8.87374
▁outside	-8.87407
▁area	-8.87461
▁cost	-8.8768
▁15	-8.87885
▁works	-8.88222
▁tree	-8.88404
▁deal	-8.89076
gan	-8.8933
▁common	-8.89502
ne	-8.89645
▁voice	-8.89663
▁view	-8.89694
▁china	-8.89819
▁shape	-8.89824
▁fish	-8.89994
▁wait	-8.9064
against	-8.90689
▁e	-8.90997
▁image	-8.91048
▁century	-8.91402
▁whe	-8.91426
▁during	-8.92178
k	-8.92268
▁scale	-8.92315
▁g	-8.9239
▁map	-8.92746
▁beginning	-8.92788
▁pick	-8.92885
▁taken	-8.92914
▁sea	-8.93051
▁produce	-8.93072
▁pattern	-8.93213
▁population	-8.93274
▁effect	-8.93796
ment	-8.93802
▁exist	-8.93812
▁explain	-8.93975
▁drive	-8.94315
▁lead	-8.94705
▁short	-8.94767
▁blue	-8.94821
▁ca	-8.95113
▁easy	-8.95156
▁eight	-8.95401
▁absolute	-8.95844
▁behind	-8.95845
▁media	-8.95848
▁friend	-8.96102
▁systems	-8.96242
▁size	-8.96279
less	-8.96811
▁film	-8.97317
▁doctor	-8.97414
um	-8.97495
▁normal	-8.97612
▁team	-8.97754
▁eyes	-8.97834
▁choice	-8.97936
▁father	-8.97939
▁personal	-8.98583
▁physical	-8.98645
▁support	-8.98894
▁feeling	-8.9928
▁value	-8.9945
▁powerful	-8.9974
i	-9.00188
▁begin	-9.00253
▁slow	-9.00254
▁perfect	-9.00367
▁notice	-9.0037
year	-9.00455
▁red	-9.00491
▁movement	-9.00833
▁surface	-9.01178
ten	-9.0132
▁stay	-9.01579
▁behavior	-9.01823
▁stage	-9.01988
▁19	-9.02091
▁national	-9.02246
▁longer	-9.0245
▁organization	-9.02472
▁york	-9.02535
▁companies	-9.02626
▁add	-9.02902
▁safe	-9.03313
▁near	-9.03556
▁rest	-9.0357
▁reach	-9.03826
▁complex	-9.0404
▁parents	-9.04058
▁hands	-9.04743
▁sudden	-9.04867
▁phone	-9.04874
▁save	-9.04911
▁tried	-9.04994
▁ground	-9.05064
▁k	-9.05464
▁c	-9.05659
▁generation	-9.0566
▁news	-9.05692
▁present	-9.05719
▁w	-9.05855
▁treat	-9.06013
▁street	-9.06027
▁service	-9.06235
▁challenge	-9.06311
▁situation	-9.06582
▁white	-9.06746
▁cities	-9.06979
▁nice	-9.07227
old	-9.07295
▁eat	-9.07472
▁wonder	-9.07541
▁political	-9.07833
▁resource	-9.08329
▁general	-9.08371
▁felt	-9.08725
▁rate	-9.08802
▁animal	-9.0881
▁write	-9.0901
▁record	-9.09041
▁fall	-9.091
▁south	-9.09305
▁spen	-9.09626
▁feet	-9.0995
▁send	-9.09956
▁kne	-9.09998
▁opportunity	-9.10303
▁low	-9.10335
▁sun	-9.10652
▁expect	-9.10883
▁extreme	-9.11107
c	-9.11187
▁40	-9.11337
▁co	-9.11491
▁condition	-9.11566
▁dna	-9.11708
▁access	-9.1172
▁hold	-9.1206
▁incredible	-9.12164
▁growth	-9.12183
▁leg	-9.12573
▁cut	-9.12723
▁result	-9.12774
▁protect	-9.13335
▁stori	-9.13467
▁sitt	-9.13495
giving	-9.13769
▁bottom	-9.13969
▁photograph	-9.14091
▁travel	-9.14786
▁innovation	-9.14787
▁economy	-9.15207
▁anyone	-9.15599
▁attention	-9.15633
0	-9.15699
▁average	-9.1628
▁artist	-9.16328
▁impact	-9.16688
▁action	-9.16982
▁pull	-9.1733
▁toward	-9.17342
▁increase	-9.17534
▁english	-9.17536
▁born	-9.17714
▁known	-9.17738
▁solve	-9.17866
▁forward	-9.17879
▁technologies	-9.18181
▁knowledge	-9.18198
▁de	-9.18499
▁literal	-9.18509
▁risk	-9.18535
▁similar	-9.18641
▁dark	-9.18779
▁fight	-9.1893
▁approach	-9.18969
▁consider	-9.19465
▁electric	-9.19673
▁serious	-9.19701
▁cool	-9.19713
▁memor	-9.19818
▁los	-9.19929
▁lab	-9.19932
▁material	-9.20127
▁areas	-9.20197
▁key	-9.20269
▁climate	-9.20372
rought	-9.20567
▁morning	-9.20584
ous	-9.20609
▁camera	-9.2061
▁essential	-9.20787
▁theory	-9.20953
▁pass	-9.2116
▁kid	-9.21347
▁measure	-9.21504
▁fun	-9.21741
5	-9.21902
▁strong	-9.21953
▁north	-9.22042
▁law	-9.22048
▁potential	-9.22144
▁scientists	-9.22341
▁cover	-9.22415
▁main	-9.22649
▁somebod	-9.22796
▁books	-9.22923
▁wrote	-9.23048
▁wall	-9.23065
▁runn	-9.23186
▁takes	-9.23546
▁continue	-9.23602
▁fear	-9.23678
aught	-9.23791
▁hospital	-9.23805
▁deep	-9.23899
▁hit	-9.24172
▁guess	-9.24183
▁miles	-9.24183
▁movie	-9.24438
▁non	-9.24595
▁1	-9.248
▁chance	-9.24872
▁office	-9.25043
▁nation	-9.25236
▁page	-9.2543
▁village	-9.25466
▁fast	-9.25481
▁humans	-9.25545
▁12	-9.25718
▁blood	-9.25806
▁sit	-9.26033
ry	-9.26051
▁train	-9.26129
▁source	-9.26255
▁activit	-9.26499
▁met	-9.26615
▁please	-9.26714
▁late	-9.2706
▁current	-9.27208
▁images	-9.27649
▁meet	-9.27866
▁major	-9.27904
▁type	-9.28013
▁tin	-9.28035
▁understanding	-9.28058
▁revolution	-9.28366
▁development	-9.28479
▁tools	-9.28591
▁among	-9.28633
▁recently	-9.28713
▁raise	-9.2876
▁europe	-9.28863
land	-9.28908
2	-9.2904
▁modern	-9.29136
▁dead	-9.29314
▁soon	-9.29336
▁relationship	-9.29392
▁site	-9.29765
▁ver	-9.2981
▁solution	-9.29889
▁worth	-9.29916
man	-9.30182
▁product	-9.30352
▁provide	-9.30663
▁needs	-9.30823
▁goal	-9.31146
▁break	-9.31588
▁ice	-9.31752
▁represent	-9.3203
▁university	-9.32257
▁truth	-9.3228
▁web	-9.3229
▁smart	-9.32296
▁plan	-9.32451
incredibly	-9.32539
▁box	-9.32741
▁espe	-9.32797
cially	-9.32895
▁count	-9.32904
▁special	-9.33014
▁sell	-9.33221
▁easi	-9.33505
▁rich	-9.33512
▁touch	-9.33758
available	-9.33791
▁spread	-9.33979
▁specific	-9.34598
▁online	-9.34673
▁industry	-9.34808
▁telling	-9.34865
▁connect	-9.35618
▁fundamental	-9.35801
▁stor	-9.35879
▁african	-9.35892
▁teach	-9.36337
▁writing	-9.36344
▁solar	-9.36375
▁60	-9.36377
▁effective	-9.36401
▁medical	-9.36848
▁fire	-9.36863
▁forest	-9.37091
▁eye	-9.37092
▁evidence	-9.37128
▁message	-9.37237
to	-9.37434
▁track	-9.37583
▁push	-9.37636
▁scientific	-9.37944
▁direct	-9.38108
▁several	-9.38176
▁digital	-9.38212
▁shows	-9.38357
▁changing	-9.38565
▁baby	-9.38578
▁fair	-9.38719
▁18	-9.38726
▁chinese	-9.38968
▁nine	-9.39267
▁putting	-9.39353
▁base	-9.39397
▁beyon	-9.39518
▁mass	-9.39591
up	-9.39777
▁period	-9.39876
yourself	-9.40019
▁search	-9.40048
▁google	-9.40147
▁square	-9.40153
▁cars	-9.40315
▁month	-9.40327
▁boy	-9.40428
▁80	-9.40488
▁device	-9.40522
▁led	-9.40742
▁wish	-9.40892
▁evolution	-9.41093
▁region	-9.4139
en	-9.41486
▁affect	-9.41638
▁software	-9.41934
▁carbon	-9.41944
▁leaders	-9.42054
▁invent	-9.42186
▁function	-9.42443
▁vision	-9.42508
▁trust	-9.42618
▁involve	-9.42841
▁price	-9.43073
▁rules	-9.43083
▁attack	-9.43207
▁practice	-9.43263
ers	-9.4341
▁success	-9.43518
▁suggest	-9.4356
▁further	-9.43591
▁virus	-9.4362
▁securit	-9.43989
▁international	-9.44053
▁di	-9.44111
▁conversation	-9.44174
▁medicine	-9.44448
▁subject	-9.44706
▁compassion	-9.44709
▁favorite	-9.44713
▁position	-9.44716
▁role	-9.44992
▁hole	-9.44992
▁connection	-9.45023
▁sign	-9.45261
▁25	-9.45308
▁gas	-9.45367
le	-9.4548
▁draw	-9.45482
▁recognize	-9.45712
ism	-9.45792
▁molecule	-9.45839
▁response	-9.46126
▁mom	-9.46315
hether	-9.46481
▁visual	-9.46737
▁anyway	-9.46744
▁o	-9.46824
▁benefit	-9.47009
▁concept	-9.47243
▁east	-9.47245
,000	-9.4728
not	-9.47296
▁institution	-9.47447
▁speed	-9.47501
▁arm	-9.47529
▁kill	-9.47607
▁dream	-9.47661
▁song	-9.4781
▁equal	-9.47835
▁designer	-9.48123
▁successful	-9.48455
▁wind	-9.48531
▁usual	-9.48547
▁creative	-9.48548
more	-9.48657
▁collect	-9.48678
▁journey	-9.48725
▁tend	-9.48914
▁lose	-9.49195
▁everywhere	-9.49281
▁predict	-9.49577
▁treatment	-9.49628
▁throw	-9.49629
▁onto	-9.49655
▁carry	-9.49769
▁surprise	-9.49904
▁hour	-9.50142
▁quality	-9.50191
▁necessar	-9.502
▁character	-9.50307
▁road	-9.50421
▁sounds	-9.50625
▁positive	-9.50862
▁describe	-9.50913
▁chemical	-9.51116
▁11	-9.51123
▁require	-9.51218
ton	-9.51347
▁extraordinar	-9.51398
▁park	-9.51491
▁finding	-9.51952
▁table	-9.51983
▁eventually	-9.52013
▁flow	-9.52031
▁remain	-9.52062
▁list	-9.5215
▁meaning	-9.5224
▁skin	-9.52356
▁aren	-9.52378
▁class	-9.52389
▁materials	-9.52432
▁store	-9.52488
▁west	-9.52535
▁bas	-9.52538
▁version	-9.52664
▁violen	-9.52728
▁direction	-9.52951
ither	-9.53108
▁sex	-9.53576
▁college	-9.53833
▁traditional	-9.53906
▁d	-9.53936
▁join	-9.54276
▁content	-9.54459
▁block	-9.54477
▁hiv	-9.54533
▁screen	-9.54558
▁exciting	-9.54772
▁transform	-9.54811
▁fine	-9.55007
▁trial	-9.55093
▁nuclear	-9.55097
▁conflict	-9.55142
how	-9.55167
▁code	-9.55208
▁appear	-9.55379
▁galax	-9.55385
▁detail	-9.557
▁depend	-9.56093
▁mine	-9.56149
time	-9.56165
▁earlie	-9.56166
▁context	-9.56281
▁includ	-9.56345
▁moral	-9.5643
▁waste	-9.56772
▁adult	-9.56873
▁card	-9.56873
▁drug	-9.5723
bility	-9.57252
▁post	-9.57278
▁crazy	-9.57295
▁democracy	-9.57416
▁fund	-9.57553
▁stick	-9.57597
▁perspective	-9.576
▁impossibl	-9.57611
▁happiness	-9.57632
▁supposed	-9.57825
▁return	-9.58271
▁shift	-9.58648
▁door	-9.58699
▁critical	-9.58737
▁immediate	-9.58888
▁finish	-9.58966
▁zero	-9.59073
▁minute	-9.59103
▁higher	-9.59453
▁bank	-9.59468
cy	-9.59562
ary	-9.59641
▁president	-9.59936
▁central	-9.59942
▁connected	-9.60091
▁possibilit	-9.60195
▁standard	-9.6061
▁strange	-9.60778
▁enjoy	-9.60854
deed	-9.61116
▁unfortunate	-9.61183
▁choose	-9.61239
▁account	-9.61342
▁peace	-9.61475
▁named	-9.61491
▁fail	-9.61515
▁poverty	-9.61529
▁total	-9.61538
▁faster	-9.61598
▁90	-9.6166
▁tool	-9.61669
▁worse	-9.6181
▁principle	-9.61849
▁task	-9.61865
▁fuel	-9.61884
▁ready	-9.61935
▁dr	-9.62005
▁results	-9.62097
▁letter	-9.62268
▁foot	-9.62498
▁offer	-9.62598
▁larger	-9.62683
live	-9.628
▁police	-9.62859
▁chris	-9.62889
▁bacteria	-9.63081
▁cold	-9.63172
rry	-9.63193
▁communit	-9.63451
▁wife	-9.63549
▁shot	-9.63982
▁rise	-9.64059
▁none	-9.6407
▁3	-9.64109
▁publish	-9.64162
▁series	-9.64227
▁f	-9.6436
▁colleague	-9.64556
▁architecture	-9.64557
▁bunch	-9.64557
head	-9.64669
▁above	-9.649
ought	-9.64931
▁emotion	-9.65164
▁realit	-9.65176
▁plastic	-9.65194
▁ultimate	-9.65248
▁lower	-9.65343
▁sleep	-9.65347
▁fit	-9.6539
▁deliver	-9.65834
▁interact	-9.65908
▁decision	-9.65928
▁blind	-9.65948
▁sent	-9.65986
▁secret	-9.65996
▁star	-9.66182
▁writ	-9.66255
▁except	-9.66257
▁worker	-9.66297
▁famous	-9.66333
▁text	-9.66355
▁enter	-9.66367
▁hot	-9.6646
▁communication	-9.66642
▁concern	-9.66647
▁complicated	-9.66647
▁crisis	-9.66651
▁drugs	-9.66661
lost	-9.66762
▁fantastic	-9.66853
an	-9.66887
▁families	-9.66987
▁wave	-9.67055
▁son	-9.67062
▁models	-9.67111
▁dad	-9.67309
▁creature	-9.67343
▁fill	-9.67594
▁male	-9.67654
▁website	-9.67693
▁killed	-9.67771
▁factor	-9.67815
though	-9.68064
▁complete	-9.68091
▁meant	-9.68307
▁2	-9.68324
ance	-9.68356
▁check	-9.68626
▁genetic	-9.68631
▁freedom	-9.68763
▁reading	-9.68765
▁warm	-9.69047
▁visit	-9.69086
▁increasing	-9.6913
▁military	-9.69139
▁neurons	-9.69168
refore	-9.69223
4	-9.69387
▁products	-9.69756
▁report	-9.69864
▁clean	-9.69902
▁studies	-9.69965
▁training	-9.69992
▁path	-9.7006
▁smaller	-9.70116
▁museum	-9.70204
▁excited	-9.70257
▁lesson	-9.70339
▁invest	-9.70509
▁massive	-9.7064
▁policy	-9.70807
▁physics	-9.70932
▁launch	-9.71024
▁reduce	-9.71048
▁terribl	-9.71071
▁press	-9.71183
▁argument	-9.713
▁original	-9.71408
▁tv	-9.71699
▁mental	-9.71705
▁relative	-9.71756
ily	-9.71859
▁trade	-9.7188
▁expert	-9.72033
▁address	-9.72041
▁player	-9.72237
or	-9.72362
9	-9.72373
▁virtual	-9.72546
▁manage	-9.72591
▁examples	-9.726
▁decide	-9.72725
▁bill	-9.72727
▁accept	-9.72742
▁vehicle	-9.72775
▁performance	-9.72837
▁painting	-9.72922
▁charge	-9.73037
▁wear	-9.73127
▁purpose	-9.73137
▁slight	-9.73155
▁particle	-9.7316
▁range	-9.73445
▁board	-9.73487
▁biolog	-9.73526
▁private	-9.73535
▁math	-9.73613
▁progress	-9.73872
▁expensive	-9.73901
▁beaut	-9.73945
▁rule	-9.74144
▁constant	-9.74242
▁german	-9.74285
▁production	-9.74337
▁instance	-9.74657
▁super	-9.74666
▁pain	-9.75047
▁cheap	-9.75047
▁temperature	-9.75422
▁ei	-9.75563
▁income	-9.75729
▁dangerous	-9.75804
▁achieve	-9.75821
▁town	-9.75858
▁financial	-9.76186
▁shark	-9.76202
▁survive	-9.76234
kept	-9.76329
▁stars	-9.7633
▁career	-9.76503
▁drop	-9.76507
▁protein	-9.76581
▁sustain	-9.76645
▁convince	-9.76958
▁intelligence	-9.7696
▁target	-9.76971
▁respond	-9.77061
▁rock	-9.7721
▁daughter	-9.77356
▁organism	-9.7737
3	-9.77404
▁skills	-9.77521
▁floor	-9.77551
▁western	-9.77643
▁genome	-9.7774
▁heat	-9.7774
▁indian	-9.77763
▁r	-9.77885
▁compare	-9.77971
▁prevent	-9.78277
▁enormous	-9.78524
▁female	-9.78537
▁m	-9.7857
▁improve	-9.78905
▁weight	-9.78909
▁unique	-9.78919
▁teaching	-9.78935
▁transport	-9.78941
▁bone	-9.79178
▁afford	-9.79231
▁landscape	-9.79324
▁forget	-9.79393
tally	-9.79453
▁environmental	-9.79586
age	-9.79688
▁effort	-9.79701
▁familiar	-9.79782
▁perform	-9.79991
▁wild	-9.8
▁drink	-9.80115
▁pre	-9.80126
▁driving	-9.80182
▁cook	-9.80456
▁afghan	-9.80516
▁significant	-9.80627
▁active	-9.80637
▁scar	-9.80659
▁x	-9.80758
▁extra	-9.80825
▁link	-9.80914
▁respect	-9.80915
▁decisions	-9.80939
▁meter	-9.81239
▁foundation	-9.8145
▁strateg	-9.81609
▁canno	-9.81752
▁finger	-9.8176
▁circle	-9.82018
ood	-9.82031
ting	-9.82371
▁meeting	-9.8249
▁conference	-9.82564
▁21	-9.82642
▁machines	-9.82667
▁magic	-9.8269
▁sky	-9.82729
▁gain	-9.82822
▁dog	-9.82827
▁cross	-9.82897
▁win	-9.82969
▁pressure	-9.82985
▁urban	-9.83044
▁societ	-9.83056
▁river	-9.83154
▁genes	-9.8329
g	-9.83389
▁influence	-9.83509
side	-9.83528
▁decade	-9.83696
▁various	-9.8379
▁aid	-9.84186
▁199	-9.8423
▁demand	-9.8423
▁solutions	-9.84537
▁useful	-9.84704
▁religion	-9.85049
▁summer	-9.85056
▁interaction	-9.85078
▁mountain	-9.85426
▁catch	-9.85438
like	-9.85442
▁16	-9.85561
▁forth	-9.85637
▁cultural	-9.85689
▁sat	-9.85751
▁slide	-9.85803
▁explore	-9.85994
istan	-9.86031
water	-9.86072
▁wealth	-9.86258
▁remind	-9.86314
▁brand	-9.86335
▁remarkable	-9.86359
▁gre	-9.86446
▁rain	-9.86469
▁station	-9.86542
▁politic	-9.86553
▁engine	-9.86679
▁television	-9.86742
▁becom	-9.86759
▁dance	-9.8682
▁saving	-9.86883
▁bridge	-9.87051
▁feed	-9.87068
by	-9.87105
▁disappear	-9.87171
▁email	-9.87173
▁insect	-9.87178
▁p	-9.87332
▁race	-9.87499
go	-9.87597
▁edge	-9.87601
▁supply	-9.87604
▁trouble	-9.87606
▁brains	-9.87683
▁cap	-9.87971
▁apply	-9.87986
▁chair	-9.88038
▁tissue	-9.88042
▁glass	-9.88343
aid	-9.88383
▁sequence	-9.8845
▁costs	-9.88468
▁honest	-9.88473
▁failure	-9.88473
▁14	-9.8868
alone	-9.88976
▁capital	-9.89033
▁breath	-9.89205
▁paint	-9.89311
wise	-9.89311
▁infrastructure	-9.89348
▁london	-9.895
f	-9.89504
▁interview	-9.89588
▁seat	-9.89623
▁radio	-9.89764
▁speech	-9.89788
▁coral	-9.89792
▁spot	-9.89832
▁wide	-9.89979
▁possibl	-9.901
▁gene	-9.9018
▁john	-9.90367
▁prison	-9.90469
▁document	-9.90531
▁sexual	-9.90552
▁aware	-9.90576
▁distance	-9.9073
▁engineering	-9.90735
▁consumer	-9.90758
▁fix	-9.9076
▁citizens	-9.90917
▁creativ	-9.90968
▁legal	-9.91216
▁apart	-9.91275
▁separate	-9.91277
▁passion	-9.91616
▁double	-9.91655
▁mistake	-9.91737
new	-9.91759
▁sample	-9.91804
▁industrial	-9.91816
▁layer	-9.92134
▁organ	-9.92169
▁surgery	-9.9222
▁underst	-9.92439
▁neighborhood	-9.92472
▁stress	-9.9248
▁popular	-9.92619
▁communicate	-9.9265
▁sentence	-9.92797
the	-9.92802
▁dy	-9.92867
▁responsibilit	-9.92927
▁sister	-9.92929
▁yellow	-9.9294
▁capacity	-9.92956
▁sand	-9.92972
▁ship	-9.93115
▁agree	-9.93342
▁straight	-9.93357
▁accident	-9.935
▁dynamic	-9.93509
▁instrument	-9.93791
▁types	-9.93833
▁paid	-9.93934
▁sad	-9.94033
▁feature	-9.94226
▁mars	-9.94289
▁atmosphere	-9.94322
▁event	-9.94368
▁professional	-9.94461
▁destroy	-9.94609
▁tremendous	-9.94764
▁below	-9.94781
▁campaign	-9.95097
▁hair	-9.95208
▁california	-9.95229
▁worst	-9.95232
▁mobile	-9.95284
▁define	-9.95292
▁values	-9.95403
▁careful	-9.95432
▁release	-9.95514
▁method	-9.95697
▁smell	-9.95698
▁twice	-9.95698
▁civilization	-9.95702
▁boat	-9.9573
▁photo	-9.95829
▁ran	-9.96114
▁identit	-9.96166
▁desert	-9.96169
▁flight	-9.96179
▁decades	-9.9628
▁island	-9.96299
▁thanks	-9.96445
ember	-9.96457
▁birds	-9.96484
▁surviv	-9.96566
▁washing	-9.96605
1	-9.96614
▁birth	-9.96643
▁coast	-9.96675
▁belief	-9.96787
▁oxygen	-9.96982
▁balance	-9.9711
ful	-9.97254
▁noise	-9.97264
▁leader	-9.97295
▁technique	-9.97588
▁muscle	-9.97588
▁profound	-9.97588
▁shared	-9.97774
se	-9.97786
▁funny	-9.98073
▁soldier	-9.98075
▁babi	-9.98152
te	-9.98155
▁recent	-9.98392
▁rough	-9.98436
▁sector	-9.9855
▁corner	-9.98612
▁bear	-9.98702
▁advance	-9.98734
▁mr	-9.9875
older	-9.98771
▁consequence	-9.9903
▁article	-9.9903
▁collective	-9.99039
▁monkey	-9.99042
▁serve	-9.99102
8	-9.99103
▁climb	-9.99279
▁hopeful	-9.993
▁dimension	-9.99395
▁david	-9.99548
▁scientist	-9.99568
ble	-9.99645
▁highly	-9.9986
▁consciousness	-10.0003
▁capture	-10.0011
▁driver	-10.0019
▁sing	-10.0022
▁produc	-10.0029
▁threat	-10.0047
▁surprising	-10.0049
▁switch	-10.0051
▁500	-10.0053
▁quote	-10.0085
▁notion	-10.0085
▁etc	-10.0094
▁airplane	-10.0099
▁window	-10.011
▁ball	-10.0131
▁hell	-10.0135
▁farm	-10.0136
▁lack	-10.0149
▁san	-10.0155
▁rare	-10.0159
▁boys	-10.0161
▁eating	-10.0173
▁bodi	-10.0188
▁ancient	-10.0198
▁continent	-10.02
▁investment	-10.0201
▁king	-10.0201
▁generate	-10.0228
▁drawing	-10.0231
▁cycle	-10.0232
▁whale	-10.0232
▁emotional	-10.0238
▁introduce	-10.024
▁sub	-10.0243
▁stopp	-10.0247
▁classroom	-10.0248
▁tumor	-10.0248
▁imagination	-10.0249
▁satellite	-10.0249
▁l	-10.0255
▁degrees	-10.0269
▁laws	-10.0269
▁jump	-10.0282
▁24	-10.03
▁diversity	-10.0301
▁basi	-10.0348
▁neighbor	-10.0348
▁giant	-10.0349
▁moon	-10.0354
▁fold	-10.0366
▁broken	-10.037
▁express	-10.037
▁biological	-10.0386
▁hero	-10.0395
▁option	-10.0416
▁component	-10.045
▁magazine	-10.045
▁application	-10.045
▁root	-10.0452
▁th	-10.046
▁roll	-10.0483
▁professor	-10.0486
▁graph	-10.0497
▁shar	-10.0498
▁researcher	-10.0501
▁ne	-10.0501
▁prize	-10.0502
▁reward	-10.0507
▁challenges	-10.0511
▁bubble	-10.0513
▁minds	-10.0548
▁ecosystem	-10.0553
▁missing	-10.0554
▁gap	-10.0555
▁negative	-10.0558
▁random	-10.0569
▁10,000	-10.0573
▁realiz	-10.0602
▁include	-10.0604
▁sick	-10.0605
▁husband	-10.0605
▁technical	-10.0607
▁dramatic	-10.0609
▁border	-10.061
▁european	-10.0611
▁commercial	-10.0611
▁engage	-10.0616
▁unite	-10.0626
▁miss	-10.063
▁tough	-10.0638
▁competition	-10.0657
▁opportunities	-10.0657
▁mission	-10.0657
▁vast	-10.066
▁background	-10.0662
▁j	-10.0689
▁300	-10.0707
▁rapid	-10.071
▁worry	-10.0711
▁graduate	-10.0717
▁avoid	-10.0724
▁gold	-10.0743
▁rid	-10.0743
▁contain	-10.0748
▁operat	-10.0754
▁relationships	-10.0755
▁architect	-10.0762
ized	-10.0762
▁core	-10.0766
▁outcome	-10.0766
▁efficient	-10.0771
▁vote	-10.0803
▁evolve	-10.0811
▁civil	-10.0815
▁crime	-10.0815
▁hate	-10.0816
▁farmers	-10.0819
▁complexit	-10.0822
▁engineer	-10.0823
▁1,000	-10.0829
▁afr	-10.0853
▁enable	-10.086
▁controll	-10.0911
▁willing	-10.0923
▁recover	-10.0934
▁13	-10.0944
▁flower	-10.0959
▁grade	-10.0975
▁coffee	-10.0975
▁damage	-10.0976
▁unlike	-10.0978
▁brilliant	-10.0979
is	-10.0984
eath	-10.0984
▁devices	-10.0986
▁bees	-10.1003
▁loss	-10.1011
▁scene	-10.1033
▁prove	-10.1081
▁brother	-10.1084
▁opposite	-10.1084
▁electronic	-10.1085
▁anti	-10.1106
▁inspired	-10.111
▁argue	-10.1116
▁plann	-10.1128
▁facebook	-10.1139
and	-10.1185
▁bottle	-10.1197
▁hearing	-10.1203
▁fully	-10.1221
▁lucky	-10.1237
▁universal	-10.1249
▁phenomeno	-10.1249
▁definition	-10.1256
▁stem	-10.1257
▁signal	-10.1261
▁aids	-10.1261
▁radical	-10.1271
▁algorithm	-10.1272
▁chose	-10.1304
▁depression	-10.1306
▁trul	-10.1306
▁fashion	-10.1317
dimensional	-10.1324
▁motor	-10.1338
▁involv	-10.1343
▁members	-10.1348
▁dollar	-10.1349
▁ten	-10.1353
▁aspect	-10.136
▁operation	-10.1365
▁mouth	-10.1366
▁trick	-10.1369
term	-10.1382
▁weird	-10.1402
ard	-10.1404
▁asia	-10.1414
▁victim	-10.1416
▁advantage	-10.1416
▁mouse	-10.1419
▁religious	-10.142
▁soil	-10.1437
▁invite	-10.1461
▁pop	-10.1464
▁iraq	-10.1469
▁promise	-10.147
▁french	-10.1473
▁date	-10.1481
▁labor	-10.1507
▁cloud	-10.1513
▁reflect	-10.1522
▁streets	-10.1525
▁reaction	-10.1532
▁breast	-10.1543
0,000	-10.155
▁bird	-10.1556
▁encourage	-10.1585
way	-10.1586
▁forever	-10.1587
▁restaurant	-10.1587
▁interface	-10.1591
men	-10.1601
▁stone	-10.1634
▁typical	-10.164
▁muslim	-10.1648
▁according	-10.1653
▁location	-10.1654
▁statistic	-10.1657
▁independent	-10.1664
▁profit	-10.1671
▁trip	-10.1678
▁suffering	-10.1685
▁correct	-10.1686
▁tradition	-10.1689
▁responsibl	-10.1702
▁receive	-10.1732
▁laugh	-10.174
▁score	-10.1755
▁japan	-10.176
▁disorder	-10.176
▁alternative	-10.176
▁department	-10.176
▁multi	-10.176
▁sold	-10.178
▁limit	-10.1785
▁mid	-10.1791
▁contact	-10.1792
▁garden	-10.1798
▁foreign	-10.1799
▁metaphor	-10.1811
▁emerg	-10.1817
▁combine	-10.1823
▁related	-10.1823
▁row	-10.1846
▁elements	-10.1848
▁click	-10.1859
▁stuck	-10.1878
▁adapt	-10.188
▁expression	-10.1888
▁extend	-10.1903
▁fac	-10.1909
▁camp	-10.1928
▁mathematics	-10.1938
▁beat	-10.1943
6	-10.1947
▁studie	-10.1981
▁bright	-10.199
▁attempt	-10.1996
▁elephant	-10.1996
▁proud	-10.1996
▁newspaper	-10.1996
▁church	-10.1998
▁bed	-10.2012
▁expand	-10.2012
▁flu	-10.2015
▁curve	-10.2017
▁lunch	-10.2019
▁diet	-10.2023
▁bang	-10.2025
▁band	-10.2027
▁honor	-10.2037
▁degree	-10.2042
▁regular	-10.2048
▁leaving	-10.2056
▁economist	-10.2058
▁spirit	-10.2071
▁net	-10.2077
tic	-10.209
▁occur	-10.209
▁weapons	-10.2117
▁platform	-10.2117
▁grand	-10.2118
▁conscious	-10.2119
▁election	-10.212
▁nobod	-10.2122
▁ring	-10.2126
▁held	-10.2127
▁wire	-10.2133
▁stream	-10.2136
▁answers	-10.2137
▁roof	-10.2177
▁fresh	-10.2177
▁valley	-10.2182
ship	-10.2189
▁suffer	-10.2196
▁bar	-10.2206
▁copy	-10.221
▁note	-10.222
▁hurt	-10.2238
▁childhood	-10.2239
▁crash	-10.2239
▁justice	-10.2239
▁events	-10.2239
▁channel	-10.224
▁cognitive	-10.2241
▁kilometer	-10.2243
▁invisibl	-10.2246
▁exercise	-10.2273
▁bus	-10.2294
▁british	-10.2299
▁party	-10.23
▁due	-10.2305
▁survey	-10.2305
▁match	-10.233
▁apple	-10.2346
▁h	-10.2347
▁debate	-10.2358
▁laptop	-10.2361
▁display	-10.2361
▁bread	-10.2362
▁institute	-10.2367
▁creation	-10.2372
▁struggle	-10.2414
▁leading	-10.2416
▁sustainabl	-10.2417
night	-10.2419
▁succeed	-10.2423
▁wow	-10.2424
▁holding	-10.2433
▁odd	-10.2435
▁authorit	-10.2453
▁traffic	-10.2457
▁era	-10.247
▁empower	-10.2488
▁motion	-10.2493
▁mo	-10.2507
▁master	-10.2509
ian	-10.251
▁topic	-10.2514
▁pounds	-10.2529
▁equivalent	-10.2549
▁budget	-10.2552
▁transformation	-10.2553
▁meat	-10.2563
▁pair	-10.2565
▁jam	-10.2567
▁mess	-10.2571
▁shock	-10.2574
▁symbol	-10.2609
▁remote	-10.261
▁grandmother	-10.2614
▁closed	-10.2614
▁claim	-10.2614
▁frame	-10.2617
▁arrive	-10.2624
▁replace	-10.2624
▁divide	-10.2634
▁cry	-10.265
▁fascinating	-10.2657
▁cartoon	-10.2674
▁robotic	-10.2675
▁weather	-10.2676
▁richard	-10.2676
▁factory	-10.2693
▁truck	-10.2699
▁mad	-10.271
▁9	-10.2726
▁mirror	-10.274
▁minister	-10.274
▁chicken	-10.274
▁desire	-10.2746
▁400	-10.2747
▁variet	-10.2747
▁proper	-10.2748
▁deeply	-10.2793
▁remove	-10.2793
▁round	-10.2795
▁harm	-10.2798
▁198	-10.2798
▁strength	-10.2803
▁puzzle	-10.2804
▁twitter	-10.2804
▁precise	-10.2809
▁engineers	-10.2821
▁fourth	-10.2827
▁organic	-10.2827
▁translate	-10.2841
▁gift	-10.2842
▁st	-10.2843
dp	-10.2858
▁opinion	-10.2869
▁reveal	-10.2869
▁yester	-10.287
▁dozen	-10.2873
▁distribution	-10.2873
▁consumption	-10.2874
▁intelligent	-10.2875
▁pack	-10.2887
▁actor	-10.2889
▁atom	-10.2898
wood	-10.2913
▁practical	-10.2924
▁faith	-10.2934
▁wisdom	-10.2934
▁dinner	-10.2934
▁politician	-10.2935
▁marriage	-10.2936
▁discussion	-10.2937
▁theater	-10.2937
▁circuit	-10.2938
▁continu	-10.2944
▁spring	-10.2946
versus	-10.2949
▁sensor	-10.2952
hand	-10.2953
▁surround	-10.2962
▁occurr	-10.2964
▁ma	-10.2966
▁micro	-10.2971
ra	-10.2974
care	-10.2978
▁prime	-10.2981
▁identify	-10.3001
ada	-10.3002
▁taste	-10.3004
▁exchange	-10.3011
▁dreams	-10.3013
▁lie	-10.3029
▁dry	-10.3033
▁crowd	-10.3037
▁collapse	-10.3048
orrow	-10.306
▁error	-10.3067
▁brief	-10.3067
▁intellectual	-10.3068
▁load	-10.3085
▁equip	-10.3089
▁spin	-10.3099
▁beach	-10.3108
rew	-10.3122
▁la	-10.3126
▁nervous	-10.3133
▁awful	-10.3133
▁sugar	-10.3134
▁string	-10.3141
▁joy	-10.3144
▁evolv	-10.3146
▁mexic	-10.3191
▁dolphin	-10.32
▁rural	-10.32
▁spider	-10.32
▁fortunate	-10.3201
▁disaster	-10.3202
▁wood	-10.3203
▁lady	-10.3203
▁librar	-10.3204
▁metal	-10.3206
▁insight	-10.3221
▁curious	-10.3268
▁reef	-10.3268
▁talent	-10.327
▁narrative	-10.327
▁plane	-10.3271
▁iran	-10.3295
▁chain	-10.3296
▁ordinar	-10.3306
▁mit	-10.3322
▁writer	-10.3328
▁bag	-10.3335
▁govern	-10.3335
▁england	-10.3336
▁brazil	-10.3336
▁mentioned	-10.3348
▁hall	-10.3349
▁highest	-10.3356
ization	-10.3362
▁agricultur	-10.3393
▁shop	-10.3394
▁applie	-10.3404
▁quiet	-10.3405
▁george	-10.3405
▁invention	-10.3411
▁collection	-10.3414
▁blow	-10.3426
▁speaker	-10.3429
▁mark	-10.345
▁limited	-10.3454
▁patent	-10.3473
▁electrical	-10.3493
▁angel	-10.3523
▁hop	-10.3526
▁tens	-10.3527
▁multiple	-10.3542
▁penguin	-10.3543
▁employee	-10.3543
▁hotel	-10.3543
▁fat	-10.3548
▁property	-10.3551
ership	-10.3552
▁daily	-10.3558
▁member	-10.3564
▁humanit	-10.3569
▁whom	-10.357
▁shoot	-10.357
▁kenya	-10.3584
▁walls	-10.3599
▁litera	-10.3605
▁adopt	-10.3612
▁vaccine	-10.3613
▁japanese	-10.3614
▁transition	-10.3615
▁gay	-10.3625
▁injur	-10.363
▁therap	-10.3638
▁zone	-10.3646
▁operate	-10.3647
▁rat	-10.3658
▁fossil	-10.3672
▁epidemic	-10.3683
▁hidden	-10.3683
▁toilet	-10.3683
▁evil	-10.3683
▁empty	-10.3684
▁perception	-10.3684
▁management	-10.3689
▁milk	-10.369
▁spoke	-10.3696
▁fell	-10.37
▁brita	-10.3705
▁mix	-10.3723
▁clip	-10.3729
▁harder	-10.3729
lone	-10.3737
▁cure	-10.3738
▁suit	-10.375
▁stupid	-10.3754
▁feedback	-10.3754
▁ideal	-10.376
▁35	-10.3764
▁stoo	-10.3765
▁broad	-10.3769
▁joke	-10.3772
▁killing	-10.3773
▁photos	-10.3815
▁paul	-10.3821
▁einstein	-10.3825
▁flat	-10.3826
▁construction	-10.3829
▁bush	-10.3832
▁wheel	-10.3846
▁2,000	-10.3864
▁organize	-10.3872
▁extract	-10.3882
▁4	-10.3886
▁volunteer	-10.3898
▁artificial	-10.3904
▁folks	-10.3913
▁ha	-10.3919
▁skill	-10.3948
▁telescope	-10.3971
▁equation	-10.3971
▁initial	-10.3972
▁wake	-10.3974
▁pole	-10.3982
▁app	-10.4013
▁shoes	-10.402
▁horse	-10.4025
▁rocket	-10.4032
▁infect	-10.4034
▁enem	-10.4043
▁malaria	-10.4043
▁official	-10.4043
▁provid	-10.4044
▁pleasure	-10.4046
▁gather	-10.4048
▁grown	-10.4055
▁setting	-10.4059
▁plate	-10.4061
▁suppose	-10.4068
▁smile	-10.4083
▁ancestor	-10.4116
▁combination	-10.4117
▁surgeon	-10.4117
▁cup	-10.4118
▁grid	-10.4129
z	-10.4132
▁battery	-10.4162
p	-10.4164
▁detect	-10.4169
▁happi	-10.4188
▁pig	-10.4189
▁judge	-10.419
▁heavy	-10.4191
▁phones	-10.4203
▁director	-10.4209
▁clinical	-10.4215
▁australia	-10.4236
▁users	-10.426
▁chimpanzee	-10.4265
▁poetry	-10.4266
▁pocket	-10.4268
▁credit	-10.4279
▁hide	-10.4281
▁court	-10.4286
▁brown	-10.4301
▁burn	-10.4311
▁protection	-10.4312
▁nurse	-10.4313
▁inner	-10.4315
▁congress	-10.4326
▁construct	-10.4337
▁measur	-10.434
▁vessel	-10.434
▁definite	-10.434
▁pump	-10.434
▁gender	-10.4341
▁maintain	-10.4341
▁terrorist	-10.4341
▁title	-10.4342
▁lake	-10.4346
▁tear	-10.4349
▁grain	-10.4354
▁deeper	-10.4358
▁print	-10.4366
ma	-10.4388
▁bomb	-10.439
▁journalist	-10.4402
▁israel	-10.4414
▁incentive	-10.4416
▁teeth	-10.4416
▁explanation	-10.4416
▁majorit	-10.4424
▁names	-10.4443
of	-10.4451
▁assume	-10.4452
▁100,000	-10.4461
▁iron	-10.4479
▁signals	-10.4487
ie	-10.4489
▁partner	-10.4492
▁encounter	-10.4492
▁convert	-10.4492
▁northern	-10.4492
▁accurate	-10.4494
▁peak	-10.4495
▁studio	-10.4497
corruption	-10.4499
▁status	-10.4512
▁conduct	-10.4512
▁seed	-10.452
▁dealing	-10.4524
▁associate	-10.4556
▁arab	-10.4562
▁discuss	-10.4567
▁regard	-10.4571
▁grant	-10.4576
▁customer	-10.4578
▁cutting	-10.4578
▁appropriate	-10.458
▁volume	-10.4586
▁peer	-10.4594
▁button	-10.4605
b	-10.4623
▁clinic	-10.4628
▁emergenc	-10.4628
▁determine	-10.463
tion	-10.4636
▁mention	-10.4636
▁bike	-10.4645
▁musician	-10.4649
▁150	-10.4657
▁crop	-10.4662
▁fellow	-10.4663
▁prototype	-10.4674
▁broke	-10.4691
▁mothers	-10.4691
▁entertain	-10.4693
▁valuable	-10.4727
▁opening	-10.4733
life	-10.474
▁crack	-10.4771
ive	-10.4789
▁army	-10.4793
▁arms	-10.4802
▁bo	-10.4805
▁mortality	-10.4805
▁winter	-10.4807
▁typically	-10.4813
▁plus	-10.4816
▁addition	-10.4825
▁steel	-10.4834
▁battle	-10.4841
▁nigeria	-10.4854
erson	-10.4859
▁flie	-10.4863
▁review	-10.4871
▁vulnerabl	-10.4883
▁illness	-10.4884
▁existence	-10.4885
▁silence	-10.4887
▁facilit	-10.4888
▁presentation	-10.489
▁sweet	-10.4892
▁2000	-10.4892
▁emerge	-10.4898
▁stranger	-10.4902
▁comment	-10.4906
▁attract	-10.4919
▁relate	-10.4921
▁user	-10.4927
ish	-10.4938
u	-10.4938
▁amp	-10.4941
▁lay	-10.4949
▁compar	-10.4956
▁democratic	-10.4959
▁ph	-10.4962
▁calculate	-10.4963
▁novel	-10.4964
▁origin	-10.4972
▁symmetr	-10.4976
▁mathematical	-10.4979
▁undern	-10.4981
▁ride	-10.4986
▁manufactur	-10.499
▁inter	-10.4996
▁historical	-10.5
▁pure	-10.5006
▁frank	-10.5016
▁solv	-10.503
▁kitchen	-10.5044
▁silk	-10.5044
▁chemistry	-10.5044
▁worldwide	-10.5047
▁infinite	-10.5048
▁mountains	-10.5049
▁seek	-10.5054
▁quarter	-10.5059
▁dis	-10.5065
▁lifetime	-10.5089
▁bare	-10.5091
00	-10.5095
▁filter	-10.5113
▁conclusion	-10.5125
▁hydrogen	-10.5125
▁harvest	-10.5127
▁tape	-10.513
▁fiber	-10.513
▁pilot	-10.5132
▁analysis	-10.5134
▁obes	-10.5143
bas	-10.5151
▁trillion	-10.5156
▁quant	-10.5157
▁comfort	-10.5165
▁union	-10.5178
ver	-10.519
▁sculpture	-10.5207
▁illegal	-10.5207
▁ladies	-10.5209
▁parent	-10.5209
▁label	-10.5212
▁statement	-10.5219
▁ignore	-10.5237
▁gun	-10.5256
▁club	-10.5261
▁wherea	-10.5265
fish	-10.528
▁psycholog	-10.5287
▁harvard	-10.5289
▁chart	-10.529
▁lawyer	-10.529
▁gravity	-10.5292
▁chip	-10.5293
▁importan	-10.5309
▁se	-10.531
▁shoulder	-10.5318
▁automatic	-10.5318
▁resistan	-10.5351
▁contribute	-10.5357
▁criminal	-10.5368
▁client	-10.537
▁belong	-10.5372
▁poem	-10.5373
▁youtube	-10.5376
▁telephone	-10.5377
▁ab	-10.5377
▁forgot	-10.5377
▁loud	-10.5379
▁tower	-10.5382
▁habitat	-10.5385
▁reference	-10.5387
▁wine	-10.5417
▁fake	-10.5431
▁nest	-10.5441
▁southern	-10.5457
▁efficienc	-10.5458
▁length	-10.546
▁liquid	-10.5463
▁nor	-10.5465
▁soul	-10.5465
▁prediction	-10.5466
▁sheet	-10.5471
▁sight	-10.5474
▁previous	-10.5477
▁celebrate	-10.5481
ical	-10.5486
▁categor	-10.5492
▁dinosaurs	-10.551
▁prepared	-10.5518
▁tag	-10.554
▁physicist	-10.5542
▁psychological	-10.5544
▁teenager	-10.5545
▁doubt	-10.5546
▁season	-10.5548
ch	-10.5549
▁sphere	-10.555
▁receiv	-10.5563
▁comfortabl	-10.5568
▁charit	-10.558
▁element	-10.5584
▁marine	-10.5586
▁196	-10.5589
ley	-10.5596
▁instant	-10.5607
▁mechanical	-10.5607
▁cat	-10.562
▁implication	-10.5627
▁chapter	-10.5628
▁variation	-10.5628
▁observation	-10.5628
▁molecular	-10.5631
▁script	-10.5637
▁iphone	-10.5637
▁decline	-10.5654
▁kick	-10.5666
▁coal	-10.5667
▁le	-10.5672
▁hill	-10.5675
▁properti	-10.5681
ial	-10.569
▁former	-10.5694
▁grab	-10.5704
scale	-10.5709
▁danger	-10.5713
▁symptom	-10.5713
▁circumstance	-10.5713
▁francisco	-10.5713
▁primary	-10.5714
▁collaboration	-10.5714
▁evolutionary	-10.5717
▁zoom	-10.5722
▁march	-10.5732
▁li	-10.5743
▁hire	-10.5752
▁privilege	-10.5765
▁pr	-10.577
▁tail	-10.5777
▁demonstrate	-10.5791
▁rational	-10.5792
▁thin	-10.5793
▁estimate	-10.5795
▁analog	-10.58
▁nerve	-10.58
▁programm	-10.5801
▁radiation	-10.5801
▁drill	-10.5804
▁biologist	-10.5806
▁drone	-10.5808
▁threaten	-10.5811
▁darwin	-10.5813
▁embrace	-10.582
▁charles	-10.5821
▁react	-10.5824
▁empath	-10.5828
▁spaces	-10.5834
▁entrepreneurs	-10.584
ier	-10.5841
hip	-10.5847
▁attach	-10.5852
▁cave	-10.586
▁participate	-10.5864
▁tie	-10.5865
▁snow	-10.5869
▁tip	-10.5878
▁nasa	-10.5882
▁apparent	-10.5888
▁amazon	-10.5889
▁spectrum	-10.5891
▁input	-10.5897
▁challeng	-10.5909
▁technological	-10.591
▁tall	-10.5914
▁agent	-10.5926
as	-10.5932
▁emissions	-10.5946
▁trend	-10.5948
▁monitor	-10.5962
▁dropp	-10.5973
▁despi	-10.5975
▁inevitabl	-10.5976
▁unusual	-10.5977
▁predator	-10.5977
▁firm	-10.5977
▁clever	-10.5978
▁medium	-10.598
▁hi	-10.5981
▁defense	-10.5981
▁fiction	-10.5981
▁soft	-10.5981
▁terrorism	-10.5982
▁illusion	-10.5987
▁license	-10.5989
▁dictionar	-10.6007
▁clock	-10.6022
▁pro	-10.6033
x	-10.6037
▁contract	-10.6061
▁solid	-10.6061
ible	-10.6066
▁mammal	-10.6066
it	-10.6078
▁reverse	-10.608
▁eastern	-10.6082
rtex	-10.609
▁phase	-10.6094
▁knowing	-10.6097
▁laboratory	-10.61
▁appreciate	-10.6101
▁fe	-10.6124
▁heads	-10.6127
ywhere	-10.6142
▁staff	-10.6157
▁2008	-10.6159
▁99	-10.6172
▁shame	-10.6176
▁blog	-10.6187
▁aim	-10.6202
▁gang	-10.6208
▁musical	-10.6225
▁lecture	-10.6244
▁elder	-10.6247
▁afternoon	-10.6247
▁fruit	-10.6247
▁lift	-10.6247
▁limb	-10.6248
▁humor	-10.6249
▁desk	-10.6251
▁brothers	-10.6251
▁academic	-10.6254
▁pile	-10.626
▁organiz	-10.6266
▁lies	-10.6267
▁recording	-10.627
▁style	-10.6297
▁inform	-10.6297
▁visibl	-10.63
▁russia	-10.631
▁ought	-10.6313
▁reform	-10.6314
▁tank	-10.6314
▁conservation	-10.6338
▁courage	-10.6339
▁passionate	-10.6339
▁pollution	-10.6339
▁meaningful	-10.6341
▁height	-10.6341
destruction	-10.6342
▁attitude	-10.6343
▁comput	-10.6344
▁orbit	-10.6346
▁expectation	-10.6347
▁upper	-10.6351
▁birthday	-10.6352
▁burning	-10.6375
▁steve	-10.6395
line	-10.64
▁engaged	-10.6404
▁melt	-10.6411
▁cent	-10.6413
acy	-10.6424
▁dan	-10.6425
▁abstract	-10.6428
▁false	-10.6431
▁cluster	-10.6431
▁sophisticated	-10.6432
▁assumption	-10.6432
▁relevant	-10.6432
▁shadow	-10.6432
▁bor	-10.6435
▁repair	-10.6435
▁exploration	-10.6436
▁van	-10.6439
▁percentage	-10.6444
▁section	-10.6451
▁45	-10.6464
▁witness	-10.6477
▁severe	-10.6477
▁icon	-10.6486
▁stock	-10.6487
▁hang	-10.6521
▁balloon	-10.6525
▁paradigm	-10.6525
▁intervention	-10.6525
▁instruction	-10.6526
foot	-10.6528
▁1990	-10.6532
▁lion	-10.6539
ities	-10.6544
▁da	-10.6546
▁adam	-10.6547
▁pen	-10.655
▁alien	-10.6551
▁eggs	-10.6572
▁reserve	-10.658
ty	-10.6581
▁storm	-10.6586
▁finance	-10.6593
▁dense	-10.6595
▁earn	-10.6601
▁hous	-10.6608
▁dirt	-10.6612
▁mechanism	-10.6612
▁michael	-10.6619
▁congo	-10.6619
▁2010	-10.6619
▁sunlight	-10.6619
▁rush	-10.6619
▁france	-10.6621
▁apartment	-10.6622
▁pacific	-10.6622
▁repeat	-10.6622
tech	-10.6624
▁pool	-10.6627
▁pour	-10.6627
▁welcome	-10.6633
▁cable	-10.6645
▁fan	-10.668
▁explor	-10.6681
▁abuse	-10.6683
▁3,000	-10.6687
▁bin	-10.6688
com	-10.6714
▁select	-10.6715
▁1960	-10.6715
▁animation	-10.6716
▁exhibition	-10.6716
▁loop	-10.6719
▁awareness	-10.6728
▁chica	-10.6728
▁sir	-10.673
▁productive	-10.6731
▁inspiration	-10.6749
▁weak	-10.6772
▁messages	-10.6775
ture	-10.6778
▁windows	-10.6789
▁afterward	-10.6797
▁perceive	-10.6799
▁ingredient	-10.681
▁heaven	-10.681
▁concrete	-10.681
▁contrast	-10.6811
▁shut	-10.6811
▁shake	-10.6814
la	-10.6816
what	-10.6817
▁bond	-10.682
▁fisher	-10.6827
▁frog	-10.6829
▁dogs	-10.6839
▁behave	-10.6839
▁sum	-10.684
▁mile	-10.6846
ber	-10.6859
▁wash	-10.6861
▁hook	-10.6891
▁split	-10.6905
▁consume	-10.6905
▁framework	-10.6908
▁trigger	-10.6908
▁permanent	-10.691
▁tea	-10.6912
▁presence	-10.6915
▁queen	-10.6916
▁linked	-10.6937
▁command	-10.6967
▁heal	-10.6974
▁behaviors	-10.6977
▁hyper	-10.7
▁advice	-10.7005
▁grateful	-10.7005
▁gulf	-10.7005
▁shall	-10.7007
▁physician	-10.7007
▁horrible	-10.7007
▁acid	-10.7008
▁phrase	-10.7008
▁cheat	-10.7008
▁infection	-10.7009
▁improvement	-10.7011
half	-10.7014
▁polle	-10.7016
▁orange	-10.7019
▁refugee	-10.7024
▁weigh	-10.7058
▁risks	-10.7059
▁internal	-10.7063
▁mal	-10.7091
ine	-10.7095
▁maker	-10.71
▁admit	-10.71
▁pakistan	-10.7101
▁ritual	-10.7104
▁exception	-10.7104
▁piano	-10.7104
▁robert	-10.7105
▁christian	-10.7105
▁lifestyle	-10.7107
▁unknown	-10.7108
▁frequenc	-10.7112
▁fle	-10.7118
▁nose	-10.713
▁meal	-10.713
▁logic	-10.7133
▁backward	-10.716
▁cow	-10.7187
▁depth	-10.7204
▁revenue	-10.7204
▁jail	-10.7205
▁tru	-10.7206
▁partners	-10.7206
▁wireless	-10.7207
▁vertical	-10.7207
▁swede	-10.7209
▁route	-10.7211
board	-10.7212
▁intense	-10.7213
▁clothes	-10.722
▁carrie	-10.7221
▁tak	-10.7221
▁tube	-10.7225
▁jan	-10.723
▁seal	-10.725
▁islam	-10.7257
▁violent	-10.728
▁boom	-10.7283
▁handle	-10.7284
▁beside	-10.73
▁ray	-10.73
▁suspect	-10.7305
▁tap	-10.7306
▁christmas	-10.7306
▁divers	-10.7306
▁establish	-10.7308
▁innovative	-10.7308
▁sensitive	-10.7326
▁clouds	-10.7336
▁ah	-10.7339
▁recycl	-10.7343
▁wikipedia	-10.7361
bel	-10.7361
▁videos	-10.7383
▁host	-10.7397
▁5,000	-10.7399
▁bio	-10.74
▁mathematician	-10.7407
▁mushroom	-10.7407
▁psychologist	-10.741
ility	-10.7411
▁motivation	-10.7411
▁1980	-10.7412
▁anger	-10.7422
▁paris	-10.7442
▁rescue	-10.7444
▁23	-10.7456
▁grass	-10.7465
▁behavioral	-10.7474
▁par	-10.7502
▁swimm	-10.7509
▁characteristic	-10.7511
▁microbe	-10.7511
▁greenhouse	-10.7512
▁higgs	-10.7512
▁interactive	-10.7513
▁electron	-10.7516
▁parallel	-10.7518
▁gps	-10.7527
ground	-10.7535
▁conventional	-10.7537
icity	-10.7542
▁theme	-10.7547
▁manager	-10.7555
▁marri	-10.7559
truck	-10.7565
▁bias	-10.7576
▁5	-10.7576
▁escape	-10.7583
▁busy	-10.7598
▁educational	-10.7611
▁corporate	-10.7615
▁unexpected	-10.7615
▁corporation	-10.7615
▁commitment	-10.7615
▁install	-10.7617
ha	-10.7634
▁densit	-10.7634
▁tour	-10.7635
ng	-10.7644
▁hat	-10.7646
▁swim	-10.7648
▁processe	-10.7661
▁advertis	-10.7699
▁raw	-10.771
▁confront	-10.7718
▁scratch	-10.772
▁autism	-10.772
▁polio	-10.772
▁plent	-10.772
▁ceo	-10.7721
▁sept	-10.7721
▁identical	-10.7721
▁obsess	-10.7722
▁stack	-10.7722
ant	-10.7724
▁overall	-10.7726
so	-10.7744
▁ears	-10.777
▁danc	-10.7781
▁photographer	-10.7785
▁confiden	-10.7793
▁meme	-10.7793
▁myth	-10.7803
▁processing	-10.782
▁chocolate	-10.7826
▁barrier	-10.7826
▁mosquito	-10.7826
▁bicycle	-10.7828
▁curiosity	-10.7828
▁painful	-10.7829
▁gut	-10.7831
▁smoke	-10.7832
▁till	-10.7845
▁colony	-10.7857
▁classes	-10.7866
spite	-10.7868
▁figur	-10.7879
▁ear	-10.788
▁classic	-10.7881
om	-10.789
▁worrie	-10.7898
▁shell	-10.7904
▁joe	-10.7927
▁implement	-10.7934
▁centuries	-10.7934
▁session	-10.7934
▁awesome	-10.7934
▁golden	-10.7936
▁obama	-10.7936
▁deserve	-10.7942
▁item	-10.7944
▁counter	-10.7957
▁philosoph	-10.7976
▁feeding	-10.7982
▁prisoner	-10.7984
▁liver	-10.8
▁v	-10.8
▁manag	-10.8002
▁pitch	-10.8013
▁tax	-10.8024
▁bell	-10.8034
▁guide	-10.8036
▁scan	-10.8038
▁participant	-10.8043
▁rainforest	-10.8043
▁genius	-10.8043
▁airport	-10.8043
▁asteroid	-10.8044
▁cloth	-10.8044
▁selection	-10.8045
▁laser	-10.8046
▁toxic	-10.8048
power	-10.8048
▁axis	-10.8074
▁russian	-10.8077
▁breathe	-10.8078
▁wars	-10.8085
▁ex	-10.8085
▁poster	-10.8087
▁spiritual	-10.8093
being	-10.8109
given	-10.8115
▁romantic	-10.8119
ngry	-10.8133
ification	-10.8146
▁privacy	-10.8152
▁diagram	-10.8152
▁excuse	-10.8153
▁knock	-10.8153
▁min	-10.8153
▁judgment	-10.8154
▁footprint	-10.8155
▁continuous	-10.8155
▁liberal	-10.816
▁activist	-10.8164
▁invit	-10.8181
▁ho	-10.8207
off	-10.8207
▁narrat	-10.8208
▁propose	-10.8236
▁laughing	-10.8239
▁el	-10.8246
▁pink	-10.8251
▁mate	-10.8253
▁council	-10.8264
▁miracle	-10.8264
▁earthquake	-10.8264
▁globe	-10.8264
▁ba	-10.8265
▁agenda	-10.8265
▁ju	-10.8268
▁fortune	-10.8277
▁worm	-10.8281
▁roads	-10.8287
▁uncle	-10.8301
▁gray	-10.8324
▁korea	-10.8347
▁pill	-10.8365
▁secure	-10.8372
▁egypt	-10.8376
▁vegetable	-10.8376
▁hormone	-10.8377
▁strike	-10.8377
▁arrest	-10.8377
▁fixed	-10.8382
▁agreed	-10.8384
▁discipline	-10.8404
ur	-10.8417
▁younger	-10.8436
ta	-10.845
▁conclude	-10.8458
ory	-10.846
▁salt	-10.8468
▁agency	-10.8474
▁latin	-10.8487
▁narrow	-10.849
▁pyramid	-10.849
▁demographic	-10.849
▁observ	-10.849
▁native	-10.8493
▁bat	-10.8494
▁ag	-10.8496
▁inequalit	-10.8496
▁cash	-10.8498
▁recogni	-10.8503
▁fifth	-10.8507
▁homes	-10.8508
▁causing	-10.8511
▁bend	-10.8518
▁islands	-10.8541
▁lung	-10.8546
▁inspire	-10.8556
ium	-10.8559
▁22	-10.8577
▁accelerat	-10.8581
▁analyze	-10.8593
surance	-10.8602
▁steal	-10.8603
▁transparency	-10.8605
▁ceiling	-10.8605
▁household	-10.8605
▁improv	-10.8606
▁chief	-10.8607
▁pretend	-10.8608
hi	-10.8609
▁database	-10.8611
▁argu	-10.8622
▁hack	-10.8628
▁quit	-10.8646
▁shooting	-10.8661
▁stretch	-10.8684
▁trace	-10.87
▁600	-10.8701
▁absorb	-10.8709
▁rely	-10.8711
▁plot	-10.8713
▁implant	-10.8717
▁extinct	-10.8717
▁transplant	-10.8719
▁column	-10.8719
▁senior	-10.8721
▁yield	-10.8721
▁traged	-10.8721
▁silicon	-10.8721
▁hunger	-10.8723
▁download	-10.8723
▁1950	-10.8724
▁pray	-10.8726
▁exten	-10.8728
▁microscope	-10.8732
▁mold	-10.8736
▁wise	-10.8746
ston	-10.8748
▁edit	-10.8749
kind	-10.8765
▁parking	-10.8773
▁spoken	-10.8775
oxide	-10.8787
▁functional	-10.88
▁indicate	-10.8806
▁federal	-10.8807
▁cam	-10.8812
▁reduction	-10.8825
▁blame	-10.8828
▁poet	-10.8828
▁economi	-10.8833
▁tune	-10.8835
▁author	-10.8837
▁obstacle	-10.8838
▁shelter	-10.8838
▁silent	-10.8839
▁fluid	-10.8839
▁ticket	-10.8839
▁froze	-10.8839
▁kingdom	-10.8839
▁flood	-10.8839
▁distant	-10.884
▁islamic	-10.8842
▁domestic	-10.8842
▁prefer	-10.8844
▁autonomous	-10.8845
▁breed	-10.8845
▁objective	-10.8847
▁po	-10.8849
▁portrait	-10.8851
▁dh	-10.8855
▁knee	-10.8861
▁shipp	-10.8862
▁regret	-10.8875
▁rose	-10.8876
call	-10.8894
▁floating	-10.8901
▁complain	-10.8907
▁sports	-10.8913
▁em	-10.8917
▁node	-10.892
▁sales	-10.8946
▁magnetic	-10.8954
▁haiti	-10.8957
▁ghana	-10.8957
▁furniture	-10.8958
▁greek	-10.8958
▁galler	-10.8959
▁immune	-10.8962
▁conservative	-10.8963
▁gesture	-10.8965
▁representation	-10.8966
▁engag	-10.8967
▁falls	-10.8967
▁suck	-10.898
▁holly	-10.898
hour	-10.8982
▁bg	-10.8988
▁cute	-10.8993
down	-10.8996
▁personalit	-10.9
▁fin	-10.9002
▁printing	-10.9003
▁bi	-10.9016
▁journal	-10.9018
uar	-10.9019
ese	-10.9031
▁regime	-10.9042
▁angle	-10.9059
▁microsoft	-10.9078
▁bulb	-10.908
▁exploit	-10.908
▁sheep	-10.9081
▁suicide	-10.9082
▁fascinat	-10.9088
clear	-10.9088
▁philosopher	-10.9097
▁consistent	-10.9098
▁jun	-10.9107
while	-10.9109
▁fed	-10.9111
▁imagin	-10.9114
▁breaking	-10.912
▁ignoran	-10.912
▁n	-10.9121
▁gentlem	-10.9164
art	-10.9165
ray	-10.917
▁productiv	-10.9187
▁neuron	-10.9199
▁frighten	-10.92
▁mystery	-10.9201
▁skeleton	-10.9202
▁slum	-10.9202
▁procedure	-10.9202
▁renewable	-10.9202
▁beer	-10.9203
▁opposed	-10.9223
▁file	-10.9231
▁external	-10.9252
▁pit	-10.9258
▁jack	-10.9262
▁pan	-10.9275
▁boxe	-10.9277
▁protest	-10.9295
▁favor	-10.9308
pox	-10.9314
▁concert	-10.9318
dependent	-10.932
▁cord	-10.9321
▁clue	-10.9323
▁calculation	-10.9323
▁scenario	-10.9323
▁description	-10.9323
▁texas	-10.9324
▁initiative	-10.9324
▁olympic	-10.9324
▁spill	-10.9325
▁ngo	-10.9325
▁desperate	-10.9326
▁loan	-10.9327
▁dignit	-10.9333
▁ugl	-10.9335
▁highway	-10.9343
▁chest	-10.9346
ey	-10.9347
▁signed	-10.9361
▁lens	-10.9368
town	-10.9378
▁peter	-10.9397
▁tuna	-10.9398
▁flip	-10.9412
▁boss	-10.9429
▁wound	-10.9439
▁bible	-10.9441
▁bug	-10.9445
▁tight	-10.9446
▁reputation	-10.9448
▁ridiculous	-10.9448
▁compound	-10.9448
▁devil	-10.9449
▁flash	-10.9449
▁vagina	-10.9449
▁soviet	-10.9449
▁engagement	-10.9452
▁vital	-10.9452
▁embedded	-10.9454
▁farmer	-10.9455
▁headline	-10.9459
▁yo	-10.9473
▁coin	-10.9475
▁jim	-10.9478
▁intend	-10.9488
▁promote	-10.9495
ging	-10.9498
▁unbelievabl	-10.9498
▁generat	-10.9499
▁reduc	-10.9534
▁uganda	-10.9542
▁ethical	-10.9543
▁50,000	-10.9545
▁frankl	-10.9553
▁z	-10.9563
▁palm	-10.9572
▁cast	-10.9572
▁reject	-10.9573
▁ultra	-10.9575
▁district	-10.9575
▁8	-10.9575
▁laughter	-10.9575
▁translation	-10.9577
▁glacier	-10.9578
▁golf	-10.9578
▁lane	-10.9579
▁tropic	-10.958
▁optimistic	-10.958
▁struggl	-10.9593
▁ta	-10.9601
▁bay	-10.9602
ar	-10.9614
▁orchestra	-10.9622
lf	-10.9624
▁rating	-10.9636
▁refer	-10.9644
▁authentic	-10.9644
▁bother	-10.965
▁pet	-10.9651
▁weapon	-10.9675
▁stepp	-10.968
rice	-10.97
▁opera	-10.9703
▁neuroscience	-10.9703
▁origami	-10.9703
▁mutation	-10.9703
▁guarantee	-10.9703
▁request	-10.9703
▁skull	-10.9703
▁guilt	-10.9704
▁domain	-10.9705
▁mice	-10.971
work	-10.9712
▁crucial	-10.9714
▁slides	-10.9714
▁rebuild	-10.9716
▁probabilit	-10.9718
▁asset	-10.9721
▁dump	-10.9724
▁resolution	-10.9728
▁dust	-10.9731
▁officer	-10.9737
▁accomplish	-10.9742
▁sam	-10.9742
▁mall	-10.9749
▁trie	-10.9754
rs	-10.9758
aking	-10.9766
▁gates	-10.9766
▁del	-10.9785
▁elect	-10.9795
▁occasional	-10.9807
▁mary	-10.9815
▁thick	-10.9831
▁candidate	-10.9833
▁stanford	-10.9833
▁tedtalk	-10.9833
▁intuition	-10.9833
▁drove	-10.9833
▁diabetes	-10.9834
▁systematic	-10.9834
▁appeal	-10.9834
▁transparent	-10.9835
▁resident	-10.9835
am	-10.9838
▁adventure	-10.9838
▁corn	-10.9848
▁sw	-10.9849
▁boundar	-10.9861
▁frustrat	-10.9875
▁flag	-10.9894
▁wi	-10.9894
gun	-10.9896
▁distribute	-10.992
▁smok	-10.9921
▁integrate	-10.9924
▁observe	-10.9944
▁terrifi	-10.9954
▁excellen	-10.9963
▁destin	-10.9964
▁empire	-10.9965
▁explosion	-10.9965
▁overcom	-10.9965
▁abandon	-10.9965
▁aircraft	-10.9966
▁prosper	-10.9967
▁copyright	-10.9968
▁smooth	-10.9969
▁limitation	-10.9969
▁achievement	-10.997
▁glad	-10.9971
▁fulfill	-10.9971
▁sides	-10.9977
▁honey	-10.9977
▁tribe	-10.9978
▁darkness	-10.9981
▁universit	-10.9984
▁intention	-10.9988
▁dear	-10.9997
dollar	-11.0007
century	-11.0007
class	-11.0009
▁trends	-11.0011
▁motivate	-11.0012
turned	-11.0014
▁mar	-11.0025
▁entrepreneur	-11.003
▁meetings	-11.0032
▁inde	-11.0042
▁20,000	-11.0072
▁transfer	-11.0073
▁dig	-11.0078
base	-11.0084
▁murder	-11.0086
50	-11.0088
▁deploy	-11.0097
ling	-11.0098
▁simulation	-11.0099
▁gear	-11.0099
▁partnership	-11.0099
▁priorit	-11.01
▁activate	-11.0101
▁arabic	-11.0102
▁intuitive	-11.0104
▁bump	-11.0105
▁ben	-11.0106
▁participat	-11.0115
▁depress	-11.0125
▁rhythm	-11.0126
▁norm	-11.0127
▁250	-11.0132
▁6	-11.0133
▁profile	-11.0135
▁attend	-11.0142
▁citizen	-11.016
▁lock	-11.0163
stone	-11.0175
▁plain	-11.0178
▁describ	-11.0182
state	-11.019
▁gradual	-11.0194
abilities	-11.0211
▁football	-11.0213
▁fabric	-11.0233
▁trajector	-11.0233
▁twist	-11.0234
▁demonstration	-11.0234
▁hungry	-11.0234
▁passenger	-11.0235
▁chaos	-11.0236
▁dress	-11.0241
▁soap	-11.0243
▁lo	-11.0245
▁stroke	-11.0251
cellular	-11.0252
▁educate	-11.0263
▁illustrate	-11.028
sis	-11.0285
▁port	-11.0292
▁assembl	-11.031
▁pregnan	-11.0322
▁lin	-11.0329
▁dish	-11.0335
▁resolve	-11.0339
▁adjust	-11.0369
▁helicopter	-11.037
▁robust	-11.037
▁leap	-11.037
▁textbook	-11.0371
▁vulnerabilit	-11.0371
▁hardware	-11.0371
▁martin	-11.0373
▁globalization	-11.0375
▁mount	-11.0376
▁pace	-11.0386
▁slice	-11.0391
▁introduc	-11.0393
▁agricultural	-11.0396
▁95	-11.0426
▁restore	-11.0442
▁pipe	-11.0453
▁package	-11.0462
▁geographic	-11.0467
▁experimental	-11.0477
▁ka	-11.0485
▁borrow	-11.0487
el	-11.05
▁65	-11.0509
▁essence	-11.0509
▁pioneer	-11.0509
▁automobile	-11.0509
▁dominant	-11.0509
▁uncomfortabl	-11.0509
▁audio	-11.0509
▁fragment	-11.051
▁pause	-11.051
▁spell	-11.0511
▁twenty	-11.0511
▁grandfather	-11.0513
▁2006	-11.0514
▁alter	-11.0515
▁genocide	-11.0516
▁clay	-11.0525
▁aesthetic	-11.0556
▁flexibl	-11.0557
ia	-11.0557
▁32	-11.0565
▁decrease	-11.0565
▁bow	-11.0576
▁preserve	-11.0599
▁realm	-11.0601
▁profession	-11.0605
▁tech	-11.0625
▁urge	-11.0628
▁tribes	-11.0637
bridge	-11.0639
▁biodivers	-11.065
▁synthetic	-11.065
▁comparison	-11.065
surveillance	-11.065
▁tunnel	-11.0651
▁vietnam	-11.0652
▁lamp	-11.0652
▁portion	-11.0653
▁twin	-11.0653
▁atlantic	-11.0654
▁attractive	-11.0656
▁naked	-11.0656
▁laid	-11.0656
▁polic	-11.0658
▁oxy	-11.0663
▁bob	-11.0664
▁leverage	-11.0679
▁scann	-11.0684
▁subtle	-11.0686
▁wing	-11.0689
ocin	-11.0689
house	-11.0695
▁sharp	-11.0697
llo	-11.0697
▁ris	-11.0731
▁surrounding	-11.0733
▁upset	-11.0735
▁br	-11.0739
▁experienc	-11.0745
▁pose	-11.0753
▁locked	-11.0755
▁leak	-11.0779
▁branch	-11.0782
ville	-11.0784
▁expos	-11.0787
▁pie	-11.0791
▁fabulous	-11.0793
▁beetle	-11.0793
▁supermarket	-11.0793
▁jewish	-11.0793
▁garage	-11.0793
▁keyboard	-11.0794
▁compell	-11.0795
▁editor	-11.0795
▁boil	-11.0795
▁utter	-11.0797
▁florid	-11.0797
▁output	-11.0797
▁debt	-11.0799
▁nutrient	-11.08
▁convey	-11.0801
▁defin	-11.0802
▁extinction	-11.0802
▁tired	-11.0803
arctic	-11.081
▁hanging	-11.081
▁26	-11.0817
▁tension	-11.0822
▁programmer	-11.0829
▁award	-11.0834
▁ink	-11.0834
▁hid	-11.0846
▁bee	-11.0846
american	-11.0848
▁hip	-11.0857
▁virgin	-11.0861
ol	-11.0862
▁194	-11.0863
▁camel	-11.0865
▁pm	-11.0865
▁capitalis	-11.0868
over	-11.0892
▁arriv	-11.0908
▁rwanda	-11.0908
▁dere	-11.0912
▁defend	-11.0921
▁strip	-11.0928
▁sensation	-11.0935
▁manhattan	-11.0938
▁oxford	-11.0938
▁ooh	-11.0938
▁elite	-11.0938
▁neat	-11.0939
▁winner	-11.0939
▁cheese	-11.0939
▁contemporar	-11.094
▁reactor	-11.0951
bi	-11.0969
▁agenc	-11.097
▁proof	-11.0993
▁dinosaur	-11.0993
▁ja	-11.0993
third	-11.0995
level	-11.0995
▁stands	-11.1007
▁burst	-11.1045
▁ethiopia	-11.1055
▁recruit	-11.1056
▁na	-11.1059
▁industri	-11.1075
▁sp	-11.1078
▁freak	-11.108
▁capita	-11.1085
▁recipe	-11.1085
▁shrimp	-11.1085
▁pandemic	-11.1085
▁spectacular	-11.1085
▁expectanc	-11.1086
▁array	-11.1088
ist	-11.1092
▁dive	-11.1093
▁bowl	-11.1098
▁dumb	-11.1099
▁graphic	-11.1104
▁printer	-11.1105
▁linear	-11.1118
▁inspiring	-11.1118
▁marker	-11.1124
▁bars	-11.1134
bru	-11.1137
source	-11.1138
▁panel	-11.1146
▁nets	-11.1147
▁resist	-11.1153
▁coat	-11.1157
omas	-11.116
me	-11.1161
▁crossing	-11.1163
▁magical	-11.1182
▁2.	-11.1201
▁employ	-11.1214
▁computation	-11.1217
▁plug	-11.1225
▁pursue	-11.1228
▁repeated	-11.1229
▁ensure	-11.1232
▁expansion	-11.1234
▁simultaneous	-11.1234
▁substance	-11.1234
▁vacuum	-11.1234
▁dialogue	-11.1234
▁breakthrough	-11.1234
▁medication	-11.1234
▁chamber	-11.1235
▁variable	-11.1236
▁impression	-11.1238
▁rope	-11.1238
▁passive	-11.1239
▁2001	-11.1239
ter	-11.124
▁evening	-11.1242
▁mood	-11.1245
▁hunter	-11.1248
▁astonishing	-11.1257
▁penn	-11.1258
▁mode	-11.1273
ise	-11.1278
▁gathering	-11.1297
force	-11.1298
▁du	-11.132
▁mat	-11.1323
▁sweat	-11.1326
▁rais	-11.1328
▁sh	-11.1331
▁spa	-11.134
▁sensory	-11.1349
▁globally	-11.1361
▁addict	-11.1363
▁achiev	-11.1374
ir	-11.1379
▁commission	-11.1383
▁relax	-11.1385
▁tragic	-11.1385
▁inherent	-11.1385
▁administration	-11.1385
▁ruin	-11.1386
▁neural	-11.1386
▁antarctic	-11.1386
▁tweet	-11.1387
▁interpretation	-11.1387
▁trash	-11.1388
▁stunt	-11.1388
▁installation	-11.1388
▁selfish	-11.139
▁jelly	-11.139
▁grandchildren	-11.139
▁pathway	-11.1391
▁primari	-11.1391
▁sacred	-11.1391
▁snake	-11.1391
▁jesu	-11.1392
▁determined	-11.1397
▁burie	-11.1398
▁investor	-11.14
▁mayor	-11.1411
▁habit	-11.1432
▁poison	-11.1433
▁sport	-11.1437
▁sacrifice	-11.1455
made	-11.1456
▁octo	-11.1457
▁kb	-11.1465
▁glamo	-11.1476
▁panels	-11.1476
▁interpret	-11.1486
▁egg	-11.1487
▁acquire	-11.1491
▁ratio	-11.1508
▁bullet	-11.1535
▁bizarre	-11.1539
▁expedition	-11.1539
▁turkey	-11.1539
▁diamond	-11.154
▁duck	-11.154
▁currenc	-11.1541
▁condom	-11.1541
▁tiger	-11.1542
▁association	-11.1542
▁homework	-11.1543
▁alexand	-11.1546
▁tendenc	-11.1546
▁sail	-11.1548
▁mis	-11.1552
▁magnet	-11.1553
▁believ	-11.1553
▁suggestion	-11.1555
▁capabilit	-11.1563
▁parasite	-11.1564
12	-11.1569
▁shopp	-11.1572
▁dec	-11.1572
▁worri	-11.1592
▁120	-11.1597
▁acknowledge	-11.1597
▁polar	-11.1608
olds	-11.1619
▁punch	-11.1624
▁reported	-11.1629
▁joint	-11.1637
▁mail	-11.1639
▁concentrate	-11.1641
▁killer	-11.1649
▁wings	-11.165
▁balls	-11.1654
▁expanding	-11.1655
▁mt	-11.1661
istic	-11.1662
at	-11.1668
▁rocks	-11.1669
▁10-	-11.1674
long	-11.1681
▁luck	-11.1688
▁recommend	-11.1694
▁relations	-11.1694
▁delight	-11.1695
▁architectural	-11.1696
▁collaborative	-11.1696
▁extension	-11.1696
▁threshold	-11.1696
▁assignment	-11.1697
▁grasp	-11.1699
▁measurement	-11.1705
▁mechanisms	-11.1706
▁helpful	-11.172
▁hunting	-11.172
▁sixth	-11.1729
▁proportion	-11.1747
▁ethic	-11.1752
▁shirt	-11.1763
zero	-11.1764
▁manual	-11.1766
▁vi	-11.1766
▁resilienc	-11.1769
▁pot	-11.1771
▁soup	-11.1771
▁thumb	-11.1783
▁compromise	-11.1802
▁owner	-11.1814
▁inventor	-11.1822
hai	-11.1825
▁choos	-11.183
▁producer	-11.1835
▁horizon	-11.1836
▁needle	-11.1842
zheimer	-11.1854
▁dopamine	-11.1854
▁matrix	-11.1854
▁dutch	-11.1854
▁hypothesis	-11.1854
▁fraction	-11.1855
▁permission	-11.1855
▁concentration	-11.1856
▁primate	-11.1856
▁triangle	-11.1856
▁chromosome	-11.1858
▁sink	-11.1859
▁watt	-11.1859
▁woke	-11.1863
▁creator	-11.1873
▁uncertaint	-11.1881
▁manipulate	-11.1884
▁copie	-11.1886
▁mri	-11.1888
▁teams	-11.1888
▁confus	-11.1889
▁mechanic	-11.1896
▁strategic	-11.1901
▁rent	-11.1905
▁faci	-11.1906
▁fate	-11.1932
▁bribe	-11.1939
▁tackle	-11.1949
▁banks	-11.1965
▁formula	-11.197
▁tricks	-11.1987
iness	-11.1994
▁homo	-11.1997
mak	-11.201
▁garbage	-11.2016
▁saturn	-11.2016
▁primitive	-11.2016
▁mysterious	-11.2016
▁electrode	-11.2016
▁kidney	-11.2016
▁contribution	-11.2018
▁routine	-11.2018
▁highlight	-11.2018
upon	-11.2019
▁appearance	-11.2019
▁ski	-11.2021
▁innocent	-11.2029
▁cats	-11.2031
▁pulse	-11.2031
▁strand	-11.2033
son	-11.2035
▁lego	-11.204
j	-11.2055
▁underly	-11.2058
▁tile	-11.2058
▁dancer	-11.2077
▁incident	-11.2078
▁warning	-11.2088
hood	-11.2098
▁33	-11.2102
▁85	-11.2118
▁approv	-11.2119
▁bats	-11.213
▁replicate	-11.2131
sum	-11.2134
▁hub	-11.2138
▁statistical	-11.2143
11	-11.2147
▁terror	-11.2149
▁4,000	-11.215
▁mimic	-11.2165
▁vent	-11.2167
▁optimis	-11.2168
▁pad	-11.2179
▁civic	-11.2179
▁curriculum	-11.2179
▁representative	-11.218
▁signature	-11.218
▁republican	-11.218
▁cotton	-11.218
▁subway	-11.2181
▁marketplace	-11.2181
rb	-11.2181
▁mask	-11.2182
▁fragile	-11.2182
▁drift	-11.2184
▁detector	-11.2184
▁barrel	-11.2184
▁regulation	-11.2185
▁inject	-11.2185
▁anxiety	-11.2188
▁capabilities	-11.2192
▁hitting	-11.2193
▁30,000	-11.2194
▁bound	-11.2195
▁wider	-11.2196
▁failing	-11.2197
▁entit	-11.222
▁interior	-11.2224
▁dose	-11.2238
▁compete	-11.2243
▁trans	-11.2261
▁edi	-11.2269
▁damn	-11.2273
▁lucki	-11.2286
▁committ	-11.2287
▁mere	-11.2298
▁prince	-11.2298
interest	-11.2312
▁195	-11.2315
▁coach	-11.2324
some	-11.2325
▁titan	-11.2331
▁educat	-11.2337
▁sauce	-11.2339
▁instinct	-11.2346
▁spontaneous	-11.2346
▁saudi	-11.2346
▁immense	-11.2346
▁egyptian	-11.2348
▁mindset	-11.2348
▁troop	-11.2348
▁iranian	-11.2349
▁aggressive	-11.235
▁slavery	-11.2351
▁italian	-11.2351
▁theoretical	-11.2352
▁neck	-11.2353
▁register	-11.2353
▁methan	-11.2358
▁imager	-11.2361
▁israeli	-11.2361
▁sa	-11.2364
▁28	-11.2373
que	-11.2375
▁populations	-11.2376
▁imag	-11.2382
▁reliabl	-11.2386
gen	-11.239
▁mixed	-11.2396
▁tongue	-11.2398
▁sandwich	-11.2404
▁shine	-11.241
▁releas	-11.2414
▁integrat	-11.2415
look	-11.2421
▁diagnose	-11.2444
▁classical	-11.245
▁jet	-11.2456
▁rio	-11.2462
▁additional	-11.2469
kyo	-11.2473
▁hunt	-11.2482
ably	-11.2489
ler	-11.2489
▁projection	-11.2506
▁exhibit	-11.2512
▁refuse	-11.2512
▁antibiotic	-11.2516
▁bronx	-11.2516
▁thrill	-11.2516
▁pride	-11.2516
▁baseball	-11.2516
▁anonymous	-11.2517
▁collaborator	-11.2517
▁dung	-11.2517
▁canopy	-11.2518
▁disturb	-11.2519
▁addiction	-11.252
,500	-11.2526
▁slave	-11.2529
▁fastest	-11.2532
rous	-11.2534
▁constraint	-11.254
▁rotate	-11.2541
▁cod	-11.2548
▁announc	-11.2557
▁shit	-11.2559
▁vot	-11.2564
▁sunday	-11.2582
▁correspond	-11.2582
sahara	-11.2596
▁confident	-11.2602
▁crow	-11.2616
▁advanc	-11.2616
▁exponential	-11.263
▁geo	-11.2656
▁attribute	-11.2658
▁archive	-11.2671
▁ironic	-11.2676
▁wrap	-11.2681
▁psycho	-11.2684
▁distinct	-11.2685
▁alcohol	-11.2686
▁philanthrop	-11.2687
▁cousin	-11.2688
▁banana	-11.2688
▁tsunami	-11.2689
▁wheelchair	-11.2689
▁temple	-11.2689
▁chimp	-11.2689
▁generous	-11.269
▁dawn	-11.269
▁stake	-11.269
▁weekend	-11.2691
▁fence	-11.2691
▁slime	-11.2692
▁crew	-11.2692
▁rubber	-11.2692
▁annual	-11.2692
▁smith	-11.2693
▁combat	-11.2693
▁jaw	-11.2694
▁closing	-11.2697
▁enterprise	-11.2697
▁detection	-11.2698
▁contribut	-11.2715
▁reproduce	-11.2731
▁nuts	-11.2739
▁wedding	-11.2744
▁qualit	-11.2752
▁upside	-11.2771
ught	-11.2798
▁bod	-11.2803
▁prepare	-11.2814
▁insist	-11.2828
▁mandel	-11.2835
▁broadcast	-11.2837
▁liter	-11.2843
q	-11.2843
▁taliban	-11.2863
▁burden	-11.2864
▁unemploy	-11.2864
▁nano	-11.2864
▁august	-11.2864
▁arrow	-11.2864
▁enlighten	-11.2866
▁silver	-11.2866
▁confirm	-11.2867
▁redwood	-11.2867
▁basket	-11.2868
▁viral	-11.2872
▁cake	-11.2875
▁competitive	-11.2877
▁import	-11.288
▁tagg	-11.2886
▁genetically	-11.2888
▁dial	-11.2888
▁homeless	-11.2894
tail	-11.2897
▁cal	-11.2911
▁consist	-11.2921
▁verb	-11.2921
▁bored	-11.2928
▁goat	-11.293
ors	-11.2941
clock	-11.2952
▁poll	-11.2953
ah	-11.2954
▁rape	-11.2955
▁beam	-11.296
▁ecological	-11.2975
aging	-11.2979
▁format	-11.2985
▁expose	-11.3007
vity	-11.3018
▁fanc	-11.3021
▁hearts	-11.3024
▁awkward	-11.3042
▁dilemma	-11.3042
▁shrink	-11.3042
▁carpet	-11.3042
▁pizza	-11.3042
▁impressive	-11.3042
▁whistle	-11.3042
▁straightforward	-11.3042
▁endanger	-11.3042
▁phosphorus	-11.3042
▁harbor	-11.3042
▁spanish	-11.3042
▁cyber	-11.3042
▁phant	-11.3043
▁nonprofit	-11.3043
▁suspend	-11.3043
▁beij	-11.3043
▁territor	-11.3043
▁logical	-11.3047
▁shout	-11.3047
▁quest	-11.305
▁marry	-11.3051
▁deck	-11.3052
free	-11.3052
▁leonard	-11.3054
▁bath	-11.3054
▁metric	-11.3057
▁contrar	-11.3057
▁reflection	-11.3057
▁static	-11.306
▁calm	-11.3065
▁wage	-11.3066
wards	-11.3067
▁serving	-11.3074
▁occasion	-11.3077
▁tale	-11.3078
▁tri	-11.3078
▁virtue	-11.3081
▁shore	-11.309
▁recogniz	-11.3093
▁critic	-11.3099
▁singer	-11.3111
▁tent	-11.3115
▁pin	-11.3118
light	-11.3119
▁yorker	-11.3128
▁ti	-11.3129
▁legislati	-11.313
minute	-11.3133
▁cooperati	-11.3144
▁marrie	-11.3146
▁bless	-11.3149
▁compress	-11.316
▁lu	-11.3167
▁bab	-11.3168
aday	-11.3183
▁glue	-11.3185
▁dat	-11.3193
▁anticipate	-11.3199
▁combin	-11.3202
▁cricket	-11.3204
▁consum	-11.3206
▁exam	-11.322
▁crush	-11.3221
▁ceremon	-11.3224
▁despair	-11.3224
▁potato	-11.3224
▁captain	-11.3224
▁foster	-11.3224
▁cruel	-11.3224
▁fool	-11.3224
▁steer	-11.3224
▁coke	-11.3224
▁stole	-11.3224
▁blank	-11.3225
▁boot	-11.3226
▁pharmaceutical	-11.3226
▁fault	-11.3227
▁agreement	-11.3229
▁lord	-11.3229
▁leaf	-11.3233
▁scanner	-11.3237
point	-11.3238
▁arise	-11.3258
eaten	-11.3259
▁spark	-11.3263
▁unhapp	-11.3292
▁cliff	-11.3299
▁dedicate	-11.33
ball	-11.3302
▁ethnic	-11.3314
▁venture	-11.332
▁youth	-11.3322
▁navigate	-11.3327
▁dedicat	-11.3333
▁uniform	-11.334
▁graphics	-11.3343
ious	-11.336
bc	-11.3373
▁replac	-11.3374
ches	-11.3381
▁crawl	-11.3394
▁explode	-11.3406
▁outer	-11.3407
▁crystal	-11.3409
▁neanderthal	-11.3409
▁tanzania	-11.3409
▁tattoo	-11.3409
▁jazz	-11.3409
▁proposition	-11.3409
▁steam	-11.3409
▁microphone	-11.3409
▁santa	-11.341
▁gentleman	-11.3412
▁wheat	-11.3412
▁frontier	-11.3412
▁mineral	-11.3412
▁disconnect	-11.3414
▁miserable	-11.3414
▁compassionate	-11.3414
▁workplace	-11.3418
▁winning	-11.3418
▁josh	-11.342
▁prevention	-11.3421
▁glow	-11.3422
▁associat	-11.3425
▁ipod	-11.3429
▁brave	-11.3433
▁server	-11.3435
▁moore	-11.3436
nts	-11.3441
▁remov	-11.3443
▁uh	-11.3471
▁newton	-11.3472
ex	-11.3473
▁intrigu	-11.3478
▁batter	-11.3485
▁fey	-11.3494
▁cooperate	-11.3497
▁blogs	-11.3507
▁bite	-11.3512
▁pant	-11.3523
▁guns	-11.3533
ists	-11.3534
▁gentle	-11.3541
▁purchase	-11.3546
▁previously	-11.3553
▁prior	-11.3582
ied	-11.3586
▁phenomena	-11.3587
▁teenage	-11.359
v	-11.3592
▁stomach	-11.3598
▁cigarette	-11.3598
▁ubiquitous	-11.3598
▁defeat	-11.3598
▁koran	-11.3598
▁prostate	-11.3598
▁unconscious	-11.3598
▁shang	-11.3598
▁infant	-11.3599
▁unfold	-11.36
▁palestinian	-11.36
▁calorie	-11.36
▁fox	-11.3601
▁insane	-11.3602
▁loose	-11.3602
▁terrifying	-11.3603
▁ecolog	-11.3603
▁index	-11.3603
▁asian	-11.3604
▁athlete	-11.3605
▁altitude	-11.3607
▁campus	-11.3607
▁gandhi	-11.3615
▁compet	-11.3619
▁brutal	-11.3626
▁bucks	-11.3637
▁burned	-11.3639
▁temporar	-11.3642
▁supplie	-11.3653
▁container	-11.3653
▁luxur	-11.3659
▁shoe	-11.3668
▁flowing	-11.3681
▁disgust	-11.3684
▁overwhelming	-11.3685
world	-11.37
▁comic	-11.3709
▁harr	-11.3712
▁mac	-11.3729
▁independen	-11.3741
▁smil	-11.3757
▁convention	-11.3757
▁200,000	-11.3762
▁strongly	-11.3767
ison	-11.3768
▁beating	-11.3768
▁distinguish	-11.3773
▁export	-11.3776
▁sketch	-11.3781
▁relation	-11.3782
▁geometr	-11.3786
▁reconstruct	-11.3788
▁leather	-11.379
▁encouraging	-11.379
▁precious	-11.379
▁unprecedented	-11.379
▁multiply	-11.379
▁protocell	-11.379
▁substantial	-11.379
▁album	-11.379
▁leban	-11.379
▁delay	-11.3791
▁nerd	-11.3791
▁purple	-11.3791
▁syndrome	-11.3791
▁texture	-11.3792
▁fusion	-11.3792
▁punishment	-11.3792
▁visualization	-11.3793
▁recall	-11.3794
▁friday	-11.3794
▁grandparent	-11.3797
▁peaceful	-11.38
▁ongoing	-11.3801
▁upload	-11.3802
▁branches	-11.3805
▁intensive	-11.3809
▁lowest	-11.3811
▁prayer	-11.3816
▁sel	-11.3831
ries	-11.3839
▁formation	-11.3841
▁hardest	-11.3841
▁endless	-11.3842
▁manufacturer	-11.3844
▁henr	-11.3847
nna	-11.385
▁simulate	-11.3858
▁shin	-11.3863
▁gon	-11.3872
▁academ	-11.388
▁float	-11.3885
▁tes	-11.3885
▁chas	-11.3887
▁hum	-11.3892
▁800	-11.3898
fall	-11.3906
▁upward	-11.3912
▁announce	-11.3925
▁enhance	-11.3932
▁cha	-11.3939
▁kiss	-11.3939
bye	-11.394
▁glamor	-11.3944
▁jumped	-11.3949
▁harmon	-11.3953
▁carolin	-11.3962
▁monte	-11.3964
▁logo	-11.397
▁storytell	-11.3974
▁cart	-11.3984
fi	-11.3984
▁hierarch	-11.3985
▁insulin	-11.3986
▁pencil	-11.3986
▁crab	-11.3986
▁flourish	-11.3986
▁antenna	-11.3986
▁retreat	-11.3986
▁chef	-11.3986
▁excitement	-11.3987
▁amateur	-11.3987
▁collision	-11.3987
▁swallow	-11.3987
▁backyard	-11.3987
▁transmission	-11.3987
▁elementary	-11.3988
ua	-11.3989
▁membrane	-11.3989
▁fertilizer	-11.399
▁retirement	-11.3992
▁thus	-11.3995
▁survivor	-11.3995
▁wa	-11.3996
▁parliament	-11.3997
▁tide	-11.4
▁specialist	-11.4001
▁sake	-11.4001
▁intrinsic	-11.4001
▁drought	-11.4001
▁interconnected	-11.4002
▁tone	-11.4005
▁analyz	-11.4005
▁baker	-11.4011
▁atomic	-11.4022
hong	-11.4033
▁distribut	-11.4045
▁jh	-11.4056
▁sanit	-11.4069
▁ham	-11.4069
▁custom	-11.4078
drew	-11.4078
▁transmit	-11.4083
fold	-11.4083
▁notic	-11.4084
▁spray	-11.4097
▁rivers	-11.4099
▁preserv	-11.4102
▁stabilit	-11.4104
▁institutional	-11.4118
ham	-11.412
▁johns	-11.4122
▁celebrat	-11.4127
cost	-11.4134
▁zoo	-11.414
entropy	-11.414
▁yoursel	-11.4146
place	-11.415
▁settle	-11.4162
▁jewel	-11.4163
co	-11.4181
▁craft	-11.4183
▁republic	-11.4186
▁minimum	-11.4186
▁absence	-11.4186
▁genuine	-11.4186
▁division	-11.4186
▁strict	-11.4186
▁breakfast	-11.4186
▁intimate	-11.4186
▁cocaine	-11.4186
▁deliberate	-11.4186
▁jihad	-11.4186
▁indigen	-11.4187
▁brazilian	-11.4187
▁flavor	-11.4187
▁negotiation	-11.4188
▁distinction	-11.4189
▁approximate	-11.4191
▁libert	-11.4191
▁minus	-11.4193
▁gallon	-11.4197
▁visualize	-11.4198
▁elegant	-11.4199
▁ego	-11.4201
▁offering	-11.4205
▁pursui	-11.4207
ate	-11.4214
▁42	-11.4214
▁viewer	-11.4224
▁connectiv	-11.4231
▁korean	-11.4239
▁punish	-11.4247
▁29	-11.4254
▁div	-11.4255
▁bombs	-11.4258
▁disability	-11.4261
rway	-11.4274
maker	-11.4275
▁chronic	-11.4276
▁via	-11.4277
well	-11.4278
▁jar	-11.4278
grade	-11.4281
car	-11.4282
▁wo	-11.4291
▁update	-11.4293
▁habits	-11.4293
ana	-11.4294
▁bind	-11.4296
▁blend	-11.4296
▁tar	-11.4307
▁torture	-11.4309
▁banker	-11.4319
▁eric	-11.4324
▁proven	-11.4339
ated	-11.4339
▁shower	-11.4347
▁traits	-11.4371
stage	-11.4378
▁remarkabl	-11.4383
nman	-11.4388
▁psychiatr	-11.439
▁aristot	-11.439
▁artifact	-11.439
▁heritage	-11.439
▁occupy	-11.439
▁structural	-11.439
▁warrior	-11.439
▁monster	-11.439
▁abraham	-11.439
▁biosphere	-11.4391
▁redesign	-11.4391
▁jew	-11.4392
▁mike	-11.4392
▁passage	-11.4394
▁proposal	-11.4394
▁geek	-11.4394
▁lester	-11.4395
▁intent	-11.4396
▁phenomenal	-11.4402
estate	-11.4404
▁popp	-11.4405
▁horizontal	-11.4414
▁cue	-11.4416
▁clar	-11.4423
▁probe	-11.4449
▁cows	-11.4451
▁sale	-11.4453
▁mapping	-11.4462
▁prepar	-11.4464
▁cookie	-11.4464
▁nigerian	-11.4468
▁mutual	-11.4472
▁drag	-11.4474
▁commit	-11.4479
▁negotiate	-11.4499
▁spike	-11.4503
▁sara	-11.4505
▁donor	-11.4505
tude	-11.4512
▁historic	-11.4513
▁magni	-11.4517
▁tooth	-11.4519
▁headed	-11.4533
▁raped	-11.4538
berlin	-11.4562
▁tubes	-11.4568
▁divorce	-11.4582
▁brun	-11.4593
▁disagree	-11.4597
▁prescription	-11.4599
▁satisfy	-11.4599
▁swiss	-11.4599
▁zealand	-11.4599
▁pirate	-11.4599
▁diagnostic	-11.4599
▁chole	-11.4599
▁priest	-11.4599
▁recession	-11.4599
▁mainstream	-11.4599
▁executive	-11.46
▁knife	-11.4604
▁manner	-11.4605
▁bedroom	-11.4606
▁airline	-11.4606
▁vice	-11.4606
▁hans	-11.4607
all	-11.4607
▁chunk	-11.4611
▁grabb	-11.4612
▁summarize	-11.4613
▁eliminate	-11.4615
▁convenient	-11.4623
▁logg	-11.4623
▁farming	-11.4624
▁lit	-11.4627
lson	-11.4634
▁donation	-11.4638
▁nov	-11.4639
ology	-11.4641
▁kev	-11.4643
▁maxim	-11.4651
▁aspiration	-11.4665
nda	-11.4672
▁explorer	-11.4677
▁sole	-11.4681
▁useless	-11.4683
▁cuba	-11.4687
▁jur	-11.4701
▁alarm	-11.4705
▁wrapp	-11.4707
ually	-11.4709
▁assign	-11.4713
drive	-11.4713
▁terra	-11.4719
▁views	-11.4728
▁quantit	-11.4731
▁wires	-11.4743
▁sill	-11.4743
▁communicat	-11.4747
▁dressed	-11.4754
▁embrac	-11.4762
em	-11.4765
▁sin	-11.4766
▁30-	-11.4766
▁tick	-11.4768
▁trivial	-11.4768
▁assum	-11.4778
bm	-11.4781
ew	-11.479
▁candle	-11.4795
▁camps	-11.4797
raising	-11.4802
▁skelet	-11.4809
▁pond	-11.481
▁explicit	-11.4811
▁encrypt	-11.4811
▁glimpse	-11.4811
▁receptor	-11.4811
▁choir	-11.4811
▁pigeon	-11.4811
▁festival	-11.4811
▁spiral	-11.4811
▁exposure	-11.4811
▁summit	-11.4811
▁pipeline	-11.4812
▁canvas	-11.4812
▁migration	-11.4812
▁translator	-11.4812
▁cylinder	-11.4812
▁span	-11.4814
stock	-11.4814
▁frustration	-11.4815
▁filmmaker	-11.4816
▁composition	-11.4818
▁loving	-11.4818
▁iceland	-11.482
▁rick	-11.4822
▁controversial	-11.4824
▁astronomer	-11.4831
▁harness	-11.4833
led	-11.4846
▁monitoring	-11.485
▁processor	-11.485
▁realistic	-11.4855
▁bold	-11.4873
ri	-11.4878
▁delivery	-11.4879
▁carri	-11.4881
▁wipe	-11.4911
▁delicio	-11.4913
▁acre	-11.4914
four	-11.4936
▁estimates	-11.4937
known	-11.4938
▁shocking	-11.495
▁divid	-11.4956
▁glasse	-11.4956
▁wir	-11.4964
▁diploma	-11.4972
▁doors	-11.4985
▁6,000	-11.4988
▁bust	-11.4995
▁democrat	-11.4995
▁en	-11.5
▁neutral	-11.5001
▁brush	-11.5004
▁naive	-11.5007
▁interrupt	-11.5017
▁isolat	-11.5019
▁zip	-11.5021
▁worrying	-11.5025
▁detroit	-11.5029
▁shakespeare	-11.5029
▁volcano	-11.5029
▁bathroom	-11.5029
▁alpha	-11.5029
▁legitimate	-11.5029
▁elevator	-11.5029
▁gross	-11.503
▁impulse	-11.503
▁algae	-11.503
▁civilian	-11.503
▁specialize	-11.503
▁workshop	-11.503
▁obtain	-11.5031
▁align	-11.5032
▁magnificent	-11.5032
▁1900	-11.5033
▁shy	-11.5033
▁investigation	-11.5033
▁psychopath	-11.5034
▁deception	-11.5034
▁coverage	-11.5034
▁girlfriend	-11.5035
▁rome	-11.5036
▁mexican	-11.5037
▁downtown	-11.5041
na	-11.5045
▁suppress	-11.5053
▁deposit	-11.5061
▁realization	-11.5069
▁mesh	-11.5069
▁cube	-11.5071
▁accelerate	-11.5093
▁descend	-11.5105
▁salar	-11.5117
▁minorit	-11.5117
▁embarrassing	-11.5125
▁wal	-11.5126
▁scare	-11.5127
▁55	-11.514
rapped	-11.5145
▁coloni	-11.5145
▁lean	-11.5148
▁den	-11.5151
▁caves	-11.5155
▁locate	-11.5163
ttle	-11.5165
▁hybrid	-11.5166
▁gra	-11.5172
▁dare	-11.5179
▁ending	-11.5181
ger	-11.5186
▁mu	-11.5189
▁vari	-11.5194
▁stoppe	-11.5229
▁log	-11.5233
▁inch	-11.5234
▁corrupt	-11.5234
▁jo	-11.5235
▁apri	-11.524
▁microbi	-11.5242
▁36	-11.5242
▁bangladesh	-11.5246
▁ches	-11.5248
▁distort	-11.5248
▁cop	-11.5249
▁victor	-11.525
▁tutor	-11.5251
▁prosthetic	-11.5251
▁turtle	-11.5251
▁symphon	-11.5251
▁criteri	-11.5251
▁watson	-11.5251
▁scheme	-11.5251
▁horror	-11.5251
▁rethink	-11.5251
▁dvd	-11.5252
▁diameter	-11.5252
▁segment	-11.5252
▁outrage	-11.5253
▁lifespan	-11.5253
▁strain	-11.5254
▁lg	-11.5254
▁philosophical	-11.5256
▁jones	-11.5256
▁bioluminescen	-11.5257
▁rover	-11.5257
▁parachute	-11.5258
▁denial	-11.526
▁huh	-11.5262
▁mentor	-11.527
▁censor	-11.527
▁millimeter	-11.5271
▁tourist	-11.5278
▁belt	-11.5283
▁seventh	-11.5283
▁planetary	-11.5284
▁frequently	-11.5286
▁planes	-11.5287
▁guid	-11.5294
▁regulate	-11.53
▁printed	-11.5302
▁sponsor	-11.5306
▁15-	-11.5309
▁overhead	-11.5316
▁propos	-11.532
▁optical	-11.5323
▁scott	-11.5327
▁fa	-11.5339
▁rap	-11.534
▁usage	-11.5349
▁practic	-11.535
▁reporter	-11.5351
▁berk	-11.5358
ent	-11.5368
▁overwhelm	-11.5373
▁pound	-11.5383
spring	-11.5388
▁juice	-11.5403
▁advocate	-11.5405
ca	-11.5411
ner	-11.5413
▁eco	-11.5414
▁grave	-11.5439
▁40,000	-11.5445
il	-11.5447
▁20-	-11.545
for	-11.5455
aring	-11.5461
▁shak	-11.5466
▁socially	-11.5471
▁geograph	-11.5471
▁chile	-11.5478
▁jeff	-11.5478
▁affair	-11.5478
▁configuration	-11.5478
▁benjam	-11.5478
▁striking	-11.5478
▁brooklyn	-11.5478
▁ministr	-11.5478
▁hostile	-11.5478
▁jungle	-11.5478
▁smartphone	-11.5478
▁2030	-11.5479
▁hallucination	-11.5479
▁principal	-11.5479
▁inherit	-11.5479
▁sidewalk	-11.548
▁destination	-11.5481
▁comics	-11.5482
▁therapist	-11.5482
▁operator	-11.5486
▁requirement	-11.5488
▁diarrhea	-11.5488
▁fluorescent	-11.549
esis	-11.5492
▁atheist	-11.5493
▁canyon	-11.5494
▁deaf	-11.5497
rising	-11.5501
▁trad	-11.5505
▁entry	-11.5516
▁indoor	-11.5518
▁tim	-11.5521
two	-11.5523
page	-11.5537
▁documentar	-11.5559
▁lungs	-11.5562
▁informal	-11.5567
mart	-11.559
▁ape	-11.5615
cola	-11.5617
▁determin	-11.5619
▁squeeze	-11.5625
▁emphasize	-11.563
▁badly	-11.5631
▁olive	-11.5645
▁accumulate	-11.5651
▁spine	-11.5654
five	-11.5658
▁jer	-11.5658
▁swing	-11.5669
▁jean	-11.567
▁kilo	-11.5674
▁indonesia	-11.5679
▁semi	-11.5685
amma	-11.57
space	-11.5701
▁sue	-11.5702
▁paradox	-11.5702
lihood	-11.5706
▁crap	-11.5709
▁deforest	-11.5711
▁grocer	-11.5711
▁pedestrian	-11.5711
▁veteran	-11.5711
▁nitrogen	-11.5711
▁humanitarian	-11.5711
▁cream	-11.5711
▁helium	-11.5711
▁intact	-11.5711
▁clinton	-11.5711
▁irrational	-11.5711
▁thread	-11.5712
▁tedster	-11.5713
▁bonus	-11.5713
▁2020	-11.5713
▁lobe	-11.5714
▁celebration	-11.5714
▁towel	-11.5714
▁hemisphere	-11.5714
▁thai	-11.5717
▁germ	-11.5718
▁secretary	-11.5719
▁patch	-11.5725
▁arabia	-11.5728
▁bioma	-11.5728
▁isolate	-11.5728
▁william	-11.5728
▁broader	-11.5729
▁lotter	-11.5735
▁cooperative	-11.5737
▁slope	-11.5739
▁lap	-11.5748
▁referr	-11.575
▁ridge	-11.5756
▁dropping	-11.576
witzer	-11.5767
▁intens	-11.5769
▁acoustic	-11.577
ral	-11.577
▁fee	-11.577
▁albert	-11.577
▁randomly	-11.5771
▁scaling	-11.5774
▁readers	-11.5776
ize	-11.5779
▁sequenc	-11.5783
▁nei	-11.5791
▁chase	-11.5813
▁spinn	-11.5824
▁guard	-11.5825
▁sang	-11.5835
▁drum	-11.5839
▁embarrass	-11.5842
▁bacteri	-11.5844
▁scream	-11.5844
▁arena	-11.5845
▁reinvent	-11.5851
▁steven	-11.5853
worth	-11.5857
ping	-11.5879
▁cape	-11.5889
we	-11.5903
▁sew	-11.5904
coming	-11.5905
▁pi	-11.5907
▁hills	-11.591
▁masse	-11.5917
▁eliminat	-11.5935
▁enforce	-11.5935
▁alex	-11.5938
▁transformati	-11.5942
▁trauma	-11.5946
▁schizophreni	-11.5948
▁chemist	-11.5948
▁singapore	-11.5948
▁autonom	-11.5948
▁sperm	-11.5948
▁contest	-11.5949
▁abundance	-11.5949
▁maneuver	-11.5949
▁mcdonald	-11.5949
▁transistor	-11.5949
▁expense	-11.5949
▁vacation	-11.5949
▁welfare	-11.5949
▁blob	-11.5949
▁commodity	-11.5949
▁encyclopedia	-11.5949
▁gorgeous	-11.5949
▁nail	-11.595
▁refrigerator	-11.595
▁drain	-11.595
▁stephen	-11.595
▁introduction	-11.595
▁fifty	-11.595
▁separation	-11.5951
▁magician	-11.5952
▁diagnosi	-11.5954
▁bleed	-11.5955
▁sufficient	-11.5957
▁louis	-11.5957
golia	-11.5964
▁dragg	-11.5966
▁storyteller	-11.5968
▁48	-11.5968
▁mild	-11.5973
▁diplomat	-11.5977
▁fo	-11.5979
▁mite	-11.5979
▁computational	-11.598
▁auto	-11.598
ean	-11.5981
▁1.2	-11.5988
▁playful	-11.5992
▁jane	-11.5997
▁vary	-11.6001
▁cyr	-11.6007
▁developer	-11.6015
▁lawn	-11.6016
▁polici	-11.602
▁surger	-11.6021
▁stimulate	-11.6024
nia	-11.6028
▁ignor	-11.6028
▁approache	-11.6037
▁collaborate	-11.6039
▁royal	-11.6043
▁coordinate	-11.6049
▁diagnos	-11.6052
verse	-11.6057
▁resilien	-11.6079
related	-11.6081
da	-11.6087
▁stamp	-11.6089
▁walks	-11.6117
▁electro	-11.6118
▁stare	-11.6124
▁relativ	-11.6135
box	-11.6139
▁owe	-11.6146
ka	-11.6148
▁transcend	-11.6148
▁investigate	-11.6161
▁filling	-11.6164
▁boundary	-11.6164
ck	-11.6168
▁winds	-11.6171
▁donors	-11.6178
▁blink	-11.6179
▁heavi	-11.618
▁assemble	-11.6184
▁sometime	-11.6185
▁odor	-11.6186
▁starv	-11.6187
▁dominate	-11.619
▁ideolog	-11.6192
▁default	-11.6193
▁devastating	-11.6193
▁endeavor	-11.6193
▁enzyme	-11.6193
▁neuroscientist	-11.6193
▁exclusive	-11.6193
▁famine	-11.6193
▁connectome	-11.6193
▁squid	-11.6194
▁contradiction	-11.6194
▁arrangement	-11.6194
▁ethan	-11.6194
▁calculus	-11.6194
▁laden	-11.6194
▁flock	-11.6195
▁spacecraft	-11.6195
▁blade	-11.6196
▁kong	-11.6198
▁insert	-11.6198
tenance	-11.62
▁artwork	-11.62
▁taxe	-11.6206
▁tolerance	-11.6208
▁fantasy	-11.6211
▁centimeter	-11.6212
assembl	-11.6214
▁cage	-11.6214
▁deepest	-11.6216
▁ambition	-11.6221
▁hopeless	-11.6222
tz	-11.6231
▁stair	-11.6231
un	-11.6233
▁paralyz	-11.6234
▁gotte	-11.6234
▁oven	-11.6239
ane	-11.6242
lief	-11.6248
lice	-11.6266
hur	-11.6267
▁committee	-11.6276
▁riot	-11.628
▁op	-11.629
▁woode	-11.6295
▁schedule	-11.6299
ook	-11.6301
▁screaming	-11.6302
▁transmitt	-11.6306
do	-11.631
▁promot	-11.6311
til	-11.6314
▁aggregate	-11.6322
▁virgini	-11.6324
▁dispos	-11.6329
▁rang	-11.6329
▁confine	-11.6329
▁render	-11.6337
▁trap	-11.6343
digit	-11.6347
ntil	-11.6353
▁gase	-11.6364
▁sexy	-11.6384
▁confuse	-11.6386
▁warn	-11.6394
▁formal	-11.6413
▁kep	-11.6414
▁astronom	-11.6416
▁boost	-11.6418
▁panic	-11.6437
▁moz	-11.6439
▁deficit	-11.6443
▁parkinson	-11.6443
▁peculiar	-11.6443
▁pesticide	-11.6443
▁puppet	-11.6443
violet	-11.6443
▁drunk	-11.6443
▁joseph	-11.6443
▁bonobo	-11.6443
▁leopard	-11.6443
▁daniel	-11.6443
▁stadium	-11.6443
▁outbreak	-11.6443
▁intersection	-11.6444
▁calculator	-11.6444
▁prospect	-11.6444
▁coca	-11.6444
▁progressive	-11.6445
▁preparation	-11.6445
▁1930	-11.6445
▁exhaust	-11.6447
▁immortal	-11.6448
▁cattle	-11.6448
▁disk	-11.6448
▁25,000	-11.645
▁adaptation	-11.645
ai	-11.6451
▁ro	-11.6459
▁bla	-11.6467
▁fried	-11.6469
▁dough	-11.647
org	-11.6472
▁brad	-11.6477
▁nonviolen	-11.6481
▁momentum	-11.6485
▁charli	-11.6495
king	-11.65
▁lethal	-11.6507
▁spare	-11.6512
▁chop	-11.652
▁350	-11.6521
▁retire	-11.6527
▁kidd	-11.6532
▁digg	-11.654
▁autist	-11.6541
▁stereotype	-11.6542
standing	-11.6546
▁cr	-11.6549
▁performer	-11.6562
▁identifie	-11.6563
▁marathon	-11.6568
▁seeming	-11.6576
▁eve	-11.6583
war	-11.6595
▁tr	-11.6598
▁trains	-11.6599
▁te	-11.6603
person	-11.6607
three	-11.6611
▁wolf	-11.6611
▁assistan	-11.6614
▁mc	-11.6617
ney	-11.6622
▁ban	-11.6624
▁gree	-11.6632
▁compute	-11.6641
bacterial	-11.6643
▁captur	-11.6646
▁carve	-11.6658
▁menu	-11.6677
▁erect	-11.6686
▁belly	-11.6687
▁mud	-11.669
▁gate	-11.6694
▁passe	-11.6696
▁convict	-11.6698
▁ambitio	-11.6698
▁accura	-11.6699
▁guitar	-11.6699
▁thirty	-11.6699
▁thylacine	-11.6699
▁vitamin	-11.6699
▁vocabular	-11.6699
▁metabolism	-11.6699
▁mumbai	-11.6699
▁protocol	-11.6699
▁norden	-11.6699
▁disney	-11.67
▁kindergarten	-11.6701
▁kilogram	-11.6701
▁swarm	-11.6701
▁selective	-11.6701
▁nightmare	-11.6702
▁genomic	-11.6703
▁unlock	-11.6706
▁asthma	-11.6709
▁enabl	-11.671
▁hmm	-11.6711
▁invitation	-11.6711
▁province	-11.6714
▁vibration	-11.6715
▁statue	-11.6717
eley	-11.6721
▁indus	-11.6724
▁nutrition	-11.6725
use	-11.6728
▁earning	-11.6731
blew	-11.6734
▁flipp	-11.6735
▁elaborate	-11.6739
▁learner	-11.6744
▁staring	-11.675
izing	-11.6756
▁modest	-11.6762
lin	-11.6765
ure	-11.6777
id	-11.6787
▁fatal	-11.6787
▁symbolic	-11.6789
▁31	-11.6806
▁translat	-11.681
▁hut	-11.6817
▁climber	-11.6828
▁retina	-11.6846
▁macro	-11.6847
▁landing	-11.6851
▁mines	-11.6854
back	-11.6857
▁dam	-11.6858
stream	-11.6868
rian	-11.6868
shirt	-11.6871
percent	-11.6872
income	-11.6875
▁longe	-11.6879
using	-11.688
▁pat	-11.6888
rich	-11.6908
ile	-11.6909
▁personaliz	-11.6917
▁forum	-11.6925
died	-11.6927
▁skeptic	-11.6937
month	-11.6939
law	-11.6943
▁prey	-11.6948
▁tony	-11.6953
▁memorial	-11.6954
▁mola	-11.6954
▁innovate	-11.6955
▁lobby	-11.696
▁chemotherap	-11.6962
▁cockroach	-11.6962
▁craig	-11.6962
▁hurricane	-11.6962
▁juvenile	-11.6962
▁phoenix	-11.6962
▁sensitivit	-11.6962
▁shepherd	-11.6962
▁forecast	-11.6962
▁marrow	-11.6962
▁lump	-11.6962
▁bucket	-11.6963
▁entrance	-11.6963
▁undergraduate	-11.6963
▁cellphone	-11.6963
▁trunk	-11.6963
▁catastrophe	-11.6964
▁chew	-11.6964
▁grace	-11.6965
▁shatter	-11.6966
▁myceli	-11.6967
▁lever	-11.6967
▁educator	-11.6967
▁canadian	-11.6968
▁confess	-11.6969
▁promis	-11.6969
▁spade	-11.6972
▁moralit	-11.6973
▁persist	-11.6975
▁basement	-11.6976
▁firing	-11.6979
▁integration	-11.698
▁yell	-11.6981
▁charter	-11.6982
▁eternal	-11.6989
▁dominat	-11.6993
▁impose	-11.6998
▁rabbit	-11.7002
nburg	-11.7006
▁awe	-11.7007
▁equit	-11.7008
▁pleasant	-11.7008
▁assistant	-11.7013
▁amy	-11.7013
col	-11.7015
step	-11.702
▁cri	-11.7025
▁unsee	-11.7028
▁mon	-11.7028
▁scot	-11.7037
▁nois	-11.7039
▁remix	-11.7053
▁demo	-11.7059
▁axe	-11.7065
▁usa	-11.7068
▁emotionally	-11.708
end	-11.7098
▁gram	-11.7099
▁ra	-11.7103
▁andrew	-11.7111
pa	-11.7124
▁ac	-11.7127
▁quad	-11.7129
15	-11.7135
human	-11.7139
shape	-11.7146
▁hug	-11.7147
▁philip	-11.7149
▁cope	-11.7163
▁freez	-11.7175
▁summar	-11.7178
▁cd	-11.7186
▁dependenc	-11.7187
▁foi	-11.721
cut	-11.7213
▁whisper	-11.7217
oline	-11.7218
▁flick	-11.7218
▁alphabet	-11.723
▁augment	-11.7231
▁exquisite	-11.7233
▁scaffold	-11.7233
▁catholic	-11.7233
▁guerrilla	-11.7233
▁holiday	-11.7233
▁creep	-11.7233
▁unfair	-11.7233
▁embodie	-11.7233
▁honeybee	-11.7233
▁buddha	-11.7233
▁multinational	-11.7233
▁surgical	-11.7233
▁dragonfl	-11.7233
▁swamp	-11.7233
▁faint	-11.7233
▁wrist	-11.7233
▁historian	-11.7233
▁mixture	-11.7233
▁adolescent	-11.7234
▁supernova	-11.7234
▁synapse	-11.7234
▁mosque	-11.7234
▁lifted	-11.7234
▁settlement	-11.7234
▁crude	-11.7235
▁manipulation	-11.7235
▁commandment	-11.7236
▁generator	-11.7237
▁harsh	-11.7237
▁dragon	-11.7238
▁replacement	-11.7238
openha	-11.7239
▁sweep	-11.724
▁gravitational	-11.7241
▁spatial	-11.7241
▁60,000	-11.7242
▁idiot	-11.7242
▁candy	-11.7243
▁hint	-11.7246
aten	-11.7247
▁avatar	-11.7247
▁vivid	-11.7249
▁pearl	-11.7269
▁persuade	-11.7269
▁anticipat	-11.7271
▁bud	-11.7271
organiz	-11.7271
sky	-11.7279
sia	-11.7281
▁dur	-11.7291
▁fertil	-11.7297
▁angiogen	-11.73
▁gore	-11.7305
▁steep	-11.7319
▁concentrat	-11.7324
▁gras	-11.7328
loved	-11.7334
▁smash	-11.7336
ko	-11.7337
ram	-11.735
▁execute	-11.7356
▁traffick	-11.7363
play	-11.7371
▁decid	-11.7374
▁blown	-11.7374
wright	-11.7381
▁examine	-11.7395
▁democrac	-11.7395
▁ya	-11.74
ac	-11.7408
profit	-11.7415
▁hydro	-11.7416
▁matched	-11.7416
rhythm	-11.7416
▁cooling	-11.7432
▁intervene	-11.7435
▁significan	-11.746
▁declare	-11.7465
▁rob	-11.7467
▁founder	-11.748
▁flame	-11.7487
▁tomato	-11.7489
▁woods	-11.7497
▁trail	-11.7499
io	-11.7503
▁grip	-11.7508
▁regional	-11.7508
▁hawaii	-11.751
▁cooper	-11.751
▁corridor	-11.751
▁favela	-11.751
▁friction	-11.751
▁technician	-11.751
▁alaska	-11.751
▁census	-11.751
▁sibling	-11.751
▁feather	-11.751
▁kosov	-11.751
▁authoritarian	-11.751
▁catastrophic	-11.751
▁cabinet	-11.751
▁desktop	-11.751
▁sierra	-11.7511
▁veil	-11.7511
▁curtain	-11.7511
▁premise	-11.7511
▁headquarter	-11.7511
▁exit	-11.7512
▁envision	-11.7512
▁sulfide	-11.7512
▁potter	-11.7512
▁infectious	-11.7512
▁employment	-11.7513
▁orientation	-11.7513
▁retain	-11.7513
▁couch	-11.7514
▁satisfact	-11.7514
▁beef	-11.7516
▁cartoonist	-11.7517
▁monday	-11.7517
▁valve	-11.7522
▁friendship	-11.7523
▁generic	-11.7525
▁hackers	-11.7533
▁visitor	-11.7537
▁rub	-11.7546
▁celebrity	-11.7548
▁humble	-11.7549
▁fires	-11.7553
▁pun	-11.7555
▁eighth	-11.7561
▁nast	-11.7563
ron	-11.7584
▁horses	-11.7586
▁valid	-11.7588
▁junk	-11.7594
▁yeast	-11.7596
▁freeze	-11.7606
▁mapp	-11.7609
▁bounce	-11.7612
▁mist	-11.7618
▁restrict	-11.7618
▁rear	-11.7619
fin	-11.7621
▁thankful	-11.7623
▁divergen	-11.7624
▁minimal	-11.7625
form	-11.7642
erusal	-11.7646
▁amaze	-11.7646
fied	-11.7654
▁dome	-11.7657
▁triple	-11.7662
▁nick	-11.7669
▁keys	-11.767
▁milo	-11.7671
tangible	-11.7672
▁typ	-11.7679
▁feminist	-11.768
▁proceed	-11.7689
lly	-11.769
▁guards	-11.7691
▁separat	-11.7694
book	-11.7696
▁compose	-11.7698
▁resemble	-11.7705
ose	-11.7706
speed	-11.7708
▁screw	-11.771
▁correlation	-11.7712
table	-11.7724
▁donate	-11.774
▁improvise	-11.774
▁nucle	-11.7741
ania	-11.7742
▁integr	-11.7744
▁parameter	-11.7746
▁stewar	-11.7751
▁mastery	-11.7758
▁kit	-11.7759
▁yards	-11.7765
▁rag	-11.7777
▁pursu	-11.7779
lage	-11.7784
▁millenni	-11.7788
▁yemen	-11.7792
▁michel	-11.7792
▁tempt	-11.7794
▁hawk	-11.7796
▁controvers	-11.7796
▁absurd	-11.7796
▁astronaut	-11.7796
▁calendar	-11.7796
▁cathedral	-11.7796
▁supreme	-11.7796
▁consent	-11.7796
▁jordan	-11.7796
▁manuscript	-11.7796
▁cocktail	-11.7796
▁infra	-11.7796
▁sudan	-11.7796
▁fractal	-11.7796
▁cardiac	-11.7797
▁blast	-11.7797
▁headache	-11.7797
▁flesh	-11.7797
▁distress	-11.7797
▁manifestation	-11.7798
▁alumin	-11.7798
▁pillar	-11.7798
▁spouse	-11.78
▁obsolet	-11.78
▁guest	-11.7801
▁decent	-11.7803
▁remotely	-11.7804
▁league	-11.7806
▁hammer	-11.7806
▁composer	-11.781
▁powder	-11.7811
▁potent	-11.7811
▁antibod	-11.7813
▁spaceship	-11.7813
▁progression	-11.7815
▁chord	-11.7819
▁observer	-11.7839
▁warmer	-11.7849
▁thermal	-11.7857
▁receiver	-11.7864
▁encode	-11.7868
▁propaga	-11.7872
be	-11.7875
▁dub	-11.7893
▁eradicat	-11.7907
▁fuse	-11.7909
▁manufacture	-11.7912
▁hive	-11.7917
▁nat	-11.7918
▁longest	-11.792
▁1,	-11.7924
▁sal	-11.7926
▁collide	-11.7927
▁graduat	-11.7929
▁timing	-11.793
▁migrate	-11.7931
▁identifi	-11.7958
▁provider	-11.7969
▁regenerate	-11.7973
▁98	-11.7975
▁130	-11.7981
▁marks	-11.7984
▁drama	-11.7986
▁transit	-11.7988
mile	-11.7989
▁animate	-11.7999
▁gods	-11.8
broad	-11.8
▁submit	-11.801
▁behold	-11.8013
▁sens	-11.8016
quality	-11.802
▁hol	-11.8029
▁fl	-11.8032
▁theori	-11.8042
▁1,500	-11.8044
▁conquer	-11.8044
▁forgive	-11.8045
▁melod	-11.8046
▁syria	-11.8047
▁su	-11.8053
▁dai	-11.8068
▁whoa	-11.807
ro	-11.8075
▁anniversar	-11.809
▁consensu	-11.809
▁contagio	-11.809
▁himalaya	-11.809
▁meadow	-11.809
▁neglect	-11.809
▁peanut	-11.809
▁saturday	-11.809
▁snail	-11.809
▁imperative	-11.809
▁cybercriminal	-11.809
▁staircase	-11.809
▁superhero	-11.809
▁portug	-11.809
▁pancrea	-11.809
▁kennedy	-11.809
▁visceral	-11.809
▁scholarship	-11.8091
▁acute	-11.8091
▁metabolic	-11.8091
▁iceberg	-11.8091
▁ancestr	-11.8091
▁danny	-11.8091
▁millennia	-11.8092
▁cinema	-11.8092
▁extensive	-11.8092
▁intimacy	-11.8092
▁utilit	-11.8093
▁alert	-11.8093
▁reader	-11.8094
▁treasure	-11.8094
▁penalt	-11.8094
▁fda	-11.8095
▁crank	-11.8096
▁equi	-11.8098
▁gala	-11.8099
▁cafe	-11.8099
▁toast	-11.8099
right	-11.8099
▁hal	-11.8103
▁larva	-11.8103
therland	-11.8103
▁ross	-11.8105
▁blogg	-11.8114
▁1.5	-11.8115
osity	-11.8115
▁fever	-11.8116
▁38	-11.8118
▁nonsens	-11.8131
▁payment	-11.8132
▁fears	-11.8133
▁amaz	-11.8134
▁optimize	-11.8136
▁yard	-11.8139
▁ark	-11.8145
▁fur	-11.8152
▁neuro	-11.816
▁helpless	-11.8165
▁parenting	-11.817
▁kan	-11.8172
▁screening	-11.8188
size	-11.8189
▁voter	-11.8194
▁pregnanc	-11.8199
▁kite	-11.8203
▁exponentially	-11.8204
view	-11.8204
▁eradicate	-11.8204
▁obsession	-11.8214
▁demonstrat	-11.8223
▁disrupt	-11.8223
▁numer	-11.8224
▁heel	-11.8228
▁digit	-11.8229
set	-11.8231
▁recycle	-11.8235
▁ward	-11.8242
▁publisher	-11.8243
▁gam	-11.8256
▁scans	-11.8256
▁packag	-11.8258
coli	-11.8269
▁laborator	-11.8278
▁motivat	-11.8286
▁mature	-11.829
▁champion	-11.8298
school	-11.8302
sleep	-11.8303
▁derive	-11.8304
food	-11.8307
▁accidental	-11.8314
▁44	-11.8315
▁differentiate	-11.8323
▁radi	-11.8324
▁rolled	-11.8329
▁bask	-11.834
▁coordinat	-11.8343
▁rank	-11.8344
▁symmetric	-11.8359
▁stir	-11.836
▁corners	-11.8368
istine	-11.8368
▁digest	-11.8371
▁admire	-11.8374
▁delete	-11.8378
▁rebel	-11.8379
▁anesthesi	-11.838
▁precis	-11.838
▁owners	-11.8387
▁shelve	-11.8387
▁12-	-11.8389
▁buzz	-11.8393
▁jupiter	-11.8393
▁spaghetti	-11.8393
▁taboo	-11.8393
▁stagger	-11.8393
▁prevalence	-11.8393
▁saint	-11.8393
▁grammar	-11.8393
▁flaw	-11.8393
▁jefferson	-11.8394
▁guardian	-11.8394
▁toxin	-11.8394
▁mustache	-11.8394
▁anthropologist	-11.8394
▁fungi	-11.8394
▁differ	-11.8394
▁hamburger	-11.8395
▁helmet	-11.8395
▁billboard	-11.8395
▁legend	-11.8395
▁breakdown	-11.8396
▁alliance	-11.8396
▁sylvi	-11.8396
▁cosm	-11.8396
▁marc	-11.8396
▁claw	-11.8397
▁alright	-11.8397
▁gadget	-11.8398
▁tunisia	-11.8398
▁episode	-11.8398
▁rna	-11.8399
▁fuzz	-11.8399
▁argentin	-11.8402
▁wetland	-11.8402
▁arbitrar	-11.8405
▁tasmanian	-11.8405
▁neocort	-11.8406
▁buddhist	-11.8407
▁proton	-11.8413
▁blogger	-11.8415
▁terminal	-11.8415
▁assess	-11.8415
▁broc	-11.8418
▁carrot	-11.842
gram	-11.8431
▁hir	-11.8436
▁carrier	-11.8439
▁ram	-11.8449
▁colon	-11.8462
▁liberat	-11.8462
lept	-11.8465
▁bolt	-11.8465
▁angles	-11.847
▁articulate	-11.8476
▁pos	-11.8484
van	-11.8494
▁publicly	-11.8504
band	-11.8507
▁australian	-11.8512
sea	-11.8515
▁seas	-11.8522
▁96	-11.8522
▁authors	-11.8543
▁disrupti	-11.8557
▁octop	-11.8558
style	-11.8559
▁sahara	-11.8559
ux	-11.8564
▁scrap	-11.8567
▁mos	-11.8571
▁por	-11.8577
▁stead	-11.8578
▁nav	-11.8582
▁rubb	-11.8602
▁sil	-11.8605
▁journalis	-11.8606
▁declin	-11.8609
▁lee	-11.861
▁optic	-11.8611
▁brick	-11.8622
▁ge	-11.8626
▁folk	-11.8642
▁stimul	-11.8645
▁cosmo	-11.8651
can	-11.8652
gie	-11.8652
▁assure	-11.8661
▁nurtur	-11.8663
▁physiolog	-11.8673
▁columbia	-11.8675
▁pa	-11.8675
▁pric	-11.8676
▁beneficia	-11.8693
▁depict	-11.8703
away	-11.8703
▁stigma	-11.8704
▁elizabeth	-11.8705
▁violin	-11.8705
▁excess	-11.8705
▁immigrant	-11.8706
▁namibia	-11.8706
▁soccer	-11.8706
▁caregiver	-11.8706
▁funeral	-11.8706
▁appliance	-11.8706
▁ladder	-11.8706
▁pollutant	-11.8706
▁rigid	-11.8706
▁bombsight	-11.8706
▁preference	-11.8706
▁coincidence	-11.8706
▁reproduction	-11.8706
▁tribal	-11.8706
▁nike	-11.8706
▁assessment	-11.8707
▁missile	-11.8707
▁circular	-11.8707
▁delicate	-11.8707
▁opposition	-11.8707
▁submarine	-11.8707
▁austria	-11.8708
▁flexibilit	-11.8708
▁blueprint	-11.8708
▁straw	-11.8708
▁fuck	-11.8708
▁baseline	-11.8709
▁psychiatrist	-11.871
▁ghost	-11.871
▁restriction	-11.8712
▁posture	-11.8713
▁powerpoint	-11.8713
▁abundant	-11.8713
▁carl	-11.8713
▁font	-11.8715
▁strengthen	-11.8715
▁customiz	-11.8716
▁52	-11.8716
▁gigant	-11.8718
▁conductor	-11.8718
▁admitted	-11.8721
▁shredd	-11.8721
▁edward	-11.8722
ga	-11.8726
sh	-11.8726
▁tilt	-11.8728
▁upright	-11.8728
▁solo	-11.8738
pago	-11.8743
▁booth	-11.8745
▁prov	-11.8757
▁ken	-11.8758
▁disappointed	-11.8758
▁merc	-11.876
lanta	-11.8762
▁43	-11.8763
▁qa	-11.8764
▁transferr	-11.8767
▁painter	-11.8782
▁evaluate	-11.8787
changing	-11.8791
▁rod	-11.8791
▁flap	-11.8791
▁grad	-11.8804
▁heroic	-11.8804
▁tables	-11.8812
▁mini	-11.8812
▁divine	-11.882
▁affordabl	-11.8822
▁isolation	-11.8823
▁dishe	-11.8838
▁cleaner	-11.8849
racing	-11.8853
▁nin	-11.8855
▁negotiat	-11.8868
▁outward	-11.8869
bati	-11.8873
▁deny	-11.8876
▁wins	-11.8878
▁requir	-11.8887
▁underestimate	-11.8891
▁opens	-11.8901
▁medit	-11.8903
▁rena	-11.8905
tra	-11.8906
▁mytholog	-11.8911
▁bloom	-11.8913
pound	-11.8933
au	-11.8935
mail	-11.8937
▁disabilit	-11.8943
▁gee	-11.8945
▁degrad	-11.8946
▁va	-11.8948
▁dece	-11.895
▁rand	-11.8958
▁constitution	-11.8961
▁bench	-11.897
face	-11.8972
▁mama	-11.8974
▁poke	-11.898
▁worship	-11.8982
fare	-11.8982
▁arrange	-11.8987
▁lewi	-11.8993
▁redefine	-11.8999
▁patien	-11.8999
▁accent	-11.9002
▁lighter	-11.9022
▁bj	-11.9022
▁altruism	-11.9028
▁ambassador	-11.9028
▁avenue	-11.9028
▁calculating	-11.9028
▁subsequent	-11.9028
▁unpredictab	-11.9028
▁oyster	-11.9028
▁bulk	-11.9028
▁triumph	-11.9028
▁chaotic	-11.9028
▁montana	-11.9028
▁venus	-11.9029
▁obligation	-11.9029
▁fluctuation	-11.9029
▁squeak	-11.9029
▁dentist	-11.9029
▁cement	-11.903
▁criticism	-11.903
▁submersible	-11.903
▁revelation	-11.903
▁hatred	-11.9031
▁insult	-11.9031
▁carib	-11.9031
▁nepal	-11.9032
▁subjective	-11.9034
▁curator	-11.9036
▁temporal	-11.9036
▁polite	-11.9036
▁bitter	-11.9041
▁inhabit	-11.9042
▁playground	-11.9042
▁bl	-11.9044
▁consideration	-11.9059
▁skeptical	-11.906
▁enrich	-11.9062
▁tele	-11.9062
▁eba	-11.9064
▁plankton	-11.9064
▁34	-11.907
▁interviewer	-11.9076
▁penis	-11.9077
▁rehabilitati	-11.9078
▁causal	-11.9079
▁refine	-11.9084
▁brake	-11.9091
▁congesti	-11.9094
▁fog	-11.91
▁con	-11.9101
har	-11.9103
▁ron	-11.9103
▁je	-11.9112
▁stabilize	-11.9116
▁ze	-11.9117
sburg	-11.9118
▁noble	-11.9121
▁professors	-11.913
ansa	-11.9134
ted	-11.9135
net	-11.9142
come	-11.9157
▁gener	-11.9164
▁frontal	-11.9167
▁thrive	-11.9169
▁forc	-11.9185
▁biase	-11.9192
▁apologize	-11.9211
▁minor	-11.923
▁arc	-11.9231
▁rail	-11.9232
▁copp	-11.9237
▁spite	-11.9238
ina	-11.924
▁debri	-11.9241
▁upgrade	-11.9241
▁scarce	-11.9242
▁cereb	-11.9242
▁investigat	-11.9246
▁201	-11.9251
▁casual	-11.9264
▁24-	-11.9267
▁canal	-11.9267
controll	-11.9268
meter	-11.9269
▁reache	-11.927
frontal	-11.9271
tues	-11.9271
course	-11.9271
wide	-11.9274
▁conceive	-11.9274
berg	-11.9282
rose	-11.9283
▁consult	-11.9289
▁glove	-11.9304
libr	-11.9305
▁paralyze	-11.9306
▁applau	-11.9312
▁dismiss	-11.9314
▁jeopard	-11.9325
▁8,000	-11.9327
generation	-11.9328
▁grim	-11.9331
uk	-11.934
nel	-11.9341
▁avail	-11.9342
▁skip	-11.9342
▁vocal	-11.9349
▁inhibit	-11.9349
▁infinit	-11.9354
▁rig	-11.9356
ijuana	-11.9358
▁apollo	-11.9358
▁lime	-11.9359
▁orphan	-11.9361
▁slaughter	-11.9361
angelo	-11.9361
▁thorough	-11.9362
delphi	-11.9362
▁benign	-11.9362
▁competitor	-11.9362
▁convincing	-11.9362
▁crocodile	-11.9362
▁norwegian	-11.9362
▁resurrect	-11.9362
▁superior	-11.9362
▁zimbabwe	-11.9362
▁essay	-11.9362
▁pixel	-11.9362
▁surplus	-11.9362
▁laundr	-11.9362
▁slogan	-11.9362
▁lago	-11.9362
▁petition	-11.9362
▁illustration	-11.9362
▁railway	-11.9362
▁innovator	-11.9363
▁textile	-11.9363
let	-11.9363
▁indicator	-11.9363
▁adaptive	-11.9363
▁monsoon	-11.9363
▁elbow	-11.9363
▁adolescence	-11.9363
▁delusion	-11.9364
▁pepper	-11.9364
▁wallet	-11.9365
▁astronomical	-11.9365
▁dispute	-11.9366
▁scroll	-11.9366
▁equator	-11.9367
▁urgent	-11.9368
▁browser	-11.9369
▁unifie	-11.937
▁agnostic	-11.9373
▁daylight	-11.9373
▁stimulation	-11.9373
▁inclusive	-11.9373
rizon	-11.9374
▁stressed	-11.9377
eith	-11.9378
▁collar	-11.9382
rah	-11.9386
▁calci	-11.9389
▁pc	-11.9394
▁von	-11.94
▁equipp	-11.9407
▁voluntary	-11.9412
▁envelope	-11.9427
ba	-11.9427
▁cheer	-11.9428
▁lips	-11.9431
20	-11.9432
bo	-11.9437
▁stumbl	-11.9442
▁detected	-11.9444
▁complet	-11.9446
ee	-11.9449
▁bomber	-11.9455
▁ki	-11.9458
▁teache	-11.946
▁contaminat	-11.946
▁submitt	-11.9462
▁emitt	-11.9465
red	-11.9471
alysis	-11.9474
▁mi	-11.948
▁zo	-11.9486
▁hind	-11.9491
▁slip	-11.9494
▁pitt	-11.9495
▁automat	-11.9503
▁estimat	-11.9526
▁incorporate	-11.9535
he	-11.9538
handed	-11.9543
▁disgusting	-11.9549
▁cor	-11.9559
▁northeast	-11.9569
asha	-11.9577
▁paste	-11.9579
▁microscop	-11.9602
▁wander	-11.9603
▁swed	-11.9605
craft	-11.9609
spread	-11.9615
shift	-11.9616
economic	-11.9616
shine	-11.9617
▁pier	-11.9619
▁shap	-11.9631
▁invade	-11.9633
minded	-11.9634
▁socio	-11.9635
▁sensibl	-11.9637
▁heroin	-11.9641
ak	-11.9643
▁enthusias	-11.9643
ota	-11.9652
▁rabbi	-11.9658
▁sar	-11.9669
ware	-11.967
▁constrain	-11.9671
aware	-11.9671
air	-11.9674
lah	-11.9685
▁cur	-11.969
▁manifest	-11.9693
▁overlap	-11.9697
▁queens	-11.9697
▁crashe	-11.9699
▁puff	-11.97
▁lama	-11.9701
▁embryo	-11.9706
▁falcon	-11.9706
▁guinea	-11.9706
▁mammograph	-11.9706
▁michigan	-11.9706
▁migraine	-11.9706
▁regain	-11.9706
▁sediment	-11.9706
▁sputnik	-11.9706
▁conscience	-11.9706
▁polymer	-11.9707
▁ambiguit	-11.9707
▁siberia	-11.9707
▁shallow	-11.9707
▁masterpiece	-11.9707
▁impair	-11.9707
▁orphanage	-11.9707
▁butterfl	-11.9707
▁passport	-11.9707
▁suburban	-11.9707
▁supercomputer	-11.9707
▁inflation	-11.9708
▁nsa	-11.9708
▁velocit	-11.9708
▁thrust	-11.9708
▁superpower	-11.9708
▁nathan	-11.9708
▁distraction	-11.9709
▁indication	-11.9709
▁johnny	-11.9709
▁timber	-11.9709
▁reflectiv	-11.971
▁beast	-11.971
▁tedx	-11.9711
▁anatom	-11.9712
▁explod	-11.9713
cumen	-11.9714
▁susan	-11.9714
▁1.3	-11.9715
▁newborn	-11.9716
▁125	-11.9717
▁clapp	-11.9718
▁brigade	-11.9721
▁trailer	-11.9721
▁revers	-11.9722
▁electromagnet	-11.9727
▁appreciat	-11.9727
▁pathogen	-11.9728
▁jay	-11.9731
▁doubling	-11.9732
▁hence	-11.9732
▁fame	-11.9734
▁duty	-11.9737
▁acceptable	-11.9739
▁governor	-11.9743
▁devoted	-11.9749
5,000	-11.9751
shot	-11.9754
▁publication	-11.9758
ncol	-11.9764
▁nuclei	-11.9774
▁impressed	-11.9777
▁prescribe	-11.9778
▁lone	-11.9778
▁kin	-11.978
▁julian	-11.9791
▁meta	-11.9793
▁needles	-11.98
▁carti	-11.9812
▁collaps	-11.9813
▁86	-11.9814
▁arous	-11.9814
▁laying	-11.9823
▁lists	-11.9827
sight	-11.9831
▁193	-11.9834
▁exot	-11.9837
bed	-11.9845
▁butter	-11.9845
▁keen	-11.9867
▁gar	-11.9893
▁blessing	-11.9911
hc	-11.9919
▁incidental	-11.9925
▁rains	-11.9929
active	-11.9932
▁revolutionar	-11.9934
load	-11.9942
▁mari	-11.9945
▁dissolve	-11.9948
fire	-11.9965
▁knees	-11.9973
specific	-11.9973
second	-11.9973
stair	-11.9976
▁max	-11.9976
94	-11.9982
▁taxi	-11.9991
nmark	-11.9993
▁bos	-11.9995
▁mill	-12.0002
▁wishe	-12.001
▁sms	-12.0023
▁roman	-12.003
▁digitize	-12.003
▁bosnia	-12.0034
▁plac	-12.0046
▁hacker	-12.0055
▁clap	-12.0057
ecd	-12.0057
▁swap	-12.0057
▁snap	-12.006
▁suburb	-12.0063
▁tibet	-12.0063
▁whistl	-12.0063
▁fierce	-12.0064
▁railroad	-12.0064
▁venezuela	-12.0064
▁biofuel	-12.0064
▁pervasive	-12.0064
▁mutant	-12.0064
▁glory	-12.0064
▁rectangle	-12.0064
▁facult	-12.0064
▁stereo	-12.0064
▁rediscover	-12.0064
▁brainstorm	-12.0064
▁shuttle	-12.0065
▁transaction	-12.0065
▁execution	-12.0065
▁nicole	-12.0065
▁colombia	-12.0065
▁modify	-12.0066
▁monk	-12.0066
▁sync	-12.0066
▁problematic	-12.0066
▁portray	-12.0066
▁commoditi	-12.0066
▁possession	-12.0066
▁phila	-12.0066
▁boson	-12.0067
▁auditor	-12.0067
▁grassland	-12.0068
▁ideological	-12.0068
▁attachment	-12.0069
▁graffiti	-12.0069
▁injection	-12.0069
▁anxious	-12.0069
▁holoc	-12.007
▁darwinian	-12.007
▁flute	-12.0071
▁hindu	-12.0077
▁destructive	-12.0079
ectar	-12.0081
▁oops	-12.0086
▁attraction	-12.0087
▁miser	-12.0087
tial	-12.009
vinci	-12.0095
▁justify	-12.0096
▁fade	-12.0102
▁employer	-12.0109
▁diminish	-12.0115
▁midst	-12.0121
▁neurological	-12.0122
▁mund	-12.0125
▁unacceptabl	-12.0127
▁ipad	-12.0128
▁budd	-12.013
▁nurture	-12.0131
▁carne	-12.0134
▁tenth	-12.0134
▁cc	-12.0147
▁pubert	-12.0156
▁biologically	-12.017
▁ch	-12.0191
▁unleash	-12.0194
aly	-12.0196
▁displace	-12.0196
▁correlate	-12.0198
▁apples	-12.02
story	-12.0211
▁fundrais	-12.0211
▁stan	-12.0213
▁rendering	-12.0217
▁incremental	-12.0219
▁complaint	-12.022
▁locat	-12.0222
▁improvisation	-12.0238
▁53	-12.0244
▁mum	-12.0247
▁cooperat	-12.0251
▁erase	-12.0255
▁lover	-12.0256
▁spreads	-12.0256
hill	-12.0267
▁rea	-12.0274
▁balanc	-12.0279
▁mega	-12.0288
▁vibrat	-12.0289
▁bru	-12.0296
▁caps	-12.0303
▁hotte	-12.0304
▁emit	-12.0325
▁din	-12.0325
▁heck	-12.033
obi	-12.0335
child	-12.0337
axis	-12.0339
vascular	-12.034
lethal	-12.0342
▁grey	-12.0343
together	-12.0343
▁sb	-12.0344
▁bann	-12.0345
million	-12.0345
▁resonate	-12.0353
▁praise	-12.0354
uel	-12.0355
▁har	-12.036
alai	-12.0361
di	-12.0364
ria	-12.0367
▁pal	-12.0369
field	-12.0371
▁loser	-12.0371
▁monument	-12.0375
▁developmental	-12.0376
▁rotat	-12.0376
▁vegetati	-12.0378
win	-12.0381
▁hood	-12.0389
▁criticize	-12.0391
▁matche	-12.0398
▁impos	-12.0404
va	-12.0405
▁vega	-12.0405
▁treaty	-12.0407
▁tinker	-12.0413
▁methodolog	-12.0422
cell	-12.0422
born	-12.0425
▁gel	-12.0428
▁voyage	-12.043
▁chick	-12.0433
▁catalog	-12.0433
▁penetrate	-12.0434
▁grassroots	-12.0434
▁imprison	-12.0434
▁orangutan	-12.0434
▁relevanc	-12.0434
▁epiphan	-12.0434
▁prophet	-12.0434
▁technologist	-12.0434
▁wreck	-12.0434
▁wavelength	-12.0434
▁radar	-12.0434
▁auditorium	-12.0434
▁consultant	-12.0434
▁battlefield	-12.0434
▁reclaim	-12.0434
▁fingertip	-12.0434
▁resonance	-12.0435
▁defect	-12.0435
▁ease	-12.0435
▁nair	-12.0435
▁simon	-12.0436
▁laureate	-12.0436
▁aquatic	-12.0436
▁eager	-12.0436
▁wilson	-12.0437
▁crispr	-12.0437
▁urbanization	-12.0437
▁gaze	-12.0438
▁motorcycle	-12.0438
▁placebo	-12.0441
▁scope	-12.0441
▁rejection	-12.0441
sylv	-12.0442
▁obey	-12.0443
▁contractor	-12.0443
▁linguistic	-12.0444
▁mustard	-12.0445
▁abstraction	-12.0445
▁worldview	-12.0452
▁participati	-12.0453
▁overlook	-12.0456
▁modeling	-12.0456
▁mysteri	-12.0459
▁cease	-12.0467
▁plott	-12.0469
built	-12.0471
▁optimal	-12.0471
▁eu	-12.0473
▁morally	-12.0473
huse	-12.0476
▁chat	-12.0485
iro	-12.0485
▁dreamed	-12.0486
▁metaphorical	-12.0488
▁horn	-12.0488
▁shuffle	-12.0495
▁undergo	-12.0498
orie	-12.05
▁cultivate	-12.05
▁conceptual	-12.0508
▁adequate	-12.0513
ris	-12.0519
▁reinforce	-12.0521
▁annoying	-12.0529
ended	-12.053
▁certificate	-12.0533
osphere	-12.0544
▁elevate	-12.0553
▁sch	-12.0566
▁hud	-12.0569
▁marked	-12.0573
inch	-12.0573
▁planner	-12.0577
▁geographical	-12.0578
▁bypass	-12.0584
▁prototyp	-12.0592
eo	-12.0598
▁reinventing	-12.0601
ically	-12.0604
▁quot	-12.0612
▁intangible	-12.0614
▁450	-12.062
▁dick	-12.0626
▁wandering	-12.0629
▁neo	-12.0634
atory	-12.0639
▁appreciati	-12.0653
▁committe	-12.0657
▁devise	-12.0661
▁geometric	-12.0668
▁cosmi	-12.0669
bean	-12.0677
▁scal	-12.0684
midnight	-12.0686
▁beck	-12.0688
▁tablet	-12.0694
▁industrialize	-12.0694
ide	-12.071
▁hy	-12.0711
▁cosmolog	-12.0718
▁builder	-12.0719
▁peel	-12.072
▁evaporate	-12.0721
▁opt	-12.0723
▁riches	-12.0724
ado	-12.0724
weight	-12.0725
▁ela	-12.0727
fashion	-12.0728
brain	-12.0728
▁sovereign	-12.073
▁occupation	-12.0734
she	-12.0743
▁hung	-12.0748
▁clone	-12.0755
▁verbal	-12.0759
▁feeds	-12.0759
▁jona	-12.076
tive	-12.0764
▁ads	-12.0766
▁gi	-12.0767
et	-12.0771
▁forbid	-12.0776
▁desir	-12.0777
fa	-12.078
▁180	-12.0784
▁liberia	-12.0787
▁merge	-12.0789
▁assist	-12.079
▁juggl	-12.0794
▁southeast	-12.0799
▁retail	-12.0801
ature	-12.0812
▁laz	-12.0814
▁remark	-12.0814
▁dj	-12.0814
▁evan	-12.0817
▁sculpt	-12.0817
abbage	-12.0817
▁disadvantage	-12.0819
▁everglade	-12.0819
▁hippocamp	-12.0819
▁hypothetical	-12.0819
▁mammogram	-12.0819
▁mortgage	-12.0819
▁pentagon	-12.0819
▁sapien	-12.0819
▁specimen	-12.0819
▁testosterone	-12.0819
▁ushahidi	-12.0819
▁anecdote	-12.0819
▁millisecond	-12.0819
▁athletic	-12.0819
▁bhutan	-12.0819
▁orgasm	-12.0819
▁volcani	-12.0819
▁hyperbol	-12.0819
▁chalk	-12.0819
▁neurogenesis	-12.0819
▁capsule	-12.0819
▁hollow	-12.0819
▁quantitative	-12.0819
▁spawn	-12.0819
▁satisfie	-12.0819
▁roger	-12.0819
▁skype	-12.0819
▁landfill	-12.0819
▁distinctive	-12.0819
▁instinctive	-12.0819
▁georgia	-12.0819
▁marvelous	-12.082
▁rib	-12.082
▁conspirac	-12.082
▁shortcut	-12.0821
▁mammoth	-12.0821
▁shield	-12.0821
▁vector	-12.0821
▁uncover	-12.0821
▁finite	-12.0821
▁dug	-12.0821
▁inexpensive	-12.0822
▁crater	-12.0822
▁evaluation	-12.0823
▁conviction	-12.0823
▁nanotechnolog	-12.0823
▁confusion	-12.0824
▁pigment	-12.0824
▁warehouse	-12.0824
▁somalia	-12.0824
▁doug	-12.0824
▁palestine	-12.0824
▁scatter	-12.0824
▁recipient	-12.0824
▁paradi	-12.0825
▁circulation	-12.0826
▁comprehensive	-12.0826
▁reasonably	-12.0826
▁env	-12.0828
▁beekeeper	-12.0828
▁excellence	-12.0828
▁advancement	-12.083
▁compact	-12.0831
▁boards	-12.0831
▁julie	-12.0833
▁victorian	-12.0833
▁gecko	-12.0835
▁meaningless	-12.0836
▁environmentally	-12.0838
▁qualifie	-12.0839
▁capitalist	-12.0848
▁irrelevan	-12.0853
▁mindful	-12.0857
▁indirect	-12.086
vian	-12.0865
nches	-12.0867
▁uninten	-12.0867
▁bald	-12.0869
jc	-12.0874
▁140	-12.088
hen	-12.0888
▁entitle	-12.0889
▁dies	-12.0893
▁oak	-12.09
▁lure	-12.0914
lit	-12.0919
bit	-12.092
▁si	-12.0926
▁def	-12.0935
▁secular	-12.0936
▁believer	-12.0938
▁warp	-12.0947
▁gluc	-12.0948
▁acquir	-12.0958
▁54	-12.0963
▁matt	-12.0964
▁memorize	-12.0967
▁59	-12.097
▁greed	-12.0972
▁prioritize	-12.0978
▁manipulat	-12.0986
▁fighters	-12.0991
dding	-12.0991
▁cruise	-12.0992
wire	-12.1001
▁peru	-12.1005
▁rip	-12.1015
▁aunt	-12.1024
▁thinker	-12.1033
▁maximize	-12.1043
ale	-12.1047
,200	-12.1053
▁brit	-12.106
▁permit	-12.1066
▁chains	-12.1068
grow	-12.1084
esteem	-12.1111
▁presum	-12.1112
▁towns	-12.112
proof	-12.1123
nutrition	-12.1127
conflict	-12.1128
▁pest	-12.1158
edge	-12.1164
▁carol	-12.1169
saw	-12.1176
▁southwest	-12.1188
▁steril	-12.1193
▁certifi	-12.1194
▁cogniti	-12.1205
▁abu	-12.1205
▁distill	-12.1207
aving	-12.1208
zler	-12.1208
▁greet	-12.1212
▁gh	-12.1213
▁synthesi	-12.1216
ibera	-12.1217
▁marvel	-12.1218
▁individually	-12.1219
▁accommodate	-12.1219
▁ambulance	-12.1219
▁balcon	-12.1219
▁bamboo	-12.1219
▁copernic	-12.1219
▁incarcerat	-12.1219
▁opponent	-12.1219
▁repertoire	-12.1219
▁tectonic	-12.1219
▁arrogan	-12.1219
▁exclude	-12.1219
▁taiwan	-12.1219
▁decentraliz	-12.1219
▁lamb	-12.1219
▁pepsi	-12.1219
▁banjo	-12.1219
▁bmw	-12.1219
▁nuance	-12.1219
▁tuberc	-12.1219
▁bro	-12.1219
▁horrific	-12.1219
▁reproductive	-12.1219
▁delta	-12.1219
▁notebook	-12.1219
▁suspicious	-12.122
nice	-12.122
▁grape	-12.122
▁violation	-12.122
▁margar	-12.1221
▁temptation	-12.1221
▁packet	-12.1221
▁listener	-12.1221
▁injustice	-12.1222
▁romance	-12.1222
▁dude	-12.1223
▁titanic	-12.1223
▁nomad	-12.1224
▁backpack	-12.1224
▁freud	-12.1224
▁poop	-12.1225
▁regulator	-12.1225
▁duration	-12.1227
▁reservation	-12.1228
eval	-12.123
▁ninety	-12.1233
▁forager	-12.1233
▁quo	-12.1234
▁awake	-12.1237
▁matern	-12.1237
▁outdoor	-12.1242
▁biotechnolog	-12.1242
▁pakistani	-12.1242
▁sketches	-12.1242
▁dune	-12.1244
▁operational	-12.1245
▁ec	-12.1249
▁degrade	-12.1263
▁queue	-12.1272
▁commander	-12.1279
▁900	-12.1292
▁forty	-12.1294
▁tender	-12.1296
▁lands	-12.1301
▁fascinate	-12.1303
▁mandate	-12.131
▁rockets	-12.1319
▁drowning	-12.1321
▁cooler	-12.1322
▁preferr	-12.1327
tta	-12.1334
▁minimize	-12.1335
▁follower	-12.1337
▁loneli	-12.1372
▁continual	-12.1372
▁theft	-12.1377
▁depriv	-12.1378
▁bombing	-12.1385
▁kenyan	-12.1391
▁visualiz	-12.1392
▁petri	-12.1399
▁58	-12.1401
emia	-12.141
▁immersi	-12.141
▁disabl	-12.1419
▁jumps	-12.1426
▁dye	-12.1432
▁culturally	-12.1445
heart	-12.145
▁vet	-12.1451
▁polariz	-12.1452
ud	-12.146
ura	-12.1461
rdon	-12.1463
▁unst	-12.1464
▁emil	-12.1464
▁sticky	-12.1465
▁synesthe	-12.1471
▁endur	-12.1478
cover	-12.1482
▁simulat	-12.1487
▁propulsi	-12.1493
▁lightn	-12.1494
friend	-12.1495
▁publishe	-12.1499
ative	-12.1501
▁christ	-12.1513
▁prop	-12.1521
▁drown	-12.153
▁annoy	-12.153
▁relie	-12.1536
orient	-12.1538
▁basin	-12.1541
bucks	-12.1544
positive	-12.1545
▁singular	-12.1545
▁nut	-12.1546
▁cite	-12.1547
▁doom	-12.1547
▁flush	-12.1547
▁nights	-12.1548
▁40-	-12.1554
▁mm	-12.1554
fer	-12.1555
▁mp	-12.1557
borne	-12.1563
▁tur	-12.1567
▁len	-12.1572
▁periodic	-12.1577
▁northwest	-12.1583
▁massac	-12.1597
▁draft	-12.1598
▁partial	-12.16
▁herd	-12.16
▁archi	-12.1601
▁libya	-12.1604
▁williams	-12.1605
▁deni	-12.1605
section	-12.1607
▁spear	-12.1612
generat	-12.1613
corn	-12.1616
▁illuminat	-12.1618
homa	-12.1622
burg	-12.1625
eye	-12.1626
▁verse	-12.1629
▁preach	-12.163
aust	-12.1631
▁dar	-12.1635
▁francis	-12.1635
▁convenience	-12.1635
▁dallas	-12.1635
▁darfur	-12.1635
▁excerpt	-12.1635
▁giraffe	-12.1635
▁mermaid	-12.1635
▁orleans	-12.1635
▁sebastia	-12.1635
▁sulfur	-12.1635
▁sydney	-12.1635
▁surrender	-12.1635
▁metropolitan	-12.1635
▁murray	-12.1635
▁homosexual	-12.1635
▁veterinarian	-12.1635
ulosi	-12.1635
▁respirator	-12.1635
▁servant	-12.1636
▁polish	-12.1636
▁lemon	-12.1636
▁glorious	-12.1636
▁rigorous	-12.1636
▁supplement	-12.1636
▁resort	-12.1636
▁rooftop	-12.1636
▁blanket	-12.1636
▁template	-12.1637
▁ozone	-12.1637
▁versa	-12.1637
▁algebra	-12.1637
▁1940	-12.1638
▁slate	-12.164
▁joyful	-12.164
▁cochlea	-12.1641
▁reply	-12.1642
▁fatty	-12.1643
tune	-12.1643
▁histori	-12.1643
▁kiri	-12.1644
▁iteration	-12.1644
▁waterfall	-12.1644
▁armor	-12.1645
▁coma	-12.1645
▁invasion	-12.1649
▁payoff	-12.1649
▁darpa	-12.165
▁wax	-12.1651
▁drip	-12.1653
▁promotion	-12.1655
▁puncture	-12.1655
▁enthusiastic	-12.166
▁wolve	-12.1661
▁trait	-12.1664
▁collector	-12.1665
▁socket	-12.1666
▁knot	-12.1669
agile	-12.1672
ways	-12.1673
▁beaver	-12.1677
▁intel	-12.1677
▁aquariu	-12.1678
ronto	-12.1678
▁summ	-12.1682
wa	-12.1692
ulu	-12.1699
▁auro	-12.1705
▁190	-12.1711
▁ruler	-12.1712
jill	-12.1712
▁reminder	-12.1723
▁snowde	-12.1727
▁dave	-12.1728
▁characterize	-12.1736
▁inefficient	-12.174
▁foreg	-12.1742
▁para	-12.1743
▁interfere	-12.1746
▁skie	-12.1749
▁las	-12.1752
▁viewing	-12.1753
▁synchronize	-12.1756
▁buyer	-12.1762
▁wasp	-12.1768
▁mau	-12.177
▁mont	-12.1781
▁slipp	-12.1787
▁lonel	-12.1804
▁cel	-12.1806
ira	-12.1824
tine	-12.1826
▁pore	-12.1827
▁mentors	-12.1829
▁touche	-12.1832
.3	-12.1836
▁mic	-12.1841
fu	-12.1847
▁reuse	-12.1847
take	-12.1848
▁revolutionize	-12.1848
▁alan	-12.1848
ite	-12.1852
▁cycl	-12.1856
▁360	-12.1858
▁cleaned	-12.1862
engineer	-12.1874
▁disable	-12.1876
ennis	-12.1877
den	-12.1886
tha	-12.1891
▁globaliz	-12.1898
adu	-12.1909
apped	-12.1921
enberg	-12.1926
▁bp	-12.1931
▁sock	-12.1932
▁margins	-12.1935
evel	-12.1935
▁numb	-12.1938
▁herbi	-12.1941
centric	-12.195
▁halve	-12.1954
▁behav	-12.1963
kin	-12.1964
social	-12.1964
▁regenerati	-12.1971
forward	-12.1979
sensitive	-12.1979
wandering	-12.198
government	-12.1981
type	-12.1981
wear	-12.1982
▁connecti	-12.1982
adequate	-12.1983
▁synchron	-12.1984
mino	-12.1985
shar	-12.1985
▁mor	-12.1986
▁mathematically	-12.1989
genesis	-12.1995
▁scholars	-12.1997
text	-12.2002
rief	-12.2007
complete	-12.2012
▁personalize	-12.2016
sterda	-12.2017
▁adjacen	-12.2017
ni	-12.2027
▁46	-12.2037
▁cambodia	-12.204
▁synthesize	-12.2042
▁sneak	-12.2042
erran	-12.2047
itude	-12.2051
▁radioactiv	-12.2055
rays	-12.2064
▁facilitate	-12.2067
▁counsel	-12.2068
▁existential	-12.2069
▁propell	-12.2069
▁cardio	-12.2069
▁peaks	-12.207
▁bumblebee	-12.207
▁communal	-12.207
▁eagle	-12.207
▁empirical	-12.207
▁hominid	-12.207
▁lesbian	-12.207
▁lettuce	-12.207
▁lithium	-12.207
▁prejudice	-12.207
▁reptile	-12.207
▁tadpole	-12.207
▁tamiflu	-12.207
▁unnecessar	-12.207
▁turbine	-12.207
▁estrogen	-12.207
▁oregon	-12.207
▁sprawl	-12.207
▁capaciti	-12.207
▁ultrasound	-12.207
▁administrator	-12.207
▁prevail	-12.207
▁snapshot	-12.207
▁acquisition	-12.207
▁pivot	-12.207
▁imaginative	-12.207
▁complication	-12.207
▁pinpoint	-12.207
▁bookstore	-12.207
▁kelly	-12.207
▁checklist	-12.207
▁cubic	-12.2071
▁verge	-12.2071
▁pension	-12.2071
▁innate	-12.2071
▁uplift	-12.2071
▁trustworth	-12.2072
▁marble	-12.2072
▁identification	-12.2072
▁admir	-12.2072
▁pollinator	-12.2072
▁katrina	-12.2072
▁responsive	-12.2072
▁mutate	-12.2072
▁lesion	-12.2073
▁hover	-12.2073
▁deployment	-12.2074
▁novelty	-12.2075
▁recommendation	-12.2075
▁arithmetic	-12.2076
▁medi	-12.2077
▁hump	-12.2077
▁sri	-12.2078
▁grandma	-12.2079
▁refus	-12.2079
▁muh	-12.2079
barack	-12.2079
▁audaci	-12.2081
▁cia	-12.2081
▁portal	-12.2081
▁grind	-12.2082
witz	-12.2085
▁settl	-12.2085
▁shortage	-12.2085
▁recreation	-12.2089
▁plugg	-12.2098
▁outlet	-12.2099
▁peacekeep	-12.21
balone	-12.21
▁achill	-12.2105
▁extremist	-12.2108
▁exceptional	-12.2108
▁entrepreneuri	-12.2109
▁pneumo	-12.2111
▁bark	-12.2114
▁geological	-12.2117
▁reli	-12.2117
oma	-12.2128
alo	-12.2133
▁lang	-12.2133
▁invad	-12.2134
▁jess	-12.2135
aged	-12.2137
▁gyr	-12.2139
▁dodo	-12.2147
▁patholog	-12.215
▁ballet	-12.2161
▁purchas	-12.2166
▁token	-12.218
▁boomer	-12.2182
▁stimulat	-12.2183
▁roller	-12.2198
▁diver	-12.2201
▁seize	-12.2202
▁chap	-12.2241
▁18-	-12.2245
▁spit	-12.2249
etic	-12.225
illa	-12.225
ki	-12.2258
▁han	-12.2259
ain	-12.2265
▁automo	-12.227
▁thumbs	-12.2271
▁pickle	-12.2282
▁volt	-12.2305
ik	-12.2322
city	-12.2325
▁fung	-12.2344
▁corresponding	-12.2346
hitler	-12.2346
▁sting	-12.2348
▁collaborat	-12.2349
▁sho	-12.235
▁photon	-12.2359
▁rival	-12.2361
▁possess	-12.2361
cal	-12.2364
aba	-12.2404
▁feasib	-12.2412
▁needless	-12.2415
▁coordinati	-12.2416
▁oxide	-12.2421
▁depressing	-12.2423
erial	-12.2425
▁inmate	-12.2428
▁distract	-12.2428
finish	-12.2433
linear	-12.2434
secure	-12.2434
massive	-12.2437
▁beard	-12.244
home	-12.2445
resistan	-12.2447
▁plato	-12.245
▁fleet	-12.2455
▁pu	-12.2456
▁lik	-12.2462
rus	-12.2464
▁pip	-12.2467
op	-12.2471
corps	-12.2478
far	-12.2483
▁secondar	-12.2486
▁gr	-12.2492
▁ventilat	-12.2497
▁trek	-12.25
▁biograph	-12.25
▁initiat	-12.2506
▁sr	-12.2507
▁excite	-12.251
▁sympath	-12.2517
▁monopol	-12.2517
razine	-12.2521
▁emphasi	-12.2522
▁savanna	-12.2522
-2	-12.2523
▁testimon	-12.2524
▁implicit	-12.2525
▁charcoal	-12.2525
▁devastate	-12.2525
▁gorilla	-12.2525
▁guatemala	-12.2525
▁intricate	-12.2525
▁oblivio	-12.2525
▁odysse	-12.2525
▁pavilion	-12.2525
▁redundan	-12.2525
▁syringe	-12.2525
▁fracture	-12.2525
▁lakota	-12.2525
▁replicator	-12.2525
▁embass	-12.2525
▁widow	-12.2525
▁unveil	-12.2525
▁prevalent	-12.2525
▁tolerate	-12.2525
▁wiki	-12.2525
▁inhabitant	-12.2525
▁superstar	-12.2525
▁discard	-12.2525
▁counterpart	-12.2525
▁mantis	-12.2525
▁dictatorship	-12.2525
▁lawsuit	-12.2525
▁scripture	-12.2525
▁admission	-12.2525
▁hurdle	-12.2525
▁unsustainabl	-12.2525
▁forehead	-12.2525
▁palace	-12.2526
▁clash	-12.2526
▁parade	-12.2526
▁urine	-12.2526
▁simulator	-12.2526
▁haunt	-12.2526
▁payload	-12.2527
▁carpenter	-12.2527
▁mason	-12.2527
▁phthalate	-12.2527
▁crust	-12.2528
▁announcement	-12.2528
▁fraud	-12.2528
▁swear	-12.2528
▁medal	-12.253
▁guideline	-12.253
▁sword	-12.253
▁establishment	-12.253
hran	-12.2531
▁hygien	-12.2531
▁gius	-12.2531
▁simplistic	-12.2532
ikea	-12.2533
▁carcinogen	-12.2533
▁1800	-12.2533
▁centi	-12.2534
▁commerc	-12.2535
▁decipher	-12.2535
▁compatib	-12.2536
▁norman	-12.2537
▁bake	-12.2539
▁evident	-12.254
▁respectful	-12.2545
▁500,000	-12.2546
▁competent	-12.2548
▁doodl	-12.2549
mf	-12.2551
▁physiological	-12.2555
▁pastor	-12.2556
▁duk	-12.2558
▁chin	-12.2561
mber	-12.2565
▁iraqi	-12.2567
▁64	-12.2567
▁apprentice	-12.2576
▁93	-12.2576
▁cult	-12.2577
▁experimentation	-12.2577
▁invasive	-12.258
▁easter	-12.2585
▁perceiv	-12.2586
▁av	-12.2587
▁bc	-12.2595
▁hostilit	-12.2598
▁scholar	-12.2601
▁kni	-12.2603
▁crown	-12.2603
replicating	-12.2603
▁vibrate	-12.2604
▁bri	-12.2605
ge	-12.2607
▁tuck	-12.261
▁192	-12.2623
▁mai	-12.2626
▁walker	-12.2628
▁abusi	-12.2643
▁belonging	-12.2646
▁vo	-12.2648
▁deer	-12.2652
▁scaled	-12.2656
▁surge	-12.2656
rse	-12.2657
▁diffuse	-12.268
▁82	-12.2681
almon	-12.2682
▁generalize	-12.2684
▁rolls	-12.2685
▁charg	-12.2685
▁pine	-12.2687
▁gentl	-12.2687
▁humbl	-12.2691
▁nudge	-12.2708
offs	-12.2716
▁amuse	-12.2726
sani	-12.273
▁cone	-12.2734
ami	-12.2735
▁cock	-12.275
ngest	-12.2753
▁39	-12.2755
▁experimenter	-12.2759
▁bent	-12.2764
▁der	-12.2764
▁lense	-12.2768
effective	-12.2771
▁rott	-12.2779
master	-12.2781
▁160	-12.2788
ridge	-12.2789
▁offshor	-12.2792
lock	-12.2797
▁eighty	-12.2799
▁marsha	-12.281
▁beds	-12.2825
▁bra	-12.2828
dated	-12.2835
▁pur	-12.2837
ogue	-12.2844
agnes	-12.285
ila	-12.2856
▁shade	-12.2861
▁commentar	-12.2865
engineering	-12.2865
▁jon	-12.2875
▁subsid	-12.2876
▁courts	-12.2876
▁fil	-12.2885
▁exceed	-12.289
pe	-12.289
market	-12.2892
▁allen	-12.2893
▁irrigati	-12.2897
▁50-	-12.2898
banish	-12.29
word	-12.2905
▁healthie	-12.2908
quarter	-12.2908
bound	-12.2908
brew	-12.2909
thermal	-12.291
polar	-12.291
speak	-12.2911
resolution	-12.2914
▁uncertain	-12.2918
▁14-	-12.2921
▁0.	-12.2925
▁provoke	-12.293
▁frequent	-12.2938
▁rem	-12.2941
rift	-12.2943
▁leverag	-12.2944
▁iq	-12.2945
▁intentional	-12.2947
▁accessib	-12.295
13	-12.2951
ola	-12.2954
▁que	-12.2959
▁pessimist	-12.2975
▁visionar	-12.2976
▁rotte	-12.2977
ingenu	-12.2977
▁dunes	-12.2984
▁spott	-12.2986
▁inflate	-12.2988
room	-12.2994
▁ideo	-12.2999
▁compass	-12.2999
▁aerodynamic	-12.3001
▁cafeteria	-12.3001
▁ceramic	-12.3001
▁fountain	-12.3001
▁junior	-12.3001
▁perceptual	-12.3001
▁cumulative	-12.3001
▁gossip	-12.3001
▁serge	-12.3001
▁wizard	-12.3001
▁coalition	-12.3001
▁rainbow	-12.3001
▁serotonin	-12.3001
▁armstrong	-12.3001
▁fingerprint	-12.3001
▁interference	-12.3001
▁cobra	-12.3001
▁interval	-12.3001
▁holistic	-12.3001
▁stink	-12.3001
▁aisle	-12.3001
▁incubator	-12.3001
▁thunder	-12.3001
▁superconductor	-12.3001
▁reckless	-12.3001
▁wilderness	-12.3001
▁quark	-12.3001
▁scottish	-12.3001
▁vicious	-12.3001
▁unhealth	-12.3001
▁maldiv	-12.3002
▁unthink	-12.3002
▁ivory	-12.3002
▁dreadful	-12.3002
▁pedal	-12.3002
▁shoreline	-12.3002
▁tapestr	-12.3002
▁headphone	-12.3002
▁nickname	-12.3003
▁conform	-12.3003
▁assault	-12.3003
▁explosive	-12.3003
▁senator	-12.3004
▁gaza	-12.3005
▁walter	-12.3005
▁peek	-12.3006
▁galil	-12.3007
elecommunication	-12.3007
ii	-12.3007
▁accelerator	-12.3007
cuba	-12.3008
▁cheek	-12.3008
▁cameron	-12.3008
▁reconnect	-12.301
▁bono	-12.3011
ran	-12.3011
▁throat	-12.3012
▁specializ	-12.3017
▁adviser	-12.3017
▁rotation	-12.3019
ung	-12.302
▁freeway	-12.3022
▁analytical	-12.3024
▁astounding	-12.3024
▁hazard	-12.3025
▁clark	-12.3026
▁activat	-12.3027
▁renew	-12.3027
▁seque	-12.3031
▁persistent	-12.3034
dirty	-12.3035
▁salad	-12.3038
▁barry	-12.3039
▁poetic	-12.304
▁communist	-12.3042
▁brows	-12.3043
▁conception	-12.3046
▁refin	-12.3046
pp	-12.3046
▁orient	-12.3048
▁participator	-12.3049
▁toaster	-12.3049
▁puppy	-12.305
▁senat	-12.3055
▁hallway	-12.3055
▁castle	-12.3056
▁economical	-12.3062
▁prim	-12.3062
▁sponge	-12.3069
▁seren	-12.3069
▁blurr	-12.3071
ake	-12.3071
rgio	-12.3072
▁imp	-12.3073
▁toyota	-12.3075
▁partially	-12.3077
ssini	-12.308
▁swo	-12.3082
▁abnormal	-12.3085
▁dictator	-12.3095
▁russe	-12.3099
▁bully	-12.3101
▁bot	-12.3103
▁swa	-12.3109
▁auction	-12.311
▁circulat	-12.311
hearted	-12.3111
ase	-12.3118
▁princess	-12.3121
▁surfing	-12.3124
cher	-12.3127
.5	-12.3129
▁wrinkle	-12.3134
▁reassur	-12.3135
frai	-12.3143
▁criticiz	-12.3145
▁83	-12.3145
ti	-12.3145
iful	-12.3147
ery	-12.3157
▁jami	-12.3161
▁organizer	-12.3164
▁internationally	-12.3166
▁plunge	-12.3172
▁fisc	-12.3175
per	-12.3176
▁luc	-12.3177
▁evaluat	-12.3181
▁rg	-12.3195
▁clon	-12.3198
▁accus	-12.32
▁bid	-12.3206
▁backup	-12.3206
▁gifted	-12.3209
▁discriminati	-12.321
industrial	-12.3228
▁mobilize	-12.3231
▁sober	-12.3235
odd	-12.3238
ab	-12.3242
▁migrat	-12.3249
▁mobiliz	-12.3265
▁reus	-12.3269
▁occupie	-12.3271
▁constitute	-12.3271
▁mutilat	-12.3271
▁bett	-12.3281
▁wav	-12.3292
▁200-	-12.3293
▁wip	-12.3297
▁fec	-12.3304
▁increment	-12.3306
▁rage	-12.331
▁fib	-12.3316
▁epic	-12.3319
▁dip	-12.3355
▁cole	-12.3357
▁buck	-12.3358
▁recreate	-12.3361
ington	-12.3362
▁lava	-12.3368
▁surf	-12.337
▁fi	-12.3378
test	-12.3389
▁stain	-12.3393
▁nitr	-12.3395
liberation	-12.34
▁stat	-12.34
lapse	-12.3401
▁bu	-12.3402
▁euro	-12.3406
▁forage	-12.3406
▁julia	-12.3407
credible	-12.3408
▁pac	-12.341
chu	-12.3411
brush	-12.3411
track	-12.3413
▁110	-12.3417
no	-12.342
held	-12.3424
▁dissect	-12.3426
▁ador	-12.3429
ica	-12.3437
▁tactic	-12.3443
▁hypothes	-12.345
▁activis	-12.3451
▁devote	-12.3455
▁racial	-12.3456
18	-12.3467
92	-12.347
rock	-12.3471
▁ridicule	-12.3471
▁indicat	-12.3473
▁supporti	-12.3478
▁hatch	-12.3485
▁sm	-12.3488
▁flex	-12.3489
▁sl	-12.349
viation	-12.3491
▁whip	-12.3491
▁remembering	-12.3494
▁badge	-12.3495
▁intellect	-12.3496
▁vc	-12.3497
▁intercept	-12.3497
europa	-12.35
▁reflex	-12.35
▁chariot	-12.3501
▁discomfort	-12.3501
▁forensic	-12.3501
▁lawrence	-12.3501
▁migrant	-12.3501
▁nevada	-12.3501
▁pantheon	-12.3501
▁twelve	-12.3501
▁venue	-12.3501
▁vibran	-12.3501
▁crochet	-12.3501
▁paragraph	-12.3501
▁adversit	-12.3501
▁biomimic	-12.3501
▁improbabl	-12.3501
▁miraculous	-12.3501
▁anchor	-12.3501
▁energetic	-12.3501
▁hydrocarbon	-12.3501
▁modular	-12.3501
▁antidepressant	-12.3501
▁vague	-12.3501
▁premature	-12.3501
▁blackberr	-12.3501
▁imbalance	-12.3501
▁dominance	-12.3501
▁suitcase	-12.3501
▁nanotube	-12.3501
▁rosling	-12.3501
▁biomaterial	-12.3501
▁hijack	-12.3501
▁illiterate	-12.3501
▁telecom	-12.3501
▁postcard	-12.3501
▁oscar	-12.3501
▁excessive	-12.3501
▁mound	-12.3501
acci	-12.3501
▁costume	-12.3501
▁perpetrator	-12.3501
▁nonverbal	-12.3502
▁buffet	-12.3502
▁hurry	-12.3502
▁guru	-12.3502
▁advertisement	-12.3502
▁facade	-12.3502
▁jackson	-12.3502
▁sociologist	-12.3502
▁savage	-12.3502
▁decode	-12.3503
300	-12.3503
▁degradation	-12.3503
▁susceptib	-12.3503
▁embark	-12.3503
▁hectare	-12.3503
▁prompt	-12.3503
▁diffusion	-12.3504
▁turkish	-12.3504
▁variant	-12.3504
▁photoshop	-12.3504
▁portland	-12.3504
▁latitude	-12.3504
▁decoration	-12.3505
▁viewpoint	-12.3505
▁lick	-12.3505
▁pornograph	-12.3505
▁slick	-12.3507
▁eleven	-12.3508
▁lightweight	-12.3508
▁seasonal	-12.3509
▁jacque	-12.3509
▁graceful	-12.351
▁reluctant	-12.351
▁cern	-12.3511
▁arteries	-12.3511
▁composite	-12.3512
▁boreal	-12.3512
heid	-12.3513
▁perpetual	-12.3513
▁flare	-12.3516
▁vein	-12.3516
▁flatten	-12.3517
▁islamist	-12.3517
▁gal	-12.352
▁prosthes	-12.3521
run	-12.3522
▁rode	-12.3522
▁android	-12.3522
▁captcha	-12.3522
▁jacket	-12.3523
▁tinie	-12.3525
▁whit	-12.3525
▁underlie	-12.353
▁stripped	-12.3531
▁pup	-12.3532
▁geneticist	-12.3535
▁stiff	-12.3539
▁hairs	-12.3539
ek	-12.3539
▁jr	-12.3544
▁hike	-12.3547
▁maria	-12.3548
▁module	-12.355
▁differential	-12.3551
▁carbonate	-12.3554
▁romo	-12.3563
▁loyalt	-12.3566
▁cling	-12.3574
risk	-12.3575
seas	-12.3578
▁gamer	-12.3579
▁mentality	-12.3582
▁weep	-12.3584
▁tu	-12.3585
▁compos	-12.3585
▁cub	-12.3585
ncy	-12.3585
▁euros	-12.3589
▁mahat	-12.359
▁heartbreak	-12.359
100	-12.3591
▁downside	-12.3593
▁gu	-12.3598
▁fad	-12.3603
▁timeline	-12.3606
▁outline	-12.3611
▁messag	-12.3612
▁mob	-12.3613
ept	-12.3613
▁slot	-12.3618
▁ranger	-12.3624
▁accumulat	-12.3633
pit	-12.3636
▁reconcile	-12.3637
▁tense	-12.3637
▁84	-12.365
▁missions	-12.3657
▁glance	-12.3659
▁wil	-12.3661
▁poly	-12.3663
▁correction	-12.3664
wid	-12.3668
encel	-12.3673
▁kal	-12.368
▁substitute	-12.368
▁foreigner	-12.368
▁beans	-12.3701
▁screens	-12.3708
▁notation	-12.3711
don	-12.3717
version	-12.3724
▁villager	-12.3725
▁imitate	-12.3727
sanitary	-12.3728
▁speeds	-12.3748
▁originate	-12.3753
▁kara	-12.3754
▁alarming	-12.3759
▁examin	-12.3761
▁floors	-12.3762
▁sticker	-12.3764
▁arter	-12.3775
▁mario	-12.3785
▁rot	-12.3787
▁curse	-12.379
▁algorithmic	-12.3801
▁undermine	-12.3802
▁cou	-12.3804
▁curl	-12.3815
top	-12.3816
▁dislike	-12.3816
▁obscure	-12.3816
cha	-12.3821
▁mistaken	-12.3837
pont	-12.3838
alti	-12.3847
▁psyche	-12.3848
ow	-12.385
600	-12.3853
▁convergen	-12.3859
taller	-12.386
bone	-12.3864
▁aura	-12.3868
dom	-12.3873
▁nun	-12.3874
gatherer	-12.3884
▁et	-12.3884
▁mismatch	-12.389
▁cherish	-12.3894
▁sucked	-12.3907
perform	-12.3911
culture	-12.3913
tts	-12.3919
▁wrestle	-12.3924
▁refrigerat	-12.3925
▁violate	-12.3925
front	-12.3928
▁fisherm	-12.3932
pleasant	-12.3935
degree	-12.3936
familiar	-12.3936
square	-12.3937
energy	-12.3937
week	-12.3937
belief	-12.3937
venge	-12.3938
grain	-12.3939
▁dia	-12.3941
saving	-12.3953
▁prostitut	-12.3965
lan	-12.3968
▁lar	-12.3971
▁forge	-12.3973
▁compliment	-12.3976
▁regulat	-12.3982
▁ucl	-12.3983
▁oppress	-12.3991
chester	-12.3992
▁juli	-12.3993
▁stripe	-12.3994
▁aero	-12.3995
rane	-12.3998
▁kings	-12.4001
▁q	-12.4002
▁atmospher	-12.4003
▁exo	-12.4007
parate	-12.4008
ouver	-12.401
▁slam	-12.4011
▁sentiment	-12.4016
▁biotech	-12.4019
hrir	-12.4023
ambiguous	-12.4025
fensive	-12.4026
▁rhino	-12.4027
jazeera	-12.4027
▁biblical	-12.4027
▁condemn	-12.4027
▁jealous	-12.4027
▁pragmatic	-12.4027
▁semester	-12.4027
▁skyscraper	-12.4027
▁taxpayer	-12.4027
▁treadmill	-12.4027
▁plague	-12.4027
▁hyena	-12.4027
▁toddler	-12.4027
▁tornado	-12.4027
▁simplifie	-12.4027
▁unimaginabl	-12.4027
▁courtyard	-12.4027
▁dwarf	-12.4027
▁provision	-12.4027
▁microwave	-12.4027
▁windmill	-12.4027
▁eyebrow	-12.4027
▁humpback	-12.4027
▁apparatus	-12.4027
▁discrete	-12.4027
▁splash	-12.4027
▁cymatic	-12.4027
▁uranium	-12.4027
▁subconscious	-12.4027
▁balkan	-12.4027
▁seamless	-12.4027
▁drastic	-12.4027
▁tweak	-12.4028
▁proliferation	-12.4028
▁cynic	-12.4028
fifteen	-12.4028
▁ballot	-12.4028
▁bruise	-12.4028
▁catalyst	-12.4028
▁coch	-12.4028
▁droplet	-12.4028
▁heartbeat	-12.4028
▁cyclist	-12.4029
▁typeface	-12.4029
▁quantify	-12.4029
▁imitation	-12.4029
▁sack	-12.403
▁bombard	-12.403
▁seizure	-12.403
▁teapot	-12.403
▁rupee	-12.403
▁kitten	-12.403
▁napkin	-12.403
reach	-12.403
▁embarrassment	-12.403
▁cabin	-12.403
▁thou	-12.403
▁weakness	-12.4031
▁accountant	-12.4031
▁blunt	-12.4031
▁mahmo	-12.4031
▁harle	-12.4032
▁rachel	-12.4032
counterintuitive	-12.4033
▁expressive	-12.4033
▁sciss	-12.4033
▁restoration	-12.4034
▁youngster	-12.4034
▁rug	-12.4035
▁serial	-12.4035
▁steak	-12.4035
▁qualify	-12.4035
▁launche	-12.4035
▁hungarian	-12.4035
▁sniff	-12.4035
▁unequal	-12.4035
▁1982	-12.4036
▁twentie	-12.4036
▁contributor	-12.4036
lomon	-12.4036
▁mortal	-12.4037
▁byproduct	-12.4037
▁disruption	-12.4037
▁hull	-12.4038
▁firefl	-12.4038
emost	-12.4039
▁bur	-12.4039
▁nanometer	-12.404
▁gaga	-12.4042
▁patriot	-12.4042
▁penic	-12.4046
▁dried	-12.4047
▁mommy	-12.4049
▁humane	-12.4051
▁hu	-12.4052
▁slipper	-12.4052
▁supplier	-12.4055
▁coherent	-12.4055
▁crisp	-12.4055
▁boyfriend	-12.4056
lateral	-12.4056
▁desalinat	-12.4059
▁gum	-12.4066
▁funder	-12.4067
▁sands	-12.4069
cles	-12.407
▁185	-12.4072
eau	-12.4075
▁traumatic	-12.4076
▁vase	-12.4077
▁murderer	-12.4081
▁uprising	-12.4093
▁mimick	-12.4094
▁deepen	-12.4096
▁democratiz	-12.4104
▁diplomatic	-12.4105
▁sunn	-12.4107
▁kim	-12.411
▁pissed	-12.4117
▁juan	-12.4121
sex	-12.4124
▁projector	-12.4127
oc	-12.4133
▁distracted	-12.4137
▁blam	-12.4141
▁strapp	-12.4149
▁hom	-12.4162
rsw	-12.4165
▁spam	-12.4166
▁bre	-12.417
qa	-12.417
▁accomplishment	-12.4176
▁chad	-12.4182
▁gha	-12.4186
▁optimist	-12.4187
owing	-12.4188
stein	-12.4194
tification	-12.4195
peer	-12.4198
▁resembl	-12.4201
▁galo	-12.4207
▁vaccinate	-12.4218
▁bern	-12.4224
▁lous	-12.4231
ased	-12.4233
▁touris	-12.4235
▁uv	-12.4241
▁complian	-12.4252
▁miner	-12.4253
▁bol	-12.4262
paid	-12.4274
▁barbar	-12.4274
flow	-12.4282
▁reimagin	-12.4288
▁wool	-12.4294
▁lip	-12.4294
▁converge	-12.4302
▁outsider	-12.4305
▁chill	-12.4307
▁sampl	-12.4309
▁underwa	-12.432
issan	-12.4325
29	-12.4327
▁jas	-12.4329
▁dealer	-12.4331
▁rhetoric	-12.4336
▁mop	-12.434
▁thriv	-12.4347
dded	-12.4347
▁modifi	-12.4349
efficient	-12.4352
▁mil	-12.4352
▁bon	-12.4364
ivo	-12.4364
▁packing	-12.4365
▁semina	-12.437
▁startup	-12.438
▁unto	-12.4381
een	-12.439
▁clarif	-12.439
▁widen	-12.4395
▁collid	-12.4396
ette	-12.4398
▁ali	-12.4398
▁roos	-12.4402
▁influenc	-12.4402
▁detach	-12.4403
▁genital	-12.4406
▁mock	-12.4407
▁mediate	-12.4409
▁fled	-12.4411
crony	-12.4412
▁contaminate	-12.4429
▁tomb	-12.4445
▁mel	-12.4448
▁bands	-12.4453
▁westerner	-12.4457
▁nurs	-12.4461
legged	-12.447
▁fellows	-12.4481
seek	-12.4483
piece	-12.4487
ene	-12.4487
▁disappoint	-12.4488
angiogen	-12.4491
great	-12.4495
tension	-12.4496
▁commons	-12.4496
omi	-12.45
ze	-12.451
▁deceive	-12.4515
limited	-12.4516
map	-12.4519
▁trac	-12.4526
▁handl	-12.4526
▁piss	-12.453
▁echo	-12.4532
iger	-12.4536
▁beg	-12.4539
her	-12.4544
ibo	-12.455
▁runner	-12.4551
▁whil	-12.4552
▁entr	-12.4562
▁tack	-12.4562
▁rust	-12.4564
▁doodle	-12.4569
titude	-12.4572
▁classifi	-12.4574
▁chuck	-12.4575
▁accompani	-12.4576
▁bull	-12.4576
▁iv	-12.4577
▁poo	-12.4578
▁strap	-12.4578
▁peripher	-12.4579
▁erupt	-12.458
▁jenni	-12.4581
athan	-12.4582
▁babylon	-12.4582
fahren	-12.4583
▁astrolabe	-12.4583
▁bureaucrac	-12.4583
▁coconut	-12.4583
▁inferior	-12.4583
▁leisure	-12.4583
▁pianist	-12.4583
▁plummet	-12.4583
▁reservoir	-12.4583
▁squirrel	-12.4583
▁suspens	-12.4583
▁tribute	-12.4583
▁puzzling	-12.4583
▁embryonic	-12.4583
▁ingenious	-12.4583
▁monarch	-12.4583
▁moisture	-12.4583
▁zambia	-12.4583
▁immoral	-12.4583
▁charisma	-12.4583
▁venom	-12.4583
▁sequester	-12.4583
▁sanctuar	-12.4583
▁craving	-12.4583
▁subscribe	-12.4583
▁damaging	-12.4583
▁archimed	-12.4583
▁sentien	-12.4583
▁mainframe	-12.4583
▁decisive	-12.4583
▁revolt	-12.4583
▁fond	-12.4584
▁instructor	-12.4584
▁subset	-12.4584
▁nash	-12.4584
▁elevation	-12.4584
▁cubicle	-12.4584
▁latter	-12.4584
▁knob	-12.4584
▁contemplat	-12.4585
▁morgan	-12.4585
▁reception	-12.4585
▁attain	-12.4585
▁appall	-12.4585
▁accumulation	-12.4585
▁simplify	-12.4585
▁liberate	-12.4585
▁schizophrenic	-12.4585
▁karl	-12.4586
▁therapeutic	-12.4586
▁vegetarian	-12.4586
▁skirt	-12.4586
▁dyslexi	-12.4586
▁doctrine	-12.4586
▁radiologist	-12.4586
▁disagreement	-12.4586
▁fridge	-12.4586
▁hostage	-12.4587
▁dysfunctional	-12.4587
▁mash	-12.4587
▁shareholder	-12.4588
bar	-12.4588
▁ecologist	-12.4588
▁husk	-12.4588
▁saddle	-12.4589
▁navigation	-12.4589
▁shove	-12.4589
▁exhilarating	-12.459
▁reconstruction	-12.459
▁spoil	-12.459
▁strive	-12.459
▁roommate	-12.459
▁tailor	-12.4591
wana	-12.4591
▁tipping	-12.4591
▁slash	-12.4592
▁converse	-12.4592
▁resin	-12.4592
▁barbie	-12.4592
▁rodent	-12.4592
▁miller	-12.4593
▁satan	-12.4594
▁anomal	-12.4595
▁101	-12.4595
▁judg	-12.4595
bertie	-12.4595
▁irish	-12.4595
▁turk	-12.4596
▁megawatt	-12.4596
▁traveler	-12.4596
▁khan	-12.4597
▁mba	-12.4599
▁haul	-12.46
▁cb	-12.4601
▁paradoxical	-12.4603
▁groom	-12.4603
▁margin	-12.4603
▁sleeve	-12.4604
cent	-12.4605
▁commute	-12.4606
▁inquiry	-12.4607
▁liv	-12.4607
▁anthropolog	-12.4608
▁merg	-12.4608
▁techno	-12.4608
▁initiate	-12.4611
▁spore	-12.4611
▁goose	-12.4616
▁hobby	-12.4618
▁inappropriate	-12.4619
▁massage	-12.462
▁gland	-12.4623
▁withdraw	-12.4624
▁plank	-12.4625
▁wounds	-12.4625
▁impress	-12.4627
wan	-12.4627
▁sewer	-12.4631
▁affection	-12.4634
▁albe	-12.4635
▁1.	-12.4637
▁lymph	-12.4639
▁sank	-12.464
▁loo	-12.4644
vis	-12.4654
▁cliffs	-12.4654
▁dice	-12.4655
▁shortest	-12.4657
fred	-12.4665
▁fred	-12.4667
western	-12.4669
▁alto	-12.4669
▁nutritional	-12.4671
▁stunning	-12.4672
▁torn	-12.4675
gar	-12.4678
nki	-12.4678
▁assured	-12.4679
▁paw	-12.4686
ez	-12.4687
ars	-12.4695
▁grove	-12.4695
▁improvis	-12.4695
▁predictabl	-12.4709
mo	-12.471
▁moderate	-12.4715
ending	-12.4723
▁bobb	-12.4726
diana	-12.4732
val	-12.4746
▁tan	-12.4746
▁claus	-12.4748
▁ineffective	-12.4749
rl	-12.4759
eric	-12.476
ster	-12.4761
▁companion	-12.4761
▁femini	-12.4764
▁fairy	-12.4769
nya	-12.477
▁hunch	-12.477
▁flee	-12.4772
▁cris	-12.4774
▁racis	-12.4775
part	-12.4779
▁nazi	-12.4783
▁casualt	-12.4785
▁emission	-12.4787
▁ripple	-12.4789
▁forger	-12.4794
▁tel	-12.4798
▁photosynthesi	-12.4799
▁stockpile	-12.4806
▁soda	-12.481
tten	-12.4817
▁pollinat	-12.4818
▁virtu	-12.4819
af	-12.4836
▁chape	-12.485
lisa	-12.4855
ho	-12.486
▁prehistor	-12.4872
▁pollut	-12.4878
▁dispers	-12.4889
▁teens	-12.489
▁cura	-12.4894
▁morph	-12.4896
▁utopia	-12.4904
▁leo	-12.4904
▁mystic	-12.491
▁les	-12.4911
▁gand	-12.4911
chi	-12.4913
sha	-12.4923
▁lyric	-12.4935
14	-12.4936
location	-12.4938
de	-12.494
▁displac	-12.4952
than	-12.4959
▁moderat	-12.4962
▁coloniz	-12.4963
train	-12.4965
▁drawer	-12.4973
ties	-12.4976
▁proportional	-12.4979
▁signing	-12.4979
▁pale	-12.498
manda	-12.4987
▁disc	-12.4992
▁pisa	-12.4997
▁marginal	-12.5005
icious	-12.501
▁stockhol	-12.501
▁photographic	-12.5011
spen	-12.5015
▁pops	-12.5018
▁alley	-12.5028
▁speculate	-12.5029
▁mello	-12.5033
ou	-12.5033
rid	-12.504
mah	-12.5042
▁suite	-12.5042
▁hacked	-12.505
▁merit	-12.5064
birth	-12.5068
▁cultivat	-12.5074
itis	-12.5076
fifth	-12.508
species	-12.508
green	-12.5081
plus	-12.5081
growth	-12.5083
▁dea	-12.5084
▁relieve	-12.5087
most	-12.5088
performance	-12.5088
data	-12.5089
▁replica	-12.5091
▁16-	-12.5091
▁coup	-12.5092
▁swee	-12.5095
ima	-12.5106
▁fails	-12.5111
▁dictate	-12.5113
nett	-12.5114
▁artificially	-12.5118
▁foam	-12.5121
▁pollinate	-12.5125
▁80-	-12.5128
ade	-12.5139
▁dual	-12.5141
▁steward	-12.5143
ional	-12.5147
▁viewers	-12.5148
▁cru	-12.5151
illin	-12.5157
▁wid	-12.5158
▁desperat	-12.516
vy	-12.5161
▁inspect	-12.5166
▁sprint	-12.5167
▁antidote	-12.5171
▁bargain	-12.5171
▁constellation	-12.5171
▁exxon	-12.5171
▁incision	-12.5171
▁jurisdiction	-12.5171
▁messenger	-12.5171
▁picasso	-12.5171
▁pinnacle	-12.5171
▁primordial	-12.5171
▁sargass	-12.5171
▁thursday	-12.5171
▁unravel	-12.5171
▁buffalo	-12.5171
▁heterosexual	-12.5171
▁hummingbird	-12.5171
▁maslow	-12.5171
▁autobiograph	-12.5171
▁christophe	-12.5171
▁hiroshi	-12.5171
▁seatbelt	-12.5171
▁bleach	-12.5171
▁elusive	-12.5171
▁fission	-12.5171
▁instantaneous	-12.5171
▁sensual	-12.5171
▁dimitr	-12.5171
▁maggot	-12.5171
▁discount	-12.5171
▁affluen	-12.5171
▁absent	-12.5171
▁collage	-12.5171
▁enlist	-12.5171
▁scandal	-12.5171
▁cereal	-12.5171
▁elastic	-12.5171
▁ominous	-12.5171
▁appointment	-12.5171
▁prestig	-12.5171
▁comparative	-12.5171
▁gait	-12.5171
▁lexico	-12.5171
▁rehearsal	-12.5171
▁paintbrush	-12.5172
▁asphalt	-12.5172
▁webcam	-12.5172
▁cough	-12.5172
▁nanoscale	-12.5172
▁exile	-12.5172
▁championship	-12.5172
▁gateway	-12.5172
▁sudh	-12.5173
▁constructive	-12.5173
▁appetite	-12.5174
▁ribbon	-12.5174
▁brink	-12.5174
▁bureau	-12.5174
▁repetitive	-12.5174
▁shah	-12.5174
▁squatter	-12.5175
▁statistician	-12.5175
▁verify	-12.5175
▁shaman	-12.5175
▁burial	-12.5176
▁forgiveness	-12.5176
▁peril	-12.5177
▁altruistic	-12.5177
▁bait	-12.5177
▁crunch	-12.5177
litary	-12.5178
▁queer	-12.5178
▁integral	-12.5178
▁voyager	-12.5178
▁prox	-12.5179
▁stratospher	-12.518
▁liar	-12.518
▁plume	-12.5182
▁impatient	-12.5182
▁deadline	-12.5182
▁livelihood	-12.5182
▁arrival	-12.5183
▁intestine	-12.5183
▁browse	-12.5183
▁deem	-12.5183
▁broaden	-12.5184
▁misuse	-12.5184
▁pub	-12.5185
▁terrestrial	-12.5185
▁daunting	-12.5187
ult	-12.519
▁confrontation	-12.519
▁synthesizer	-12.5191
▁brook	-12.5191
▁ambien	-12.5192
▁conserve	-12.5192
▁propeller	-12.5194
focal	-12.5194
▁worn	-12.5194
▁lol	-12.5195
▁shir	-12.5197
▁analyst	-12.5201
▁tidy	-12.5201
▁warmth	-12.5205
▁transmitter	-12.5207
▁blur	-12.521
▁vest	-12.521
▁vienn	-12.5212
▁lance	-12.5213
▁1.4	-12.5215
▁redefin	-12.522
▁rut	-12.5222
jan	-12.5223
▁tab	-12.5223
▁emergen	-12.5225
hama	-12.5226
▁qua	-12.5227
▁56	-12.5231
▁juda	-12.5232
▁offend	-12.5233
▁eb	-12.5236
▁banal	-12.5236
▁sony	-12.524
ylan	-12.5241
▁overfish	-12.5243
▁forbidd	-12.5245
▁plantation	-12.5246
▁homeland	-12.5248
▁recurren	-12.525
▁carro	-12.5251
▁lend	-12.5252
▁oppressi	-12.5259
▁unexplo	-12.5264
▁2,	-12.5266
▁mania	-12.5271
▁highland	-12.5272
▁spectra	-12.5279
edible	-12.5283
▁kent	-12.5284
▁objection	-12.5284
▁191	-12.5284
▁undertake	-12.5294
ford	-12.5298
ight	-12.5304
▁folder	-12.5304
▁miniatur	-12.5305
national	-12.5308
▁marketer	-12.531
ating	-12.5311
▁gangs	-12.5313
▁protester	-12.5316
▁preced	-12.5316
oid	-12.5318
nar	-12.532
▁expo	-12.5323
etho	-12.5325
gne	-12.5329
▁aspire	-12.5332
own	-12.5338
▁thoughtful	-12.5344
pped	-12.5345
▁discriminate	-12.5346
solv	-12.5347
onary	-12.536
▁thermo	-12.5362
▁humid	-12.5366
▁beep	-12.5371
▁disclose	-12.5382
▁thom	-12.5386
▁hay	-12.539
▁communis	-12.5393
▁rider	-12.5407
▁contemplate	-12.5409
ect	-12.541
▁inward	-12.5413
▁modes	-12.5414
▁repli	-12.542
▁handout	-12.5427
terior	-12.5429
▁mast	-12.5433
protect	-12.5437
▁drums	-12.5439
rial	-12.5448
zk	-12.5453
▁conceivabl	-12.5454
▁aime	-12.5461
▁contacts	-12.5462
▁restor	-12.5462
ani	-12.5463
▁bearing	-12.5463
▁competenc	-12.5474
▁col	-12.5474
rd	-12.5474
▁tails	-12.5475
▁closet	-12.5478
▁controller	-12.5479
▁186	-12.5482
▁flags	-12.5484
vanc	-12.5487
▁41	-12.5488
▁marking	-12.5502
ped	-12.5513
▁shave	-12.5516
▁bali	-12.5517
▁heated	-12.5518
▁hoo	-12.5521
▁functionalit	-12.5523
▁marginaliz	-12.5523
▁ramp	-12.5534
bai	-12.5538
▁allocate	-12.5538
read	-12.5542
▁seller	-12.5548
▁roy	-12.5552
▁prostitute	-12.5566
▁bounc	-12.5569
▁sandwiche	-12.5577
▁dim	-12.5582
▁zin	-12.5588
thousands	-12.5595
▁systemic	-12.5604
▁fr	-12.5605
▁energ	-12.5622
▁curate	-12.5623
breaking	-12.5633
▁ash	-12.5649
▁tun	-12.5658
▁polls	-12.5661
connected	-12.5667
▁rica	-12.5677
uc	-12.568
gh	-12.5687
▁protecti	-12.5695
lese	-12.5697
galactic	-12.57
natural	-12.5703
focus	-12.5704
first	-12.5705
white	-12.5705
driving	-12.5711
▁ros	-12.5716
▁welcom	-12.5717
lix	-12.5718
▁midwest	-12.5728
▁persever	-12.5731
ury	-12.5733
▁compil	-12.5741
ippi	-12.5749
▁reconcili	-12.5765
tenth	-12.5771
bad	-12.5772
▁finishe	-12.5774
▁proxim	-12.5778
▁za	-12.5778
▁airb	-12.5779
▁linguist	-12.5782
▁plumb	-12.5782
▁slim	-12.5787
organization	-12.5788
▁persuasi	-12.5793
▁influen	-12.5793
▁quiz	-12.5795
▁necessit	-12.5796
▁adrenalin	-12.5796
▁amplify	-12.5796
▁attorney	-12.5796
▁detergent	-12.5796
▁gradient	-12.5796
▁litigation	-12.5796
▁mangrove	-12.5796
▁practitioner	-12.5796
▁precaution	-12.5796
▁tempest	-12.5796
▁umbrella	-12.5796
▁vodka	-12.5796
▁yogurt	-12.5796
▁beehive	-12.5796
▁outweigh	-12.5796
▁staple	-12.5796
▁troubling	-12.5796
▁harass	-12.5796
▁snack	-12.5796
▁modification	-12.5796
▁crease	-12.5796
▁freespeech	-12.5796
▁creek	-12.5796
▁schwarz	-12.5796
▁caution	-12.5796
▁glenn	-12.5796
▁orchid	-12.5796
▁combusti	-12.5796
▁autops	-12.5796
▁typewriter	-12.5796
▁benchmark	-12.5796
▁atrocit	-12.5796
▁suburbia	-12.5796
▁gehr	-12.5796
▁evolutionarily	-12.5796
▁eeg	-12.5796
▁martian	-12.5796
▁declaration	-12.5797
▁burger	-12.5797
▁handbag	-12.5797
▁audition	-12.5797
▁dragline	-12.5797
▁disappointment	-12.5797
▁fringe	-12.5797
▁isabel	-12.5798
▁ahmed	-12.5798
▁speculation	-12.5798
▁fluent	-12.5798
▁relay	-12.5798
▁niche	-12.5798
▁litter	-12.5798
▁blindfold	-12.5798
▁dividend	-12.5798
▁sculptor	-12.5798
▁toolbox	-12.5798
▁geologist	-12.5798
▁frack	-12.5799
▁pigmentation	-12.5799
▁neutrino	-12.5799
▁plaza	-12.5799
▁arthriti	-12.5799
▁flour	-12.5799
▁hippie	-12.5799
ucky	-12.5799
▁denominator	-12.58
▁hopkin	-12.58
▁motivator	-12.58
▁vow	-12.58
▁laparoscopic	-12.5801
▁whack	-12.5802
▁motive	-12.5802
▁eruption	-12.5802
▁daf	-12.5803
▁multitask	-12.5803
▁alaba	-12.5804
▁coil	-12.5804
▁bundle	-12.5804
▁prominent	-12.5804
▁astonish	-12.5805
▁persian	-12.5805
▁saturate	-12.5805
▁bunker	-12.5805
▁prick	-12.5806
▁effic	-12.5806
▁salut	-12.5807
▁roug	-12.5807
▁stall	-12.5807
▁9,000	-12.5808
bule	-12.5808
▁tradeoff	-12.5809
▁yu	-12.5809
clean	-12.581
▁encouragement	-12.5811
▁crane	-12.5812
▁grill	-12.5814
▁wasteful	-12.5815
▁maze	-12.5816
▁heap	-12.5816
▁joking	-12.5819
▁serbia	-12.5821
▁embody	-12.5821
▁linu	-12.5822
▁contraction	-12.5825
▁surfer	-12.5827
▁relational	-12.5828
▁crapp	-12.5828
star	-12.583
▁fearless	-12.5833
sama	-12.5835
▁numerical	-12.5836
▁fitting	-12.5836
▁batch	-12.5837
▁discharge	-12.5838
▁lineage	-12.5839
▁multiplic	-12.5839
▁morocc	-12.5842
▁biodegrad	-12.5845
▁dodg	-12.5849
▁massacre	-12.5857
▁penetrat	-12.5858
▁resign	-12.5858
▁butcher	-12.5861
▁burm	-12.5861
▁cellulos	-12.5864
▁erik	-12.5865
hop	-12.5866
eight	-12.5868
▁intra	-12.5869
▁coward	-12.587
▁dumm	-12.5872
ps	-12.5872
llen	-12.5879
fell	-12.5879
der	-12.5879
▁temperat	-12.5885
▁instill	-12.5886
tor	-12.5887
▁syrian	-12.589
▁applaud	-12.5892
▁charming	-12.5897
luke	-12.5897
ngue	-12.59
▁var	-12.59
▁persisten	-12.5901
▁pitche	-12.5907
▁divert	-12.5909
grown	-12.5915
▁violat	-12.5916
▁stakeholders	-12.5917
women	-12.5921
▁matthew	-12.5924
▁tw	-12.5925
▁irritat	-12.5926
▁handwrit	-12.5936
▁irregular	-12.5938
▁stewards	-12.594
▁sovereignt	-12.5944
bao	-12.5945
▁hyde	-12.5945
▁onion	-12.5949
▁scarc	-12.5952
▁pledge	-12.5952
▁imitat	-12.5956
▁gravel	-12.5956
▁vascular	-12.5959
▁bricks	-12.596
▁deflect	-12.5968
▁intimidat	-12.5969
▁fry	-12.5971
▁tires	-12.5975
▁diar	-12.5977
scow	-12.5981
▁sane	-12.5987
▁vanish	-12.5998
ax	-12.6
▁trader	-12.6
▁moss	-12.6016
hem	-12.603
▁rocke	-12.6034
▁biomedic	-12.6051
▁tickle	-12.6052
▁magn	-12.6053
▁ub	-12.6054
▁clicks	-12.6059
▁registr	-12.6061
▁fist	-12.6064
▁rac	-12.6074
▁focuse	-12.608
▁gill	-12.6087
▁tackl	-12.6089
withstand	-12.6092
▁extremis	-12.6094
▁100-	-12.6095
▁infuse	-12.6099
▁nu	-12.6107
▁ply	-12.611
dad	-12.6113
▁chi	-12.6124
uz	-12.6129
▁pollute	-12.6132
▁advocat	-12.6138
erence	-12.6142
gill	-12.6145
▁optimiz	-12.6152
▁alternate	-12.6158
▁adh	-12.6159
working	-12.6161
▁pra	-12.6165
▁jets	-12.6165
guay	-12.6175
▁sued	-12.6176
▁nominate	-12.6189
▁shiny	-12.6191
▁cancel	-12.6194
hole	-12.6197
anzi	-12.6201
ov	-12.6203
▁unchang	-12.6222
▁evoke	-12.6224
▁ga	-12.6224
▁whiske	-12.6224
▁tro	-12.6226
▁crosse	-12.6231
▁sling	-12.6232
▁ger	-12.6239
han	-12.6242
▁canoe	-12.6244
sense	-12.6258
▁congratulat	-12.6258
▁ep	-12.6264
▁esp	-12.6272
▁ranch	-12.6278
▁pol	-12.628
▁crowds	-12.629
▁eras	-12.6293
addam	-12.6298
▁attendan	-12.63
▁stumble	-12.6302
▁temporari	-12.6304
▁oppos	-12.6306
touch	-12.6311
▁logistic	-12.6319
blow	-12.6319
▁malt	-12.6324
▁cu	-12.633
cycle	-12.6335
▁escalat	-12.6346
▁subsidize	-12.635
▁bathe	-12.635
▁neurologic	-12.6356
▁accord	-12.6358
▁misse	-12.6359
▁missionar	-12.6359
▁stunn	-12.6359
▁tire	-12.6362
fund	-12.6362
catch	-12.6365
large	-12.6365
worm	-12.6368
screen	-12.637
credit	-12.6371
organic	-12.6372
famous	-12.6372
carbon	-12.6372
▁digitiz	-12.6373
finance	-12.6374
▁charm	-12.6377
▁loyal	-12.6379
definition	-12.638
▁invisib	-12.6388
hex	-12.6392
gged	-12.6394
▁sc	-12.6395
▁thro	-12.6395
grader	-12.6397
▁echoe	-12.6403
▁innocen	-12.6406
▁secre	-12.6409
▁brillian	-12.6412
ulation	-12.6413
▁spy	-12.6415
▁doc	-12.6416
bul	-12.6429
▁malignan	-12.643
▁advise	-12.6432
▁slid	-12.6433
▁trawl	-12.6445
▁switche	-12.6445
▁tara	-12.6451
▁minne	-12.6456
▁qatar	-12.6456
▁considerabl	-12.6457
▁shack	-12.6458
▁imperfect	-12.6459
▁contradict	-12.646
▁intersect	-12.646
▁ye	-12.646
▁prima	-12.6461
incidence	-12.6461
▁misunderst	-12.6462
▁epilep	-12.6462
▁relentless	-12.6463
▁embodiment	-12.6463
▁encompass	-12.6463
▁kilowatt	-12.6463
▁misconception	-12.6463
▁monologue	-12.6463
▁neutron	-12.6463
▁orthopedic	-12.6463
▁skyrocket	-12.6463
▁sophistication	-12.6463
▁surrogate	-12.6463
▁synonymous	-12.6463
▁administrative	-12.6463
▁indefinite	-12.6463
▁intractable	-12.6463
▁lucifer	-12.6463
▁spectroscop	-12.6463
▁derivative	-12.6463
▁braille	-12.6463
▁squish	-12.6463
untu	-12.6463
▁feat	-12.6463
▁utilitarian	-12.6463
▁carcass	-12.6463
▁lexicograph	-12.6463
▁ballast	-12.6463
▁deceptive	-12.6463
▁plaque	-12.6463
▁unicorn	-12.6463
▁multimedia	-12.6463
▁sushi	-12.6463
▁jeep	-12.6463
▁duct	-12.6463
▁spreadsheet	-12.6463
▁multicultural	-12.6463
▁qualitative	-12.6463
▁antiretroviral	-12.6463
▁churn	-12.6463
▁stalin	-12.6463
▁concussion	-12.6463
▁niece	-12.6463
▁scoop	-12.6463
▁facilitator	-12.6463
▁refresh	-12.6463
▁ryan	-12.6463
▁decay	-12.6463
▁gamble	-12.6463
▁traumatiz	-12.6463
▁occurrence	-12.6463
▁flashlight	-12.6463
▁implie	-12.6463
▁vaccination	-12.6463
▁paycheck	-12.6463
▁naj	-12.6463
eanor	-12.6464
▁rudder	-12.6464
▁mourn	-12.6464
▁hoop	-12.6464
▁soundscape	-12.6464
▁trump	-12.6464
▁plow	-12.6465
▁examination	-12.6465
▁mandar	-12.6465
▁impairment	-12.6465
▁sunset	-12.6465
▁hardwir	-12.6466
▁activation	-12.6466
▁rebound	-12.6466
▁89	-12.6466
▁librarian	-12.6466
▁persuasion	-12.6466
▁latrine	-12.6466
▁cheetah	-12.6466
▁vault	-12.6466
▁dashboard	-12.6466
▁pinch	-12.6466
▁framing	-12.6466
▁saul	-12.6466
▁vocation	-12.6467
▁gloom	-12.6467
▁buffer	-12.6467
▁torch	-12.6467
▁cpu	-12.6467
▁ankle	-12.6467
▁enhancement	-12.6467
▁unrelated	-12.6469
▁classify	-12.647
▁purse	-12.6471
▁flop	-12.6471
▁phil	-12.6471
▁dataset	-12.6472
▁shal	-12.6472
▁yemeni	-12.6472
▁blackboard	-12.6473
▁telegraph	-12.6473
▁nostalgi	-12.6473
▁accompanie	-12.6474
extraterrestrial	-12.6474
percussion	-12.6474
▁foresee	-12.6474
disproportionate	-12.6474
▁chatt	-12.6475
▁trance	-12.6476
▁poacher	-12.6477
▁rigg	-12.6477
▁graze	-12.6477
▁naught	-12.6478
▁overload	-12.6482
▁lust	-12.6483
▁petal	-12.6484
▁rude	-12.6486
▁pathetic	-12.6487
ut	-12.6487
▁java	-12.6487
▁ope	-12.6487
▁ripp	-12.6489
ache	-12.6491
▁juggler	-12.6492
mmunity	-12.6493
▁kar	-12.6495
▁sweater	-12.6496
▁atlas	-12.6498
▁sorrow	-12.65
▁worthless	-12.65
▁inflat	-12.6501
real	-12.6501
▁mao	-12.6502
▁dull	-12.6502
▁cargo	-12.6505
▁seventy	-12.6506
▁klein	-12.6511
▁restless	-12.6511
▁yearning	-12.6513
▁proto	-12.6513
▁robber	-12.6514
▁porn	-12.6518
▁barn	-12.6525
▁gyre	-12.6527
▁dropout	-12.6528
▁sixty	-12.6528
▁condense	-12.653
ups	-12.6536
▁induce	-12.6537
walk	-12.6543
▁dementi	-12.6543
▁instrumental	-12.6543
zzar	-12.6545
▁graves	-12.6546
▁locker	-12.6551
.6	-12.6552
umann	-12.6552
▁handwash	-12.6559
▁philipp	-12.6561
▁insecurit	-12.6566
▁chopp	-12.6566
uda	-12.6567
▁idol	-12.6569
▁wit	-12.6575
▁compost	-12.6576
▁authoriz	-12.6577
▁philippi	-12.6577
▁plasticity	-12.658
▁asymmetric	-12.658
▁recorder	-12.6582
▁intentionally	-12.6583
▁bam	-12.6589
▁powerless	-12.6591
six	-12.6596
▁advertise	-12.6599
▁rwandan	-12.6602
▁sung	-12.6607
▁mayan	-12.6607
▁hyperactiv	-12.6607
▁interven	-12.6613
▁electora	-12.6618
cra	-12.6622
▁68	-12.6622
▁maid	-12.6628
▁posting	-12.6632
▁adore	-12.6635
▁mag	-12.6641
zy	-12.6642
25	-12.6649
▁accuse	-12.6649
ggle	-12.6651
▁wrestl	-12.6651
▁sally	-12.6658
▁squeez	-12.6665
mbi	-12.6673
▁swin	-12.6675
husse	-12.6676
▁replicated	-12.6677
▁bury	-12.6678
▁missi	-12.6687
▁shad	-12.669
▁jarre	-12.6697
▁kh	-12.6707
▁skydiv	-12.672
▁interdependenc	-12.6727
horn	-12.6728
ions	-12.6734
nforcement	-12.6735
▁uk	-12.6736
▁eros	-12.6739
▁utiliz	-12.6748
▁summon	-12.6753
hmer	-12.676
▁60-	-12.6761
▁sala	-12.6761
feld	-12.677
▁investigati	-12.6776
▁vapor	-12.6777
uit	-12.6778
▁copi	-12.6786
▁academi	-12.6786
▁bladder	-12.6786
ata	-12.6793
▁dogma	-12.6802
▁sav	-12.6803
▁shi	-12.6803
iff	-12.6805
▁leaning	-12.6814
usie	-12.6814
aker	-12.6821
teen	-12.6821
▁starr	-12.6824
tador	-12.6826
▁meditati	-12.6828
times	-12.6833
mri	-12.6835
▁killers	-12.6845
▁fibro	-12.6858
▁denie	-12.6876
▁plural	-12.6876
▁qui	-12.6883
▁starch	-12.6886
▁breasts	-12.6887
▁smiley	-12.6888
▁spiritualit	-12.6898
stand	-12.6909
▁corp	-12.6915
-3	-12.6917
doc	-12.6922
▁illi	-12.6922
▁utilize	-12.6929
rex	-12.6943
▁curv	-12.6947
▁empathiz	-12.6948
▁burnt	-12.6951
▁poisoning	-12.6954
▁empti	-12.6954
▁stac	-12.6958
▁battles	-12.696
▁emulate	-12.6964
▁oral	-12.6966
▁ow	-12.6967
building	-12.6967
▁mott	-12.6994
shire	-12.7
▁ob	-12.7001
gging	-12.7003
regulat	-12.7012
owa	-12.7015
▁springs	-12.7021
▁holder	-12.7022
▁advoca	-12.7029
dah	-12.7031
urgenc	-12.7038
ike	-12.7044
rque	-12.7059
▁inspirational	-12.7062
onald	-12.7063
moor	-12.7066
lasting	-12.7066
wheel	-12.7069
▁sincere	-12.7079
inal	-12.708
ustin	-12.7082
verbal	-12.7083
structure	-12.7083
sexual	-12.7086
people	-12.7086
scientific	-12.7086
consistent	-12.7086
billion	-12.7088
▁188	-12.7094
▁88	-12.7099
▁ripe	-12.7102
▁galva	-12.7114
▁jose	-12.7117
dale	-12.7118
list	-12.712
math	-12.7122
ence	-12.7126
▁hocke	-12.7126
▁electromagneti	-12.7133
racy	-12.7134
▁laur	-12.7137
▁lanka	-12.7146
▁tasmania	-12.7148
▁outdoors	-12.7154
estial	-12.7156
▁bik	-12.7159
▁horribl	-12.7164
▁disast	-12.7165
fat	-12.7166
nan	-12.7168
-4	-12.7171
▁symbio	-12.7172
▁cleve	-12.7174
▁untouch	-12.7176
hili	-12.7176
▁charlotte	-12.7177
▁portuguese	-12.7177
▁rehab	-12.7177
▁alligator	-12.7177
▁amputation	-12.7177
▁cyborg	-12.7177
▁definitive	-12.7177
▁ecuador	-12.7177
▁expenditure	-12.7177
▁ghetto	-12.7177
▁logarithm	-12.7177
▁marshmallow	-12.7177
▁merchant	-12.7177
▁mitchell	-12.7177
▁mockingbird	-12.7177
▁nugget	-12.7177
▁parrot	-12.7177
▁prairie	-12.7177
▁precursor	-12.7177
▁prophec	-12.7177
▁swirl	-12.7177
▁synerg	-12.7177
▁terabyte	-12.7177
▁simpson	-12.7177
▁thirst	-12.7177
▁transgender	-12.7177
▁whirlwind	-12.7177
▁douglas	-12.7177
▁tribun	-12.7177
▁influenza	-12.7177
▁sculptural	-12.7177
▁filament	-12.7177
▁igbo	-12.7177
▁notorious	-12.7177
▁proteomic	-12.7177
▁seduce	-12.7177
▁chimney	-12.7177
▁cursor	-12.7177
▁bottleneck	-12.7177
▁sympathetic	-12.7177
▁seductive	-12.7177
▁uncommon	-12.7177
▁ruling	-12.7177
▁sabbatical	-12.7177
▁nephew	-12.7177
▁depart	-12.7177
▁dissent	-12.7177
▁constituenc	-12.7177
▁fragrance	-12.7177
▁billionaire	-12.7177
▁immigrat	-12.7177
▁opium	-12.7177
▁smack	-12.7177
▁kiva	-12.7178
▁grandmaster	-12.7178
▁apex	-12.7178
▁applica	-12.7178
▁rumor	-12.7178
▁undoubt	-12.7178
▁papua	-12.7178
▁bunk	-12.7178
▁curb	-12.7178
▁amphibian	-12.7178
▁editorial	-12.7178
▁boeing	-12.7178
▁comedian	-12.7178
▁segregat	-12.7178
▁unsafe	-12.7179
▁dread	-12.7179
▁exaggeration	-12.7179
▁throwaway	-12.7179
▁precedent	-12.7179
▁thigh	-12.7179
▁cornell	-12.7179
▁pluck	-12.7179
▁fax	-12.718
▁kamen	-12.718
▁rides	-12.718
▁nih	-12.718
▁hedge	-12.718
▁devotion	-12.718
▁eyeball	-12.718
▁enroll	-12.7181
▁handheld	-12.7181
▁squirt	-12.7181
▁amplifie	-12.7181
▁stent	-12.7181
▁1920	-12.7181
▁landmine	-12.7181
▁tenure	-12.7182
▁semen	-12.7182
▁imam	-12.7182
▁outlier	-12.7182
▁debut	-12.7183
▁caption	-12.7183
▁alleged	-12.7184
▁45,000	-12.7184
▁nino	-12.7184
▁ukrain	-12.7185
▁distortion	-12.7185
▁janitor	-12.7185
▁savor	-12.7185
▁advisor	-12.7186
▁cramm	-12.7186
▁devour	-12.7186
port	-12.7187
▁landmark	-12.7187
mar	-12.7187
▁theatre	-12.7187
▁ddt	-12.7187
▁cradle	-12.7188
▁shaft	-12.7188
▁theorist	-12.7188
▁humanoid	-12.7188
▁helen	-12.7189
▁missou	-12.719
▁generalization	-12.719
▁burk	-12.719
▁overflow	-12.7192
▁fuss	-12.7192
▁knight	-12.7192
▁privatiz	-12.7194
▁weaken	-12.7194
▁jenn	-12.7194
▁orthodox	-12.7194
▁granddaughter	-12.7194
▁stance	-12.7195
▁spoon	-12.7195
▁meditat	-12.7196
▁plumber	-12.7197
▁insurgenc	-12.7199
▁termite	-12.7199
▁ufo	-12.72
▁volatile	-12.7203
hou	-12.7205
▁gall	-12.7205
▁jud	-12.7206
▁geolog	-12.7208
▁edu	-12.7208
▁solidari	-12.7212
▁turbulent	-12.7214
▁ni	-12.7216
▁mali	-12.7216
etti	-12.7217
▁hail	-12.7219
▁tacti	-12.722
▁oas	-12.7222
▁lind	-12.7222
rank	-12.7224
▁classmates	-12.7224
▁1,1	-12.7226
▁begging	-12.7227
doh	-12.7227
▁pav	-12.7227
▁cliche	-12.7229
▁populat	-12.7229
▁viking	-12.723
▁bugg	-12.7232
▁loom	-12.7234
▁shaw	-12.7235
emeral	-12.7236
▁premi	-12.7244
▁bayes	-12.7244
inister	-12.7245
▁infer	-12.7246
16	-12.7249
▁skier	-12.7253
▁inertia	-12.7253
die	-12.7255
nce	-12.7257
▁levi	-12.726
▁0.1	-12.7264
▁palpabl	-12.7274
inux	-12.7275
ao	-12.7276
▁orbital	-12.728
▁bead	-12.7281
▁rally	-12.7282
▁anna	-12.7284
▁che	-12.7285
▁dart	-12.7285
▁rearrange	-12.7289
▁teeny	-12.7292
▁skipp	-12.7293
▁cre	-12.7294
▁rex	-12.7294
▁goldi	-12.7297
acco	-12.7298
cast	-12.7299
wing	-12.7299
▁dock	-12.7316
eden	-12.7319
▁outstanding	-12.7321
beat	-12.7329
▁brew	-12.7332
neil	-12.7333
▁goof	-12.7337
ripped	-12.7344
▁teas	-12.7346
huma	-12.7347
dnes	-12.735
rez	-12.7351
▁11-	-12.7352
▁defi	-12.7355
usa	-12.7356
rin	-12.7358
▁1.1	-12.7364
▁compensate	-12.7364
▁cab	-12.7366
▁66	-12.7372
▁greeting	-12.7375
realistic	-12.7377
▁reformer	-12.7381
▁calv	-12.7383
▁peeling	-12.7383
med	-12.7403
▁escap	-12.7408
▁quadruple	-12.7411
ul	-12.7422
▁immers	-12.7427
then	-12.7427
eastern	-12.7429
oven	-12.7432
phin	-12.7435
▁sociolog	-12.7439
nyu	-12.7447
▁hash	-12.7448
▁fuller	-12.7449
▁whal	-12.7453
▁fork	-12.7454
▁indiana	-12.7454
▁proceeding	-12.7457
if	-12.7459
▁sta	-12.7484
▁styl	-12.749
assemble	-12.749
▁lag	-12.7491
▁wond	-12.7492
▁navigat	-12.7496
▁pointer	-12.7498
▁woo	-12.7498
▁extrem	-12.7499
▁49	-12.75
▁gen	-12.7504
ummy	-12.7505
apping	-12.7507
▁plea	-12.7508
▁laborer	-12.7512
▁bride	-12.752
pping	-12.753
▁spac	-12.7537
▁teen	-12.7537
▁cascade	-12.7542
utopian	-12.7544
▁greener	-12.7545
▁tease	-12.7547
▁bina	-12.7548
rate	-12.7557
▁deform	-12.7558
▁witnesse	-12.756
▁comparabl	-12.7562
itra	-12.7563
▁6.	-12.7563
bert	-12.757
▁61	-12.7573
▁bir	-12.7581
▁cit	-12.7587
▁fer	-12.7588
educat	-12.7591
▁ethnicit	-12.7593
▁gb	-12.7594
bot	-12.7605
eating	-12.761
▁bore	-12.7613
▁void	-12.7613
▁tric	-12.7615
▁caste	-12.7624
▁doo	-12.7645
raham	-12.7648
▁acknowledg	-12.7652
dium	-12.7653
▁crafts	-12.7662
mobile	-12.7673
▁downward	-12.7673
flection	-12.7674
titu	-12.7678
03	-12.7679
▁13-	-12.7702
▁pas	-12.7706
▁champ	-12.7707
una	-12.7707
utu	-12.7715
▁uni	-12.772
ella	-12.773
ini	-12.7732
shore	-12.7736
▁lifetimes	-12.7743
▁chemo	-12.7745
▁ol	-12.7749
▁styr	-12.7753
▁cp	-12.7772
eur	-12.7775
▁illuminate	-12.7777
netra	-12.7777
▁disco	-12.778
▁dressing	-12.7782
▁radiate	-12.7783
▁marx	-12.7784
nois	-12.7791
death	-12.7795
▁advis	-12.7796
▁soar	-12.78
▁bean	-12.781
pes	-12.7815
▁enslave	-12.7815
▁parasit	-12.7818
▁patric	-12.7821
trey	-12.7822
▁retrofit	-12.7823
▁hype	-12.7829
after	-12.7839
▁persuad	-12.7839
bodie	-12.784
▁smuggl	-12.7847
spora	-12.785
▁ri	-12.785
design	-12.7852
▁oceanograph	-12.7853
group	-12.7853
nze	-12.7854
fo	-12.7854
normal	-12.7855
foam	-12.7855
convenient	-12.7855
pattern	-12.7856
computer	-12.7856
expression	-12.7856
▁patron	-12.7858
range	-12.786
important	-12.7861
▁etern	-12.7866
scape	-12.787
abul	-12.7871
ardo	-12.7875
leigh	-12.7876
▁carb	-12.7877
player	-12.7878
▁comprise	-12.7879
ino	-12.788
wall	-12.788
living	-12.7887
▁mir	-12.7888
▁pharmac	-12.7889
▁flowering	-12.7914
▁davi	-12.7914
▁analytic	-12.7915
▁boo	-12.7916
▁victoria	-12.7918
lines	-12.7919
▁suicid	-12.792
li	-12.7922
ff	-12.7924
▁kidnappe	-12.7941
▁instruct	-12.7941
▁mathematica	-12.7943
▁deconstruct	-12.7943
▁greg	-12.7943
▁advent	-12.7944
▁psychotherap	-12.7944
▁affirm	-12.7944
▁suspicio	-12.7944
▁recess	-12.7944
▁3.5	-12.7945
▁enact	-12.7945
▁anonym	-12.7945
neurotransmitter	-12.7946
▁brochure	-12.7946
▁chernobyl	-12.7946
▁diabetic	-12.7946
▁engulf	-12.7946
▁excruciating	-12.7946
▁gapminder	-12.7946
▁hispanic	-12.7946
▁hospice	-12.7946
▁inadvertent	-12.7946
▁intertwine	-12.7946
▁kiosk	-12.7946
▁labyrinth	-12.7946
▁mitochondria	-12.7946
▁monolith	-12.7946
▁netflix	-12.7946
▁pilgrim	-12.7946
▁protagonist	-12.7946
▁reckon	-12.7946
▁rifle	-12.7946
▁schematic	-12.7946
▁cameroon	-12.7946
▁daydream	-12.7946
▁enigma	-12.7946
▁fatigue	-12.7946
▁homicide	-12.7946
▁kuwait	-12.7946
▁questionnaire	-12.7946
▁sermon	-12.7946
▁malaysia	-12.7946
▁microprocessor	-12.7946
▁plaster	-12.7946
▁spectator	-12.7946
▁immunization	-12.7946
▁abdomen	-12.7946
▁complement	-12.7946
▁rhinovirus	-12.7946
▁sultan	-12.7946
▁cortiso	-12.7946
▁cowboy	-12.7946
▁progeri	-12.7946
▁offense	-12.7946
▁cassette	-12.7946
▁striving	-12.7946
▁burrow	-12.7946
▁critter	-12.7946
▁frown	-12.7946
▁mistrust	-12.7946
▁disclosure	-12.7946
▁palette	-12.7946
▁squash	-12.7946
▁cosmetic	-12.7946
▁razor	-12.7946
▁hap	-12.7946
▁panama	-12.7946
▁microorganism	-12.7946
▁ruthless	-12.7946
▁perimeter	-12.7946
▁emmanuel	-12.7946
▁wetsuit	-12.7946
▁contingen	-12.7946
▁goddess	-12.7946
▁pediatrician	-12.7946
▁viagra	-12.7946
▁aristocra	-12.7946
▁crayon	-12.7946
▁memoir	-12.7946
▁psychic	-12.7947
▁darling	-12.7947
▁horrify	-12.7947
▁waist	-12.7947
▁chainsaw	-12.7947
▁scrapper	-12.7947
▁coworker	-12.7947
▁pillow	-12.7947
▁eames	-12.7947
▁airbag	-12.7947
▁geoff	-12.7947
▁pavement	-12.7947
▁campfire	-12.7947
ament	-12.7947
▁outskirt	-12.7947
▁furious	-12.7947
peror	-12.7947
▁submission	-12.7948
▁detriment	-12.7948
▁moham	-12.7948
▁vendor	-12.7948
▁hallmark	-12.7948
▁soybean	-12.7948
▁fluke	-12.7948
▁1,800	-12.7948
▁watershed	-12.7948
▁bailout	-12.7948
▁overdose	-12.7948
▁trickster	-12.7948
▁doorstep	-12.7948
▁carving	-12.7948
▁skycar	-12.7948
▁obsessive	-12.7948
▁predominant	-12.7948
▁magnify	-12.7948
▁beau	-12.7949
▁jumble	-12.7949
▁garment	-12.7949
▁memetic	-12.7949
▁interconnection	-12.7949
▁unpack	-12.795
▁pork	-12.795
▁reassemble	-12.795
▁clogg	-12.795
▁actress	-12.795
▁valentine	-12.795
▁steroid	-12.795
▁virulen	-12.795
▁scout	-12.7951
▁hierarchical	-12.7951
▁pacemaker	-12.7951
▁peripheral	-12.7951
▁sprout	-12.7951
▁tedious	-12.7953
acre	-12.7953
▁disorient	-12.7953
▁brute	-12.7953
▁adhesive	-12.7953
▁rp	-12.7954
▁delightful	-12.7954
▁flatter	-12.7954
▁abyss	-12.7955
▁anthon	-12.7956
▁rebellion	-12.7957
▁inflict	-12.7958
▁wield	-12.7958
▁warrant	-12.7958
▁avert	-12.7958
▁coloss	-12.7959
▁headlight	-12.7959
▁crest	-12.7959
emic	-12.7959
▁ferment	-12.7959
▁invert	-12.796
▁1.6	-12.796
▁bloodline	-12.7961
span	-12.7961
▁paddle	-12.7962
▁reformation	-12.7962
▁thickness	-12.7963
▁eel	-12.7963
▁edition	-12.7965
▁grazing	-12.7965
▁overtake	-12.7967
▁uru	-12.7968
▁modalit	-12.7968
▁mills	-12.7969
▁idle	-12.7969
▁faithful	-12.797
▁bonne	-12.7972
sio	-12.7972
-1	-12.7973
▁beatle	-12.7973
▁grann	-12.7973
▁incompatib	-12.7974
atops	-12.7975
you	-12.7975
▁antique	-12.7978
▁creationist	-12.7979
▁jerk	-12.7979
▁stark	-12.798
▁offender	-12.7981
▁replication	-12.7981
▁fitted	-12.7981
ylon	-12.7982
▁saucer	-12.7982
▁fearful	-12.7982
▁kickstart	-12.7985
▁pomp	-12.7986
▁symbiotic	-12.7986
▁revert	-12.7988
▁locomot	-12.7988
▁majesty	-12.7989
▁slamm	-12.799
sale	-12.7991
▁retailer	-12.7992
▁vacant	-12.7992
▁wales	-12.7993
▁bureaucratic	-12.7994
▁noun	-12.7996
▁swam	-12.7996
tted	-12.7997
▁reciprocal	-12.7999
▁mmm	-12.7999
▁porch	-12.8
▁decorat	-12.8002
▁weave	-12.8002
▁validat	-12.8008
▁await	-12.8008
▁accentu	-12.8008
▁altar	-12.8009
▁incorrect	-12.8009
▁natal	-12.8009
▁prohibition	-12.8011
cho	-12.8012
ari	-12.8016
ward	-12.8023
▁lander	-12.8024
▁geopolitic	-12.8025
▁ko	-12.8026
▁endure	-12.8029
tah	-12.803
▁ovari	-12.8031
▁molt	-12.8036
▁shorten	-12.8042
▁tier	-12.8045
▁arrang	-12.8045
▁chant	-12.8049
▁soak	-12.805
▁perfection	-12.805
▁popularity	-12.805
▁mindless	-12.805
▁truthful	-12.8052
▁gripp	-12.8053
▁cl	-12.8062
▁wealthie	-12.8064
▁darn	-12.8064
▁gasse	-12.807
▁standardize	-12.8071
▁bach	-12.8072
▁robb	-12.8074
▁monumental	-12.8076
angular	-12.8081
▁trench	-12.8084
▁medica	-12.8086
▁62	-12.8087
▁abort	-12.809
▁undo	-12.8092
▁advised	-12.8102
▁elegan	-12.8108
▁decorati	-12.8112
ad	-12.8119
▁immerse	-12.812
▁acu	-12.8121
▁financ	-12.8129
▁restorati	-12.8134
▁harris	-12.8138
▁eradicati	-12.814
▁tyrann	-12.8144
esot	-12.8159
enable	-12.8162
▁vis	-12.8163
▁mach	-12.8166
eduction	-12.8173
tica	-12.8177
phy	-12.8179
muddi	-12.818
▁rita	-12.8181
▁sage	-12.8188
▁lease	-12.8189
▁kay	-12.8192
▁archaeolog	-12.8201
lerant	-12.8205
▁ecstas	-12.8207
▁lid	-12.8208
▁kn	-12.8216
▁wholly	-12.8217
▁chev	-12.8219
▁categorize	-12.822
shame	-12.8221
robot	-12.8223
▁stretche	-12.8232
▁revive	-12.8239
▁intake	-12.8239
elling	-12.8246
nb	-12.8247
▁ecologically	-12.8249
woman	-12.8255
iel	-12.8258
▁deteriorat	-12.8259
▁matur	-12.8259
98	-12.8261
polis	-12.8261
▁cortic	-12.8262
ros	-12.8265
400	-12.8276
▁ingest	-12.8281
▁harden	-12.8286
▁modifie	-12.8288
▁mw	-12.8293
▁slap	-12.8294
▁bil	-12.8297
▁nan	-12.8297
▁tracker	-12.8309
▁exercis	-12.831
▁dialect	-12.8316
▁reset	-12.8321
▁reside	-12.8331
▁ignite	-12.8332
▁blended	-12.8335
▁rehearse	-12.834
▁sufi	-12.8341
cam	-12.8348
▁demos	-12.8348
ru	-12.835
▁hc	-12.8363
▁automate	-12.8385
▁macho	-12.8391
▁brin	-12.8392
▁convers	-12.8393
▁execut	-12.8394
cu	-12.8394
▁pul	-12.8395
▁starve	-12.8399
mmy	-12.8404
wash	-12.8408
rium	-12.8408
door	-12.8414
▁homer	-12.8415
▁51	-12.8419
nine	-12.8422
▁uter	-12.8425
▁multipli	-12.8427
▁fran	-12.8435
▁caus	-12.8437
▁divin	-12.8444
▁marco	-12.8451
▁stu	-12.8452
▁standardiz	-12.8462
iza	-12.847
▁junkie	-12.847
ethical	-12.8474
oul	-12.8478
ged	-12.848
za	-12.8486
▁aye	-12.8487
ala	-12.8487
▁monet	-12.8492
▁feminis	-12.8496
▁manu	-12.8514
▁supporter	-12.8526
▁nazis	-12.8529
▁exaggerate	-12.854
zu	-12.855
lash	-12.8552
▁incentivize	-12.8561
▁jp	-12.8562
00,000	-12.8562
fully	-12.8564
▁technologically	-12.8569
oes	-12.8572
▁cubes	-12.8572
violent	-12.8579
▁fiddle	-12.8582
met	-12.8582
bara	-12.8583
▁reinforc	-12.8583
centered	-12.8592
escent	-12.8599
heim	-12.86
du	-12.8604
▁measurabl	-12.8608
▁congest	-12.8611
▁duplicate	-12.8612
▁tb	-12.8613
eb	-12.8615
▁dictators	-12.8615
▁refuge	-12.8617
asa	-12.8618
jad	-12.8619
ench	-12.8621
▁chok	-12.8622
▁conduc	-12.8628
chai	-12.8632
▁battl	-12.8633
spiring	-12.864
▁handy	-12.8659
▁dizzy	-12.8661
▁spong	-12.8662
▁celebrit	-12.8663
control	-12.867
▁credi	-12.8676
▁dwell	-12.8678
▁cops	-12.8679
▁temper	-12.8679
action	-12.8682
global	-12.8684
▁stitch	-12.8685
motion	-12.8685
▁lest	-12.8685
▁sk	-12.8686
▁fertilize	-12.8687
animate	-12.8687
istence	-12.8687
plankton	-12.8687
shoulder	-12.8688
script	-12.8688
portrait	-12.8688
patient	-12.8689
case	-12.8689
blood	-12.8689
through	-12.8689
distance	-12.8689
ocean	-12.8689
mouth	-12.8689
pad	-12.8691
dia	-12.8691
induce	-12.8692
letter	-12.8693
▁hopp	-12.8694
▁moo	-12.8701
▁reframe	-12.8703
▁spher	-12.8703
strand	-12.8708
▁exchang	-12.871
bias	-12.8719
nk	-12.872
▁bandw	-12.8727
▁embed	-12.8728
min	-12.8731
virus	-12.8732
▁ev	-12.8733
ill	-12.8737
lbert	-12.874
bank	-12.8743
▁populate	-12.8744
▁slug	-12.8745
▁conductiv	-12.8745
▁jamaica	-12.8748
▁negativ	-12.8748
▁bulgaria	-12.8749
▁nutritio	-12.8751
▁apolog	-12.8756
▁confer	-12.8756
▁stalk	-12.8758
▁pl	-12.8761
▁humiliat	-12.8762
ception	-12.8764
▁bureaucrat	-12.8765
akash	-12.8771
▁dysfunction	-12.8772
▁kik	-12.8772
▁bal	-12.8774
▁transcript	-12.8775
▁propriet	-12.8777
▁capit	-12.8777
▁epidemiolog	-12.8777
▁sen	-12.8778
ignment	-12.8778
▁serendipit	-12.8778
▁pediatric	-12.8779
▁omni	-12.8779
▁buckminster	-12.8779
▁murmur	-12.8779
▁prolif	-12.8779
▁scrot	-12.8779
▁accompany	-12.8779
▁aphid	-12.8779
▁asperger	-12.8779
▁blossom	-12.8779
▁bueno	-12.8779
▁burglar	-12.8779
▁contempt	-12.8779
▁dessert	-12.8779
▁devastation	-12.8779
▁kangaroo	-12.8779
▁kurzweil	-12.8779
▁mcluhan	-12.8779
▁meteorite	-12.8779
▁mosaic	-12.8779
▁petrochemical	-12.8779
▁plutonium	-12.8779
▁potassium	-12.8779
▁remnant	-12.8779
▁remorse	-12.8779
▁sausage	-12.8779
▁senegal	-12.8779
▁superficial	-12.8779
▁urchin	-12.8779
▁volvo	-12.8779
▁circus	-12.8779
▁reminisc	-12.8779
▁yugoslav	-12.8779
▁bullshit	-12.8779
▁evangelical	-12.8779
▁macintosh	-12.8779
▁mozambi	-12.8779
▁muffin	-12.8779
▁strawberr	-12.8779
▁krill	-12.8779
▁sabbat	-12.8779
▁sopho	-12.8779
▁paranoi	-12.8779
▁beacon	-12.8779
▁probiotic	-12.8779
▁presumption	-12.878
▁malawi	-12.878
▁pluripoten	-12.878
▁intermediate	-12.878
▁lolcat	-12.878
▁vigorous	-12.878
▁retard	-12.878
▁ezra	-12.878
▁pupil	-12.878
▁revisit	-12.878
▁joystick	-12.878
▁ottoman	-12.878
▁arsenal	-12.878
▁lightbulb	-12.878
▁recursive	-12.878
▁aboriginal	-12.878
▁calamit	-12.878
▁bernard	-12.878
▁earring	-12.878
▁bracket	-12.878
▁leash	-12.878
▁microsecond	-12.878
▁neurologist	-12.878
▁imprint	-12.878
▁mailbox	-12.878
▁gluten	-12.8781
▁bonnie	-12.8781
▁furby	-12.8781
▁milan	-12.8781
▁neurosurgeon	-12.8781
▁leah	-12.8781
▁convulsion	-12.8781
▁defensive	-12.8781
▁pcb	-12.8781
▁spook	-12.8782
▁informant	-12.8782
trophy	-12.8782
review	-12.8782
▁dazzl	-12.8782
▁inspector	-12.8782
▁crook	-12.8782
▁michelle	-12.8782
▁milestone	-12.8782
▁crave	-12.8782
▁emma	-12.8782
▁shutter	-12.8782
▁bloodstream	-12.8783
▁unnatural	-12.8783
▁hanna	-12.8783
▁arch	-12.8783
▁displacement	-12.8783
▁filth	-12.8783
▁clinician	-12.8783
▁owl	-12.8783
▁johannes	-12.8783
▁cosmologist	-12.8784
xter	-12.8784
iform	-12.8784
▁erotic	-12.8784
▁briquette	-12.8784
▁reddit	-12.8784
▁teme	-12.8784
▁tasty	-12.8784
▁investigator	-12.8785
▁admin	-12.8785
▁animator	-12.8786
▁formulation	-12.8786
▁roam	-12.8786
▁consol	-12.8786
▁civilized	-12.8787
▁firework	-12.8787
▁1850	-12.8787
▁glider	-12.8787
▁headset	-12.8787
▁setback	-12.8788
▁paraphras	-12.8788
▁waterproof	-12.8789
▁skyline	-12.8789
▁skinny	-12.8789
▁bandage	-12.879
wick	-12.879
▁flake	-12.879
▁ascend	-12.879
▁thorn	-12.879
iscons	-12.8791
▁serif	-12.8792
▁tether	-12.8792
▁underdog	-12.8793
▁cushion	-12.8793
▁floss	-12.8793
eiffe	-12.8793
▁crutch	-12.8794
▁offset	-12.8794
▁turbo	-12.8794
▁stealth	-12.8795
▁preacher	-12.8796
▁futil	-12.8796
▁weaknesses	-12.8798
▁provocati	-12.8799
▁limitless	-12.8799
elimina	-12.8799
▁novelist	-12.88
ken	-12.88
▁adage	-12.8802
▁brent	-12.8803
▁overlapp	-12.8803
▁resourceful	-12.8806
zi	-12.8807
▁carlo	-12.8807
▁raft	-12.8807
▁breadth	-12.8808
▁tata	-12.8808
▁effortless	-12.8808
awkins	-12.8809
▁1.8	-12.8809
▁breathtaking	-12.881
▁seminar	-12.8811
▁raid	-12.8812
▁breakup	-12.8813
▁nann	-12.8813
▁wiggle	-12.8813
▁panick	-12.8814
void	-12.8815
▁fu	-12.8821
▁mann	-12.8823
▁carriage	-12.8827
cca	-12.8828
utum	-12.8829
▁unaid	-12.8831
oko	-12.8832
▁palms	-12.8834
▁interpreter	-12.8837
▁peacebuild	-12.8837
▁debat	-12.8837
▁announcer	-12.8838
▁partisan	-12.8841
▁63	-12.8842
▁funk	-12.8845
▁tomatoe	-12.8847
mination	-12.8848
▁golfer	-12.8849
assic	-12.8853
▁km	-12.8854
▁thre	-12.8854
▁racist	-12.8858
ausch	-12.886
code	-12.8861
rit	-12.8863
astery	-12.8863
▁outlaw	-12.8865
environmentalist	-12.8868
▁disparity	-12.8869
▁poise	-12.887
▁pitts	-12.8871
▁samar	-12.8872
▁seism	-12.8876
▁yak	-12.8877
▁bitch	-12.8877
▁lynn	-12.8877
▁mul	-12.8882
▁dash	-12.8888
▁unt	-12.889
▁zen	-12.8893
▁conjure	-12.8894
▁robin	-12.8896
kahn	-12.8905
▁genu	-12.8907
▁skim	-12.8914
▁retrofitt	-12.8915
▁addicti	-12.892
surface	-12.8924
▁mow	-12.8927
mento	-12.8928
▁nourish	-12.8934
uld	-12.8934
▁surpass	-12.8934
▁interst	-12.8936
▁rad	-12.8939
stero	-12.894
▁delegat	-12.8943
▁eh	-12.8944
argon	-12.8944
▁halt	-12.8948
▁ferr	-12.8949
▁git	-12.8952
▁hangers	-12.8954
▁ethiopian	-12.8955
▁gil	-12.8955
▁glaze	-12.8957
▁fras	-12.896
▁floren	-12.8961
▁billy	-12.8961
▁hama	-12.8963
▁recline	-12.8966
▁abid	-12.8974
▁crowdsource	-12.8977
xl	-12.8986
▁dissipate	-12.8988
▁eeri	-12.8989
▁nichol	-12.899
produc	-12.8992
ap	-12.8993
▁grouper	-12.8994
▁bombed	-12.8995
ipur	-12.8996
mer	-12.8996
▁tit	-12.9005
▁butler	-12.9017
bee	-12.9022
▁formulate	-12.9027
▁patt	-12.9032
▁karma	-12.904
mi	-12.904
aga	-12.9041
▁dm	-12.9042
roa	-12.9048
atic	-12.905
ano	-12.9051
▁lbs	-12.9051
▁voil	-12.9052
custome	-12.9062
▁champa	-12.907
▁screwed	-12.907
▁enhanc	-12.9072
▁kath	-12.9094
▁descen	-12.9107
marin	-12.9109
▁beta	-12.9114
▁misunderstand	-12.9124
▁retir	-12.9125
iller	-12.9125
▁pronounce	-12.9126
hr	-12.9135
▁ranking	-12.9141
▁dries	-12.9142
glass	-12.9147
▁alec	-12.9148
▁insulat	-12.9151
atitude	-12.9153
▁attache	-12.9154
▁dependency	-12.9155
dental	-12.9156
▁undermin	-12.9159
▁barber	-12.916
machine	-12.9175
▁randomize	-12.9178
▁mitigate	-12.9182
ollock	-12.9183
tun	-12.9183
▁mandat	-12.9189
headed	-12.9193
▁tumbl	-12.9206
▁adria	-12.9212
zing	-12.9216
plan	-12.9219
▁eno	-12.9222
▁sandy	-12.9225
mission	-12.9227
▁beverl	-12.9228
dam	-12.9231
hu	-12.9232
▁pic	-12.9234
▁bel	-12.9238
▁reliev	-12.9252
locks	-12.9254
ellar	-12.9256
oh	-12.9257
tcom	-12.926
mont	-12.9262
▁comp	-12.9265
gru	-12.9265
▁grower	-12.9268
▁equate	-12.9285
tric	-12.9289
pan	-12.929
ieu	-12.9292
▁intern	-12.9296
▁excel	-12.9297
▁dilute	-12.9312
▁decreas	-12.9313
▁5.	-12.9315
▁ferm	-12.9317
eit	-12.9331
sium	-12.9332
lor	-12.9336
celsi	-12.934
▁intrigue	-12.9343
▁siz	-12.935
▁barre	-12.9352
▁phd	-12.9353
mbra	-12.9356
▁diy	-12.9359
▁lesser	-12.9365
▁counteract	-12.9366
bp	-12.9367
▁stru	-12.9368
▁dorm	-12.9372
▁lapse	-12.9373
▁spina	-12.9373
▁outsourc	-12.938
▁corps	-12.9385
▁levin	-12.939
spot	-12.9392
▁disseminat	-12.9393
pack	-12.9395
▁evaporat	-12.9396
▁recharge	-12.9402
▁dismantle	-12.9405
▁translucen	-12.9418
uction	-12.9418
▁cannon	-12.9418
▁trainer	-12.942
▁ley	-12.9449
▁mira	-12.945
nato	-12.9452
securit	-12.9457
▁eva	-12.9466
significant	-12.9472
▁mobs	-12.9473
▁abus	-12.9474
▁91	-12.9476
▁zon	-12.9481
▁fabricate	-12.9482
▁inclin	-12.9484
▁kits	-12.9487
sighted	-12.9488
▁noon	-12.949
▁topograph	-12.9504
hell	-12.9506
▁malle	-12.9507
▁articulat	-12.9509
ndon	-12.9512
▁plausibl	-12.9512
▁turnaround	-12.9518
▁solu	-12.9524
stical	-12.9528
fill	-12.953
confiden	-12.9532
raib	-12.9538
▁wha	-12.9553
bby	-12.9559
technology	-12.9567
viv	-12.9568
ker	-12.9569
▁relat	-12.9573
evolv	-12.9576
consum	-12.9581
▁franchise	-12.9586
borough	-12.9592
respective	-12.9593
▁decompos	-12.9593
▁memoriz	-12.9594
guard	-12.9595
invasive	-12.9595
orbital	-12.9596
castle	-12.9597
prince	-12.9597
fuel	-12.9597
intensive	-12.9597
clinical	-12.9597
seven	-12.9598
different	-12.9598
ipped	-12.9598
border	-12.9599
intention	-12.9601
cock	-12.9602
left	-12.9602
▁recurr	-12.9602
▁governors	-12.9603
▁jig	-12.9604
▁pran	-12.9605
help	-12.9611
ev	-12.9615
▁commut	-12.9616
▁scrambl	-12.9619
▁captiv	-12.9632
mov	-12.9638
blown	-12.9638
intelligent	-12.9641
▁sever	-12.9644
thic	-12.9648
▁awaken	-12.9649
mon	-12.9652
▁studios	-12.9655
grid	-12.9657
▁emulat	-12.9658
evic	-12.966
zone	-12.9662
▁fluorescen	-12.9666
▁excavate	-12.9667
ep	-12.9668
▁precipi	-12.9669
▁patche	-12.967
▁comprehensi	-12.967
▁discourag	-12.9672
▁interactiv	-12.9677
▁choreograph	-12.9677
▁char	-12.9678
ji	-12.9684
▁exert	-12.9686
▁corrosi	-12.9686
mplicated	-12.9687
▁transcendent	-12.9688
▁legitima	-12.9688
clamation	-12.9688
zac	-12.9688
▁compartment	-12.9688
▁toothpaste	-12.9688
▁velcro	-12.9688
▁xerox	-12.9688
ahedron	-12.9689
▁abrupt	-12.9689
▁allegiance	-12.9689
▁amputee	-12.9689
▁anesthetic	-12.9689
▁caterpillar	-12.9689
▁contaminant	-12.9689
▁disguise	-12.9689
▁egalitarian	-12.9689
▁gibbon	-12.9689
▁impoverish	-12.9689
▁inconvenience	-12.9689
▁isotope	-12.9689
▁nozzle	-12.9689
▁oblige	-12.9689
▁pandora	-12.9689
▁pharaoh	-12.9689
▁relegate	-12.9689
▁replenish	-12.9689
▁snippet	-12.9689
▁soprano	-12.9689
▁submerge	-12.9689
▁succumb	-12.9689
▁synagogue	-12.9689
▁complacen	-12.9689
▁conceit	-12.9689
▁coyote	-12.9689
▁gourmet	-12.9689
▁grizzl	-12.9689
▁dominican	-12.9689
▁motorbike	-12.9689
▁pistol	-12.9689
▁transcribe	-12.9689
▁breeze	-12.9689
▁bystander	-12.9689
▁hulk	-12.9689
▁kidnapping	-12.9689
▁unconditional	-12.9689
▁yahoo	-12.9689
▁enclosure	-12.9689
▁pellet	-12.9689
▁windshield	-12.9689
▁dismay	-12.9689
▁substrate	-12.9689
▁subtitle	-12.9689
munition	-12.9689
▁asylum	-12.9689
▁ninja	-12.9689
▁lindberg	-12.9689
▁mediocr	-12.9689
▁snatch	-12.9689
▁unprepared	-12.9689
▁kettle	-12.9689
▁exclusion	-12.9689
▁sunflower	-12.9689
▁cemeter	-12.9689
▁strait	-12.9689
▁loft	-12.9689
▁patriarch	-12.9689
▁cohesi	-12.9689
▁anecdotal	-12.9689
▁pebble	-12.9689
▁retrospective	-12.9689
▁overhear	-12.9689
▁oncologist	-12.9689
▁petrol	-12.9689
are	-12.9689
▁exoskeleton	-12.9689
▁motel	-12.9689
▁stereotypical	-12.9689
▁elicit	-12.9689
gola	-12.9689
▁brenda	-12.9689
▁sophi	-12.9689
▁bolivia	-12.9689
▁womb	-12.9689
▁paleontologist	-12.9689
▁coarse	-12.9689
▁mislead	-12.9689
▁vertebrate	-12.9689
▁deput	-12.9689
▁dissonance	-12.9689
▁entail	-12.9689
▁okapi	-12.9689
▁hydrant	-12.9689
▁boardroom	-12.969
▁lumber	-12.969
▁expend	-12.969
▁limp	-12.969
▁prolong	-12.969
▁whistleblower	-12.969
▁zeta	-12.969
▁serra	-12.969
▁yang	-12.969
▁tabletop	-12.969
▁oval	-12.969
▁snapp	-12.9691
▁justifie	-12.9691
▁babylonian	-12.9691
▁brainwave	-12.9691
▁hippocrat	-12.9691
▁democratize	-12.9691
▁eloquent	-12.9691
▁hawaiian	-12.9691
▁funnel	-12.9691
▁reign	-12.9691
▁sanction	-12.9692
▁meditator	-12.9692
▁flopp	-12.9692
▁sandstone	-12.9692
▁mammalian	-12.9692
▁cartel	-12.9692
▁deathbed	-12.9693
▁parabola	-12.9693
▁utterance	-12.9693
schel	-12.9693
▁cork	-12.9693
culus	-12.9693
▁spectacle	-12.9694
▁megabyte	-12.9694
▁negro	-12.9694
▁nixon	-12.9694
▁demolish	-12.9694
▁jake	-12.9694
▁payback	-12.9694
▁herald	-12.9694
▁savannah	-12.9695
bes	-12.9695
▁judicia	-12.9695
▁spoofer	-12.9695
▁til	-12.9696
▁philanthropist	-12.9696
▁ginger	-12.9697
▁peck	-12.9697
nuck	-12.9698
▁groove	-12.9698
▁oz	-12.9699
▁successive	-12.9699
▁breadwinner	-12.9699
▁immunize	-12.97
▁resume	-12.9702
▁sach	-12.9702
▁sailor	-12.9702
▁gauge	-12.9702
▁administer	-12.9702
▁terrace	-12.9703
▁chore	-12.9703
▁streak	-12.9705
▁crescen	-12.9705
▁communicator	-12.9706
share	-12.9708
▁blockage	-12.9708
▁alberto	-12.9708
wheeler	-12.9709
▁diner	-12.9711
▁millennial	-12.9711
▁tasting	-12.9712
▁365	-12.9712
▁ponder	-12.9714
▁herring	-12.9715
robics	-12.9715
mca	-12.9716
▁splitt	-12.9716
apest	-12.9717
▁transplantation	-12.9717
▁1500	-12.9719
tomy	-12.9719
▁archetype	-12.9719
▁luca	-12.972
▁heighten	-12.972
▁brass	-12.972
▁skillful	-12.9721
▁guin	-12.9721
▁db	-12.9721
▁assay	-12.9725
▁oppose	-12.973
▁bagh	-12.9731
▁deplet	-12.9731
▁rov	-12.9732
▁synthesiz	-12.9732
po	-12.9733
▁worldchanging	-12.9735
mple	-12.9739
▁repository	-12.9741
murdo	-12.9742
ue	-12.9742
▁meditate	-12.9744
▁magne	-12.9744
▁bac	-12.9746
oga	-12.9747
▁sneaker	-12.9749
atomic	-12.9751
▁vend	-12.9751
▁ar	-12.9751
▁warhead	-12.9754
▁commissioner	-12.9755
▁wove	-12.9755
▁allowance	-12.9757
▁brak	-12.976
lam	-12.9761
▁arno	-12.9763
▁perish	-12.9764
▁siren	-12.9765
▁fischer	-12.9765
▁bosnian	-12.9767
▁barbaria	-12.9768
▁lenn	-12.9769
▁dent	-12.977
▁fusi	-12.9771
▁lauren	-12.9771
▁compris	-12.9774
▁unify	-12.9774
▁rung	-12.9774
traction	-12.9775
▁accessori	-12.978
▁madam	-12.9781
▁fetch	-12.9781
▁botanical	-12.9787
neous	-12.9789
▁gem	-12.9789
▁protector	-12.979
▁digesti	-12.9791
▁meyer	-12.9796
▁inert	-12.9797
▁fundamentalist	-12.9799
▁gig	-12.9799
▁rhythmic	-12.9808
rine	-12.9809
▁reshape	-12.981
▁tactical	-12.9813
▁vivi	-12.9821
▁valu	-12.9821
write	-12.9832
▁handshak	-12.9836
card	-12.9844
mour	-12.9851
▁preconce	-12.9854
▁cartograph	-12.9862
▁muck	-12.9864
ot	-12.9866
▁culminat	-12.9874
▁christin	-12.9877
▁reveren	-12.9882
.8	-12.9887
▁microscopi	-12.9887
pong	-12.9887
▁cello	-12.9887
▁rewire	-12.9889
ular	-12.9892
▁copulat	-12.9894
▁frederic	-12.9905
▁disengage	-12.9906
▁herb	-12.9907
▁comb	-12.9914
▁hose	-12.9915
▁swan	-12.9917
▁diverge	-12.9925
▁kam	-12.9926
▁gin	-12.9931
esco	-12.9932
▁suv	-12.9933
▁reviewer	-12.9939
▁giga	-12.994
ith	-12.9945
▁issu	-12.9948
stick	-12.995
▁exaggerat	-12.996
▁uc	-12.996
▁ce	-12.9961
ett	-12.9962
▁inversion	-12.9965
aca	-12.9966
▁00	-12.997
nta	-12.9992
▁disseminate	-12.9993
▁25-	-12.9994
▁symbolize	-12.9999
▁relocate	-13.0023
▁colonize	-13.0026
▁alleviate	-13.0034
ink	-13.0045
▁attacker	-13.0052
eman	-13.0053
▁interpla	-13.0054
▁urg	-13.0055
defin	-13.0056
▁183	-13.0058
▁grader	-13.0064
▁approve	-13.0074
▁cracker	-13.0075
▁45-	-13.0077
▁steadi	-13.0083
mor	-13.0098
▁zapp	-13.0102
icular	-13.0105
sceni	-13.0116
rat	-13.0118
99	-13.0119
▁bash	-13.012
▁ira	-13.0121
taka	-13.0122
lasses	-13.0124
▁animat	-13.0126
▁occupi	-13.013
▁outsource	-13.0153
▁internalize	-13.0154
▁disperse	-13.0159
▁lega	-13.0161
opter	-13.0161
▁tal	-13.0165
inform	-13.0169
▁aggregat	-13.017
gate	-13.0171
▁tub	-13.0171
▁blush	-13.0193
lace	-13.0193
▁bart	-13.0197
here	-13.0208
▁reintroduce	-13.0217
▁levitat	-13.022
▁repress	-13.0221
▁muse	-13.0224
▁robe	-13.0229
ita	-13.023
▁nar	-13.0233
aki	-13.0241
▁replie	-13.0244
▁colonial	-13.0248
▁cair	-13.025
ads	-13.0253
▁imperial	-13.0253
oth	-13.0271
▁sacra	-13.0273
uza	-13.0279
▁precipitat	-13.028
balance	-13.0286
▁lib	-13.0286
▁situat	-13.029
▁nova	-13.0294
▁tenaci	-13.0297
mine	-13.0303
zman	-13.0304
▁sys	-13.0309
▁consisten	-13.031
turn	-13.0315
ja	-13.0316
rosion	-13.0319
▁stigmatiz	-13.0319
▁sur	-13.032
▁sour	-13.0327
changer	-13.0332
▁rescu	-13.0341
▁trillions	-13.0342
▁frustrate	-13.0342
ening	-13.0344
▁13.	-13.0348
▁sensi	-13.0355
▁elevat	-13.0361
▁prohibit	-13.037
les	-13.0375
▁medic	-13.0378
▁slack	-13.0379
▁pollinati	-13.0386
dana	-13.0393
▁epa	-13.0395
ag	-13.0404
sel	-13.0419
link	-13.0427
hic	-13.0431
▁chen	-13.0433
▁deng	-13.0453
mbe	-13.0454
literate	-13.0459
uba	-13.0466
sch	-13.0467
ank	-13.0472
▁induc	-13.0472
▁preferabl	-13.0474
▁gym	-13.0483
▁bubbl	-13.0483
uri	-13.0486
appointed	-13.0488
itan	-13.0493
▁650	-13.0494
▁whipp	-13.0494
duk	-13.0496
ived	-13.0499
ke	-13.0518
▁yum	-13.0518
▁pee	-13.0521
gli	-13.0521
gger	-13.0522
ire	-13.053
▁ports	-13.0532
tention	-13.0532
eater	-13.0538
found	-13.055
disciplinar	-13.0552
▁idealis	-13.0556
▁fighter	-13.0557
▁licens	-13.0562
▁robins	-13.057
▁rampa	-13.0572
▁adventur	-13.0572
▁invoke	-13.0573
▁pear	-13.0585
ngalo	-13.0588
frost	-13.0589
▁kera	-13.0591
conscious	-13.0592
▁knit	-13.0592
frame	-13.0595
fetch	-13.0595
color	-13.0596
hard	-13.0596
millimeter	-13.0597
paper	-13.0597
condition	-13.0597
click	-13.0597
conventional	-13.0598
infect	-13.0598
kilometer	-13.0598
knowledge	-13.0598
benefit	-13.0598
peace	-13.0598
milk	-13.0598
adapt	-13.0598
tooth	-13.0599
ku	-13.0599
▁reverberat	-13.06
▁tempo	-13.0602
▁stub	-13.0602
african	-13.0603
still	-13.0603
bath	-13.0603
awareness	-13.0606
bright	-13.0607
▁3.	-13.0614
bmi	-13.0617
plate	-13.0618
pilot	-13.0618
▁spect	-13.062
▁skat	-13.0627
midst	-13.0629
▁turbulen	-13.0637
mostat	-13.0637
ubble	-13.0638
▁colonialis	-13.0641
▁objectiv	-13.0643
▁analys	-13.0644
▁pri	-13.0644
bill	-13.0646
▁patrol	-13.0652
ieber	-13.0652
▁gambl	-13.0654
▁underpin	-13.0655
▁repel	-13.0662
▁modernis	-13.0666
▁calibrate	-13.0671
▁characteriz	-13.0675
▁reassure	-13.0675
▁aglo	-13.0677
minent	-13.0677
▁conserv	-13.0678
▁cli	-13.0679
▁narcissist	-13.068
▁crate	-13.0686
yx	-13.0686
▁preoccup	-13.0686
▁chech	-13.0688
▁habe	-13.0688
▁retrospect	-13.0688
▁subtract	-13.0688
▁confuci	-13.0688
▁sisyph	-13.0688
▁amputate	-13.0688
▁astroturf	-13.0688
▁bedouin	-13.0688
▁biofluorescen	-13.0688
▁catapult	-13.0688
▁catheter	-13.0688
▁commemorat	-13.0688
▁comprehend	-13.0688
▁contour	-13.0688
▁culprit	-13.0688
▁cyberattack	-13.0688
▁diagonal	-13.0688
▁dissertation	-13.0688
▁dissident	-13.0688
▁enshrin	-13.0688
▁expansive	-13.0688
▁eyewitness	-13.0688
▁furnace	-13.0688
▁inconsistenc	-13.0688
▁introvert	-13.0688
▁lollipop	-13.0688
▁masturbat	-13.0688
▁militia	-13.0688
▁petroleum	-13.0688
▁pretzel	-13.0688
▁splendid	-13.0688
▁squawk	-13.0688
▁stomatopod	-13.0688
▁swift	-13.0688
▁thermodynamic	-13.0688
▁valdez	-13.0688
▁vibrio	-13.0688
▁wikileak	-13.0688
▁conceal	-13.0689
▁minaret	-13.0689
▁pajama	-13.0689
▁coffin	-13.0689
▁cunning	-13.0689
▁pelvi	-13.0689
▁undesir	-13.0689
▁granular	-13.0689
▁clump	-13.0689
▁hexagon	-13.0689
▁oslo	-13.0689
▁receipt	-13.0689
▁sectarian	-13.0689
▁tamil	-13.0689
▁bachelor	-13.0689
▁desolate	-13.0689
▁pimp	-13.0689
▁bilingual	-13.0689
▁capillar	-13.0689
▁kelp	-13.0689
▁seaweed	-13.0689
▁confound	-13.0689
▁interpersonal	-13.0689
▁impostor	-13.0689
▁constituent	-13.0689
▁crusade	-13.0689
▁bleep	-13.0689
▁commentator	-13.0689
▁biochemical	-13.0689
▁lattice	-13.0689
▁agonizing	-13.0689
▁rugged	-13.0689
▁rebreather	-13.0689
▁proclamation	-13.0689
▁hysterical	-13.0689
▁trumpet	-13.0689
▁fiji	-13.0689
▁weblog	-13.0689
▁belgi	-13.0689
▁correspondence	-13.0689
▁dublin	-13.0689
▁myriad	-13.0689
▁leatherback	-13.0689
▁hirsh	-13.0689
▁fluff	-13.0689
▁epileptic	-13.0689
▁quirk	-13.0689
▁1890	-13.0689
▁proactive	-13.0689
▁testicle	-13.0689
▁sunrise	-13.0689
▁shrine	-13.0689
▁playstation	-13.069
▁eisen	-13.069
▁sparse	-13.069
▁uninhabit	-13.069
▁chorus	-13.069
▁blockbuster	-13.069
▁roast	-13.069
▁legislator	-13.069
▁grandpa	-13.069
▁denisovan	-13.069
▁hush	-13.069
▁quarry	-13.069
▁harassment	-13.0691
▁tractor	-13.0691
▁tibetan	-13.0691
▁deliberation	-13.0691
▁depletion	-13.0691
▁verifi	-13.0691
cartes	-13.0691
▁refuel	-13.0691
▁sheikh	-13.0691
▁brotherhood	-13.0691
▁stainless	-13.0691
▁eighteen	-13.0691
▁humiliation	-13.0691
your	-13.0691
▁remodel	-13.0691
vantage	-13.0692
▁subtraction	-13.0692
▁epidemiologist	-13.0692
▁skylight	-13.0692
▁cdc	-13.0692
▁soundtrack	-13.0692
▁99.9	-13.0692
▁larami	-13.0692
▁entitlement	-13.0692
▁lush	-13.0692
▁arrowhead	-13.0693
▁deviation	-13.0693
▁wack	-13.0693
▁disturbance	-13.0693
▁rhyme	-13.0693
▁unmann	-13.0693
▁valuation	-13.0693
▁coincident	-13.0693
▁gorge	-13.0693
▁cherry	-13.0693
▁rotor	-13.0693
▁quotation	-13.0694
▁rack	-13.0694
▁appendage	-13.0694
▁absorpti	-13.0694
▁barbecue	-13.0694
▁critique	-13.0694
▁gigabyte	-13.0694
▁quarrie	-13.0694
▁bragg	-13.0694
▁cybercrim	-13.0695
▁unbearabl	-13.0695
▁elude	-13.0695
▁caval	-13.0695
▁termin	-13.0696
▁bulldozer	-13.0696
▁guild	-13.0696
▁bloop	-13.0696
geist	-13.0696
▁holland	-13.0697
▁taint	-13.0697
▁ballistic	-13.0697
▁manifesto	-13.0698
▁replay	-13.0698
▁inhale	-13.0698
▁noodle	-13.0698
▁nir	-13.0699
▁prism	-13.0699
▁sitcom	-13.07
▁1600	-13.07
▁choreographer	-13.0701
▁breastfeed	-13.0702
▁casa	-13.0702
▁firefighter	-13.0702
▁latch	-13.0702
dust	-13.0703
▁unice	-13.0703
▁moan	-13.0704
▁interruption	-13.0705
▁laminate	-13.0705
▁compiler	-13.0705
▁columb	-13.0706
▁vine	-13.0707
▁directive	-13.0707
▁discourage	-13.0707
▁backbone	-13.0709
▁farmland	-13.071
▁retrain	-13.0711
▁4.5	-13.0711
▁archer	-13.0711
nnica	-13.0711
▁adjustment	-13.0712
roy	-13.0712
▁innovat	-13.0713
▁fidel	-13.0714
▁graft	-13.0714
▁millionaire	-13.0715
▁inhibitor	-13.0717
▁maya	-13.0717
▁doorway	-13.0717
▁frantic	-13.0719
▁ahh	-13.0719
▁shard	-13.072
▁brunel	-13.072
runk	-13.0721
▁sanct	-13.0721
▁eater	-13.0722
▁skater	-13.0722
▁clan	-13.0722
▁hitch	-13.0723
▁quake	-13.0724
▁org	-13.0724
▁barbaric	-13.0725
▁righteous	-13.0726
▁flux	-13.0727
▁donald	-13.0728
▁swat	-13.073
▁swelling	-13.0731
bergen	-13.0731
safe	-13.0732
▁spice	-13.0732
▁wink	-13.0734
▁cla	-13.0735
ubert	-13.0736
▁restraint	-13.0736
▁stove	-13.0737
▁ap	-13.0738
rado	-13.0739
▁haw	-13.074
mond	-13.074
▁bagg	-13.0742
▁eavesdrop	-13.0745
▁residual	-13.0752
▁bliss	-13.0754
▁evocati	-13.0754
▁whims	-13.0755
▁marsh	-13.0756
▁usher	-13.0757
▁moth	-13.0758
▁swapp	-13.0761
stonia	-13.0762
▁futurist	-13.0762
▁foil	-13.0765
▁grue	-13.0765
zer	-13.0767
▁mango	-13.077
▁trickle	-13.0773
▁twinkl	-13.0773
▁specification	-13.0773
▁paula	-13.0775
▁archiv	-13.0776
▁sideline	-13.0779
▁rabi	-13.0781
▁freezer	-13.0781
▁jabb	-13.0783
▁retro	-13.0783
▁biopsy	-13.0785
▁purposeful	-13.0785
kate	-13.0787
▁endow	-13.0788
▁arable	-13.0789
lie	-13.0791
vor	-13.0797
▁anton	-13.0797
▁apt	-13.0798
▁tray	-13.0798
▁beak	-13.0809
▁awakening	-13.0811
▁winni	-13.0814
▁apath	-13.0814
▁ardu	-13.0814
▁contextual	-13.0816
tendent	-13.0819
sari	-13.0819
low	-13.0819
▁scribble	-13.0824
▁locke	-13.0826
▁conc	-13.0828
▁hustle	-13.0831
ali	-13.0831
▁propert	-13.0833
ay	-13.0844
order	-13.0848
▁hamp	-13.0848
▁creed	-13.0849
▁coache	-13.0851
▁gasp	-13.0851
▁shooter	-13.0862
▁gonn	-13.087
randi	-13.0872
▁pg	-13.0876
junction	-13.088
▁transcenden	-13.0889
▁nap	-13.089
▁bidd	-13.0891
▁institutionaliz	-13.0893
▁dire	-13.0893
upper	-13.0898
▁kerr	-13.0899
▁autos	-13.09
▁filtered	-13.0901
▁comforting	-13.0901
umar	-13.0905
▁constitutional	-13.0909
suck	-13.0913
av	-13.0914
sava	-13.0918
imi	-13.0924
ang	-13.0924
▁maha	-13.0926
bro	-13.0933
▁differentiat	-13.0942
score	-13.0944
▁chang	-13.0945
▁willful	-13.0948
▁fro	-13.0951
▁paleo	-13.0955
▁flyer	-13.0966
▁eclipse	-13.0975
author	-13.0979
grass	-13.0979
▁tanker	-13.0981
rnest	-13.0988
▁illuminati	-13.0993
▁retriev	-13.0998
▁kisse	-13.0998
culi	-13.0999
▁grit	-13.1001
▁mug	-13.1009
▁champions	-13.1022
-20	-13.103
3,000	-13.1037
▁orb	-13.104
▁sla	-13.1042
▁assurance	-13.1047
▁varie	-13.1047
▁juic	-13.106
▁premier	-13.1067
▁banne	-13.1078
▁bli	-13.1079
▁pharmacolog	-13.1082
▁presume	-13.1092
▁jamm	-13.1096
▁sway	-13.1097
▁exacerbate	-13.1098
▁prosecute	-13.1107
▁kai	-13.1146
▁unwa	-13.1147
▁orchestrate	-13.1154
49	-13.1158
▁rake	-13.1169
▁sari	-13.1169
▁barcode	-13.1173
ci	-13.1174
burn	-13.1175
▁dispose	-13.118
els	-13.1188
era	-13.1194
▁flo	-13.1202
▁sprayed	-13.1203
▁audi	-13.1203
▁vene	-13.1206
njunction	-13.1209
▁mono	-13.1213
▁incorporat	-13.1217
▁hik	-13.1228
oil	-13.1239
linger	-13.1247
84	-13.1257
▁erode	-13.1264
spiration	-13.1266
▁expresse	-13.1272
ometric	-13.1276
▁skid	-13.128
matic	-13.1284
lider	-13.1292
ological	-13.1292
gras	-13.1298
scar	-13.1302
bola	-13.1302
lia	-13.1309
▁pierce	-13.1309
lb	-13.1311
mann	-13.1314
58	-13.132
▁sacrific	-13.1322
ascar	-13.1322
▁inverse	-13.1325
▁rhode	-13.1326
bend	-13.1328
▁pett	-13.133
▁irrigat	-13.1333
▁com	-13.1337
pper	-13.1353
▁rebuil	-13.1356
▁zap	-13.1356
▁4.	-13.1357
▁alternat	-13.1358
▁deprive	-13.136
lton	-13.1361
emise	-13.1361
▁gran	-13.1362
▁fixate	-13.1368
exist	-13.137
▁kant	-13.1381
▁visi	-13.1382
layer	-13.1387
cin	-13.139
aque	-13.1406
kill	-13.1412
ip	-13.1422
▁rewrit	-13.1424
▁jol	-13.1425
east	-13.1427
▁sourc	-13.1433
▁optional	-13.1445
▁leon	-13.1466
static	-13.1476
▁serv	-13.1482
olo	-13.1485
bots	-13.1487
▁inference	-13.1492
▁accomplishments	-13.1493
amer	-13.1496
riel	-13.1496
▁interfer	-13.1501
▁profil	-13.1507
▁adhere	-13.151
hoe	-13.1514
dong	-13.1521
vana	-13.1524
rv	-13.1525
▁alp	-13.1527
▁salin	-13.1529
▁sag	-13.153
▁revolve	-13.1537
▁crowdsourc	-13.1542
▁longitud	-13.1549
ologist	-13.1557
▁adversar	-13.1564
fed	-13.1569
▁dum	-13.1569
eller	-13.1573
▁spik	-13.1575
los	-13.1579
▁tickl	-13.1581
▁cavit	-13.1582
going	-13.1583
icha	-13.1583
elli	-13.159
itting	-13.1593
rca	-13.1594
▁frie	-13.1595
stern	-13.1598
cted	-13.1603
bart	-13.1618
uga	-13.1627
▁fertiliz	-13.1633
ju	-13.1635
▁drape	-13.1635
▁profitabl	-13.1647
▁saliva	-13.165
▁annihilat	-13.1658
▁gab	-13.1659
llusion	-13.1664
iable	-13.1666
▁nikola	-13.1675
▁crumbl	-13.1676
erin	-13.1676
▁disparit	-13.168
▁nag	-13.1683
▁sina	-13.1685
▁arav	-13.1686
dina	-13.1688
▁pupp	-13.169
▁banish	-13.1693
chan	-13.1693
▁encapsulate	-13.1695
ounce	-13.1699
▁interconnect	-13.1702
teacher	-13.1704
traumatic	-13.1707
▁pok	-13.1708
centimeter	-13.1708
competitive	-13.1708
cloth	-13.1708
deaf	-13.1708
frequenc	-13.1709
presence	-13.1709
consumption	-13.1709
european	-13.1709
interrupt	-13.1709
threaten	-13.1709
service	-13.1709
record	-13.1709
nuclear	-13.1709
sharp	-13.1709
pick	-13.1709
▁gelatin	-13.171
▁condens	-13.171
moment	-13.171
agency	-13.1711
pour	-13.1711
therap	-13.1713
discover	-13.1717
▁klei	-13.1719
mega	-13.1726
derive	-13.1726
▁overestimate	-13.1732
▁prope	-13.1735
logy	-13.174
▁muti	-13.174
▁tract	-13.1741
▁wig	-13.1741
▁3,	-13.1743
dough	-13.1743
▁bankrupt	-13.1744
▁astro	-13.1747
▁buddhis	-13.1749
▁typograph	-13.1752
▁scrutin	-13.1755
▁hel	-13.1759
publishe	-13.176
▁ode	-13.1763
▁twi	-13.1767
▁acro	-13.1771
▁beekeep	-13.1772
mish	-13.1774
lux	-13.1775
▁restrain	-13.1775
coast	-13.1776
▁opa	-13.178
exhausti	-13.178
▁kob	-13.1781
block	-13.1781
opening	-13.1783
▁somali	-13.1784
▁treasur	-13.1785
▁pea	-13.1785
▁fragil	-13.1787
▁propel	-13.1787
▁altruist	-13.1788
▁yaw	-13.1788
▁fluctu	-13.179
▁perma	-13.179
▁communica	-13.1791
russel	-13.1792
▁terminat	-13.1793
▁filmmak	-13.1793
▁subs	-13.1795
▁anthrop	-13.1796
▁hippo	-13.1797
▁intensifi	-13.1797
cutta	-13.1798
▁bionic	-13.1798
▁advert	-13.1799
▁illitera	-13.1799
ennial	-13.1799
▁scour	-13.18
▁abolish	-13.18
▁additive	-13.18
▁amplification	-13.18
▁aquifer	-13.18
▁boulder	-13.18
▁cataract	-13.18
▁clutch	-13.18
▁cosmopolitan	-13.18
▁dakota	-13.18
▁decompi	-13.18
▁faucet	-13.18
▁gratuitous	-13.18
▁hewlett	-13.18
▁irreveren	-13.18
▁irreversibl	-13.18
▁juncture	-13.18
▁legitimize	-13.18
▁mechanistic	-13.18
▁megafauna	-13.18
▁microfluidic	-13.18
▁morbid	-13.18
▁mycorrhiza	-13.18
▁paraplegi	-13.18
▁pedagog	-13.18
▁portfolio	-13.18
▁preconception	-13.18
▁predicat	-13.18
▁pygm	-13.18
▁quadriplegi	-13.18
▁reiterate	-13.18
▁rejoice	-13.18
▁serpent	-13.18
▁snowflake	-13.18
▁stethoscope	-13.18
▁torpedo	-13.18
▁ulcer	-13.18
▁peasant	-13.18
▁safari	-13.18
▁semantic	-13.18
boggling	-13.18
▁doughnut	-13.18
▁gcse	-13.18
▁indiscriminate	-13.18
▁merchandis	-13.18
▁picnic	-13.18
▁puddle	-13.18
▁qualification	-13.18
▁tournament	-13.18
▁climax	-13.18
▁roundabout	-13.18
▁zebra	-13.18
▁subvert	-13.18
▁taskrabbit	-13.18
▁grasshopper	-13.18
▁nanoparticle	-13.18
▁peripet	-13.18
▁cheeto	-13.18
▁bipartisan	-13.18
▁cartesian	-13.18
▁lobbie	-13.18
▁artisan	-13.18
▁crossroad	-13.18
▁denounce	-13.18
▁kazak	-13.18
▁dravidian	-13.18
▁insecticide	-13.18
▁omg	-13.18
▁pluto	-13.18
▁proclaim	-13.18
▁sliver	-13.18
▁amplitude	-13.18
▁disrespect	-13.18
▁sift	-13.18
▁approximation	-13.18
▁proverbial	-13.18
▁neuromodulator	-13.18
▁ahmad	-13.18
▁footnote	-13.18
▁patern	-13.18
▁draco	-13.18
▁tusk	-13.18
▁ferocious	-13.18
▁superorganism	-13.18
▁sutherland	-13.18
▁wingsuit	-13.18
▁inequit	-13.18
artu	-13.18
▁hondura	-13.18
▁fanatic	-13.18
▁hemlock	-13.18
▁catalyze	-13.18
▁amendment	-13.18
▁sq	-13.18
▁bastard	-13.18
▁cardiologist	-13.18
▁chronological	-13.18
▁unwilling	-13.18
▁twitch	-13.18
▁fortress	-13.18
▁mutter	-13.18
▁ritz	-13.18
▁hotspot	-13.18
▁boast	-13.18
▁ferris	-13.1801
▁undergrad	-13.1801
▁bount	-13.1801
▁connotation	-13.1801
▁slang	-13.1801
▁crick	-13.1801
▁videotape	-13.1801
▁rapper	-13.1801
▁firewall	-13.1801
▁mountaintop	-13.1801
▁concoction	-13.1801
▁endowment	-13.1801
▁spiderweb	-13.1801
▁lurk	-13.1801
▁aaron	-13.1801
▁headwind	-13.1801
▁foolish	-13.1801
▁craftsman	-13.1802
▁panda	-13.1802
▁password	-13.1802
▁cramp	-13.1802
▁interlock	-13.1802
▁anthr	-13.1803
▁mumble	-13.1803
▁snowboard	-13.1803
▁preview	-13.1803
▁gangster	-13.1803
▁youthful	-13.1803
▁ellen	-13.1803
▁mush	-13.1803
▁rigor	-13.1803
adesh	-13.1804
▁dennis	-13.1804
▁plight	-13.1804
▁kendal	-13.1804
due	-13.1804
▁crucifi	-13.1804
▁counselor	-13.1804
▁voicemail	-13.1805
▁almond	-13.1805
▁grandson	-13.1805
▁tnc	-13.1805
▁untouchable	-13.1805
▁clutter	-13.1806
▁euclid	-13.1806
▁fingernail	-13.1806
▁torment	-13.1806
▁metallic	-13.1806
▁orchard	-13.1806
▁mafia	-13.1806
▁shiver	-13.1806
▁airstream	-13.1807
▁salvage	-13.1807
▁coherenc	-13.1807
▁berm	-13.1807
▁augmentation	-13.1807
▁mig	-13.1808
▁acoustician	-13.1808
▁maiden	-13.1808
▁perverse	-13.1808
▁ruf	-13.1808
▁parch	-13.1808
▁preschool	-13.1808
▁apocalyp	-13.1809
tically	-13.1809
▁blinding	-13.1809
▁jung	-13.181
▁una	-13.181
▁warden	-13.181
mingham	-13.181
▁loung	-13.1811
▁newfound	-13.1811
▁fang	-13.1812
▁lobbyist	-13.1812
▁alcoholic	-13.1813
▁palin	-13.1813
▁jf	-13.1813
▁centrifuge	-13.1813
▁nep	-13.1813
▁villa	-13.1814
▁glaci	-13.1814
▁pals	-13.1815
▁xiao	-13.1815
▁torosaurus	-13.1815
▁chatter	-13.1816
▁miniaturiz	-13.1816
▁wur	-13.1816
▁puer	-13.1816
▁gail	-13.1817
▁playwright	-13.1817
▁raven	-13.1817
▁compulsive	-13.1818
▁prose	-13.1818
▁engel	-13.1818
▁barge	-13.1819
▁miserabl	-13.182
▁shovel	-13.182
▁mckin	-13.182
▁emancipat	-13.182
▁rejuvenat	-13.182
theism	-13.1821
▁calibrat	-13.1822
▁matth	-13.1823
▁raja	-13.1823
▁roadside	-13.1823
▁pulley	-13.1824
▁hurti	-13.1825
▁shackle	-13.1825
▁heavier	-13.1827
▁napo	-13.1827
▁snapper	-13.1829
▁quota	-13.1829
▁sentimental	-13.183
▁raisin	-13.183
▁tyrannosaur	-13.1831
▁hurd	-13.1831
▁latino	-13.1832
▁glorifi	-13.1833
▁roaring	-13.1833
▁perk	-13.1834
▁migrator	-13.1836
▁dime	-13.1837
▁jogg	-13.1837
▁yuck	-13.1839
▁weightless	-13.184
nfl	-13.184
▁luxe	-13.184
▁105	-13.1841
▁skate	-13.1844
▁ragu	-13.1844
▁decod	-13.1846
▁brighten	-13.1846
▁outfit	-13.1847
▁scalp	-13.1848
▁merger	-13.185
▁truce	-13.1852
▁moist	-13.1852
▁ensur	-13.1852
▁wicked	-13.1854
▁stirring	-13.1855
▁layout	-13.1855
▁wiper	-13.1857
▁residence	-13.1857
▁captive	-13.1858
▁nude	-13.1859
▁insufficient	-13.1859
▁redeem	-13.186
▁ammoni	-13.1863
▁flicker	-13.1864
▁glori	-13.1864
▁ru	-13.1867
▁barbed	-13.1867
▁retract	-13.1873
▁haze	-13.1873
▁mona	-13.1876
▁zeit	-13.1877
▁shale	-13.1878
▁mauriti	-13.189
▁ounce	-13.1897
▁streamlin	-13.1902
▁baba	-13.1903
elf	-13.1905
▁ecsta	-13.1906
▁colli	-13.191
▁hypothesize	-13.1916
▁commonalit	-13.1919
▁borough	-13.192
▁saga	-13.1926
45	-13.1926
▁rein	-13.1927
▁prep	-13.1928
▁inscribe	-13.1929
06	-13.1932
rail	-13.1933
▁metro	-13.1935
▁ipc	-13.1938
idden	-13.1944
▁superma	-13.1944
ographic	-13.1944
▁defender	-13.1946
▁90-	-13.1955
handler	-13.1955
▁darken	-13.1955
party	-13.1958
▁athen	-13.1959
▁ambi	-13.1961
▁modem	-13.1961
▁updat	-13.1974
▁demoralize	-13.1976
▁imply	-13.1977
▁galactic	-13.1982
▁strangl	-13.1986
▁myco	-13.1986
▁lateral	-13.1986
▁mcca	-13.1987
▁fossilize	-13.1993
rmant	-13.1994
▁hart	-13.1995
▁attribut	-13.2
▁demons	-13.2003
▁hundredth	-13.2005
▁babe	-13.201
▁misdirect	-13.2012
creat	-13.2013
▁val	-13.2013
hower	-13.2015
▁curled	-13.2016
▁anatomical	-13.2017
▁timescale	-13.2017
▁healer	-13.2027
▁alba	-13.2028
▁deed	-13.2042
▁swimmer	-13.2043
38	-13.2045
▁fab	-13.2046
▁19-	-13.2049
▁gymn	-13.205
▁perpetuate	-13.2053
▁triplet	-13.2066
▁propagate	-13.2068
▁revolv	-13.207
endgame	-13.2071
ub	-13.2072
▁recreat	-13.2081
▁punt	-13.2085
key	-13.2088
▁pathogenic	-13.2097
▁arguer	-13.2099
otic	-13.2102
educate	-13.2102
▁harrie	-13.2105
▁bron	-13.2106
▁idealiz	-13.2109
▁pins	-13.2112
0-	-13.2118
▁knitt	-13.2128
killed	-13.2134
▁melani	-13.2136
▁municipalit	-13.2139
▁sunk	-13.214
▁calve	-13.2142
▁cofounde	-13.2153
▁prune	-13.2157
▁csi	-13.2158
ulli	-13.2158
▁stab	-13.216
▁nem	-13.2163
named	-13.2172
▁militari	-13.2176
▁unconta	-13.218
lo	-13.2181
▁dissolv	-13.2183
▁accr	-13.2183
▁gabriel	-13.2192
sance	-13.2193
buster	-13.2194
erick	-13.2198
▁circl	-13.2203
bur	-13.2204
tag	-13.2206
▁correlat	-13.2207
▁hua	-13.2208
▁communi	-13.2208
zo	-13.2209
▁kat	-13.2211
▁kicks	-13.2212
gi	-13.2212
▁defecat	-13.2213
illi	-13.222
▁cis	-13.2221
ft	-13.2223
vi	-13.223
▁placement	-13.223
▁readi	-13.2232
stop	-13.2233
▁kurd	-13.2234
▁gardener	-13.2236
▁hone	-13.2238
▁inferences	-13.2238
▁mint	-13.2244
setting	-13.2258
▁cher	-13.2263
dor	-13.2267
▁samu	-13.2268
▁flor	-13.2269
uca	-13.227
▁extrapolate	-13.2278
hari	-13.2279
▁abduct	-13.228
▁tortur	-13.2283
▁gui	-13.2287
plin	-13.2289
bbing	-13.2291
▁geometrical	-13.2293
▁vitr	-13.2297
lp	-13.2303
▁underestimat	-13.2308
▁menstrua	-13.2312
lima	-13.2313
▁incapa	-13.2314
▁ug	-13.2329
▁spokes	-13.2333
▁cypr	-13.2334
▁nico	-13.2334
▁presenter	-13.2338
▁aggressi	-13.2345
ago	-13.2354
▁bale	-13.2355
lee	-13.2361
▁pains	-13.2364
tree	-13.2367
▁aria	-13.2376
nose	-13.238
oling	-13.2384
▁mentoring	-13.2384
▁wor	-13.2392
08	-13.2392
sses	-13.2401
▁tha	-13.2401
▁auntie	-13.2404
becca	-13.2404
ore	-13.2409
osa	-13.2415
▁cul	-13.242
pulsion	-13.2423
▁sim	-13.2424
▁testi	-13.2427
▁propagat	-13.2428
▁tumble	-13.2436
▁feas	-13.2439
▁sadde	-13.2445
▁inhuman	-13.245
▁550	-13.2454
▁tenta	-13.2459
pc	-13.2461
▁mart	-13.2463
▁dilut	-13.2466
05	-13.2467
▁globalize	-13.248
saver	-13.2485
ethos	-13.2493
22	-13.2494
nish	-13.2495
▁persecut	-13.25
▁fare	-13.2502
mes	-13.2503
▁vici	-13.2506
▁crystalliz	-13.2508
ides	-13.2528
▁humanize	-13.2533
▁emblem	-13.2533
tv	-13.2543
ketch	-13.2551
▁wobble	-13.2552
ix	-13.2566
lude	-13.257
▁breaker	-13.257
▁ledge	-13.2571
▁lent	-13.2581
▁remed	-13.2582
▁kerm	-13.2587
▁str	-13.2595
▁dow	-13.2606
hat	-13.2616
▁nurser	-13.2618
cken	-13.2619
▁freed	-13.263
▁earl	-13.263
▁chan	-13.263
▁understate	-13.2641
▁retrieve	-13.2648
eeming	-13.2653
▁aaa	-13.2665
alike	-13.2672
▁morpholog	-13.2672
,	-13.2674
▁horrifi	-13.2674
print	-13.2674
24	-13.2685
▁fanci	-13.2686
▁conditioner	-13.2687
▁coating	-13.2689
▁controllers	-13.2695
▁municipal	-13.2698
▁periodical	-13.2704
▁predicti	-13.2704
▁overstate	-13.2714
enia	-13.2716
pant	-13.2718
▁eject	-13.2725
▁fal	-13.2725
▁alienat	-13.2727
ario	-13.2727
nx	-13.2733
▁scaveng	-13.2733
▁taps	-13.2734
urance	-13.2734
▁ensu	-13.2736
95	-13.2741
arcelo	-13.2741
throw	-13.2747
▁sponsors	-13.2754
▁lb	-13.2754
▁circulate	-13.2758
▁ric	-13.2763
▁socializ	-13.2764
▁untie	-13.2767
▁tug	-13.2767
▁devi	-13.2768
khar	-13.277
put	-13.2775
▁fm	-13.2776
▁rim	-13.2784
ninsula	-13.2784
▁alma	-13.279
▁dives	-13.2798
▁steppe	-13.2803
▁quor	-13.2808
lar	-13.2811
direct	-13.2814
▁sid	-13.2814
▁devis	-13.2816
cultural	-13.2817
nourishe	-13.2818
heated	-13.2821
▁anarch	-13.2823
-10	-13.2825
scribe	-13.2826
▁marche	-13.2827
public	-13.2834
▁shuffl	-13.2838
▁chim	-13.2841
will	-13.2843
processing	-13.2844
▁viv	-13.2845
▁mythic	-13.2859
smal	-13.2864
ozo	-13.2865
▁lan	-13.2871
59	-13.2873
▁indo	-13.2877
pl	-13.2877
▁humm	-13.288
estro	-13.288
▁energize	-13.2882
91	-13.2882
▁revise	-13.2885
▁evacuate	-13.289
▁presiden	-13.2895
▁sham	-13.2905
▁1,6	-13.291
▁eg	-13.2916
▁geologic	-13.292
▁scu	-13.2923
▁conversational	-13.2925
▁biops	-13.293
ime	-13.2933
reason	-13.2938
visual	-13.294
harmonic	-13.2941
runner	-13.2943
▁lak	-13.2944
nd	-13.2945
nnie	-13.2945
phone	-13.2953
tub	-13.2954
og	-13.2954
haul	-13.2957
neutral	-13.2958
▁synchroniz	-13.2958
discipline	-13.2958
utilize	-13.2959
parallel	-13.2959
muslim	-13.2959
bottom	-13.2959
explain	-13.2959
▁clich	-13.2959
chemical	-13.2959
capacity	-13.296
dense	-13.296
fight	-13.296
support	-13.296
guide	-13.296
ole	-13.296
knit	-13.296
▁reconfigur	-13.296
examine	-13.2961
▁naturalist	-13.2964
inspiring	-13.2965
articulate	-13.2966
finger	-13.2967
▁lac	-13.2969
core	-13.2969
▁hoove	-13.297
dominate	-13.2971
drop	-13.2972
talk	-13.2972
think	-13.2973
jet	-13.2974
glow	-13.2976
▁clo	-13.2977
urban	-13.2978
▁demobiliz	-13.298
reactor	-13.298
▁residu	-13.2984
▁telephon	-13.2984
▁shred	-13.2988
impos	-13.2994
▁perfume	-13.2997
business	-13.3001
.2	-13.3002
augh	-13.3002
▁wang	-13.3011
basin	-13.3013
nais	-13.3016
genic	-13.3017
▁pleasur	-13.3018
▁insure	-13.3019
▁rumi	-13.302
good	-13.3021
▁clunk	-13.3022
▁hitchhik	-13.3029
▁trespass	-13.3029
▁memo	-13.3029
▁poach	-13.3029
▁diversif	-13.303
▁enco	-13.3031
sophist	-13.3033
▁specifi	-13.3035
▁veg	-13.3039
▁loa	-13.304
shmi	-13.304
lore	-13.3041
▁handicap	-13.3043
▁sprinkle	-13.3044
▁coincide	-13.3044
▁lear	-13.3044
▁experien	-13.3045
▁luth	-13.3046
▁enric	-13.3046
▁chamb	-13.3047
▁scor	-13.3047
▁recombin	-13.3048
mates	-13.3048
urgeon	-13.3048
ipping	-13.3049
▁veterinar	-13.3049
retroviral	-13.3049
▁giacom	-13.305
bilitat	-13.305
▁caffein	-13.305
▁pixar	-13.305
▁aeronautic	-13.305
▁anesthetize	-13.305
▁battalion	-13.305
▁biscuit	-13.305
▁breivik	-13.305
▁cohort	-13.305
▁comrade	-13.305
▁concession	-13.305
▁consecutive	-13.305
▁contraption	-13.305
▁cryptic	-13.305
▁decrypt	-13.305
▁expanse	-13.305
▁frivolous	-13.305
▁gratifying	-13.305
▁impossibilit	-13.305
▁innocuous	-13.305
▁juxtaposition	-13.305
▁lgbt	-13.305
▁ligament	-13.305
▁lobster	-13.305
▁loudspeaker	-13.305
▁masculin	-13.305
▁mcnugget	-13.305
▁metronome	-13.305
▁misfortune	-13.305
▁nebula	-13.305
▁pamphlet	-13.305
▁photovoltaic	-13.305
▁pronunciation	-13.305
▁pundit	-13.305
▁reboot	-13.305
▁receptacle	-13.305
▁scandinavia	-13.305
▁sentinel	-13.305
▁sinclair	-13.305
▁spigot	-13.305
▁subdivision	-13.305
▁totalitarian	-13.305
▁yacht	-13.305
▁bitcoin	-13.305
▁haystack	-13.305
▁malthus	-13.305
▁moratorium	-13.305
▁peacock	-13.305
▁vampire	-13.305
▁archaic	-13.305
▁clerk	-13.305
▁impenetrab	-13.305
▁nuisance	-13.305
▁embroi	-13.305
▁clench	-13.305
▁frostbit	-13.305
▁geyser	-13.305
▁quran	-13.305
▁semiconductor	-13.305
▁gatekeeper	-13.305
▁legislature	-13.305
▁casino	-13.305
▁gyps	-13.305
▁attentive	-13.305
▁copepod	-13.305
▁repulsive	-13.305
▁beverage	-13.305
▁inscription	-13.305
▁kernel	-13.305
▁affirmative	-13.305
▁hypersonic	-13.305
[...]
